#define TENSORFLOW_LITE_EXPERIMENTAL_MICRO_EXAMPLES_HELLO_WORLD_SINE_MODEL_DATA_H_

#ifdef __has_attribute
#define HAVE_ATTRIBUTE(x) __has_attribute(x)
#else
#define HAVE_ATTRIBUTE(x) 0
#endif
#if HAVE_ATTRIBUTE(aligned) || (defined(__GNUC__) && !defined(__clang__))
#define DATA_ALIGN_ATTRIBUTE __attribute__((aligned(4)))
#else
#define DATA_ALIGN_ATTRIBUTE
#endif

const int g_sine_model_data_len = 5272;
const unsigned char g_sine_model_data[] DATA_ALIGN_ATTRIBUTE = {
 0x1c, 0x00, 0x00, 0x00, 0x54, 0x46, 0x4c, 0x33, 0x00, 0x00, 0x12, 0x00,
  0x1c, 0x00, 0x04, 0x00, 0x08, 0x00, 0x0c, 0x00, 0x10, 0x00, 0x14, 0x00,
  0x00, 0x00, 0x18, 0x00, 0x12, 0x00, 0x00, 0x00, 0x03, 0x00, 0x00, 0x00,
  0x44, 0x14, 0x00, 0x00, 0x44, 0x0f, 0x00, 0x00, 0x2c, 0x0f, 0x00, 0x00,
  0x34, 0x00, 0x00, 0x00, 0x04, 0x00, 0x00, 0x00, 0x01, 0x00, 0x00, 0x00,
  0x04, 0x00, 0x00, 0x00, 0x60, 0xec, 0xff, 0xff, 0x08, 0x00, 0x00, 0x00,
  0x0d, 0x00, 0x00, 0x00, 0x13, 0x00, 0x00, 0x00, 0x6d, 0x69, 0x6e, 0x5f,
  0x72, 0x75, 0x6e, 0x74, 0x69, 0x6d, 0x65, 0x5f, 0x76, 0x65, 0x72, 0x73,
  0x69, 0x6f, 0x6e, 0x00, 0x0e, 0x00, 0x00, 0x00, 0xec, 0x0e, 0x00, 0x00,
  0xe4, 0x0e, 0x00, 0x00, 0xac, 0x09, 0x00, 0x00, 0x9c, 0x09, 0x00, 0x00,
  0x90, 0x09, 0x00, 0x00, 0x88, 0x09, 0x00, 0x00, 0x80, 0x09, 0x00, 0x00,
  0x78, 0x09, 0x00, 0x00, 0x30, 0x02, 0x00, 0x00, 0xc8, 0x01, 0x00, 0x00,
  0x7c, 0x01, 0x00, 0x00, 0x40, 0x00, 0x00, 0x00, 0x1c, 0x00, 0x00, 0x00,
  0x04, 0x00, 0x00, 0x00, 0x8a, 0xf6, 0xff, 0xff, 0x04, 0x00, 0x00, 0x00,
  0x06, 0x00, 0x00, 0x00, 0x31, 0x2e, 0x31, 0x34, 0x2e, 0x30, 0x00, 0x00,
  0x9e, 0xf6, 0xff, 0xff, 0x04, 0x00, 0x00, 0x00, 0x14, 0x00, 0x00, 0x00,
  0xec, 0xa5, 0x06, 0xbd, 0x9d, 0x51, 0x2c, 0x3c, 0xbc, 0x6c, 0x6f, 0x3e,
  0x14, 0x3d, 0x48, 0x3b, 0x33, 0x15, 0x71, 0xbd, 0xbe, 0xf6, 0xff, 0xff,
  0x04, 0x00, 0x00, 0x00, 0x2c, 0x01, 0x00, 0x00, 0xb8, 0x9b, 0x06, 0x3e,
  0x02, 0x72, 0xe3, 0x3e, 0xc9, 0x52, 0xd5, 0xbe, 0x0c, 0x96, 0x89, 0x3d,
  0xa1, 0x83, 0x61, 0x3e, 0x48, 0x53, 0xcb, 0xbe, 0x70, 0x43, 0xf9, 0xbe,
  0xba, 0x88, 0x83, 0x3e, 0x7c, 0x22, 0x93, 0x3e, 0xdb, 0x95, 0xbe, 0xbe,
  0x07, 0x94, 0x0b, 0xbf, 0xdf, 0x8a, 0xab, 0x3e, 0x82, 0xc3, 0xb8, 0x3e,
  0xe7, 0x27, 0x9e, 0x3d, 0xdd, 0xef, 0x5b, 0x3e, 0x3c, 0x95, 0x09, 0xbe,
  0x2c, 0x27, 0xb0, 0x3e, 0x62, 0xac, 0xa0, 0xbd, 0xaa, 0x03, 0xba, 0x3d,
  0x8a, 0x13, 0xb3, 0x3e, 0x53, 0x8e, 0x74, 0x3e, 0xdc, 0x05, 0x0d, 0x3f,
  0x2e, 0x2b, 0xbe, 0x3e, 0xa5, 0xef, 0xa6, 0x3e, 0x98, 0x91, 0x53, 0x3e,
  0x84, 0xe9, 0x38, 0x3e, 0xbb, 0x92, 0xa5, 0xbe, 0x92, 0x0f, 0xa5, 0x3e,
  0x22, 0xf6, 0xad, 0x3e, 0x75, 0x44, 0x02, 0xbf, 0x26, 0xd0, 0x44, 0x3e,
  0x1f, 0x0c, 0x20, 0x3d, 0x30, 0x48, 0x99, 0x3d, 0x13, 0x2b, 0xa9, 0xbe,
  0xe4, 0xab, 0x6a, 0xbe, 0x7f, 0x21, 0x1b, 0xbd, 0x39, 0x0e, 0x5b, 0xbe,
  0xea, 0x48, 0x2f, 0x3f, 0x59, 0x01, 0x18, 0xbe, 0x76, 0x08, 0x3e, 0xbe,
  0x4f, 0x03, 0x93, 0xbe, 0x66, 0x4a, 0x29, 0x3d, 0x9b, 0x5a, 0x26, 0xbe,
  0x86, 0xf2, 0x98, 0x3d, 0xc1, 0x2a, 0x55, 0x3e, 0xa4, 0x0b, 0xb9, 0x3e,
  0xef, 0xf7, 0xcb, 0xbd, 0xde, 0x51, 0x85, 0xbe, 0x84, 0x3b, 0x10, 0xbe,
  0x4b, 0x9b, 0xd4, 0xbe, 0xbb, 0x4c, 0xdd, 0x3d, 0xbf, 0x44, 0x89, 0xbe,
  0xf3, 0xa5, 0x6a, 0xbd, 0xa1, 0xb7, 0x68, 0xbe, 0x32, 0x3d, 0x6d, 0x3e,
  0x61, 0x4c, 0x4b, 0xbe, 0xe8, 0x59, 0xa7, 0x3e, 0xe5, 0xd6, 0x5d, 0xbe,
  0xa0, 0xb8, 0xd6, 0x3e, 0x8f, 0xc6, 0x9e, 0xbe, 0xc8, 0x6c, 0x6d, 0x3e,
  0xd7, 0x23, 0x81, 0xbe, 0xd5, 0xd7, 0x6b, 0xbd, 0xc6, 0xf6, 0xbb, 0x3e,
  0xe6, 0x08, 0x95, 0x3e, 0x7e, 0xfe, 0x93, 0xbe, 0x75, 0x47, 0x57, 0xbe,
  0xbf, 0xc7, 0xab, 0x3d, 0xda, 0x98, 0x41, 0x3e, 0x52, 0x7a, 0xc3, 0xbe,
  0x84, 0x81, 0x45, 0x3d, 0x36, 0xdb, 0xc6, 0x3e, 0x3d, 0xa6, 0xaa, 0xbe,
  0xba, 0x90, 0x96, 0x3e, 0x1d, 0xca, 0x87, 0x3e, 0xf6, 0xf7, 0xff, 0xff,
  0x04, 0x00, 0x00, 0x00, 0x3c, 0x00, 0x00, 0x00, 0x38, 0xcf, 0xc5, 0x3c,
  0x1a, 0x4d, 0xb5, 0xbc, 0xc0, 0xe0, 0xaa, 0x3c, 0x85, 0xf9, 0x33, 0xbe,
  0x35, 0x00, 0xef, 0xbd, 0xf7, 0xf4, 0x35, 0xbb, 0xa6, 0x92, 0x74, 0xbd,
  0xc9, 0xb1, 0x23, 0x3e, 0x04, 0x0a, 0xf2, 0xbd, 0x57, 0x95, 0x39, 0xbd,
  0x62, 0x07, 0xf3, 0xbd, 0x88, 0x86, 0x89, 0xbd, 0x82, 0x4c, 0xcf, 0xbd,
  0x58, 0x27, 0x59, 0xbd, 0xa8, 0x26, 0x93, 0xbc, 0x3e, 0xf8, 0xff, 0xff,
  0x04, 0x00, 0x00, 0x00, 0x58, 0x00, 0x00, 0x00, 0x66, 0x7c, 0x1a, 0x3e,
  0x55, 0x37, 0xea, 0xbc, 0x78, 0x85, 0xd4, 0xb8, 0xc9, 0xce, 0xc7, 0x3c,
  0x94, 0x22, 0xa9, 0x3d, 0x6e, 0x06, 0x9d, 0xbd, 0x82, 0xa4, 0x28, 0xbd,
  0xcf, 0x40, 0x82, 0xbd, 0x23, 0x69, 0xc2, 0xbd, 0x67, 0xa4, 0x19, 0x3c,
  0xe9, 0xfb, 0x95, 0x3d, 0xd9, 0x28, 0xd6, 0x3d, 0x31, 0xd0, 0x62, 0xbd,
  0xc8, 0xc2, 0x08, 0xbc, 0xe3, 0xb0, 0x12, 0xbd, 0xf4, 0x5c, 0x02, 0xbd,
  0xbe, 0x90, 0x21, 0x3e, 0x04, 0xef, 0x81, 0xbc, 0x17, 0xf4, 0x07, 0x3e,
  0xc9, 0xb2, 0xe8, 0x3d, 0x50, 0x9f, 0x15, 0x3e, 0x16, 0x48, 0x91, 0x3d,
  0xa2, 0xf8, 0xff, 0xff, 0x04, 0x00, 0x00, 0x00, 0x38, 0x07, 0x00, 0x00,
  0x99, 0x5b, 0xbc, 0x3d, 0x4c, 0x13, 0x25, 0xbe, 0xad, 0x8e, 0x96, 0x3e,
  0x96, 0xf0, 0x7a, 0x3c, 0x43, 0x08, 0x3c, 0xbe, 0x7d, 0x8a, 0x6a, 0x3e,
  0xae, 0x63, 0xbd, 0x3e, 0x11, 0x6b, 0xe2, 0xbd, 0xa7, 0x85, 0x77, 0x3e,
  0x5f, 0x85, 0xab, 0x3e, 0x8e, 0x18, 0x31, 0x3e, 0xd5, 0xa1, 0x82, 0xbd,
  0x7d, 0x08, 0x13, 0xbe, 0xa0, 0xf5, 0xba, 0x3e, 0x67, 0xb1, 0xbe, 0x3e,
  0xf7, 0xf7, 0xf5, 0x3e, 0xce, 0x42, 0xfb, 0x3d, 0xbf, 0xdf, 0x0f, 0x3e,
  0x1d, 0x1a, 0xf3, 0x3e, 0x6c, 0x48, 0x9d, 0xbc, 0x92, 0x19, 0x62, 0x3e,
  0xd3, 0x33, 0xac, 0x3e, 0xc6, 0x7e, 0xcc, 0x3d, 0xa6, 0xd2, 0x14, 0x3e,
  0xdb, 0x47, 0x89, 0x3e, 0x7d, 0x5d, 0x77, 0xbe, 0x94, 0xf1, 0x94, 0x3d,
  0xaf, 0x2d, 0x78, 0xbe, 0xcd, 0x27, 0xbd, 0xbc, 0x88, 0x48, 0xa6, 0xbe,
  0xad, 0xcb, 0xb4, 0xbe, 0x66, 0x75, 0xde, 0x3d, 0xc8, 0xcc, 0xfa, 0x3c,
  0xfd, 0x8f, 0x3d, 0xbe, 0x77, 0x2a, 0xf4, 0x3d, 0x6e, 0xb6, 0xd8, 0x3d,
  0x04, 0xc3, 0x40, 0xbe, 0x7b, 0xb2, 0xb2, 0xbd, 0x89, 0x0f, 0x72, 0x3e,
  0xcd, 0x54, 0x31, 0x3d, 0x61, 0x44, 0x81, 0x3e, 0xa6, 0x1c, 0x90, 0x3e,
  0x36, 0x13, 0x85, 0x3e, 0x2e, 0xb5, 0x8f, 0x3e, 0x9e, 0xdd, 0xa5, 0xbe,
  0x92, 0xab, 0x91, 0xbe, 0x87, 0xb6, 0xc1, 0xbe, 0xd2, 0x94, 0x3c, 0x3e,
  0x95, 0x10, 0x7e, 0xbe, 0xd3, 0x1e, 0x8a, 0xbe, 0x94, 0xb9, 0x40, 0x3d,
  0x5a, 0x05, 0xca, 0xbc, 0x56, 0x0d, 0xaa, 0xbe, 0x4d, 0xf3, 0x56, 0xbc,
  0xc8, 0x76, 0x66, 0x3e, 0xc5, 0x61, 0x88, 0xbe, 0x60, 0x3b, 0x56, 0x3e,
  0xd1, 0x1b, 0x41, 0xbd, 0xeb, 0xa4, 0xe9, 0x3d, 0x7b, 0x24, 0x64, 0x3e,
  0xcc, 0x7e, 0x08, 0xbe, 0x0e, 0xa9, 0xed, 0x3d, 0x96, 0xb0, 0xe5, 0xbd,
  0x49, 0xb3, 0x4f, 0xbd, 0x27, 0xd4, 0x39, 0xbe, 0x32, 0x98, 0x95, 0x3e,
  0xf8, 0xba, 0x8e, 0x3d, 0xcf, 0xc0, 0xdc, 0xbc, 0xd1, 0x95, 0x6e, 0x3d,
  0x59, 0x75, 0xa5, 0x3d, 0xb5, 0xc2, 0x94, 0xbe, 0x23, 0x0e, 0xfa, 0xbc,
  0x4c, 0xd7, 0x4e, 0xbc, 0xbf, 0xf6, 0xca, 0xbc, 0x96, 0xc7, 0x58, 0xbb,
  0x53, 0x25, 0xc7, 0x3e, 0x35, 0x9f, 0x0f, 0xbe, 0xed, 0x5b, 0xaa, 0x3d,
  0x56, 0x18, 0x77, 0x3d, 0xc1, 0x0f, 0x1e, 0x3e, 0x72, 0x69, 0xa9, 0xbe,
  0x31, 0x19, 0x1d, 0xbe, 0x18, 0x09, 0x09, 0xbe, 0xce, 0x5e, 0xd3, 0x3d,
  0x50, 0x18, 0x38, 0x3e, 0x39, 0xa1, 0xa4, 0x3e, 0xe7, 0x1d, 0xe1, 0x3e,
  0x1b, 0x40, 0xdf, 0x3e, 0xb1, 0x70, 0x34, 0xbe, 0x79, 0xc7, 0xb5, 0x3e,
  0xe1, 0x3c, 0x2e, 0x3e, 0x43, 0xc4, 0x70, 0x3e, 0xbf, 0x0a, 0x19, 0xbe,
  0x65, 0xc7, 0x65, 0x3d, 0xa5, 0x0c, 0x84, 0x3e, 0x73, 0x4a, 0x1f, 0x3d,
  0xac, 0x20, 0x91, 0xbe, 0x48, 0xe6, 0x86, 0x3e, 0xdd, 0xc1, 0xe4, 0xbd,
  0x0e, 0xd9, 0x68, 0xbe, 0x29, 0x92, 0xaf, 0x3e, 0xb3, 0xee, 0x0d, 0x3d,
  0x14, 0x15, 0xc8, 0x3e, 0xb1, 0xb8, 0x9a, 0xbb, 0x4d, 0xb0, 0x8d, 0x3d,
  0x3b, 0x88, 0x2f, 0xbe, 0x4e, 0xa2, 0x09, 0xbd, 0xbf, 0x2c, 0x19, 0x3e,
  0xe0, 0x7b, 0x6d, 0xbd, 0x6e, 0xa6, 0x23, 0x3d, 0x94, 0xd9, 0x59, 0xbe,
  0x6f, 0x87, 0x39, 0xbe, 0x96, 0xc7, 0xd6, 0x3d, 0x67, 0x3d, 0x21, 0x3e,
  0x2d, 0xbc, 0x79, 0x3e, 0xe6, 0xe6, 0x19, 0x3e, 0xcb, 0xa6, 0x91, 0x3d,
  0x19, 0x77, 0xbb, 0xbd, 0xa6, 0x8b, 0xa8, 0x3c, 0x33, 0x16, 0xa1, 0x3c,
  0x38, 0x59, 0x65, 0xbe, 0x90, 0x19, 0x3b, 0x3e, 0xa2, 0xa0, 0x5f, 0x3e,
  0x39, 0x44, 0x80, 0xbe, 0x3d, 0x86, 0x48, 0xbe, 0xd7, 0xcb, 0x73, 0x3e,
  0xb0, 0x1a, 0x80, 0xbe, 0x9c, 0x32, 0x28, 0xbe, 0xa9, 0x3d, 0x8b, 0xbc,
  0x53, 0xb8, 0xe7, 0xbd, 0xcf, 0xbe, 0x39, 0xbe, 0x10, 0x72, 0x11, 0x3c,
  0x66, 0xab, 0x99, 0x3e, 0xae, 0xf4, 0x3a, 0xbd, 0x0b, 0x01, 0xb1, 0xbe,
  0x38, 0xd0, 0x62, 0xbd, 0x11, 0xb8, 0xc7, 0xbe, 0x7c, 0x60, 0x2a, 0x3e,
  0xa3, 0x47, 0x54, 0x3d, 0x72, 0x02, 0x91, 0x3d, 0xd4, 0x28, 0x58, 0x3e,
  0x66, 0x08, 0x0d, 0x3b, 0x56, 0x30, 0x0a, 0x3e, 0x77, 0x2a, 0xbc, 0xbe,
  0xfd, 0xd6, 0x35, 0xbe, 0x5f, 0xd4, 0x36, 0xbe, 0x4a, 0xc5, 0x45, 0xbe,
  0x13, 0xc1, 0xbb, 0x3b, 0xcb, 0x89, 0x2d, 0x3c, 0xa7, 0xd4, 0xd7, 0xbe,
  0xb8, 0x12, 0x4e, 0xbe, 0x55, 0xdf, 0x74, 0x3e, 0x81, 0x7d, 0x51, 0xbe,
  0x2b, 0x70, 0x83, 0xbe, 0x4f, 0x46, 0xd8, 0xbe, 0xc4, 0x67, 0x95, 0xbd,
  0x9f, 0x1b, 0x91, 0xbe, 0x40, 0x12, 0xa1, 0x3d, 0x52, 0x38, 0x34, 0x3e,
  0x92, 0xc7, 0xa8, 0x3c, 0xb6, 0xa6, 0x89, 0x3e, 0xcd, 0x17, 0xb7, 0xbe,
  0x68, 0xf4, 0x92, 0xbe, 0x63, 0xd8, 0xa3, 0xbe, 0x0f, 0x9f, 0x42, 0x3e,
  0x56, 0x8d, 0x08, 0x3e, 0x64, 0xf4, 0xb5, 0x3d, 0x9c, 0x56, 0x7a, 0x3e,
  0x59, 0x11, 0x04, 0x3e, 0xa9, 0xfb, 0x47, 0xbe, 0xcb, 0x08, 0x10, 0xbe,
  0x11, 0x14, 0x05, 0x3e, 0x76, 0x7d, 0xd6, 0x3d, 0x27, 0xe9, 0xaf, 0x3d,
  0x7d, 0x21, 0xc0, 0xbe, 0x5b, 0x7e, 0x4e, 0xbe, 0xa0, 0xfa, 0x42, 0x3e,
  0x87, 0x27, 0xa8, 0xbe, 0x1c, 0xdf, 0x58, 0xbe, 0x97, 0x31, 0x46, 0xbe,
  0x5a, 0x18, 0xcf, 0xbd, 0x77, 0xac, 0xcb, 0xbc, 0x59, 0x75, 0x82, 0x3e,
  0x5e, 0xcb, 0x70, 0xbd, 0x4c, 0x4b, 0x73, 0xbe, 0x3b, 0x16, 0xec, 0x3d,
  0x01, 0x6f, 0xc8, 0x3d, 0x7a, 0x47, 0x64, 0xbc, 0xbe, 0xe0, 0x9d, 0xbe,
  0xcd, 0xac, 0x74, 0x3e, 0x85, 0xd2, 0x50, 0xbe, 0x17, 0xa0, 0x95, 0xbe,
  0x1b, 0x6b, 0xe7, 0xbc, 0xca, 0xdb, 0xb7, 0x3e, 0xc2, 0xf8, 0x00, 0x3e,
  0x60, 0x82, 0xe8, 0x3d, 0xe6, 0xff, 0xa0, 0x3e, 0x3c, 0x8e, 0x9f, 0x3e,
  0x43, 0x46, 0xa5, 0xbd, 0xc7, 0x0e, 0x17, 0x3e, 0x56, 0x54, 0x95, 0xbe,
  0x40, 0xef, 0x84, 0xbc, 0xe8, 0xd0, 0x9a, 0x3e, 0x0d, 0x6d, 0x1d, 0xbe,
  0xf5, 0xa5, 0x95, 0x3e, 0xe8, 0xfa, 0xba, 0xbe, 0xfe, 0x9b, 0xad, 0xbe,
  0x89, 0xdc, 0x2c, 0x3e, 0x81, 0x19, 0x8b, 0xbe, 0x6f, 0x4e, 0x0b, 0x3d,
  0x34, 0xb3, 0xb8, 0x3e, 0x0f, 0xe6, 0x4e, 0x3c, 0x2e, 0x99, 0x59, 0x3e,
  0xfe, 0xa6, 0x27, 0x3e, 0xbd, 0x12, 0x87, 0xbe, 0x5b, 0xe4, 0x83, 0xbc,
  0xbd, 0x62, 0xc2, 0x3e, 0x24, 0x94, 0x55, 0xbe, 0xa1, 0x50, 0xcc, 0x3e,
  0xb4, 0x90, 0x67, 0x3e, 0xb3, 0xd6, 0x8e, 0xbe, 0x94, 0xef, 0xb8, 0x3e,
  0xdc, 0xa8, 0xe5, 0x3d, 0xa2, 0xaf, 0x92, 0x3e, 0xe9, 0x43, 0xa8, 0xbb,
  0x01, 0xb8, 0xba, 0x3e, 0x9d, 0xae, 0xbf, 0x3e, 0xca, 0x41, 0x19, 0xbe,
  0x5e, 0xb4, 0x76, 0xbe, 0x63, 0x2c, 0x89, 0xbe, 0x4b, 0x7c, 0xf3, 0x3c,
  0x7a, 0x00, 0x66, 0xbe, 0xc8, 0xa1, 0xcf, 0x3e, 0xb2, 0x55, 0x86, 0xbe,
  0xbe, 0x27, 0x3d, 0xbe, 0x79, 0x60, 0x9b, 0x3e, 0x0c, 0x6e, 0x63, 0x3e,
  0x0a, 0x42, 0x95, 0xbc, 0xac, 0x89, 0x2c, 0xbe, 0x2d, 0xd5, 0xe8, 0x3e,
  0xc6, 0xef, 0x8d, 0x3e, 0x2c, 0xaf, 0xaa, 0x3e, 0xc5, 0x65, 0xbc, 0x3e,
  0x42, 0x9f, 0x2f, 0x3e, 0xc7, 0x7b, 0x80, 0xbe, 0x1b, 0xc4, 0x0c, 0xbe,
  0xbf, 0x54, 0x1c, 0xbe, 0xc3, 0xf2, 0xc6, 0x3e, 0x6c, 0x04, 0x44, 0x3e,
  0x13, 0xec, 0x0b, 0xbd, 0xc2, 0x54, 0xb7, 0xbe, 0x8a, 0xca, 0x8a, 0x3e,
  0x90, 0x7a, 0xb1, 0x3d, 0x59, 0xea, 0x46, 0xbe, 0x4f, 0x39, 0x82, 0x3d,
  0xbb, 0x4b, 0x86, 0xbe, 0x89, 0xf1, 0x31, 0x3e, 0x75, 0xb5, 0xc6, 0x3d,
  0x1f, 0xc6, 0xce, 0xbe, 0x87, 0x30, 0x9c, 0xbe, 0x44, 0x24, 0x98, 0xbe,
  0xf9, 0x12, 0x4f, 0xbd, 0x30, 0x19, 0xb9, 0xbe, 0x87, 0x5c, 0x8c, 0xbd,
  0x4c, 0x06, 0x80, 0xbe, 0x4b, 0xd6, 0x32, 0xbe, 0x47, 0xdf, 0x47, 0xbe,
  0x4e, 0x7d, 0x42, 0x3e, 0xe3, 0xc0, 0x1b, 0xbd, 0x51, 0x7d, 0xd3, 0x3c,
  0x5c, 0xe0, 0x78, 0x3d, 0x8b, 0x81, 0xb9, 0x3e, 0x61, 0x44, 0x94, 0x3e,
  0x41, 0xe9, 0x60, 0x3d, 0x89, 0x40, 0xa7, 0x3e, 0x06, 0x11, 0xa9, 0xbd,
  0x82, 0xf3, 0x12, 0x3e, 0x92, 0x40, 0xdb, 0xbe, 0x4c, 0xbe, 0x72, 0xbd,
  0x93, 0xac, 0x75, 0xbe, 0xd2, 0x39, 0x69, 0xbe, 0x17, 0xdc, 0xf8, 0xbd,
  0xd9, 0x84, 0xb1, 0x3e, 0x2f, 0xf7, 0x89, 0x3e, 0x06, 0x77, 0x18, 0x3e,
  0xe8, 0xbb, 0x30, 0x3e, 0x71, 0x44, 0x1a, 0x3e, 0xa7, 0xad, 0xf9, 0x3d,
  0x45, 0x2e, 0xc4, 0x3d, 0xb4, 0xb4, 0x9a, 0xbd, 0x9a, 0x34, 0x42, 0xbc,
  0xf5, 0x2d, 0x80, 0x3e, 0xce, 0x89, 0x0a, 0xbe, 0xce, 0x9a, 0xfb, 0xbd,
  0xc8, 0x24, 0x90, 0x3e, 0x92, 0xb6, 0xac, 0x3e, 0xc5, 0x2d, 0x70, 0x3e,
  0x3e, 0x43, 0x26, 0xbd, 0xc4, 0x90, 0x9f, 0x3e, 0x3b, 0x42, 0x9b, 0x3d,
  0xcb, 0x9f, 0x39, 0xbd, 0x71, 0xf4, 0x75, 0x3e, 0x1a, 0xb9, 0x84, 0x3e,
  0x6d, 0x97, 0x84, 0x3e, 0x0b, 0x55, 0x5f, 0x3e, 0x76, 0xc1, 0x5f, 0xbe,
  0x22, 0x5f, 0x39, 0x3d, 0x8c, 0xb3, 0x9d, 0x3e, 0x7f, 0xaf, 0xc5, 0x3d,
  0x73, 0x4a, 0x26, 0xbe, 0x82, 0x24, 0x9b, 0x3d, 0x83, 0xfb, 0x7d, 0x3e,
  0x85, 0xe7, 0xbf, 0xbe, 0x25, 0x4f, 0x22, 0x3d, 0x12, 0xe7, 0x8a, 0x3e,
  0x31, 0x0b, 0x1b, 0xbc, 0x7c, 0xb1, 0xab, 0x3e, 0x0a, 0x24, 0x87, 0x3e,
  0x9f, 0xca, 0x8d, 0xbd, 0xb4, 0xeb, 0x2f, 0xbe, 0x97, 0x40, 0x95, 0xbe,
  0x5c, 0xf1, 0xa2, 0x3e, 0x31, 0xa5, 0x21, 0xbd, 0x71, 0x52, 0x60, 0x3e,
  0xee, 0xc9, 0x88, 0x3d, 0xd9, 0xd7, 0x68, 0xbe, 0x16, 0x66, 0x80, 0x3e,
  0xa2, 0x0e, 0xbd, 0xbe, 0xd4, 0x9a, 0xe3, 0x3d, 0x3e, 0xf8, 0x40, 0xbe,
  0x2e, 0x79, 0xa9, 0x3e, 0x0b, 0x47, 0xca, 0x3d, 0x77, 0x03, 0x73, 0x3e,
  0xc0, 0x66, 0x10, 0xbe, 0x10, 0x67, 0x6e, 0x3e, 0x1f, 0x48, 0x1a, 0x3e,
  0xe9, 0x0f, 0x9b, 0x3e, 0xfa, 0x88, 0xa4, 0x3d, 0x18, 0x60, 0x0f, 0x3e,
  0xc8, 0x3d, 0x5b, 0xbe, 0x85, 0x40, 0xdd, 0x3e, 0xc8, 0x91, 0x04, 0x3e,
  0xfd, 0xa3, 0xf4, 0x3e, 0x4d, 0xe5, 0x2c, 0xbe, 0x8d, 0x54, 0xe2, 0x3e,
  0xf5, 0xe3, 0x5a, 0x3e, 0x22, 0x7c, 0x4b, 0xbd, 0x89, 0xb0, 0xa2, 0xbd,
  0x71, 0x1c, 0xa6, 0x3e, 0x20, 0x3d, 0x76, 0x3e, 0x38, 0x8b, 0x10, 0x3e,
  0x0a, 0x49, 0xf4, 0x3e, 0x94, 0x7f, 0x26, 0x3e, 0x8a, 0xac, 0x40, 0x3e,
  0xf5, 0x3e, 0x53, 0x3e, 0xaa, 0x4d, 0x56, 0xbd, 0x73, 0x7f, 0xfd, 0x3e,
  0x4a, 0x79, 0x21, 0x3e, 0xf7, 0x45, 0xaa, 0x3e, 0x60, 0xed, 0xd4, 0xbd,
  0x2b, 0xe1, 0x82, 0xbc, 0x88, 0xa5, 0x8c, 0xbe, 0x6d, 0xd5, 0x0e, 0x3e,
  0x59, 0xd8, 0xbc, 0x3d, 0xed, 0x83, 0x78, 0x3e, 0x59, 0xe4, 0x62, 0xbe,
  0x2c, 0xd8, 0x48, 0x3e, 0x0d, 0x9d, 0x9c, 0xbe, 0xa4, 0x90, 0x68, 0xbe,
  0xd8, 0xdf, 0x72, 0xbe, 0x80, 0xb4, 0x07, 0x3e, 0xdd, 0x5b, 0x8b, 0xbe,
  0x91, 0x58, 0x96, 0x3e, 0x4c, 0x3b, 0xe4, 0x3d, 0xee, 0x2e, 0xb2, 0xbe,
  0x95, 0x8b, 0x88, 0xbe, 0xf4, 0x2f, 0x60, 0xbe, 0xd0, 0xe3, 0xda, 0xbd,
  0x0e, 0xdc, 0x8a, 0xbd, 0xe2, 0x12, 0x26, 0x3e, 0xb6, 0xfa, 0x96, 0xbd,
  0x18, 0xb5, 0x63, 0x3e, 0x20, 0xfa, 0x2e, 0x3d, 0xd9, 0x02, 0xb3, 0xbc,
  0x98, 0x15, 0x56, 0x3d, 0xdf, 0xf4, 0x62, 0xbe, 0x70, 0xf0, 0x3f, 0x3e,
  0x09, 0x49, 0x15, 0xbe, 0x74, 0xd9, 0x2a, 0xbe, 0x96, 0x6b, 0xba, 0x3c,
  0x54, 0x83, 0x47, 0xbd, 0xb3, 0xfd, 0xd9, 0x3e, 0xc8, 0x06, 0x6e, 0x3e,
  0xc1, 0x29, 0x9a, 0xbc, 0x0b, 0xac, 0xfd, 0x3e, 0xe4, 0x37, 0x57, 0x3e,
  0x83, 0xc2, 0xbc, 0x3d, 0xf4, 0x94, 0xfd, 0xbe, 0x8c, 0x8a, 0xde, 0xbd,
  0x48, 0x4c, 0x4f, 0xbe, 0x99, 0x47, 0xe7, 0x3e, 0xfa, 0x7d, 0x60, 0xbe,
  0xee, 0xb4, 0x82, 0x3e, 0xa6, 0xc5, 0xd5, 0xbd, 0xc2, 0xa6, 0x8d, 0x3e,
  0x9a, 0xd4, 0x0e, 0x3d, 0xfe, 0xca, 0x4a, 0x3e, 0xed, 0x9a, 0x82, 0xbe,
  0xa7, 0x00, 0x70, 0xbd, 0xa0, 0xd2, 0x4e, 0xbe, 0x9e, 0xdb, 0xac, 0x3e,
  0x47, 0x9a, 0x8b, 0x3e, 0x15, 0x88, 0x09, 0xbe, 0x56, 0x3f, 0x6e, 0xbd,
  0xd8, 0x2c, 0x94, 0x3a, 0x30, 0x38, 0x8e, 0x3e, 0x99, 0x6b, 0x1a, 0xbe,
  0x4e, 0x69, 0x2f, 0x3e, 0x2b, 0xf3, 0xbf, 0xbd, 0x28, 0xf3, 0x73, 0x3e,
  0x69, 0xa5, 0x08, 0xbe, 0x57, 0x99, 0x5d, 0x3e, 0x4d, 0x18, 0x96, 0xbd,
  0xf7, 0x15, 0x24, 0x3e, 0x83, 0x09, 0x50, 0xbe, 0xf9, 0x02, 0x7d, 0x3e,
  0x09, 0x8c, 0xff, 0x3e, 0x94, 0x1a, 0xc8, 0xbd, 0xf3, 0xba, 0xdf, 0x3d,
  0x17, 0xf2, 0x57, 0xbe, 0x61, 0xbf, 0x04, 0xbe, 0x94, 0xf7, 0x3b, 0xbe,
  0x91, 0x4e, 0x2b, 0xbe, 0xfc, 0xd1, 0xd2, 0x3e, 0x08, 0x77, 0xea, 0x3e,
  0xe8, 0x69, 0xcc, 0x3d, 0x87, 0x13, 0x01, 0x3f, 0x0c, 0xfc, 0x91, 0x3e,
  0xa5, 0x10, 0x05, 0xbe, 0x8e, 0x39, 0x93, 0x3d, 0xb2, 0x7f, 0x09, 0xbc,
  0x68, 0xdf, 0x92, 0x3e, 0x16, 0x5d, 0x2b, 0xbe, 0xf3, 0xa7, 0x03, 0x3c,
  0x14, 0xc3, 0x8d, 0x3e, 0x9d, 0x5f, 0x6e, 0x3e, 0xfe, 0x77, 0x4d, 0xbe,
  0xe2, 0x9a, 0x2c, 0x3e, 0xba, 0x27, 0x15, 0xbe, 0xd6, 0x4e, 0x91, 0xbe,
  0x3d, 0x31, 0xc3, 0x3d, 0x2f, 0x7f, 0x8e, 0xbe, 0xad, 0x81, 0xaa, 0x3e,
  0xac, 0x56, 0xee, 0xbd, 0x4e, 0x5c, 0xd5, 0x3e, 0x0a, 0x9e, 0x0f, 0xbd,
  0xf1, 0xc5, 0x7d, 0xbe, 0x57, 0x85, 0x1f, 0xbe, 0xae, 0x7e, 0xa2, 0x3e,
  0xe6, 0xd3, 0xd6, 0x3e, 0xee, 0x60, 0x52, 0x3e, 0x54, 0xc6, 0x55, 0x3e,
  0xb8, 0xf5, 0xff, 0xff, 0xbc, 0xf5, 0xff, 0xff, 0xc0, 0xf5, 0xff, 0xff,
  0xc4, 0xf5, 0xff, 0xff, 0x04, 0x00, 0x06, 0x00, 0x04, 0x00, 0x00, 0x00,
  0x00, 0x00, 0x06, 0x00, 0x08, 0x00, 0x04, 0x00, 0x06, 0x00, 0x00, 0x00,
  0x04, 0x00, 0x00, 0x00, 0x28, 0x05, 0x00, 0x00, 0xfb, 0x55, 0x92, 0x3d,
  0x08, 0x29, 0xa4, 0x3e, 0xba, 0xbe, 0x97, 0xbd, 0xd5, 0xbb, 0x70, 0x3e,
  0x08, 0x90, 0x44, 0xbe, 0x21, 0xa4, 0x11, 0xbe, 0xc8, 0xdb, 0xa1, 0x3d,
  0x75, 0x45, 0x40, 0xbe, 0x9a, 0xda, 0xa1, 0xbd, 0x81, 0x31, 0xd0, 0x3e,
  0x8f, 0x44, 0x0e, 0x3e, 0xda, 0x6f, 0xb9, 0x3d, 0xd6, 0x02, 0x28, 0xbd,
  0x33, 0x6f, 0xd9, 0x3d, 0x19, 0x54, 0x93, 0x3d, 0x54, 0xfd, 0x80, 0x3e,
  0xcd, 0xd2, 0x81, 0x3e, 0xc6, 0xb5, 0x8a, 0x3e, 0xe2, 0x00, 0xc2, 0x3e,
  0xb3, 0xb1, 0x9a, 0x3e, 0x22, 0x60, 0x9d, 0xbe, 0x2d, 0x78, 0x9b, 0xbe,
  0x20, 0x54, 0x0c, 0xbe, 0x8d, 0x66, 0xaf, 0xbd, 0x2e, 0x80, 0xe6, 0x3c,
  0x62, 0x62, 0xb5, 0x3e, 0x1e, 0x38, 0x64, 0xbd, 0xb9, 0xe1, 0x83, 0x3e,
  0x74, 0x5a, 0xb3, 0xbe, 0x81, 0x47, 0x15, 0xbe, 0xfb, 0x47, 0x17, 0x3e,
  0xee, 0x45, 0x4d, 0xbe, 0x26, 0xc5, 0x3d, 0xbe, 0xdd, 0x55, 0x9a, 0x3e,
  0xa2, 0x95, 0x9d, 0xbe, 0xdb, 0xb0, 0x86, 0x3e, 0x7e, 0x76, 0xa8, 0xbe,
  0xc4, 0xbe, 0xb7, 0x3e, 0x3b, 0xd7, 0x5b, 0xbd, 0xdc, 0xe5, 0xcf, 0x3d,
  0x9e, 0xb8, 0x23, 0xbe, 0xbf, 0x20, 0xa6, 0xbe, 0x31, 0x8c, 0xe6, 0xbd,
  0x54, 0x4c, 0x65, 0xbd, 0xa7, 0x99, 0x67, 0x3e, 0x9b, 0xf1, 0x53, 0xbe,
  0x83, 0x63, 0xa6, 0x3d, 0xb6, 0xee, 0xcd, 0x3e, 0x3c, 0x70, 0x46, 0xbe,
  0xd8, 0x44, 0x08, 0xbe, 0x61, 0xf8, 0x86, 0xbe, 0xec, 0x42, 0xe0, 0xbb,
  0xaf, 0xeb, 0x4a, 0x3e, 0xdd, 0x5a, 0xc2, 0x3d, 0x8c, 0xe7, 0x55, 0xbe,
  0x70, 0xe9, 0xa2, 0xbe, 0xbc, 0x3c, 0x30, 0xbd, 0xd3, 0xf5, 0xae, 0xbe,
  0x18, 0x26, 0x6e, 0x3d, 0xbd, 0x5a, 0xd6, 0x3e, 0xb1, 0x7e, 0x66, 0xbe,
  0xf7, 0xfe, 0xce, 0x3e, 0xb0, 0x4c, 0x99, 0xbd, 0x1d, 0x69, 0x12, 0x3d,
  0x12, 0x38, 0xa8, 0x3d, 0x27, 0x19, 0x8f, 0x3e, 0xb3, 0x37, 0xad, 0xbe,
  0x76, 0xc7, 0xc5, 0xbe, 0x6c, 0x36, 0x82, 0xbe, 0x14, 0xe4, 0xfc, 0xbe,
  0x07, 0x22, 0xf4, 0xbe, 0x69, 0x3a, 0x6b, 0x3e, 0x1f, 0xcc, 0x90, 0xbe,
  0x26, 0x03, 0x80, 0xbd, 0x63, 0x06, 0x0f, 0xbf, 0x03, 0x27, 0x4e, 0xbe,
  0x23, 0xf4, 0xdb, 0xbe, 0x78, 0x33, 0x74, 0xbd, 0x3d, 0x54, 0xdb, 0xbe,
  0xca, 0x1b, 0x58, 0x3e, 0xe3, 0x46, 0xed, 0xbe, 0xcf, 0x50, 0xdb, 0xbd,
  0xb6, 0xcb, 0x63, 0xbd, 0x63, 0xc0, 0xbd, 0xbd, 0x3c, 0x47, 0x5f, 0x3e,
  0x9b, 0x1c, 0x12, 0xbf, 0x63, 0xe0, 0xed, 0xbd, 0x78, 0x11, 0xbf, 0xbe,
  0xce, 0xfc, 0xe0, 0xbd, 0x38, 0x58, 0x9b, 0x3d, 0xdd, 0x70, 0x3f, 0x3e,
  0xe2, 0x6f, 0xba, 0xbe, 0x6c, 0x84, 0xd2, 0xbe, 0xc8, 0x4f, 0xc1, 0xbd,
  0x6e, 0x0e, 0x78, 0xbe, 0xef, 0xf5, 0xb2, 0xbe, 0xac, 0xd9, 0x7c, 0x3e,
  0xaf, 0x17, 0x82, 0xbd, 0x23, 0x39, 0x18, 0xbc, 0x64, 0x38, 0x19, 0xbe,
  0x55, 0xb0, 0xbe, 0x3c, 0x54, 0xe8, 0x0f, 0x3e, 0x1b, 0x76, 0x72, 0x3d,
  0x7a, 0x56, 0x2b, 0x3e, 0x22, 0x7c, 0x83, 0x3e, 0xdc, 0xf6, 0x81, 0xbd,
  0x86, 0x7d, 0x8a, 0xbd, 0x90, 0x90, 0x6a, 0xbe, 0xa0, 0x23, 0xfb, 0xbe,
  0xe6, 0x62, 0x61, 0x3e, 0x02, 0x6d, 0xf8, 0xbd, 0x53, 0xda, 0x37, 0x3e,
  0xeb, 0x39, 0x63, 0x3e, 0x41, 0xb4, 0x24, 0xbe, 0x9d, 0xd0, 0xb0, 0x3e,
  0x5b, 0xcb, 0x3d, 0x3d, 0x21, 0xf0, 0xb3, 0xbd, 0x25, 0x6e, 0x09, 0xbe,
  0xb0, 0x00, 0x37, 0x3d, 0x2c, 0x40, 0x23, 0x3e, 0xdf, 0x80, 0x89, 0xbe,
  0xc0, 0x72, 0x87, 0x3e, 0x0c, 0x00, 0x71, 0x3e, 0x2a, 0xdf, 0x53, 0xbe,
  0xb7, 0x21, 0x83, 0xbb, 0xbc, 0xd1, 0x90, 0xbe, 0xfa, 0xc2, 0x8c, 0x3e,
  0x99, 0x56, 0x23, 0xbd, 0x9e, 0x42, 0xe4, 0x3d, 0x07, 0x88, 0xc7, 0xbe,
  0x17, 0x27, 0x79, 0x3d, 0xcc, 0xb9, 0xcf, 0xbd, 0x47, 0xa9, 0x2b, 0xbe,
  0xbb, 0xec, 0xa9, 0xbe, 0x53, 0x84, 0xb6, 0xbe, 0x77, 0x67, 0x86, 0x3e,
  0xa5, 0xa0, 0x59, 0xbe, 0x7f, 0x6a, 0xa4, 0xbb, 0x02, 0x7a, 0xb4, 0x3b,
  0x58, 0x18, 0x85, 0x3d, 0x40, 0x6f, 0x69, 0x3e, 0xd9, 0xac, 0x8a, 0x3e,
  0x92, 0xbd, 0x8f, 0xbe, 0xf5, 0x8c, 0x71, 0x3d, 0xcf, 0xdf, 0x99, 0xbe,
  0x9e, 0xc9, 0x4d, 0x3e, 0x30, 0x26, 0xad, 0x3e, 0x3d, 0xd8, 0x86, 0xbd,
  0x59, 0x59, 0x3d, 0xbe, 0x79, 0xd9, 0x23, 0x3e, 0x16, 0x69, 0x4b, 0xbe,
  0x0b, 0xcd, 0x97, 0xbe, 0xa9, 0x04, 0xcb, 0xbe, 0xef, 0xeb, 0x96, 0x3e,
  0x07, 0xda, 0x8f, 0x3e, 0x81, 0xf8, 0xeb, 0x3e, 0x27, 0x29, 0x0a, 0x3f,
  0xc7, 0xa1, 0x80, 0x3e, 0xbc, 0x1a, 0x02, 0x3f, 0x2b, 0xd3, 0x1e, 0xbe,
  0x5e, 0x55, 0x34, 0xbe, 0x7c, 0x44, 0x14, 0x3e, 0x50, 0xeb, 0x0e, 0x3e,
  0x43, 0xd7, 0x97, 0x3d, 0xee, 0x00, 0x8d, 0x3e, 0xca, 0xb4, 0xea, 0x3e,
  0x62, 0x15, 0xb7, 0x3d, 0x0f, 0x81, 0xc0, 0x3c, 0xe6, 0xec, 0xaf, 0x3e,
  0x97, 0x3c, 0xe7, 0x3e, 0xa1, 0x02, 0xe2, 0x3d, 0x08, 0xf9, 0x86, 0x3e,
  0x05, 0xba, 0xcd, 0x3d, 0x58, 0x5b, 0xeb, 0x3d, 0x1f, 0x59, 0xd7, 0x3e,
  0x81, 0x6c, 0xae, 0x3e, 0x5e, 0xf8, 0x28, 0xbe, 0x36, 0xf0, 0x79, 0x3d,
  0x8c, 0x57, 0x3e, 0x3e, 0xed, 0xd5, 0x8f, 0xbd, 0xd7, 0x76, 0x7b, 0x3c,
  0xd8, 0x9f, 0x37, 0x3e, 0xce, 0x42, 0x20, 0xbe, 0x4d, 0x12, 0x7b, 0x3e,
  0xf8, 0x8f, 0x82, 0x3e, 0x45, 0xeb, 0x83, 0xbd, 0x93, 0xba, 0xe6, 0xbe,
  0x0a, 0x12, 0x09, 0x3c, 0x17, 0xed, 0xbb, 0xbe, 0x58, 0x50, 0x1a, 0xbd,
  0xf8, 0x4f, 0x69, 0xbe, 0xcf, 0x54, 0x50, 0xbe, 0xbb, 0x86, 0x05, 0xbf,
  0x2e, 0x69, 0x1f, 0xbe, 0x96, 0xf3, 0xda, 0x3d, 0xe8, 0xe2, 0x93, 0xbe,
  0x07, 0x38, 0x34, 0x3e, 0x7a, 0xa8, 0x28, 0xbe, 0xfa, 0xd0, 0xf8, 0xbd,
  0x44, 0xff, 0x8c, 0xbd, 0x38, 0x87, 0x8c, 0x3c, 0x0b, 0x75, 0x1c, 0xbd,
  0xe4, 0x78, 0x89, 0x3d, 0xbc, 0x34, 0xc4, 0x3d, 0xc9, 0x01, 0x23, 0x3e,
  0x44, 0x2f, 0x9b, 0xbe, 0xe0, 0xe6, 0x0c, 0x3e, 0x05, 0xd5, 0x77, 0x3e,
  0xa6, 0xa6, 0x03, 0x3c, 0x28, 0xfb, 0x31, 0xbc, 0xce, 0xd8, 0x90, 0x3e,
  0x60, 0xd4, 0x48, 0xbd, 0xe4, 0x9a, 0x9c, 0xbd, 0x11, 0xe5, 0xa6, 0x3e,
  0x01, 0x18, 0xb8, 0xbd, 0x06, 0xbf, 0xcd, 0xbe, 0xb3, 0xaa, 0x85, 0xbe,
  0xe8, 0xaa, 0xe8, 0x39, 0x2b, 0x44, 0xd6, 0xbe, 0x33, 0x3b, 0x0b, 0x3e,
  0xc7, 0x13, 0x3f, 0xbd, 0x5f, 0x13, 0xd4, 0x3d, 0x0f, 0x28, 0x43, 0xbe,
  0xb5, 0x72, 0xa1, 0xbb, 0xf6, 0x85, 0x89, 0x3e, 0xb8, 0x2b, 0xc0, 0xbe,
  0x4a, 0x0c, 0x74, 0x3e, 0x5c, 0xaa, 0x41, 0x3e, 0x51, 0x72, 0x8f, 0x3e,
  0xd1, 0xd8, 0xdf, 0xbe, 0xac, 0xc8, 0x8d, 0xbe, 0x0f, 0xad, 0xa1, 0xbe,
  0x20, 0xf7, 0x48, 0x3e, 0x3b, 0x73, 0xdd, 0xbe, 0x28, 0xb5, 0x3f, 0x3e,
  0x1f, 0x07, 0x57, 0x3d, 0x13, 0x78, 0xb4, 0xbe, 0x1e, 0x7c, 0x70, 0x3e,
  0x00, 0x5d, 0x6d, 0xbe, 0xf2, 0xa2, 0xc4, 0x3d, 0xe5, 0x12, 0xaa, 0xbe,
  0x2a, 0x97, 0xf7, 0xbe, 0xe8, 0xc9, 0xd4, 0xbe, 0x46, 0x66, 0x35, 0x3e,
  0x02, 0x45, 0x07, 0xbe, 0x1e, 0x59, 0x6b, 0x3e, 0x38, 0xdd, 0xb3, 0xbd,
  0x3c, 0xe2, 0x73, 0xbd, 0xb7, 0xa2, 0xb3, 0xbe, 0x01, 0x28, 0xaa, 0x3e,
  0xbd, 0x01, 0x57, 0x3e, 0xb5, 0xdc, 0x49, 0x3e, 0xc5, 0x52, 0x41, 0x3e,
  0x76, 0x02, 0x47, 0xbd, 0x37, 0x8d, 0xc0, 0x3c, 0xb4, 0xf2, 0xa9, 0xbe,
  0x41, 0x85, 0x5d, 0xbd, 0x6a, 0x65, 0xb7, 0xbe, 0x0f, 0xb5, 0xc6, 0xbe,
  0x73, 0xda, 0x33, 0xbe, 0x03, 0x4f, 0xe8, 0xbe, 0xc3, 0x3c, 0xe7, 0xbd,
  0xd3, 0x78, 0x77, 0xbe, 0x9a, 0x3f, 0xd8, 0xbe, 0x36, 0x1c, 0x9b, 0xbe,
  0x9f, 0x8d, 0xef, 0x3d, 0x9b, 0x55, 0x58, 0x3e, 0x46, 0x7d, 0x82, 0x3e,
  0x97, 0x90, 0x9f, 0xbe, 0x5f, 0x5e, 0x83, 0xbc, 0x26, 0x80, 0x69, 0x3e,
  0xc1, 0x57, 0xe2, 0x3d, 0x65, 0x6a, 0x96, 0x3e, 0x5c, 0xf3, 0x45, 0xbc,
  0x64, 0xa7, 0x9a, 0xbe, 0xa6, 0xb1, 0xe8, 0xbc, 0xfe, 0x59, 0x42, 0x3e,
  0x2b, 0x98, 0xab, 0xbe, 0xdd, 0xf7, 0xc2, 0x3d, 0xd1, 0x14, 0x25, 0x3e,
  0x87, 0x42, 0x51, 0x3e, 0x65, 0x60, 0xd8, 0x3d, 0x20, 0x96, 0x0a, 0xbe,
  0xcc, 0xe8, 0x90, 0xbe, 0xe4, 0x4f, 0x92, 0x3d, 0xc1, 0x0f, 0xaf, 0xbe,
  0x21, 0xcb, 0xa1, 0xbe, 0x50, 0xf2, 0x63, 0xbd, 0x03, 0xde, 0xa3, 0x3e,
  0x1c, 0x4d, 0x8c, 0xbd, 0x79, 0x58, 0x30, 0x3e, 0x66, 0x80, 0xe0, 0xbd,
  0x5f, 0x40, 0x9f, 0x3e, 0x8f, 0x1d, 0xfe, 0xbd, 0xd8, 0x12, 0xae, 0xbe,
  0xfe, 0xe3, 0xa1, 0xbe, 0x84, 0xa1, 0x98, 0x3e, 0x3c, 0xad, 0xb3, 0xbe,
  0x73, 0xd7, 0xaa, 0x3e, 0xb8, 0x2b, 0x74, 0x3e, 0x5c, 0x1a, 0x32, 0x3d,
  0x9b, 0xe4, 0xbd, 0xbd, 0x87, 0x2d, 0x16, 0xbe, 0xa2, 0x52, 0xa1, 0x3e,
  0x1b, 0x9d, 0x1d, 0xbe, 0xb7, 0xe6, 0xaa, 0xbe, 0x4e, 0x3d, 0x8f, 0x3d,
  0xf7, 0x37, 0xd8, 0xbe, 0x3a, 0x4c, 0x31, 0x3e, 0xd0, 0x30, 0xa7, 0x3d,
  0xd3, 0xcf, 0xfd, 0xbd, 0x5e, 0x02, 0x8f, 0x3c, 0x55, 0x90, 0x3c, 0xbe,
  0xc5, 0x87, 0x8b, 0xbe, 0x66, 0x2e, 0xce, 0x3c, 0x6f, 0x53, 0x90, 0x3e,
  0x1e, 0x78, 0xd6, 0xbe, 0x0e, 0x5c, 0x52, 0x3e, 0x95, 0xfe, 0x98, 0x3e,
  0xef, 0xf4, 0x42, 0x3d, 0x07, 0x82, 0xe7, 0x3b, 0x22, 0x49, 0xaf, 0x3e,
  0xa0, 0xdd, 0x82, 0xbe, 0x02, 0x8d, 0x34, 0xbe, 0xe1, 0x30, 0x8f, 0x3d,
  0x85, 0xe1, 0x93, 0xbe, 0xd2, 0x8f, 0x6d, 0xbe, 0xab, 0xcc, 0x30, 0xbe,
  0x2f, 0xe7, 0x4f, 0x3e, 0xd5, 0xa2, 0xac, 0xbe, 0x0c, 0xfb, 0xff, 0xff,
  0x10, 0xfb, 0xff, 0xff, 0x0f, 0x00, 0x00, 0x00, 0x54, 0x4f, 0x43, 0x4f,
  0x20, 0x43, 0x6f, 0x6e, 0x76, 0x65, 0x72, 0x74, 0x65, 0x64, 0x2e, 0x00,
  0x01, 0x00, 0x00, 0x00, 0x10, 0x00, 0x00, 0x00, 0x0c, 0x00, 0x14, 0x00,
  0x04, 0x00, 0x08, 0x00, 0x0c, 0x00, 0x10, 0x00, 0x0c, 0x00, 0x00, 0x00,
  0x24, 0x01, 0x00, 0x00, 0x18, 0x01, 0x00, 0x00, 0x0c, 0x01, 0x00, 0x00,
  0x04, 0x00, 0x00, 0x00, 0x05, 0x00, 0x00, 0x00, 0xd0, 0x00, 0x00, 0x00,
  0x9c, 0x00, 0x00, 0x00, 0x5c, 0x00, 0x00, 0x00, 0x38, 0x00, 0x00, 0x00,
  0x04, 0x00, 0x00, 0x00, 0x52, 0xff, 0xff, 0xff, 0x00, 0x00, 0x00, 0x08,
  0x18, 0x00, 0x00, 0x00, 0x0c, 0x00, 0x00, 0x00, 0x04, 0x00, 0x00, 0x00,
  0x7c, 0xfb, 0xff, 0xff, 0x01, 0x00, 0x00, 0x00, 0x00, 0x00, 0x00, 0x00,
  0x03, 0x00, 0x00, 0x00, 0x09, 0x00, 0x00, 0x00, 0x0a, 0x00, 0x00, 0x00,
  0x0b, 0x00, 0x00, 0x00, 0xae, 0xff, 0xff, 0xff, 0x01, 0x00, 0x00, 0x00,
  0x10, 0x00, 0x00, 0x00, 0x04, 0x00, 0x00, 0x00, 0x01, 0x00, 0x00, 0x00,
  0x09, 0x00, 0x00, 0x00, 0x01, 0x00, 0x00, 0x00, 0x06, 0x00, 0x00, 0x00,
  0xa2, 0xff, 0xff, 0xff, 0x00, 0x00, 0x00, 0x08, 0x18, 0x00, 0x00, 0x00,
  0x0c, 0x00, 0x00, 0x00, 0x04, 0x00, 0x00, 0x00, 0xcc, 0xfb, 0xff, 0xff,
  0x01, 0x00, 0x00, 0x00, 0x06, 0x00, 0x00, 0x00, 0x03, 0x00, 0x00, 0x00,
  0x05, 0x00, 0x00, 0x00, 0x07, 0x00, 0x00, 0x00, 0x08, 0x00, 0x00, 0x00,
  0x00, 0x00, 0x0a, 0x00, 0x10, 0x00, 0x04, 0x00, 0x08, 0x00, 0x0c, 0x00,
  0x0a, 0x00, 0x00, 0x00, 0x01, 0x00, 0x00, 0x00, 0x10, 0x00, 0x00, 0x00,
  0x04, 0x00, 0x00, 0x00, 0x01, 0x00, 0x00, 0x00, 0x05, 0x00, 0x00, 0x00,
  0x01, 0x00, 0x00, 0x00, 0x02, 0x00, 0x00, 0x00, 0x00, 0x00, 0x0e, 0x00,
  0x14, 0x00, 0x00, 0x00, 0x08, 0x00, 0x0c, 0x00, 0x07, 0x00, 0x10, 0x00,
  0x0e, 0x00, 0x00, 0x00, 0x00, 0x00, 0x00, 0x08, 0x18, 0x00, 0x00, 0x00,
  0x0c, 0x00, 0x00, 0x00, 0x04, 0x00, 0x00, 0x00, 0x38, 0xfc, 0xff, 0xff,
  0x01, 0x00, 0x00, 0x00, 0x02, 0x00, 0x00, 0x00, 0x03, 0x00, 0x00, 0x00,
  0x01, 0x00, 0x00, 0x00, 0x03, 0x00, 0x00, 0x00, 0x04, 0x00, 0x00, 0x00,
  0x01, 0x00, 0x00, 0x00, 0x00, 0x00, 0x00, 0x00, 0x01, 0x00, 0x00, 0x00,
  0x01, 0x00, 0x00, 0x00, 0x0c, 0x00, 0x00, 0x00, 0x84, 0x03, 0x00, 0x00,
  0x1c, 0x03, 0x00, 0x00, 0xd4, 0x02, 0x00, 0x00, 0x74, 0x02, 0x00, 0x00,
  0x2c, 0x02, 0x00, 0x00, 0xe4, 0x01, 0x00, 0x00, 0x9c, 0x01, 0x00, 0x00,
  0x3c, 0x01, 0x00, 0x00, 0xf4, 0x00, 0x00, 0x00, 0xac, 0x00, 0x00, 0x00,
  0x4c, 0x00, 0x00, 0x00, 0x04, 0x00, 0x00, 0x00, 0xba, 0xfc, 0xff, 0xff,
  0x38, 0x00, 0x00, 0x00, 0x0c, 0x00, 0x00, 0x00, 0x0c, 0x00, 0x00, 0x00,
  0x04, 0x00, 0x00, 0x00, 0xac, 0xfc, 0xff, 0xff, 0x1e, 0x00, 0x00, 0x00,
  0x73, 0x65, 0x71, 0x75, 0x65, 0x6e, 0x74, 0x69, 0x61, 0x6c, 0x2f, 0x64,
  0x65, 0x6e, 0x73, 0x65, 0x5f, 0x32, 0x2f, 0x4d, 0x61, 0x74, 0x4d, 0x75,
  0x6c, 0x5f, 0x62, 0x69, 0x61, 0x73, 0x00, 0x00, 0x01, 0x00, 0x00, 0x00,
  0x05, 0x00, 0x00, 0x00, 0xfe, 0xfc, 0xff, 0xff, 0x4c, 0x00, 0x00, 0x00,
  0x0b, 0x00, 0x00, 0x00, 0x0c, 0x00, 0x00, 0x00, 0x04, 0x00, 0x00, 0x00,
  0xf0, 0xfc, 0xff, 0xff, 0x32, 0x00, 0x00, 0x00, 0x73, 0x65, 0x71, 0x75,
  0x65, 0x6e, 0x74, 0x69, 0x61, 0x6c, 0x2f, 0x64, 0x65, 0x6e, 0x73, 0x65,
  0x5f, 0x32, 0x2f, 0x4d, 0x61, 0x74, 0x4d, 0x75, 0x6c, 0x2f, 0x52, 0x65,
  0x61, 0x64, 0x56, 0x61, 0x72, 0x69, 0x61, 0x62, 0x6c, 0x65, 0x4f, 0x70,
  0x2f, 0x74, 0x72, 0x61, 0x6e, 0x73, 0x70, 0x6f, 0x73, 0x65, 0x00, 0x00,
  0x02, 0x00, 0x00, 0x00, 0x05, 0x00, 0x00, 0x00, 0x0f, 0x00, 0x00, 0x00,
  0x5a, 0xfd, 0xff, 0xff, 0x34, 0x00, 0x00, 0x00, 0x06, 0x00, 0x00, 0x00,
  0x0c, 0x00, 0x00, 0x00, 0x04, 0x00, 0x00, 0x00, 0x4c, 0xfd, 0xff, 0xff,
  0x1a, 0x00, 0x00, 0x00, 0x73, 0x65, 0x71, 0x75, 0x65, 0x6e, 0x74, 0x69,
  0x61, 0x6c, 0x2f, 0x64, 0x65, 0x6e, 0x73, 0x65, 0x5f, 0x31, 0x2f, 0x53,
  0x69, 0x67, 0x6d, 0x6f, 0x69, 0x64, 0x00, 0x00, 0x02, 0x00, 0x00, 0x00,
  0x01, 0x00, 0x00, 0x00, 0x0f, 0x00, 0x00, 0x00, 0x9e, 0xfd, 0xff, 0xff,
  0x38, 0x00, 0x00, 0x00, 0x0a, 0x00, 0x00, 0x00, 0x0c, 0x00, 0x00, 0x00,
  0x04, 0x00, 0x00, 0x00, 0x90, 0xfd, 0xff, 0xff, 0x1e, 0x00, 0x00, 0x00,
  0x73, 0x65, 0x71, 0x75, 0x65, 0x6e, 0x74, 0x69, 0x61, 0x6c, 0x2f, 0x64,
  0x65, 0x6e, 0x73, 0x65, 0x5f, 0x31, 0x2f, 0x4d, 0x61, 0x74, 0x4d, 0x75,
  0x6c, 0x5f, 0x62, 0x69, 0x61, 0x73, 0x00, 0x00, 0x01, 0x00, 0x00, 0x00,
  0x0f, 0x00, 0x00, 0x00, 0xe2, 0xfd, 0xff, 0xff, 0x4c, 0x00, 0x00, 0x00,
  0x02, 0x00, 0x00, 0x00, 0x0c, 0x00, 0x00, 0x00, 0x04, 0x00, 0x00, 0x00,
  0xd4, 0xfd, 0xff, 0xff, 0x32, 0x00, 0x00, 0x00, 0x73, 0x65, 0x71, 0x75,
  0x65, 0x6e, 0x74, 0x69, 0x61, 0x6c, 0x2f, 0x64, 0x65, 0x6e, 0x73, 0x65,
  0x5f, 0x31, 0x2f, 0x4d, 0x61, 0x74, 0x4d, 0x75, 0x6c, 0x2f, 0x52, 0x65,
  0x61, 0x64, 0x56, 0x61, 0x72, 0x69, 0x61, 0x62, 0x6c, 0x65, 0x4f, 0x70,
  0x2f, 0x74, 0x72, 0x61, 0x6e, 0x73, 0x70, 0x6f, 0x73, 0x65, 0x00, 0x00,
  0x02, 0x00, 0x00, 0x00, 0x0f, 0x00, 0x00, 0x00, 0x16, 0x00, 0x00, 0x00,
  0x3e, 0xfe, 0xff, 0xff, 0x34, 0x00, 0x00, 0x00, 0x04, 0x00, 0x00, 0x00,
  0x0c, 0x00, 0x00, 0x00, 0x04, 0x00, 0x00, 0x00, 0x30, 0xfe, 0xff, 0xff,
  0x1a, 0x00, 0x00, 0x00, 0x73, 0x65, 0x71, 0x75, 0x65, 0x6e, 0x74, 0x69,
  0x61, 0x6c, 0x2f, 0x64, 0x65, 0x6e, 0x73, 0x65, 0x5f, 0x31, 0x2f, 0x42,
  0x69, 0x61, 0x73, 0x41, 0x64, 0x64, 0x00, 0x00, 0x02, 0x00, 0x00, 0x00,
  0x01, 0x00, 0x00, 0x00, 0x0f, 0x00, 0x00, 0x00, 0x82, 0xfe, 0xff, 0xff,
  0x34, 0x00, 0x00, 0x00, 0x05, 0x00, 0x00, 0x00, 0x0c, 0x00, 0x00, 0x00,
  0x04, 0x00, 0x00, 0x00, 0x74, 0xfe, 0xff, 0xff, 0x18, 0x00, 0x00, 0x00,
  0x73, 0x65, 0x71, 0x75, 0x65, 0x6e, 0x74, 0x69, 0x61, 0x6c, 0x2f, 0x64,
  0x65, 0x6e, 0x73, 0x65, 0x2f, 0x53, 0x69, 0x67, 0x6d, 0x6f, 0x69, 0x64,
  0x00, 0x00, 0x00, 0x00, 0x02, 0x00, 0x00, 0x00, 0x01, 0x00, 0x00, 0x00,
  0x16, 0x00, 0x00, 0x00, 0xc6, 0xfe, 0xff, 0xff, 0x38, 0x00, 0x00, 0x00,
  0x09, 0x00, 0x00, 0x00, 0x0c, 0x00, 0x00, 0x00, 0x04, 0x00, 0x00, 0x00,
  0xb8, 0xfe, 0xff, 0xff, 0x1c, 0x00, 0x00, 0x00, 0x73, 0x65, 0x71, 0x75,
  0x65, 0x6e, 0x74, 0x69, 0x61, 0x6c, 0x2f, 0x64, 0x65, 0x6e, 0x73, 0x65,
  0x2f, 0x4d, 0x61, 0x74, 0x4d, 0x75, 0x6c, 0x5f, 0x62, 0x69, 0x61, 0x73,
  0x00, 0x00, 0x00, 0x00, 0x01, 0x00, 0x00, 0x00, 0x16, 0x00, 0x00, 0x00,
  0x0a, 0xff, 0xff, 0xff, 0x4c, 0x00, 0x00, 0x00, 0x08, 0x00, 0x00, 0x00,
  0x0c, 0x00, 0x00, 0x00, 0x04, 0x00, 0x00, 0x00, 0xfc, 0xfe, 0xff, 0xff,
  0x30, 0x00, 0x00, 0x00, 0x73, 0x65, 0x71, 0x75, 0x65, 0x6e, 0x74, 0x69,
  0x61, 0x6c, 0x2f, 0x64, 0x65, 0x6e, 0x73, 0x65, 0x2f, 0x4d, 0x61, 0x74,
  0x4d, 0x75, 0x6c, 0x2f, 0x52, 0x65, 0x61, 0x64, 0x56, 0x61, 0x72, 0x69,
  0x61, 0x62, 0x6c, 0x65, 0x4f, 0x70, 0x2f, 0x74, 0x72, 0x61, 0x6e, 0x73,
  0x70, 0x6f, 0x73, 0x65, 0x00, 0x00, 0x00, 0x00, 0x02, 0x00, 0x00, 0x00,
  0x16, 0x00, 0x00, 0x00, 0x15, 0x00, 0x00, 0x00, 0x66, 0xff, 0xff, 0xff,
  0x34, 0x00, 0x00, 0x00, 0x03, 0x00, 0x00, 0x00, 0x0c, 0x00, 0x00, 0x00,
  0x04, 0x00, 0x00, 0x00, 0x58, 0xff, 0xff, 0xff, 0x18, 0x00, 0x00, 0x00,
  0x73, 0x65, 0x71, 0x75, 0x65, 0x6e, 0x74, 0x69, 0x61, 0x6c, 0x2f, 0x64,
  0x65, 0x6e, 0x73, 0x65, 0x2f, 0x42, 0x69, 0x61, 0x73, 0x41, 0x64, 0x64,
  0x00, 0x00, 0x00, 0x00, 0x02, 0x00, 0x00, 0x00, 0x01, 0x00, 0x00, 0x00,
  0x16, 0x00, 0x00, 0x00, 0xaa, 0xff, 0xff, 0xff, 0x44, 0x00, 0x00, 0x00,
  0x01, 0x00, 0x00, 0x00, 0x2c, 0x00, 0x00, 0x00, 0x0c, 0x00, 0x00, 0x00,
  0x08, 0x00, 0x0c, 0x00, 0x04, 0x00, 0x08, 0x00, 0x08, 0x00, 0x00, 0x00,
  0x10, 0x00, 0x00, 0x00, 0x04, 0x00, 0x00, 0x00, 0x01, 0x00, 0x00, 0x00,
  0x00, 0x00, 0x7f, 0x43, 0x01, 0x00, 0x00, 0x00, 0x00, 0x00, 0x00, 0x00,
  0x0b, 0x00, 0x00, 0x00, 0x64, 0x65, 0x6e, 0x73, 0x65, 0x5f, 0x69, 0x6e,
  0x70, 0x75, 0x74, 0x00, 0x02, 0x00, 0x00, 0x00, 0x01, 0x00, 0x00, 0x00,
  0x15, 0x00, 0x00, 0x00, 0x00, 0x00, 0x0e, 0x00, 0x14, 0x00, 0x04, 0x00,
  0x00, 0x00, 0x08, 0x00, 0x0c, 0x00, 0x10, 0x00, 0x0e, 0x00, 0x00, 0x00,
  0x28, 0x00, 0x00, 0x00, 0x07, 0x00, 0x00, 0x00, 0x10, 0x00, 0x00, 0x00,
  0x08, 0x00, 0x00, 0x00, 0x04, 0x00, 0x04, 0x00, 0x04, 0x00, 0x00, 0x00,
  0x08, 0x00, 0x00, 0x00, 0x49, 0x64, 0x65, 0x6e, 0x74, 0x69, 0x74, 0x79,
  0x00, 0x00, 0x00, 0x00, 0x02, 0x00, 0x00, 0x00, 0x01, 0x00, 0x00, 0x00,
  0x05, 0x00, 0x00, 0x00, 0x02, 0x00, 0x00, 0x00, 0x20, 0x00, 0x00, 0x00,
  0x0c, 0x00, 0x00, 0x00, 0x00, 0x00, 0x06, 0x00, 0x06, 0x00, 0x05, 0x00,
  0x06, 0x00, 0x00, 0x00, 0x00, 0x0e, 0x0a, 0x00, 0x0c, 0x00, 0x07, 0x00,
  0x00, 0x00, 0x08, 0x00, 0x0a, 0x00, 0x00, 0x00, 0x00, 0x00, 0x00, 0x09,
  0x03, 0x00, 0x00, 0x00
};
