
#define TENSORFLOW_LITE_EXPERIMENTAL_MICRO_EXAMPLES_HELLO_WORLD_SINE_MODEL_DATA_H_
#ifdef __has_attribute
#define HAVE_ATTRIBUTE(x) __has_attribute(x)
#else
#define HAVE_ATTRIBUTE(x) 0
#endif
#if HAVE_ATTRIBUTE(aligned) || (defined(__GNUC__) && !defined(__clang__))
#define DATA_ALIGN_ATTRIBUTE __attribute__((aligned(4)))
#else
#define DATA_ALIGN_ATTRIBUTE
#endif

const int flight_model_len = 4584;
const unsigned char flight_model[] DATA_ALIGN_ATTRIBUTE = {
 0x1c, 0x00, 0x00, 0x00, 0x54, 0x46, 0x4c, 0x33, 0x00, 0x00, 0x12, 0x00,
  0x1c, 0x00, 0x04, 0x00, 0x08, 0x00, 0x0c, 0x00, 0x10, 0x00, 0x14, 0x00,
  0x00, 0x00, 0x18, 0x00, 0x12, 0x00, 0x00, 0x00, 0x03, 0x00, 0x00, 0x00,
  0x94, 0x11, 0x00, 0x00, 0x94, 0x0c, 0x00, 0x00, 0x7c, 0x0c, 0x00, 0x00,
  0x34, 0x00, 0x00, 0x00, 0x04, 0x00, 0x00, 0x00, 0x01, 0x00, 0x00, 0x00,
  0x04, 0x00, 0x00, 0x00, 0x10, 0xef, 0xff, 0xff, 0x08, 0x00, 0x00, 0x00,
  0x0d, 0x00, 0x00, 0x00, 0x13, 0x00, 0x00, 0x00, 0x6d, 0x69, 0x6e, 0x5f,
  0x72, 0x75, 0x6e, 0x74, 0x69, 0x6d, 0x65, 0x5f, 0x76, 0x65, 0x72, 0x73,
  0x69, 0x6f, 0x6e, 0x00, 0x0e, 0x00, 0x00, 0x00, 0x3c, 0x0c, 0x00, 0x00,
  0x34, 0x0c, 0x00, 0x00, 0xdc, 0x08, 0x00, 0x00, 0xcc, 0x08, 0x00, 0x00,
  0xc0, 0x08, 0x00, 0x00, 0xb8, 0x08, 0x00, 0x00, 0xb0, 0x08, 0x00, 0x00,
  0xa8, 0x08, 0x00, 0x00, 0xb4, 0x01, 0x00, 0x00, 0x50, 0x01, 0x00, 0x00,
  0x18, 0x01, 0x00, 0x00, 0x40, 0x00, 0x00, 0x00, 0x1c, 0x00, 0x00, 0x00,
  0x04, 0x00, 0x00, 0x00, 0x5a, 0xf7, 0xff, 0xff, 0x04, 0x00, 0x00, 0x00,
  0x06, 0x00, 0x00, 0x00, 0x31, 0x2e, 0x31, 0x34, 0x2e, 0x30, 0x00, 0x00,
  0x6e, 0xf7, 0xff, 0xff, 0x04, 0x00, 0x00, 0x00, 0x14, 0x00, 0x00, 0x00,
  0x4b, 0x69, 0xcc, 0x3e, 0x59, 0x04, 0xd0, 0x3e, 0x5d, 0x98, 0xa8, 0x3e,
  0x88, 0xd7, 0x03, 0x3f, 0x21, 0x92, 0xdf, 0x3e, 0x8e, 0xf7, 0xff, 0xff,
  0x04, 0x00, 0x00, 0x00, 0xc8, 0x00, 0x00, 0x00, 0x01, 0xdd, 0xf8, 0x3e,
  0x72, 0xd9, 0x7c, 0x3e, 0x1c, 0x94, 0x18, 0xbe, 0x69, 0x3c, 0x13, 0x3f,
  0xe7, 0x35, 0x9b, 0xbc, 0x37, 0x1b, 0x46, 0x3d, 0xdf, 0x50, 0xeb, 0xbc,
  0xde, 0x82, 0xf2, 0x3e, 0xe1, 0x77, 0x0f, 0x3f, 0x8d, 0x81, 0xe2, 0x3e,
  0xc3, 0xea, 0x7b, 0xbe, 0xa3, 0x2b, 0x31, 0xbd, 0x92, 0xac, 0x76, 0x3e,
  0x0b, 0x14, 0x82, 0x3e, 0x3f, 0xf2, 0x28, 0x3e, 0xf6, 0x85, 0x7d, 0x3e,
  0x8e, 0xb1, 0xb0, 0x3e, 0x3c, 0x97, 0xad, 0x3e, 0x40, 0x46, 0xa3, 0xbb,
  0xf9, 0x9c, 0x9f, 0xbe, 0x36, 0xc8, 0x81, 0xbe, 0x9a, 0x31, 0x9e, 0xbd,
  0xc8, 0x24, 0x2d, 0x3e, 0xfc, 0x97, 0x94, 0x3e, 0x9d, 0x50, 0x31, 0x3e,
  0x8f, 0xf0, 0x7b, 0x3e, 0x08, 0x6a, 0xaf, 0x3e, 0xe1, 0x6d, 0xad, 0x3e,
  0x08, 0x7e, 0x35, 0xbd, 0xd9, 0x69, 0x8d, 0xbe, 0x95, 0xca, 0x52, 0xbd,
  0x31, 0xaa, 0x81, 0xbd, 0x83, 0xcb, 0xd0, 0xbd, 0xd9, 0x01, 0x26, 0x3d,
  0xe7, 0xc8, 0xea, 0x3d, 0x5b, 0xda, 0xda, 0xbc, 0xe5, 0x97, 0xd5, 0xbd,
  0x2f, 0xa7, 0x44, 0x3d, 0x08, 0x78, 0x3a, 0xbd, 0x7d, 0x6c, 0x0c, 0x3b,
  0x4c, 0x90, 0x00, 0x3e, 0x97, 0x7e, 0x2a, 0xbf, 0x03, 0x74, 0xd0, 0x3e,
  0xec, 0x93, 0x86, 0x3e, 0xf9, 0x13, 0x85, 0xbe, 0x30, 0x4e, 0x8f, 0x3d,
  0x37, 0x14, 0xbd, 0xbc, 0x4b, 0xfc, 0x85, 0x3d, 0xf8, 0x75, 0xd8, 0x3e,
  0x65, 0xb5, 0x8c, 0x3b, 0x62, 0xf8, 0xff, 0xff, 0x04, 0x00, 0x00, 0x00,
  0x28, 0x00, 0x00, 0x00, 0x23, 0x8d, 0xa3, 0xbe, 0x6e, 0xee, 0xdf, 0xbe,
  0x03, 0xf2, 0x10, 0xbf, 0x9b, 0x94, 0x9c, 0xbe, 0x93, 0x41, 0x02, 0xbf,
  0x25, 0x7b, 0xdc, 0xbe, 0x76, 0x1a, 0xcf, 0xbe, 0xb6, 0x23, 0xbb, 0xbe,
  0xe1, 0xd3, 0xf6, 0xbe, 0x79, 0x08, 0x9d, 0xbe, 0x96, 0xf8, 0xff, 0xff,
  0x04, 0x00, 0x00, 0x00, 0x54, 0x00, 0x00, 0x00, 0xb5, 0x3f, 0x58, 0xbe,
  0xb1, 0x0e, 0x2b, 0x3e, 0x1e, 0x87, 0x94, 0xbd, 0x78, 0xcc, 0xd9, 0x3d,
  0xf5, 0xa3, 0xa5, 0xbe, 0x42, 0xa2, 0xd9, 0x3e, 0xc7, 0xc1, 0x8d, 0x3e,
  0x2a, 0xf0, 0xec, 0xbe, 0x8c, 0x82, 0x30, 0x3e, 0x22, 0x37, 0xcd, 0xbd,
  0xa9, 0x01, 0xed, 0x3c, 0x3f, 0x1a, 0x17, 0x3e, 0x33, 0xea, 0x39, 0x3e,
  0x7a, 0x6c, 0x19, 0xbb, 0x1f, 0x4f, 0x37, 0xbe, 0xbf, 0xd5, 0xb2, 0x3e,
  0x11, 0xe1, 0xb8, 0xbe, 0x83, 0xbf, 0xce, 0x3d, 0xf3, 0xbf, 0x0c, 0xbe,
  0xb7, 0xec, 0xde, 0x3e, 0xe4, 0xd8, 0x0b, 0xbf, 0xf6, 0xf8, 0xff, 0xff,
  0x04, 0x00, 0x00, 0x00, 0xe4, 0x06, 0x00, 0x00, 0x6d, 0xf5, 0xc0, 0x3e,
  0x26, 0xee, 0xb2, 0x3e, 0x8c, 0x36, 0x77, 0x3d, 0x25, 0x9a, 0x18, 0xbd,
  0xa3, 0xd6, 0xed, 0x3e, 0x69, 0xae, 0xb8, 0xbe, 0xbe, 0xa8, 0x9a, 0xbe,
  0xc5, 0xcb, 0xe9, 0xbc, 0xa8, 0x66, 0x8b, 0xbe, 0x90, 0x2b, 0xf6, 0xbe,
  0x43, 0x83, 0x94, 0xbe, 0xe8, 0x9b, 0x87, 0xbe, 0xc3, 0xb2, 0x57, 0x3e,
  0x9d, 0x65, 0x9c, 0xbd, 0x0c, 0xa2, 0xb3, 0x3c, 0x08, 0xa9, 0x2c, 0x3e,
  0x0f, 0x3e, 0x3c, 0xc0, 0x68, 0xc5, 0x41, 0x3f, 0x81, 0xa7, 0xc1, 0x3f,
  0x0a, 0x69, 0xa2, 0x3c, 0xe8, 0xb5, 0xc2, 0xbd, 0xc7, 0x90, 0x84, 0x3d,
  0x9e, 0xf6, 0xb2, 0x3d, 0x21, 0x6f, 0x8f, 0xbd, 0x1c, 0xaa, 0x81, 0x3e,
  0x49, 0x15, 0xc4, 0x3e, 0x82, 0xba, 0x03, 0xbe, 0x5f, 0x8b, 0xa3, 0xbe,
  0x53, 0xe5, 0x99, 0xbe, 0x97, 0x2c, 0x0c, 0x3e, 0x4e, 0x15, 0xd6, 0x3a,
  0x1a, 0xcc, 0x42, 0x3d, 0x79, 0xf2, 0x70, 0xbd, 0x69, 0xbb, 0xcb, 0xbe,
  0x6a, 0xb3, 0x61, 0xbe, 0xaa, 0x40, 0x14, 0xbe, 0x39, 0xf4, 0x0b, 0x3e,
  0xa8, 0x6a, 0x1d, 0xc0, 0x82, 0x23, 0x01, 0x3e, 0xba, 0xfe, 0x31, 0xbe,
  0x52, 0x45, 0x8b, 0x3f, 0x38, 0x21, 0x86, 0xbe, 0xdb, 0x16, 0x9f, 0x3e,
  0x70, 0x5c, 0x5d, 0x3e, 0x1a, 0x68, 0x1f, 0x3e, 0x67, 0xdd, 0xc1, 0x3e,
  0xc6, 0x7e, 0x3a, 0x3c, 0x8c, 0x74, 0x75, 0xbe, 0xa2, 0xe2, 0xad, 0x3d,
  0x4c, 0xc4, 0xb3, 0x3c, 0x30, 0x66, 0x17, 0xbe, 0xb5, 0x25, 0xfc, 0x3d,
  0xa8, 0x3d, 0x22, 0xbf, 0xa2, 0x89, 0x63, 0xbd, 0x45, 0x8b, 0xc6, 0x3b,
  0x25, 0xe7, 0x74, 0xbd, 0x57, 0x26, 0x86, 0xbe, 0x6f, 0x20, 0x38, 0x3e,
  0xfa, 0x85, 0x2e, 0xc0, 0x35, 0xc2, 0x64, 0x3d, 0x67, 0x17, 0x2d, 0x3f,
  0xd4, 0x2d, 0x00, 0x3f, 0xb3, 0xfa, 0xa8, 0x3e, 0x2b, 0x88, 0x22, 0xbf,
  0x1d, 0x4d, 0xec, 0xbd, 0xa4, 0xa2, 0x7d, 0xbe, 0x92, 0xc7, 0xf4, 0x3d,
  0x1b, 0x79, 0xa1, 0xbe, 0x9c, 0x3d, 0xf5, 0xbc, 0x79, 0x12, 0x4e, 0x3e,
  0x9d, 0x95, 0x02, 0x3e, 0x5a, 0x46, 0xc8, 0x3e, 0x9e, 0x35, 0xa2, 0x3e,
  0x40, 0x7d, 0xca, 0x3e, 0x22, 0xc6, 0x38, 0x3b, 0xf0, 0x58, 0x27, 0x3e,
  0xe3, 0x27, 0x6d, 0xbd, 0xd5, 0x32, 0x62, 0xbc, 0x53, 0xd7, 0x32, 0xbc,
  0x1f, 0xbb, 0x13, 0x3f, 0x3a, 0xf1, 0x0d, 0xc0, 0xd5, 0xe2, 0x18, 0xc0,
  0xf0, 0x2d, 0x05, 0x3f, 0x37, 0x85, 0xc0, 0xbe, 0x48, 0xe3, 0xc1, 0x3e,
  0x57, 0xb3, 0xb8, 0xbe, 0x74, 0x3e, 0x5b, 0x3e, 0x64, 0x9b, 0x46, 0x3e,
  0x6f, 0x1f, 0xcd, 0xbd, 0x53, 0x8b, 0xa3, 0xbd, 0xb7, 0x22, 0x42, 0x3c,
  0x49, 0xc7, 0xd3, 0xbe, 0xe7, 0xbf, 0x55, 0xbe, 0x8f, 0xc0, 0x18, 0xbf,
  0x09, 0x50, 0x45, 0xbf, 0xc7, 0xe9, 0xae, 0xbe, 0xe3, 0xc6, 0x02, 0xbf,
  0xf8, 0xda, 0xc2, 0x3d, 0x60, 0xb8, 0x28, 0x3e, 0x33, 0xeb, 0x58, 0xbd,
  0x0c, 0xc6, 0x01, 0xbf, 0x05, 0x2b, 0xc9, 0x3f, 0xeb, 0x13, 0xe2, 0x3f,
  0x59, 0x20, 0x99, 0xbe, 0xfd, 0x5a, 0xe8, 0xbf, 0x1f, 0x7a, 0x23, 0xbe,
  0x57, 0x6a, 0x54, 0x3f, 0xa6, 0x05, 0xdb, 0xbe, 0x83, 0x24, 0x2f, 0x3f,
  0x2b, 0x88, 0x17, 0x3e, 0x8b, 0x9c, 0x15, 0x3e, 0xab, 0x22, 0x35, 0xbf,
  0x19, 0x21, 0x09, 0xbe, 0x55, 0x50, 0x24, 0x3f, 0x56, 0xdf, 0xe2, 0x3e,
  0xe3, 0x3a, 0x86, 0xbe, 0xec, 0x8c, 0x32, 0x3e, 0x0f, 0xa7, 0xff, 0xbc,
  0x07, 0x53, 0x1c, 0x3f, 0xad, 0x84, 0x09, 0x3f, 0x84, 0x7d, 0x20, 0x3f,
  0x93, 0x76, 0x4d, 0xc0, 0xb6, 0x90, 0x1f, 0xbf, 0x5f, 0x2e, 0x1f, 0xbf,
  0xa4, 0xff, 0x4b, 0x3f, 0x36, 0xe7, 0x5f, 0xc0, 0x07, 0xc9, 0x7c, 0xbe,
  0xd9, 0x9a, 0x05, 0xbe, 0xa2, 0x0b, 0xf0, 0xbe, 0x5c, 0xc5, 0x4d, 0xbd,
  0x92, 0xb3, 0xa0, 0xbe, 0x71, 0xa3, 0x18, 0x3e, 0x58, 0x4d, 0xe1, 0x3e,
  0x8f, 0x64, 0xa5, 0x3e, 0x59, 0xb7, 0x1f, 0x3e, 0xb5, 0x2f, 0x11, 0x3f,
  0xb0, 0x1c, 0x0c, 0x3f, 0x52, 0xfc, 0x0a, 0x3f, 0xc8, 0x3a, 0xcc, 0xbc,
  0xeb, 0x75, 0x67, 0xbe, 0xd6, 0x3b, 0xcb, 0x3e, 0x0b, 0xe8, 0xca, 0x3e,
  0x99, 0x03, 0x69, 0xbf, 0xee, 0x4a, 0x0f, 0xc0, 0x4e, 0x30, 0x1d, 0xc0,
  0x60, 0xbb, 0x99, 0x3d, 0x91, 0xac, 0x76, 0x3d, 0xa1, 0x5f, 0xdb, 0x3e,
  0x8a, 0x2b, 0x8a, 0xbc, 0x11, 0x2c, 0x84, 0xbd, 0x47, 0xfa, 0xbb, 0xbe,
  0xf0, 0xd4, 0x84, 0xbe, 0xf3, 0x51, 0x6f, 0xbe, 0xfc, 0xf1, 0x9b, 0xbe,
  0x49, 0x9d, 0xc9, 0xbe, 0xd6, 0xaf, 0x32, 0xbf, 0xdc, 0x05, 0x06, 0xbf,
  0xed, 0x6b, 0x05, 0xbf, 0xe5, 0x41, 0x71, 0xbe, 0x62, 0x76, 0xe9, 0xbe,
  0xe9, 0xb7, 0x3b, 0xbd, 0xa0, 0x73, 0x6d, 0xbc, 0x38, 0x2a, 0x5d, 0x3e,
  0x4b, 0xec, 0xb0, 0xbf, 0xce, 0x31, 0xd9, 0x3f, 0x76, 0xd1, 0x21, 0x40,
  0x33, 0xc7, 0x31, 0xbf, 0x13, 0x28, 0x13, 0x3f, 0xf9, 0xe6, 0x45, 0x3e,
  0xb8, 0xd0, 0xcc, 0x3e, 0xfe, 0x49, 0xab, 0x3e, 0x1c, 0xb3, 0x2b, 0x3f,
  0x66, 0xf6, 0x02, 0x3e, 0x36, 0x27, 0x4f, 0xbe, 0x73, 0x2b, 0xed, 0xbe,
  0x56, 0x33, 0x26, 0x3e, 0x0e, 0x16, 0xa5, 0xbe, 0xa7, 0xb7, 0xb7, 0x3d,
  0xaf, 0x6b, 0xa8, 0x3d, 0x5b, 0x6f, 0x78, 0xbe, 0x23, 0x3a, 0x89, 0xbe,
  0x1a, 0xc6, 0xc1, 0x3e, 0xec, 0xe0, 0x9a, 0xbd, 0x99, 0xda, 0x8e, 0xbe,
  0xe8, 0xd6, 0x05, 0xc0, 0xa2, 0x00, 0x10, 0x3f, 0xa2, 0x9f, 0xef, 0x3e,
  0xd9, 0xb5, 0x8f, 0x3e, 0x28, 0x67, 0x43, 0xc0, 0x97, 0x0d, 0x11, 0xbe,
  0x47, 0x26, 0x25, 0xbe, 0xb2, 0x50, 0x1a, 0xbe, 0xce, 0x1c, 0x33, 0xbe,
  0x2c, 0xfa, 0xa3, 0xbb, 0xb1, 0x7a, 0xd3, 0xbe, 0x70, 0x7b, 0xe7, 0x3e,
  0x35, 0x80, 0xc2, 0xbe, 0x8b, 0x07, 0xd1, 0xbe, 0xcd, 0xc8, 0x8d, 0x3e,
  0x51, 0x49, 0x2a, 0x3d, 0x4a, 0x2d, 0xf8, 0xbe, 0x1c, 0xb1, 0xed, 0xbe,
  0x9e, 0xcb, 0xc0, 0xbe, 0x5e, 0x95, 0xda, 0xbe, 0x78, 0x89, 0x8c, 0x3e,
  0x42, 0x15, 0x01, 0x40, 0x0d, 0xc0, 0xc2, 0x3d, 0x7d, 0x80, 0x39, 0x3e,
  0x91, 0x27, 0x4a, 0x3f, 0xb7, 0x9a, 0x40, 0xc0, 0xd2, 0x8c, 0x6c, 0x3d,
  0xd6, 0x3a, 0xe4, 0x3e, 0xe2, 0xb2, 0x0a, 0xbe, 0xbb, 0xb0, 0x6d, 0x3e,
  0x5c, 0x45, 0x90, 0x3e, 0x8c, 0x37, 0x52, 0xbe, 0xf0, 0x70, 0x74, 0x3e,
  0x83, 0x5d, 0xe9, 0x3e, 0x33, 0xd4, 0x4b, 0xbd, 0x45, 0xd6, 0xee, 0x3d,
  0xec, 0x7f, 0xa8, 0x3e, 0x01, 0x01, 0x84, 0x3e, 0x85, 0x1e, 0xdb, 0xbe,
  0x27, 0x84, 0xb8, 0xbe, 0xbc, 0xab, 0xb2, 0x3d, 0x14, 0x12, 0xa0, 0xbe,
  0x26, 0xbe, 0xf6, 0xbf, 0xbe, 0x54, 0xcd, 0xbf, 0x77, 0x79, 0xc5, 0xbf,
  0x8f, 0x85, 0xd4, 0x3c, 0x1e, 0x4b, 0x0b, 0x40, 0x2e, 0x80, 0xa8, 0xbe,
  0xe4, 0x08, 0xd5, 0xbe, 0x60, 0xee, 0x01, 0xbe, 0x84, 0xcc, 0xf0, 0xbd,
  0x6e, 0x5e, 0x18, 0xbf, 0x3b, 0xd6, 0x8b, 0x3d, 0xff, 0x60, 0xb1, 0x3e,
  0xc6, 0xf9, 0x52, 0x3e, 0x8a, 0xf3, 0x79, 0x3e, 0x0d, 0x89, 0x2a, 0x3e,
  0xc6, 0xac, 0x2a, 0x3e, 0x43, 0x8c, 0xa5, 0xbc, 0xe3, 0xf3, 0xe7, 0x3c,
  0xd1, 0xe1, 0xb6, 0x3d, 0x13, 0x67, 0x24, 0xbb, 0x98, 0x85, 0xc5, 0x3c,
  0x0d, 0x4b, 0x13, 0x3f, 0xb1, 0x63, 0x03, 0xc0, 0x68, 0x21, 0x3a, 0xc0,
  0x5b, 0x0d, 0xaa, 0x3e, 0x61, 0x09, 0x4f, 0x3f, 0x12, 0xa6, 0x84, 0x3e,
  0x8a, 0x1d, 0x0d, 0x3f, 0x7b, 0xda, 0x62, 0xbe, 0x3a, 0x93, 0x0e, 0x3f,
  0xe5, 0xbc, 0x4d, 0x3d, 0x9c, 0x7e, 0x58, 0x3e, 0xfd, 0xa9, 0x56, 0xbc,
  0xfd, 0xf4, 0x1a, 0x3e, 0xdc, 0x10, 0x1d, 0x3e, 0x8e, 0x1c, 0x18, 0x3f,
  0x11, 0xb2, 0x91, 0xbe, 0xde, 0xb3, 0x16, 0xbe, 0xec, 0x06, 0x9f, 0x3e,
  0x5b, 0xdc, 0x60, 0xbe, 0x8c, 0xa1, 0x2e, 0x3c, 0xda, 0xcf, 0xf5, 0xbd,
  0xbe, 0xb8, 0xde, 0xbf, 0xd4, 0x80, 0xc5, 0x3e, 0xcb, 0x2c, 0xf5, 0xbc,
  0x39, 0xbb, 0x49, 0xbc, 0xbd, 0x55, 0x82, 0xc0, 0x80, 0x7c, 0xab, 0x3e,
  0xca, 0xf8, 0x06, 0x3f, 0x09, 0x07, 0x16, 0x3e, 0x69, 0x9c, 0x29, 0x3e,
  0x0b, 0xf3, 0x42, 0x3e, 0x4c, 0x5f, 0xe1, 0xbc, 0x7b, 0x0e, 0xfb, 0xbe,
  0x43, 0xa8, 0xe6, 0x3d, 0x47, 0xc2, 0xc3, 0x3b, 0x70, 0x14, 0x8f, 0xbe,
  0x50, 0xa6, 0x10, 0xbf, 0x4c, 0x5a, 0xef, 0x3d, 0x52, 0xa1, 0xb3, 0x3c,
  0xa8, 0x5d, 0x8f, 0x3e, 0xc7, 0x20, 0x8a, 0x3e, 0xf9, 0x25, 0x96, 0x3c,
  0xaa, 0x31, 0x22, 0xc0, 0xad, 0x16, 0x49, 0x3f, 0x2a, 0x84, 0x8a, 0x3f,
  0x12, 0xb5, 0x8f, 0xbe, 0x91, 0x75, 0x18, 0xc0, 0xf0, 0x78, 0xc0, 0x3c,
  0xff, 0x6d, 0xb3, 0xbe, 0xb7, 0xcf, 0xa6, 0xbe, 0x9c, 0xd1, 0x15, 0xbf,
  0xc1, 0x55, 0x42, 0xbe, 0x46, 0xfe, 0xd1, 0xbd, 0x67, 0x6c, 0x05, 0x3f,
  0x04, 0x0b, 0x9a, 0x3c, 0x5a, 0xee, 0x6e, 0x3e, 0x18, 0x75, 0x01, 0xbe,
  0x24, 0xe9, 0x50, 0xbe, 0x73, 0xd4, 0x53, 0x3d, 0x93, 0xad, 0xcc, 0x3d,
  0xf5, 0x28, 0xf7, 0xbe, 0xaa, 0xe5, 0xd5, 0xbe, 0x2b, 0x71, 0x1f, 0x3e,
  0x5b, 0xdc, 0x36, 0xbe, 0x86, 0x99, 0xb3, 0xbf, 0xd0, 0x54, 0xd5, 0xbf,
  0xa7, 0x4f, 0x7c, 0xbe, 0x4d, 0x20, 0x86, 0x40, 0xb8, 0x40, 0xf8, 0xbe,
  0xc7, 0x70, 0x60, 0x3d, 0x96, 0x2a, 0xab, 0xbe, 0x4a, 0x19, 0x88, 0x3e,
  0xbf, 0x43, 0x3d, 0xbe, 0xc8, 0xb7, 0xe8, 0xbd, 0x06, 0x86, 0xba, 0xbe,
  0x59, 0xae, 0xeb, 0x3e, 0xa6, 0x76, 0xde, 0x3e, 0x92, 0xe0, 0x43, 0x3f,
  0x90, 0x70, 0x13, 0x3f, 0x3a, 0x7b, 0x18, 0x3d, 0x94, 0x9f, 0xc5, 0x3e,
  0xc9, 0x72, 0xb9, 0xbe, 0x09, 0xe7, 0x71, 0x3e, 0xe7, 0x14, 0xf8, 0xbe,
  0x8f, 0xcb, 0xaa, 0x3e, 0x66, 0xa4, 0x14, 0xc0, 0x6c, 0x2a, 0x3d, 0xc0,
  0xb0, 0x9e, 0x0c, 0x3f, 0x60, 0x40, 0xad, 0xbf, 0xdb, 0xe4, 0xb5, 0x3e,
  0xcd, 0x32, 0x86, 0x3e, 0xe9, 0xfa, 0x97, 0x3e, 0x33, 0xdf, 0x71, 0x3e,
  0xf8, 0x49, 0x85, 0x3e, 0xac, 0x6f, 0x85, 0xbd, 0x4b, 0x85, 0xee, 0xbc,
  0x5c, 0xe1, 0x02, 0xbf, 0x8d, 0x08, 0xea, 0xbe, 0xc0, 0x80, 0x1b, 0xbf,
  0xee, 0x53, 0xb4, 0xbe, 0x7a, 0xeb, 0xf9, 0xbe, 0x8e, 0x77, 0xe3, 0xbe,
  0xe2, 0x4e, 0xda, 0xbe, 0x9b, 0x5e, 0x86, 0xbd, 0x7c, 0x5e, 0x6a, 0xbd,
  0x47, 0x17, 0xf1, 0xbf, 0xc6, 0x43, 0x1b, 0x3f, 0xec, 0x91, 0x82, 0x3f,
  0xe4, 0xde, 0x0c, 0xbd, 0x22, 0xc2, 0x05, 0x40, 0xa6, 0xe9, 0x57, 0x3e,
  0xc9, 0xe4, 0x09, 0x3f, 0x61, 0x00, 0xec, 0x3e, 0xcd, 0x63, 0x1e, 0x3f,
  0xf7, 0xda, 0x3e, 0xbe, 0xe8, 0x5d, 0x61, 0x3e, 0x17, 0xcb, 0xea, 0xbe,
  0x49, 0xdf, 0x08, 0x3f, 0xc6, 0x05, 0x1e, 0xbd, 0x13, 0x11, 0x5b, 0x3e,
  0xa5, 0xe2, 0xc2, 0x3d, 0x6c, 0x38, 0xb0, 0x3e, 0x1b, 0x1c, 0xac, 0xbd,
  0x2d, 0xcb, 0x8b, 0xbe, 0x63, 0xe8, 0x45, 0xbe, 0x88, 0xa7, 0x6f, 0xbf,
  0x12, 0x6b, 0xe6, 0xbf, 0xab, 0x24, 0x5b, 0xbe, 0x54, 0xda, 0xfd, 0xbe,
  0x7d, 0xfc, 0xda, 0xbe, 0x50, 0x3c, 0xfe, 0x3e, 0xd9, 0x22, 0x9c, 0x3e,
  0x23, 0x34, 0x83, 0x3e, 0x5f, 0xb6, 0x57, 0xbe, 0x05, 0x7e, 0x4e, 0x3e,
  0x6a, 0x0c, 0x27, 0x3f, 0x55, 0xf7, 0x2b, 0x3b, 0x0d, 0x39, 0xb1, 0xbe,
  0xf4, 0xe2, 0x93, 0xbe, 0xf1, 0x43, 0x62, 0x3e, 0xf6, 0x7a, 0x9f, 0xbe,
  0x2c, 0xdb, 0xa8, 0xbd, 0x11, 0x71, 0x36, 0xbe, 0xa9, 0x00, 0x44, 0x3e,
  0xb0, 0x79, 0x90, 0x3e, 0x23, 0x1e, 0x5f, 0xbd, 0x48, 0x65, 0xed, 0x3e,
  0x41, 0x9a, 0x59, 0xc0, 0x28, 0xe0, 0xed, 0x3d, 0x86, 0x6b, 0x10, 0x3f,
  0x40, 0x23, 0xf1, 0xbe, 0x21, 0xda, 0x43, 0x3f, 0xc6, 0xb9, 0x09, 0xbf,
  0xdc, 0x7e, 0xc6, 0xbc, 0xec, 0x69, 0xcf, 0xbd, 0x7a, 0x3e, 0xd8, 0x3e,
  0x26, 0x98, 0x97, 0xbe, 0x94, 0x11, 0x6b, 0xbe, 0x28, 0x88, 0x9a, 0xbe,
  0x4f, 0xc1, 0x06, 0x3f, 0x3e, 0xf4, 0x68, 0x3e, 0x34, 0x74, 0x5c, 0x3e,
  0xec, 0x93, 0x03, 0x3e, 0x64, 0xc3, 0xa6, 0xbc, 0x0a, 0xfb, 0x05, 0xbd,
  0xcb, 0xe9, 0x65, 0xbe, 0x8d, 0x91, 0xde, 0x3e, 0xab, 0xd4, 0xbf, 0x3e,
  0x78, 0x68, 0x24, 0xbc, 0x12, 0x44, 0xee, 0xbf, 0x89, 0x22, 0x1a, 0xc0,
  0xa0, 0xfd, 0x4b, 0x3f, 0x3d, 0x72, 0xb4, 0xbf, 0x66, 0x30, 0x27, 0xbe,
  0xa2, 0x1e, 0x19, 0xbf, 0xc6, 0xac, 0x1f, 0xbd, 0xcf, 0xa6, 0x16, 0xbf,
  0x6f, 0x2a, 0x49, 0x3e, 0xb5, 0x0d, 0xcf, 0x3e, 0x01, 0xf1, 0x36, 0x3f,
  0x37, 0x25, 0x97, 0x3d, 0x23, 0xaf, 0xf9, 0xbc, 0x34, 0xb8, 0x6e, 0xbf,
  0xea, 0xb6, 0x2e, 0xbe, 0x37, 0x79, 0x51, 0x3d, 0x04, 0xd7, 0xca, 0xbe,
  0xe5, 0xd7, 0xea, 0xbe, 0xf4, 0x24, 0x0f, 0xbf, 0x64, 0x61, 0x88, 0x3e,
  0xf2, 0x89, 0x00, 0xc0, 0x35, 0xa7, 0xbd, 0xbd, 0xdc, 0x41, 0xf7, 0xbe,
  0x1d, 0x72, 0x2d, 0xbf, 0xa6, 0x29, 0xb6, 0x40, 0x98, 0xf7, 0xff, 0xff,
  0x9c, 0xf7, 0xff, 0xff, 0xa0, 0xf7, 0xff, 0xff, 0xa4, 0xf7, 0xff, 0xff,
  0x04, 0x00, 0x06, 0x00, 0x04, 0x00, 0x00, 0x00, 0x00, 0x00, 0x06, 0x00,
  0x08, 0x00, 0x04, 0x00, 0x06, 0x00, 0x00, 0x00, 0x04, 0x00, 0x00, 0x00,
  0x48, 0x03, 0x00, 0x00, 0x95, 0xe2, 0x57, 0xbf, 0x27, 0x24, 0x48, 0xbf,
  0x14, 0xdd, 0x48, 0xbf, 0x72, 0x73, 0x1b, 0x3f, 0x10, 0x83, 0x0c, 0xbf,
  0xf5, 0xa8, 0x9c, 0xbf, 0x45, 0xc6, 0x4f, 0xbe, 0x29, 0xeb, 0x60, 0xbf,
  0xf7, 0xa3, 0x88, 0xbf, 0xb5, 0xfb, 0xa5, 0xbb, 0x23, 0x4d, 0x9b, 0xbe,
  0x3b, 0x7c, 0x17, 0x3f, 0x69, 0xb6, 0x19, 0xbf, 0x93, 0x81, 0x90, 0xbf,
  0x02, 0xc2, 0xdc, 0xbe, 0x58, 0x63, 0x02, 0x3f, 0xd4, 0xcc, 0x06, 0xbf,
  0xff, 0x68, 0xc3, 0xbe, 0x13, 0x7c, 0x87, 0xbf, 0x25, 0x97, 0x89, 0x3e,
  0x3b, 0x3c, 0xe7, 0xbd, 0x4b, 0x21, 0x4e, 0xbf, 0x0f, 0xd3, 0x3e, 0xbf,
  0x1d, 0xbb, 0x56, 0xbf, 0xd5, 0x91, 0x28, 0x3e, 0x6e, 0xd7, 0xa6, 0x3e,
  0xc5, 0xd8, 0xf8, 0x3e, 0x5a, 0x9d, 0xbd, 0xbe, 0x48, 0x7d, 0x4a, 0xbf,
  0x7c, 0x1b, 0xfb, 0x3e, 0x0e, 0xc7, 0x8e, 0x3f, 0x6d, 0x71, 0xa0, 0xbf,
  0x28, 0x21, 0xf3, 0xbe, 0x78, 0x51, 0x85, 0x3f, 0x1e, 0xa9, 0x8e, 0x3e,
  0xb2, 0x28, 0xb9, 0xbf, 0xeb, 0x67, 0x22, 0x3f, 0x5a, 0xc1, 0x93, 0xbf,
  0x32, 0x9d, 0x96, 0xbe, 0x0d, 0x90, 0x93, 0xbf, 0xf1, 0x72, 0x12, 0x3f,
  0xf6, 0xc3, 0x10, 0xc0, 0xd6, 0xcd, 0xda, 0xba, 0x70, 0xd6, 0x94, 0xbe,
  0x06, 0x7b, 0x59, 0x3e, 0xf5, 0xe4, 0x82, 0xbf, 0xed, 0x90, 0x4c, 0xbf,
  0x53, 0x98, 0x18, 0xbb, 0x85, 0xc2, 0x80, 0xbe, 0x3f, 0x8a, 0x96, 0x3d,
  0x03, 0x51, 0x2f, 0xbf, 0x47, 0x8c, 0xbc, 0xbf, 0x42, 0xbc, 0xaa, 0xbe,
  0x29, 0xf9, 0x91, 0xbf, 0x44, 0x4c, 0x6b, 0xbf, 0x16, 0xbb, 0x53, 0xbc,
  0x53, 0x60, 0xb0, 0xbc, 0x54, 0xbd, 0xb1, 0xbf, 0xa7, 0xf3, 0xad, 0x3e,
  0xd3, 0x95, 0x79, 0xbf, 0x29, 0x51, 0x83, 0x3f, 0x11, 0x81, 0xb6, 0xbf,
  0xbb, 0x6a, 0xab, 0x3e, 0x09, 0x37, 0x3e, 0xbf, 0xd4, 0x42, 0x23, 0xbf,
  0x06, 0x6f, 0xad, 0xbe, 0x55, 0xd3, 0x47, 0xbf, 0xad, 0x2d, 0xb3, 0xbd,
  0x07, 0x52, 0xf4, 0xbf, 0xa0, 0x33, 0x9c, 0xbf, 0xde, 0x82, 0x96, 0x3d,
  0x57, 0xcb, 0x08, 0xbf, 0xaa, 0xfb, 0x53, 0x3e, 0x30, 0x01, 0x32, 0xbf,
  0x0e, 0x47, 0x1c, 0xbf, 0xd9, 0x5f, 0x49, 0xbf, 0x36, 0xf6, 0x58, 0xbf,
  0xe8, 0x3c, 0xc8, 0x3e, 0x68, 0xe3, 0x5d, 0xbf, 0xa9, 0x31, 0xe5, 0x3d,
  0xde, 0x03, 0x4b, 0xbe, 0x55, 0x57, 0x4e, 0xbf, 0xbb, 0x90, 0xa0, 0xbf,
  0x9a, 0x1a, 0x52, 0xbe, 0x94, 0x2d, 0xf0, 0x3d, 0xcf, 0x96, 0x09, 0x3f,
  0x63, 0x68, 0xbd, 0x3e, 0x8b, 0x0e, 0x29, 0xbf, 0x32, 0x1a, 0x51, 0x3e,
  0xd5, 0x63, 0x75, 0x3f, 0xd4, 0x33, 0x90, 0xbf, 0x1c, 0x3a, 0xd5, 0xbe,
  0x92, 0x58, 0xd2, 0x3e, 0x1e, 0xcc, 0x40, 0x3f, 0x41, 0xcb, 0x7c, 0xbf,
  0x4c, 0x8a, 0x8f, 0xbf, 0xa6, 0x00, 0x10, 0x3f, 0xba, 0x1f, 0xd7, 0x3d,
  0x7f, 0xce, 0x9b, 0xbf, 0xd9, 0x32, 0x88, 0xbf, 0x97, 0xb5, 0xa2, 0x3d,
  0x0e, 0xb0, 0x78, 0xbf, 0x8d, 0x7f, 0xa5, 0xbd, 0xcf, 0xd3, 0x95, 0xbe,
  0x05, 0x74, 0x9e, 0xbf, 0x98, 0x4c, 0xca, 0x3e, 0xa9, 0x3e, 0x06, 0xbf,
  0x9a, 0x7e, 0x9a, 0xbe, 0xed, 0x18, 0x8e, 0xbf, 0xdb, 0x31, 0xe1, 0x3e,
  0xe7, 0xa8, 0x44, 0xbf, 0x6e, 0x41, 0x9d, 0xbf, 0x40, 0xd7, 0x30, 0x3f,
  0xbe, 0xc2, 0xbc, 0xbe, 0x8d, 0x03, 0x4b, 0xbe, 0x2d, 0x86, 0x28, 0xbf,
  0xb4, 0xc6, 0x5c, 0xbf, 0x50, 0x92, 0xd7, 0xbe, 0xc6, 0x93, 0x86, 0x3e,
  0x65, 0x94, 0x0f, 0xbf, 0x03, 0x30, 0xce, 0xbf, 0x12, 0xf5, 0x89, 0x3e,
  0xdc, 0x96, 0x26, 0xbe, 0xfb, 0x1d, 0x38, 0x3d, 0xc7, 0xb5, 0x7e, 0xbf,
  0x14, 0x33, 0x00, 0xbe, 0x25, 0xeb, 0x7c, 0x3e, 0xdf, 0x4f, 0xcd, 0xbe,
  0x9b, 0xfc, 0x80, 0xbe, 0x45, 0xdc, 0xbe, 0xbf, 0xbd, 0xc1, 0x36, 0x3f,
  0x8b, 0xc5, 0xf7, 0xbe, 0x2d, 0x10, 0xaf, 0xbf, 0xbf, 0xe4, 0x51, 0x3f,
  0xbd, 0x40, 0x85, 0x3e, 0x59, 0x51, 0xaa, 0xbe, 0x37, 0x0d, 0x0e, 0xbf,
  0x7b, 0x28, 0xce, 0xbf, 0xe8, 0xcc, 0x88, 0x3d, 0xe9, 0xbc, 0xf8, 0x3e,
  0x6c, 0xbd, 0x74, 0xbf, 0xdc, 0x69, 0xd9, 0xbf, 0x97, 0xcb, 0xc2, 0xbe,
  0xda, 0x97, 0x84, 0x3d, 0xf5, 0x6e, 0xd9, 0xbd, 0xb2, 0xa3, 0xa5, 0xbf,
  0x12, 0x1f, 0x92, 0xbe, 0x26, 0xb0, 0xd1, 0xbe, 0x36, 0x3d, 0xec, 0xbe,
  0x48, 0x0f, 0x21, 0xbf, 0x17, 0x9c, 0x0c, 0xbf, 0xfe, 0x8b, 0xaf, 0x3e,
  0xbe, 0xdf, 0xa5, 0xbf, 0x30, 0xd2, 0xad, 0xbf, 0x1d, 0x0c, 0xaa, 0x3e,
  0xe0, 0x1c, 0x18, 0xbf, 0xeb, 0x56, 0x1b, 0x3f, 0x4a, 0xeb, 0x5a, 0xbf,
  0x7e, 0xfb, 0x67, 0xbf, 0x47, 0xbd, 0x25, 0xbf, 0x32, 0xac, 0xf5, 0xbe,
  0xf0, 0x82, 0xe2, 0xbe, 0xdf, 0x12, 0x67, 0xbf, 0xf0, 0x22, 0x3a, 0xbe,
  0x67, 0xd7, 0x17, 0xbe, 0xc9, 0xf0, 0x37, 0xbf, 0x56, 0x8d, 0xa0, 0xbf,
  0x05, 0xed, 0xbe, 0xbe, 0xf8, 0x7e, 0x40, 0xbf, 0xde, 0x6f, 0xcb, 0xbe,
  0xbd, 0x8f, 0xfd, 0xbe, 0xc5, 0x1b, 0x2c, 0xbd, 0x9a, 0x0f, 0x04, 0xbf,
  0x4f, 0x4d, 0xef, 0xbf, 0x7d, 0x51, 0xcc, 0xbe, 0x05, 0x48, 0x34, 0xbf,
  0x71, 0x5d, 0xa5, 0xbf, 0x70, 0x28, 0xa4, 0x3e, 0xd7, 0x96, 0x1f, 0xbe,
  0x3a, 0xcb, 0xac, 0x3d, 0x64, 0xc6, 0xae, 0xbf, 0x44, 0x8a, 0x9a, 0xbf,
  0xcf, 0x63, 0x18, 0x3f, 0xa9, 0xef, 0x66, 0xbf, 0xc1, 0x10, 0xc6, 0xbe,
  0xae, 0x81, 0x92, 0xbd, 0xed, 0xd9, 0x4f, 0xbf, 0x35, 0x4f, 0xed, 0xbe,
  0xcc, 0x42, 0xd2, 0x3d, 0x74, 0xa4, 0x8c, 0xbf, 0xf5, 0xe0, 0x4e, 0xbf,
  0xd2, 0x93, 0x7e, 0xbf, 0x0d, 0x9c, 0x5b, 0x3e, 0xa8, 0x5e, 0x0f, 0xbf,
  0x09, 0x2a, 0x2b, 0xbf, 0xb3, 0xe6, 0x0f, 0x3f, 0xab, 0x82, 0x32, 0xbf,
  0xf7, 0x7d, 0x22, 0xbf, 0x88, 0xa3, 0x60, 0x3e, 0xdc, 0x50, 0x09, 0xbf,
  0x5f, 0x65, 0x2f, 0x3f, 0x81, 0x55, 0x4e, 0xbf, 0x17, 0x87, 0x4c, 0xbf,
  0xee, 0xa7, 0x91, 0xbb, 0xe1, 0x9e, 0x5d, 0x3e, 0x28, 0xc9, 0x18, 0xbf,
  0xbc, 0x7b, 0x39, 0xbf, 0xa4, 0x12, 0x5b, 0xbf, 0x21, 0xf2, 0xf4, 0x3e,
  0xd1, 0xf5, 0x3a, 0xbf, 0x0c, 0xfb, 0xff, 0xff, 0x10, 0xfb, 0xff, 0xff,
  0x0f, 0x00, 0x00, 0x00, 0x54, 0x4f, 0x43, 0x4f, 0x20, 0x43, 0x6f, 0x6e,
  0x76, 0x65, 0x72, 0x74, 0x65, 0x64, 0x2e, 0x00, 0x01, 0x00, 0x00, 0x00,
  0x10, 0x00, 0x00, 0x00, 0x0c, 0x00, 0x14, 0x00, 0x04, 0x00, 0x08, 0x00,
  0x0c, 0x00, 0x10, 0x00, 0x0c, 0x00, 0x00, 0x00, 0x24, 0x01, 0x00, 0x00,
  0x18, 0x01, 0x00, 0x00, 0x0c, 0x01, 0x00, 0x00, 0x04, 0x00, 0x00, 0x00,
  0x05, 0x00, 0x00, 0x00, 0xd0, 0x00, 0x00, 0x00, 0x9c, 0x00, 0x00, 0x00,
  0x5c, 0x00, 0x00, 0x00, 0x38, 0x00, 0x00, 0x00, 0x04, 0x00, 0x00, 0x00,
  0x52, 0xff, 0xff, 0xff, 0x00, 0x00, 0x00, 0x08, 0x18, 0x00, 0x00, 0x00,
  0x0c, 0x00, 0x00, 0x00, 0x04, 0x00, 0x00, 0x00, 0x7c, 0xfb, 0xff, 0xff,
  0x01, 0x00, 0x00, 0x00, 0x00, 0x00, 0x00, 0x00, 0x03, 0x00, 0x00, 0x00,
  0x09, 0x00, 0x00, 0x00, 0x0a, 0x00, 0x00, 0x00, 0x0b, 0x00, 0x00, 0x00,
  0xae, 0xff, 0xff, 0xff, 0x01, 0x00, 0x00, 0x00, 0x10, 0x00, 0x00, 0x00,
  0x04, 0x00, 0x00, 0x00, 0x01, 0x00, 0x00, 0x00, 0x09, 0x00, 0x00, 0x00,
  0x01, 0x00, 0x00, 0x00, 0x06, 0x00, 0x00, 0x00, 0xa2, 0xff, 0xff, 0xff,
  0x00, 0x00, 0x00, 0x08, 0x18, 0x00, 0x00, 0x00, 0x0c, 0x00, 0x00, 0x00,
  0x04, 0x00, 0x00, 0x00, 0xcc, 0xfb, 0xff, 0xff, 0x01, 0x00, 0x00, 0x00,
  0x06, 0x00, 0x00, 0x00, 0x03, 0x00, 0x00, 0x00, 0x05, 0x00, 0x00, 0x00,
  0x07, 0x00, 0x00, 0x00, 0x08, 0x00, 0x00, 0x00, 0x00, 0x00, 0x0a, 0x00,
  0x10, 0x00, 0x04, 0x00, 0x08, 0x00, 0x0c, 0x00, 0x0a, 0x00, 0x00, 0x00,
  0x01, 0x00, 0x00, 0x00, 0x10, 0x00, 0x00, 0x00, 0x04, 0x00, 0x00, 0x00,
  0x01, 0x00, 0x00, 0x00, 0x05, 0x00, 0x00, 0x00, 0x01, 0x00, 0x00, 0x00,
  0x02, 0x00, 0x00, 0x00, 0x00, 0x00, 0x0e, 0x00, 0x14, 0x00, 0x00, 0x00,
  0x08, 0x00, 0x0c, 0x00, 0x07, 0x00, 0x10, 0x00, 0x0e, 0x00, 0x00, 0x00,
  0x00, 0x00, 0x00, 0x08, 0x18, 0x00, 0x00, 0x00, 0x0c, 0x00, 0x00, 0x00,
  0x04, 0x00, 0x00, 0x00, 0x38, 0xfc, 0xff, 0xff, 0x01, 0x00, 0x00, 0x00,
  0x02, 0x00, 0x00, 0x00, 0x03, 0x00, 0x00, 0x00, 0x01, 0x00, 0x00, 0x00,
  0x03, 0x00, 0x00, 0x00, 0x04, 0x00, 0x00, 0x00, 0x01, 0x00, 0x00, 0x00,
  0x00, 0x00, 0x00, 0x00, 0x01, 0x00, 0x00, 0x00, 0x01, 0x00, 0x00, 0x00,
  0x0c, 0x00, 0x00, 0x00, 0x84, 0x03, 0x00, 0x00, 0x1c, 0x03, 0x00, 0x00,
  0xd4, 0x02, 0x00, 0x00, 0x74, 0x02, 0x00, 0x00, 0x2c, 0x02, 0x00, 0x00,
  0xe4, 0x01, 0x00, 0x00, 0x9c, 0x01, 0x00, 0x00, 0x3c, 0x01, 0x00, 0x00,
  0xf4, 0x00, 0x00, 0x00, 0xac, 0x00, 0x00, 0x00, 0x4c, 0x00, 0x00, 0x00,
  0x04, 0x00, 0x00, 0x00, 0xba, 0xfc, 0xff, 0xff, 0x38, 0x00, 0x00, 0x00,
  0x0c, 0x00, 0x00, 0x00, 0x0c, 0x00, 0x00, 0x00, 0x04, 0x00, 0x00, 0x00,
  0xac, 0xfc, 0xff, 0xff, 0x1e, 0x00, 0x00, 0x00, 0x73, 0x65, 0x71, 0x75,
  0x65, 0x6e, 0x74, 0x69, 0x61, 0x6c, 0x2f, 0x64, 0x65, 0x6e, 0x73, 0x65,
  0x5f, 0x32, 0x2f, 0x4d, 0x61, 0x74, 0x4d, 0x75, 0x6c, 0x5f, 0x62, 0x69,
  0x61, 0x73, 0x00, 0x00, 0x01, 0x00, 0x00, 0x00, 0x05, 0x00, 0x00, 0x00,
  0xfe, 0xfc, 0xff, 0xff, 0x4c, 0x00, 0x00, 0x00, 0x0b, 0x00, 0x00, 0x00,
  0x0c, 0x00, 0x00, 0x00, 0x04, 0x00, 0x00, 0x00, 0xf0, 0xfc, 0xff, 0xff,
  0x32, 0x00, 0x00, 0x00, 0x73, 0x65, 0x71, 0x75, 0x65, 0x6e, 0x74, 0x69,
  0x61, 0x6c, 0x2f, 0x64, 0x65, 0x6e, 0x73, 0x65, 0x5f, 0x32, 0x2f, 0x4d,
  0x61, 0x74, 0x4d, 0x75, 0x6c, 0x2f, 0x52, 0x65, 0x61, 0x64, 0x56, 0x61,
  0x72, 0x69, 0x61, 0x62, 0x6c, 0x65, 0x4f, 0x70, 0x2f, 0x74, 0x72, 0x61,
  0x6e, 0x73, 0x70, 0x6f, 0x73, 0x65, 0x00, 0x00, 0x02, 0x00, 0x00, 0x00,
  0x05, 0x00, 0x00, 0x00, 0x0a, 0x00, 0x00, 0x00, 0x5a, 0xfd, 0xff, 0xff,
  0x34, 0x00, 0x00, 0x00, 0x06, 0x00, 0x00, 0x00, 0x0c, 0x00, 0x00, 0x00,
  0x04, 0x00, 0x00, 0x00, 0x4c, 0xfd, 0xff, 0xff, 0x1a, 0x00, 0x00, 0x00,
  0x73, 0x65, 0x71, 0x75, 0x65, 0x6e, 0x74, 0x69, 0x61, 0x6c, 0x2f, 0x64,
  0x65, 0x6e, 0x73, 0x65, 0x5f, 0x31, 0x2f, 0x53, 0x69, 0x67, 0x6d, 0x6f,
  0x69, 0x64, 0x00, 0x00, 0x02, 0x00, 0x00, 0x00, 0x01, 0x00, 0x00, 0x00,
  0x0a, 0x00, 0x00, 0x00, 0x9e, 0xfd, 0xff, 0xff, 0x38, 0x00, 0x00, 0x00,
  0x0a, 0x00, 0x00, 0x00, 0x0c, 0x00, 0x00, 0x00, 0x04, 0x00, 0x00, 0x00,
  0x90, 0xfd, 0xff, 0xff, 0x1e, 0x00, 0x00, 0x00, 0x73, 0x65, 0x71, 0x75,
  0x65, 0x6e, 0x74, 0x69, 0x61, 0x6c, 0x2f, 0x64, 0x65, 0x6e, 0x73, 0x65,
  0x5f, 0x31, 0x2f, 0x4d, 0x61, 0x74, 0x4d, 0x75, 0x6c, 0x5f, 0x62, 0x69,
  0x61, 0x73, 0x00, 0x00, 0x01, 0x00, 0x00, 0x00, 0x0a, 0x00, 0x00, 0x00,
  0xe2, 0xfd, 0xff, 0xff, 0x4c, 0x00, 0x00, 0x00, 0x02, 0x00, 0x00, 0x00,
  0x0c, 0x00, 0x00, 0x00, 0x04, 0x00, 0x00, 0x00, 0xd4, 0xfd, 0xff, 0xff,
  0x32, 0x00, 0x00, 0x00, 0x73, 0x65, 0x71, 0x75, 0x65, 0x6e, 0x74, 0x69,
  0x61, 0x6c, 0x2f, 0x64, 0x65, 0x6e, 0x73, 0x65, 0x5f, 0x31, 0x2f, 0x4d,
  0x61, 0x74, 0x4d, 0x75, 0x6c, 0x2f, 0x52, 0x65, 0x61, 0x64, 0x56, 0x61,
  0x72, 0x69, 0x61, 0x62, 0x6c, 0x65, 0x4f, 0x70, 0x2f, 0x74, 0x72, 0x61,
  0x6e, 0x73, 0x70, 0x6f, 0x73, 0x65, 0x00, 0x00, 0x02, 0x00, 0x00, 0x00,
  0x0a, 0x00, 0x00, 0x00, 0x15, 0x00, 0x00, 0x00, 0x3e, 0xfe, 0xff, 0xff,
  0x34, 0x00, 0x00, 0x00, 0x04, 0x00, 0x00, 0x00, 0x0c, 0x00, 0x00, 0x00,
  0x04, 0x00, 0x00, 0x00, 0x30, 0xfe, 0xff, 0xff, 0x1a, 0x00, 0x00, 0x00,
  0x73, 0x65, 0x71, 0x75, 0x65, 0x6e, 0x74, 0x69, 0x61, 0x6c, 0x2f, 0x64,
  0x65, 0x6e, 0x73, 0x65, 0x5f, 0x31, 0x2f, 0x42, 0x69, 0x61, 0x73, 0x41,
  0x64, 0x64, 0x00, 0x00, 0x02, 0x00, 0x00, 0x00, 0x01, 0x00, 0x00, 0x00,
  0x0a, 0x00, 0x00, 0x00, 0x82, 0xfe, 0xff, 0xff, 0x34, 0x00, 0x00, 0x00,
  0x05, 0x00, 0x00, 0x00, 0x0c, 0x00, 0x00, 0x00, 0x04, 0x00, 0x00, 0x00,
  0x74, 0xfe, 0xff, 0xff, 0x18, 0x00, 0x00, 0x00, 0x73, 0x65, 0x71, 0x75,
  0x65, 0x6e, 0x74, 0x69, 0x61, 0x6c, 0x2f, 0x64, 0x65, 0x6e, 0x73, 0x65,
  0x2f, 0x53, 0x69, 0x67, 0x6d, 0x6f, 0x69, 0x64, 0x00, 0x00, 0x00, 0x00,
  0x02, 0x00, 0x00, 0x00, 0x01, 0x00, 0x00, 0x00, 0x15, 0x00, 0x00, 0x00,
  0xc6, 0xfe, 0xff, 0xff, 0x38, 0x00, 0x00, 0x00, 0x09, 0x00, 0x00, 0x00,
  0x0c, 0x00, 0x00, 0x00, 0x04, 0x00, 0x00, 0x00, 0xb8, 0xfe, 0xff, 0xff,
  0x1c, 0x00, 0x00, 0x00, 0x73, 0x65, 0x71, 0x75, 0x65, 0x6e, 0x74, 0x69,
  0x61, 0x6c, 0x2f, 0x64, 0x65, 0x6e, 0x73, 0x65, 0x2f, 0x4d, 0x61, 0x74,
  0x4d, 0x75, 0x6c, 0x5f, 0x62, 0x69, 0x61, 0x73, 0x00, 0x00, 0x00, 0x00,
  0x01, 0x00, 0x00, 0x00, 0x15, 0x00, 0x00, 0x00, 0x0a, 0xff, 0xff, 0xff,
  0x4c, 0x00, 0x00, 0x00, 0x08, 0x00, 0x00, 0x00, 0x0c, 0x00, 0x00, 0x00,
  0x04, 0x00, 0x00, 0x00, 0xfc, 0xfe, 0xff, 0xff, 0x30, 0x00, 0x00, 0x00,
  0x73, 0x65, 0x71, 0x75, 0x65, 0x6e, 0x74, 0x69, 0x61, 0x6c, 0x2f, 0x64,
  0x65, 0x6e, 0x73, 0x65, 0x2f, 0x4d, 0x61, 0x74, 0x4d, 0x75, 0x6c, 0x2f,
  0x52, 0x65, 0x61, 0x64, 0x56, 0x61, 0x72, 0x69, 0x61, 0x62, 0x6c, 0x65,
  0x4f, 0x70, 0x2f, 0x74, 0x72, 0x61, 0x6e, 0x73, 0x70, 0x6f, 0x73, 0x65,
  0x00, 0x00, 0x00, 0x00, 0x02, 0x00, 0x00, 0x00, 0x15, 0x00, 0x00, 0x00,
  0x15, 0x00, 0x00, 0x00, 0x66, 0xff, 0xff, 0xff, 0x34, 0x00, 0x00, 0x00,
  0x03, 0x00, 0x00, 0x00, 0x0c, 0x00, 0x00, 0x00, 0x04, 0x00, 0x00, 0x00,
  0x58, 0xff, 0xff, 0xff, 0x18, 0x00, 0x00, 0x00, 0x73, 0x65, 0x71, 0x75,
  0x65, 0x6e, 0x74, 0x69, 0x61, 0x6c, 0x2f, 0x64, 0x65, 0x6e, 0x73, 0x65,
  0x2f, 0x42, 0x69, 0x61, 0x73, 0x41, 0x64, 0x64, 0x00, 0x00, 0x00, 0x00,
  0x02, 0x00, 0x00, 0x00, 0x01, 0x00, 0x00, 0x00, 0x15, 0x00, 0x00, 0x00,
  0xaa, 0xff, 0xff, 0xff, 0x44, 0x00, 0x00, 0x00, 0x01, 0x00, 0x00, 0x00,
  0x2c, 0x00, 0x00, 0x00, 0x0c, 0x00, 0x00, 0x00, 0x08, 0x00, 0x0c, 0x00,
  0x04, 0x00, 0x08, 0x00, 0x08, 0x00, 0x00, 0x00, 0x10, 0x00, 0x00, 0x00,
  0x04, 0x00, 0x00, 0x00, 0x01, 0x00, 0x00, 0x00, 0x00, 0x00, 0x7f, 0x43,
  0x01, 0x00, 0x00, 0x00, 0x00, 0x00, 0x00, 0x00, 0x0b, 0x00, 0x00, 0x00,
  0x64, 0x65, 0x6e, 0x73, 0x65, 0x5f, 0x69, 0x6e, 0x70, 0x75, 0x74, 0x00,
  0x02, 0x00, 0x00, 0x00, 0x01, 0x00, 0x00, 0x00, 0x15, 0x00, 0x00, 0x00,
  0x00, 0x00, 0x0e, 0x00, 0x14, 0x00, 0x04, 0x00, 0x00, 0x00, 0x08, 0x00,
  0x0c, 0x00, 0x10, 0x00, 0x0e, 0x00, 0x00, 0x00, 0x28, 0x00, 0x00, 0x00,
  0x07, 0x00, 0x00, 0x00, 0x10, 0x00, 0x00, 0x00, 0x08, 0x00, 0x00, 0x00,
  0x04, 0x00, 0x04, 0x00, 0x04, 0x00, 0x00, 0x00, 0x08, 0x00, 0x00, 0x00,
  0x49, 0x64, 0x65, 0x6e, 0x74, 0x69, 0x74, 0x79, 0x00, 0x00, 0x00, 0x00,
  0x02, 0x00, 0x00, 0x00, 0x01, 0x00, 0x00, 0x00, 0x05, 0x00, 0x00, 0x00,
  0x02, 0x00, 0x00, 0x00, 0x20, 0x00, 0x00, 0x00, 0x0c, 0x00, 0x00, 0x00,
  0x00, 0x00, 0x06, 0x00, 0x06, 0x00, 0x05, 0x00, 0x06, 0x00, 0x00, 0x00,
  0x00, 0x0e, 0x0a, 0x00, 0x0c, 0x00, 0x07, 0x00, 0x00, 0x00, 0x08, 0x00,
  0x0a, 0x00, 0x00, 0x00, 0x00, 0x00, 0x00, 0x09, 0x03, 0x00, 0x00, 0x00
 
};

