#define TENSORFLOW_LITE_EXPERIMENTAL_MICRO_EXAMPLES_HELLO_WORLD_SINE_MODEL_DATA_H_

#ifdef __has_attribute
#define HAVE_ATTRIBUTE(x) __has_attribute(x)
#else
#define HAVE_ATTRIBUTE(x) 0
#endif
#if HAVE_ATTRIBUTE(aligned) || (defined(__GNUC__) && !defined(__clang__))
#define DATA_ALIGN_ATTRIBUTE __attribute__((aligned(4)))
#else
#define DATA_ALIGN_ATTRIBUTE
#endif

const int g_sine_model_data_len = 5800;
const unsigned char g_sine_model_data[] DATA_ALIGN_ATTRIBUTE = {
0x1c, 0x00, 0x00, 0x00, 0x54, 0x46, 0x4c, 0x33, 0x00, 0x00, 0x12, 0x00,
  0x1c, 0x00, 0x04, 0x00, 0x08, 0x00, 0x0c, 0x00, 0x10, 0x00, 0x14, 0x00,
  0x00, 0x00, 0x18, 0x00, 0x12, 0x00, 0x00, 0x00, 0x03, 0x00, 0x00, 0x00,
  0x54, 0x16, 0x00, 0x00, 0x54, 0x11, 0x00, 0x00, 0x3c, 0x11, 0x00, 0x00,
  0x34, 0x00, 0x00, 0x00, 0x04, 0x00, 0x00, 0x00, 0x01, 0x00, 0x00, 0x00,
  0x04, 0x00, 0x00, 0x00, 0x50, 0xea, 0xff, 0xff, 0x08, 0x00, 0x00, 0x00,
  0x0d, 0x00, 0x00, 0x00, 0x13, 0x00, 0x00, 0x00, 0x6d, 0x69, 0x6e, 0x5f,
  0x72, 0x75, 0x6e, 0x74, 0x69, 0x6d, 0x65, 0x5f, 0x76, 0x65, 0x72, 0x73,
  0x69, 0x6f, 0x6e, 0x00, 0x0e, 0x00, 0x00, 0x00, 0xfc, 0x10, 0x00, 0x00,
  0xf4, 0x10, 0x00, 0x00, 0xbc, 0x0b, 0x00, 0x00, 0xac, 0x0b, 0x00, 0x00,
  0xa0, 0x0b, 0x00, 0x00, 0x98, 0x0b, 0x00, 0x00, 0x90, 0x0b, 0x00, 0x00,
  0x88, 0x0b, 0x00, 0x00, 0x30, 0x02, 0x00, 0x00, 0xc8, 0x01, 0x00, 0x00,
  0x7c, 0x01, 0x00, 0x00, 0x40, 0x00, 0x00, 0x00, 0x1c, 0x00, 0x00, 0x00,
  0x04, 0x00, 0x00, 0x00, 0x7a, 0xf4, 0xff, 0xff, 0x04, 0x00, 0x00, 0x00,
  0x06, 0x00, 0x00, 0x00, 0x31, 0x2e, 0x31, 0x34, 0x2e, 0x30, 0x00, 0x00,
  0x8e, 0xf4, 0xff, 0xff, 0x04, 0x00, 0x00, 0x00, 0x14, 0x00, 0x00, 0x00,
  0x4d, 0xd4, 0xde, 0x3c, 0x66, 0x65, 0x33, 0x3d, 0x46, 0xdf, 0xd0, 0x3d,
  0x70, 0xf3, 0x94, 0x3d, 0xb8, 0x2e, 0xb0, 0x3d, 0xae, 0xf4, 0xff, 0xff,
  0x04, 0x00, 0x00, 0x00, 0x2c, 0x01, 0x00, 0x00, 0x6a, 0x21, 0xcd, 0x3e,
  0x88, 0x81, 0x29, 0xbe, 0xca, 0xb4, 0x78, 0xbe, 0x02, 0x2c, 0x54, 0xbe,
  0xec, 0x56, 0x26, 0xbe, 0x17, 0xdb, 0xa7, 0x3c, 0xb4, 0x4d, 0x54, 0x3e,
  0x41, 0x77, 0x01, 0x3f, 0x99, 0x73, 0x47, 0xbe, 0xfd, 0x24, 0x20, 0x3c,
  0xe8, 0xab, 0xa0, 0xbc, 0x25, 0xbd, 0x43, 0xbd, 0x84, 0x71, 0x30, 0xbd,
  0xe0, 0xbe, 0x97, 0xbe, 0xf4, 0xa6, 0xf6, 0x3e, 0xdd, 0x0e, 0x8f, 0x3d,
  0x17, 0xa0, 0x67, 0xbe, 0xb8, 0x25, 0x6f, 0xbd, 0x88, 0xea, 0x01, 0xbe,
  0x88, 0x0c, 0xd8, 0x3e, 0x10, 0x47, 0x27, 0x3f, 0xb7, 0xc1, 0xeb, 0xbe,
  0x4e, 0xc2, 0x86, 0x3d, 0x76, 0xde, 0x63, 0x3d, 0x20, 0x15, 0xc1, 0x3c,
  0xe2, 0xf9, 0xe7, 0x3d, 0x7b, 0x07, 0x41, 0x3d, 0x75, 0x2e, 0x37, 0x3f,
  0x91, 0xa9, 0x82, 0xbe, 0x85, 0x63, 0x8b, 0x3e, 0x71, 0xb1, 0xf7, 0x3e,
  0x78, 0x6e, 0xa1, 0x3e, 0x18, 0xa9, 0xc3, 0xbe, 0x9b, 0x6f, 0x03, 0x3e,
  0xc2, 0xba, 0xbf, 0xbe, 0xbd, 0x90, 0x15, 0xbf, 0x73, 0x28, 0x8c, 0xbb,
  0xc6, 0x1a, 0x3c, 0x3e, 0x29, 0xfd, 0x03, 0xbe, 0x06, 0xc7, 0xc7, 0x3d,
  0x64, 0x68, 0xdd, 0xbe, 0x83, 0x0a, 0xeb, 0xbe, 0x77, 0xa2, 0xcc, 0x3d,
  0x54, 0x75, 0x34, 0x3f, 0x43, 0x8e, 0x25, 0x3e, 0x26, 0xc6, 0x00, 0x3e,
  0x92, 0xde, 0xc7, 0x3e, 0xb1, 0x45, 0xa6, 0xbe, 0x06, 0xaf, 0xa3, 0x3e,
  0x17, 0x7d, 0x76, 0x3e, 0xc4, 0x63, 0xd6, 0x3e, 0x13, 0xc7, 0x56, 0x3e,
  0xd9, 0xb2, 0x64, 0xbe, 0x70, 0xf9, 0x66, 0x3e, 0x69, 0x0d, 0xcf, 0xbe,
  0xdd, 0xac, 0x71, 0x3e, 0xb3, 0xbb, 0xbf, 0xbd, 0x54, 0x1a, 0x93, 0xbe,
  0x09, 0xff, 0x8c, 0x3d, 0x7d, 0xdb, 0xc2, 0xbe, 0x4f, 0x96, 0x96, 0xbe,
  0xb9, 0xa5, 0x1b, 0x3d, 0xc5, 0x34, 0xf7, 0xbc, 0x34, 0xb9, 0x1d, 0xbf,
  0x3e, 0xf5, 0xd4, 0xbe, 0x0a, 0x0d, 0x07, 0x3f, 0x4c, 0xbd, 0x0f, 0x3e,
  0xc0, 0x36, 0x02, 0x3f, 0x44, 0x19, 0x14, 0xbe, 0xaf, 0x05, 0x3a, 0x3f,
  0xce, 0x70, 0x39, 0x3f, 0xa1, 0xc9, 0x00, 0xbc, 0xf4, 0xc8, 0xa9, 0xbe,
  0xbf, 0x0f, 0xda, 0xbd, 0x4e, 0xef, 0x20, 0xbe, 0xe6, 0xf5, 0xff, 0xff,
  0x04, 0x00, 0x00, 0x00, 0x3c, 0x00, 0x00, 0x00, 0x88, 0x58, 0x98, 0x3d,
  0x35, 0xa9, 0x58, 0xbc, 0x79, 0xfd, 0xd6, 0xbd, 0x78, 0x8f, 0xe1, 0x3c,
  0x51, 0x27, 0x49, 0xbc, 0x52, 0x89, 0x62, 0x3d, 0xff, 0x16, 0x17, 0xbd,
  0x7d, 0x48, 0xa9, 0x3c, 0x01, 0xb8, 0x9c, 0xbd, 0xff, 0x5f, 0xb7, 0xbd,
  0xe3, 0x0f, 0xb3, 0xbb, 0x34, 0xa1, 0x61, 0xbd, 0xfc, 0xcc, 0xa0, 0x3d,
  0x57, 0x60, 0x3a, 0xbc, 0x21, 0x65, 0x9c, 0xbc, 0x2e, 0xf6, 0xff, 0xff,
  0x04, 0x00, 0x00, 0x00, 0x58, 0x00, 0x00, 0x00, 0xbe, 0x44, 0x2a, 0xbd,
  0xe9, 0x5c, 0xc1, 0xbd, 0xa4, 0xbb, 0x26, 0xbe, 0xc8, 0x2f, 0x12, 0xbc,
  0x7d, 0x6c, 0x15, 0xbd, 0x27, 0x52, 0xa0, 0xbd, 0x42, 0x97, 0x44, 0xbd,
  0x3e, 0x67, 0x53, 0x3d, 0x39, 0x21, 0x50, 0xbe, 0x21, 0x69, 0x22, 0xbb,
  0x82, 0xec, 0xee, 0xbd, 0xc7, 0x93, 0xe5, 0xbc, 0x67, 0xdb, 0xd8, 0xbb,
  0x73, 0xee, 0x8c, 0x3d, 0xa9, 0xf3, 0xc2, 0xbd, 0x81, 0x71, 0x1f, 0x3e,
  0xce, 0xf6, 0x31, 0xbb, 0x54, 0x8f, 0x15, 0xbc, 0xaa, 0xd8, 0xc1, 0xbc,
  0xb9, 0x99, 0x02, 0xbe, 0x86, 0x08, 0xd4, 0x3c, 0xba, 0x13, 0x60, 0xbe,
  0x92, 0xf6, 0xff, 0xff, 0x04, 0x00, 0x00, 0x00, 0x48, 0x09, 0x00, 0x00,
  0xf3, 0x46, 0xb4, 0xbe, 0x55, 0x32, 0x8c, 0xbe, 0x51, 0x6d, 0x0c, 0xbf,
  0x96, 0xdf, 0x78, 0x3c, 0xc0, 0xe0, 0x2a, 0xbe, 0xac, 0x62, 0x99, 0x3e,
  0xbb, 0x92, 0xd4, 0xbd, 0x09, 0xec, 0x97, 0x3d, 0x93, 0x82, 0xd1, 0x3d,
  0x47, 0x97, 0x0d, 0x3e, 0x16, 0x71, 0x71, 0x3d, 0xa3, 0x85, 0x95, 0xbd,
  0x04, 0x79, 0x81, 0x3d, 0x69, 0x13, 0x04, 0xbd, 0xa9, 0xcd, 0x6a, 0x3e,
  0x14, 0xba, 0x2d, 0x3e, 0xa5, 0x76, 0x8b, 0x3e, 0xea, 0x14, 0x01, 0xbf,
  0xe0, 0xa3, 0xd5, 0xbe, 0xdf, 0xbe, 0x77, 0x3d, 0xbd, 0xda, 0x12, 0x3d,
  0xef, 0x03, 0x0d, 0x3f, 0xbf, 0x2c, 0x67, 0xbe, 0xbe, 0x85, 0x20, 0xbe,
  0x08, 0x56, 0xa4, 0xbd, 0x59, 0xf5, 0xe2, 0x3e, 0xd0, 0x01, 0xc6, 0xbe,
  0x30, 0x45, 0x49, 0xbe, 0xea, 0xb1, 0xa9, 0xbe, 0xba, 0xe2, 0x6b, 0xbe,
  0x3c, 0xdd, 0x60, 0xbe, 0xea, 0x75, 0x22, 0x3e, 0xfd, 0x57, 0xc3, 0x3d,
  0x9c, 0xed, 0xa8, 0x3b, 0x55, 0x00, 0x80, 0x3e, 0xe8, 0x29, 0x4e, 0xbc,
  0xff, 0x77, 0xe7, 0xbd, 0x92, 0xf5, 0x8c, 0xbd, 0xf2, 0xb3, 0x19, 0xbd,
  0x95, 0x8d, 0x2b, 0x3d, 0xbc, 0x47, 0xb7, 0xbe, 0x7f, 0x17, 0x7c, 0x3e,
  0x2e, 0xe5, 0x08, 0x3e, 0xef, 0x5e, 0xb7, 0x3e, 0x4a, 0x30, 0x87, 0x3d,
  0x6a, 0xe9, 0x05, 0x3d, 0x74, 0x02, 0xa2, 0x3c, 0x03, 0x69, 0x79, 0xbe,
  0xe6, 0xbc, 0x40, 0x3e, 0xb9, 0x17, 0x07, 0x3e, 0x1a, 0x98, 0xcb, 0xbe,
  0x48, 0x5d, 0xe8, 0x3e, 0x44, 0x01, 0x98, 0xbe, 0x2e, 0xe8, 0x59, 0xbe,
  0x8a, 0xec, 0xc7, 0xbc, 0x25, 0x14, 0x1c, 0x3e, 0xaa, 0x66, 0x21, 0x3e,
  0xc5, 0xe6, 0x32, 0x3e, 0xdc, 0x4f, 0xbf, 0xbd, 0x49, 0xad, 0xaf, 0x3e,
  0xf1, 0x38, 0xb4, 0xbe, 0xb3, 0xae, 0x3e, 0x3e, 0xf9, 0x31, 0x59, 0x3e,
  0x36, 0x99, 0x95, 0xbe, 0xc1, 0x66, 0x14, 0xbe, 0x34, 0xfe, 0x81, 0x3c,
  0x06, 0x73, 0xe0, 0xbc, 0x7c, 0x0f, 0xba, 0xbc, 0x5d, 0x32, 0x3e, 0x3e,
  0xd6, 0x28, 0x07, 0x3e, 0xf3, 0x96, 0x49, 0xbc, 0x17, 0xe7, 0xb7, 0xbd,
  0x2f, 0x8d, 0x15, 0xbe, 0x0e, 0x49, 0x8f, 0xbc, 0x7d, 0xec, 0x4f, 0xbe,
  0x03, 0xb4, 0x25, 0x3e, 0x27, 0xaa, 0xfb, 0xbe, 0x64, 0x6c, 0x12, 0xbf,
  0xd6, 0x11, 0x34, 0x3f, 0x45, 0x9c, 0x2f, 0xbe, 0x0d, 0xfa, 0x4c, 0x3e,
  0x83, 0xd2, 0x51, 0xbe, 0x97, 0xef, 0x0e, 0xbe, 0x0a, 0xf5, 0x78, 0x3e,
  0x95, 0x2a, 0xe5, 0xbc, 0xe5, 0x28, 0x86, 0x3e, 0x47, 0x26, 0xdd, 0x3e,
  0x6b, 0x40, 0xd2, 0x3e, 0x74, 0x23, 0x3e, 0xbe, 0x98, 0x45, 0x8a, 0xbd,
  0x82, 0xc4, 0x5b, 0xbe, 0x6d, 0x5d, 0x4e, 0xbe, 0xb2, 0x8e, 0x34, 0x3e,
  0x20, 0x00, 0x5e, 0xbe, 0x63, 0x7c, 0x35, 0xbe, 0x77, 0xfa, 0x19, 0xbe,
  0xca, 0xb1, 0x8d, 0x3d, 0x28, 0x32, 0x11, 0xbe, 0xfa, 0x8a, 0x2d, 0x3e,
  0x46, 0x97, 0x86, 0x3d, 0xf2, 0x13, 0xd5, 0x3d, 0x7d, 0xc7, 0x37, 0xbe,
  0x19, 0x30, 0x98, 0x3c, 0xd1, 0xe1, 0x7a, 0xbe, 0xc0, 0x7e, 0x0a, 0x3f,
  0x93, 0xc9, 0xc5, 0xbe, 0xcd, 0x3d, 0xde, 0x3d, 0x2f, 0x55, 0x28, 0x3f,
  0x00, 0x94, 0x13, 0xbe, 0x97, 0x79, 0x5b, 0x3e, 0xb4, 0x74, 0x88, 0xbe,
  0x73, 0x47, 0x53, 0x3e, 0x4e, 0x5d, 0x5c, 0x3e, 0x74, 0x86, 0xc9, 0xbd,
  0xbf, 0x95, 0xae, 0xbe, 0x82, 0xc7, 0x33, 0x3e, 0xb0, 0x13, 0xc0, 0xbe,
  0xaf, 0x09, 0xa4, 0xbe, 0x4c, 0x83, 0x63, 0x3d, 0x99, 0xe9, 0x84, 0x3e,
  0x61, 0xd7, 0x7b, 0xbe, 0x2d, 0x3b, 0x28, 0xbe, 0xe3, 0xdd, 0x35, 0x3e,
  0xf6, 0xfa, 0x82, 0xbe, 0x2a, 0xdc, 0xd7, 0x3c, 0x6f, 0x8a, 0x53, 0xbe,
  0x77, 0x9f, 0x17, 0x3e, 0x65, 0x8a, 0x29, 0xbe, 0xd5, 0x11, 0xc7, 0x3e,
  0x81, 0x20, 0x8c, 0xbe, 0x67, 0xbf, 0x86, 0x3e, 0x73, 0x07, 0x56, 0xbf,
  0xd8, 0xf6, 0x53, 0x3f, 0x94, 0x42, 0x78, 0xbd, 0x15, 0x48, 0xd5, 0xbd,
  0x5c, 0xfe, 0xa9, 0xbd, 0x3d, 0x20, 0x64, 0x3e, 0xcc, 0x5c, 0x92, 0x3e,
  0xab, 0x52, 0x97, 0xbe, 0xf9, 0xca, 0xaf, 0x3c, 0x8e, 0x08, 0xb4, 0x3d,
  0x14, 0x58, 0x9d, 0x3e, 0xbd, 0x74, 0xe0, 0x3d, 0x47, 0xf0, 0x0e, 0x3e,
  0x5e, 0x32, 0x47, 0x3e, 0x87, 0xfe, 0x22, 0xbe, 0x94, 0xcb, 0x2b, 0x3c,
  0xe1, 0x6d, 0x33, 0xbe, 0x90, 0x9a, 0xd1, 0x3c, 0x3c, 0xfe, 0x2b, 0x3e,
  0x08, 0x49, 0xe1, 0xbe, 0xd0, 0x77, 0x30, 0x3e, 0x39, 0xf5, 0xbe, 0xbc,
  0x22, 0x2d, 0x4c, 0x3e, 0xf9, 0xda, 0x93, 0xbe, 0x61, 0x64, 0x81, 0xbd,
  0x02, 0x83, 0xb7, 0xbd, 0x14, 0x64, 0x2a, 0x3e, 0xd5, 0x39, 0x0d, 0xbe,
  0x39, 0x45, 0xa5, 0xbe, 0x33, 0xad, 0xc6, 0x3e, 0xb9, 0xd2, 0x51, 0x3f,
  0x5f, 0x35, 0xb3, 0xbd, 0xd4, 0x8d, 0x7d, 0x3e, 0x67, 0x32, 0xe0, 0xbd,
  0xee, 0x39, 0x80, 0x3e, 0xd2, 0xca, 0xbe, 0xbe, 0x52, 0x5a, 0x0c, 0x3f,
  0xbf, 0xef, 0x38, 0x3e, 0xa7, 0x72, 0x6c, 0x3e, 0xe9, 0xdb, 0x4e, 0x3e,
  0xcc, 0x88, 0x28, 0x3e, 0x90, 0x9a, 0xa3, 0xbd, 0xde, 0x33, 0x68, 0x3d,
  0x06, 0x9f, 0x75, 0xbe, 0xa8, 0x52, 0x7e, 0xbe, 0x9d, 0xaf, 0x17, 0x3e,
  0x73, 0xa1, 0xc2, 0xbe, 0x35, 0x60, 0x91, 0xbb, 0xb0, 0x92, 0x65, 0x3d,
  0x2c, 0xdb, 0x8c, 0xbb, 0x52, 0x8a, 0x92, 0x3d, 0x96, 0xb3, 0x7a, 0x3e,
  0x95, 0x44, 0x98, 0x3d, 0x97, 0x49, 0x84, 0xbe, 0x44, 0x6a, 0xa4, 0x3e,
  0xa8, 0x86, 0x97, 0xbe, 0xa3, 0x11, 0xb1, 0x3e, 0xc3, 0xfa, 0xc9, 0x3e,
  0x6b, 0xd5, 0x3a, 0x3e, 0x30, 0x84, 0x27, 0x3e, 0x7f, 0xdb, 0xef, 0xbd,
  0x1a, 0x22, 0xb3, 0xbd, 0x8f, 0xc9, 0x78, 0xbe, 0x38, 0xe7, 0x43, 0x3d,
  0x38, 0x35, 0xd5, 0xbe, 0x8a, 0xaa, 0x7c, 0xbe, 0xe9, 0x3a, 0x23, 0x3d,
  0xa1, 0x38, 0xcc, 0xbe, 0x9d, 0x8a, 0x96, 0x3e, 0x77, 0x41, 0xa0, 0x3c,
  0x10, 0x42, 0x58, 0xbe, 0x9c, 0x7b, 0x65, 0x3e, 0x6c, 0xf9, 0xca, 0xbe,
  0x84, 0x4c, 0xb4, 0x3c, 0xc0, 0x74, 0x5c, 0xbe, 0x17, 0x0d, 0x05, 0x3e,
  0x57, 0x10, 0x3a, 0x3e, 0xa3, 0x03, 0x84, 0xbe, 0x4c, 0xff, 0xfb, 0xbc,
  0xff, 0x84, 0x5a, 0x3d, 0xc9, 0xc9, 0x9d, 0x3e, 0x99, 0xda, 0xba, 0xbe,
  0x2f, 0xe1, 0xa6, 0x3e, 0xec, 0x5a, 0x93, 0x3e, 0xd6, 0xcc, 0x8c, 0xbf,
  0x17, 0xbf, 0xf5, 0x3d, 0xd4, 0x44, 0x00, 0xbf, 0x15, 0x34, 0xa5, 0xbe,
  0x9e, 0xa5, 0xbc, 0xbd, 0x2f, 0xc0, 0x31, 0xbe, 0xcf, 0x69, 0xf2, 0x3e,
  0xcf, 0x48, 0x8e, 0x3e, 0xd1, 0xb4, 0xf8, 0xbd, 0xa0, 0x66, 0x05, 0x3f,
  0x1b, 0x89, 0x20, 0x3f, 0x31, 0x1a, 0x83, 0xbe, 0x98, 0x24, 0x6c, 0x3d,
  0x1a, 0xf2, 0xee, 0xbc, 0x87, 0x91, 0x42, 0x3e, 0x3d, 0x30, 0x98, 0xbd,
  0x7e, 0x76, 0xd5, 0x3c, 0x92, 0x39, 0xad, 0xbd, 0x93, 0x7b, 0x13, 0x3e,
  0xb3, 0x65, 0x5d, 0xbd, 0x95, 0x0e, 0x0f, 0x3e, 0x17, 0xf3, 0x9d, 0xbe,
  0x82, 0xe6, 0x3e, 0xbb, 0xe8, 0x35, 0x09, 0xbf, 0x03, 0x14, 0xaf, 0xbf,
  0xf3, 0x6a, 0xab, 0x3e, 0xe9, 0x5b, 0x09, 0xbe, 0xaa, 0xf5, 0x96, 0x3f,
  0x5a, 0x3d, 0x55, 0xbe, 0x6f, 0xc2, 0x93, 0x3e, 0x48, 0x2b, 0x5d, 0xbe,
  0x8b, 0x0e, 0x88, 0xbe, 0xa5, 0x7f, 0xa1, 0xbe, 0xb4, 0xbe, 0x1f, 0x3e,
  0x09, 0x12, 0x8e, 0x3d, 0x52, 0x6d, 0x6a, 0xbd, 0xd7, 0x55, 0xbb, 0xbd,
  0xb0, 0x7f, 0x32, 0xbc, 0x07, 0x40, 0x0c, 0x3d, 0x9f, 0xe0, 0x27, 0xbe,
  0xa3, 0x93, 0x00, 0x3e, 0x29, 0x65, 0x21, 0xbd, 0x7f, 0x5c, 0xa1, 0x3d,
  0x58, 0xfb, 0xba, 0xbd, 0x4d, 0xe7, 0xa2, 0x3d, 0xd2, 0x60, 0xdb, 0xbd,
  0xe9, 0x1c, 0x14, 0x3e, 0x7e, 0xf2, 0x25, 0xbe, 0xad, 0xa0, 0x5e, 0x3d,
  0x82, 0xdb, 0x75, 0x3e, 0x76, 0x6b, 0x74, 0xbd, 0xf2, 0xaf, 0x8e, 0xbf,
  0x5d, 0xbe, 0x93, 0x3f, 0xc1, 0xf9, 0x4b, 0x3d, 0x19, 0x94, 0x3a, 0xbd,
  0xcd, 0x82, 0x41, 0xbd, 0x60, 0xb8, 0x26, 0x3e, 0x9c, 0x1a, 0x0c, 0xbd,
  0x58, 0x7f, 0xad, 0xbe, 0xb7, 0x0c, 0x30, 0x3e, 0x57, 0x3d, 0xb5, 0x3e,
  0x05, 0x58, 0x8e, 0x3e, 0x00, 0xeb, 0xed, 0x3d, 0x2c, 0x31, 0x98, 0x3d,
  0xcb, 0x34, 0x22, 0xbe, 0xbd, 0x79, 0xae, 0xbd, 0x82, 0x96, 0xd4, 0x3d,
  0xd2, 0x8c, 0xf1, 0x3d, 0x3f, 0x89, 0x97, 0xbe, 0xc6, 0x5f, 0xd4, 0xbc,
  0x6f, 0xa0, 0x98, 0xbd, 0x44, 0xbf, 0xdd, 0x39, 0x43, 0xe7, 0x8f, 0x3d,
  0x5a, 0x1b, 0xde, 0xbd, 0xf2, 0x5d, 0x01, 0xbe, 0x0f, 0x07, 0x7f, 0xbc,
  0x9c, 0xc7, 0xae, 0xbd, 0x87, 0x88, 0x71, 0xbc, 0x61, 0x51, 0x61, 0xbf,
  0x8e, 0xac, 0x40, 0x3f, 0x5b, 0x74, 0x15, 0xbd, 0x94, 0x98, 0x31, 0x3d,
  0x76, 0x2b, 0x57, 0xbe, 0xe2, 0x4b, 0x02, 0xbe, 0x25, 0xa2, 0x89, 0x3d,
  0x1f, 0xdf, 0x84, 0xbe, 0xa4, 0xe1, 0x9f, 0xbe, 0xd3, 0x4c, 0x09, 0x3e,
  0x58, 0xed, 0xb6, 0xbe, 0xcf, 0xaf, 0x42, 0x3d, 0xe3, 0xe6, 0x34, 0xbd,
  0xea, 0x1d, 0xd9, 0xbd, 0x1d, 0x1e, 0x30, 0xbd, 0x8e, 0x5f, 0xca, 0xbd,
  0x8b, 0x23, 0xa6, 0xbd, 0xb9, 0xa0, 0xbc, 0xbb, 0x3a, 0xcc, 0x5d, 0x3c,
  0x45, 0xc7, 0x47, 0x3e, 0x77, 0x33, 0x54, 0xbd, 0xdc, 0x74, 0xb2, 0xbb,
  0xf7, 0x2d, 0x06, 0xbe, 0x73, 0xb4, 0x4f, 0x3d, 0xe0, 0x2f, 0xe5, 0x3e,
  0x7b, 0x55, 0xa8, 0x3e, 0x67, 0xbd, 0xcc, 0xbd, 0x29, 0xcf, 0x41, 0xbf,
  0x30, 0x23, 0xe6, 0x3e, 0x63, 0xb4, 0x6f, 0x3c, 0xb4, 0xc3, 0x2b, 0x3e,
  0xc9, 0x6e, 0x9f, 0xbe, 0x37, 0x86, 0x7b, 0xbd, 0x55, 0x57, 0x30, 0x3e,
  0xda, 0xaa, 0x0a, 0x3d, 0xb1, 0x99, 0x86, 0x3e, 0xde, 0x2c, 0xad, 0x3e,
  0xf6, 0x41, 0x72, 0xbe, 0xd1, 0x03, 0x71, 0xbe, 0xfb, 0x1f, 0xca, 0xbc,
  0x71, 0x85, 0x42, 0x3e, 0x0f, 0x03, 0xb2, 0x3e, 0x9f, 0xcb, 0x4c, 0x3e,
  0xe7, 0x71, 0xa2, 0x3e, 0xb0, 0xed, 0x79, 0xbd, 0xe6, 0x9e, 0xd3, 0xbd,
  0x8b, 0xc6, 0x8b, 0xbd, 0xc3, 0x9f, 0x47, 0x3e, 0xbe, 0xa6, 0x16, 0x3e,
  0x7a, 0x65, 0x07, 0xbc, 0xf9, 0x4d, 0x8f, 0x3d, 0x77, 0x5d, 0x2f, 0x3e,
  0x76, 0x18, 0x01, 0xbe, 0x71, 0xe2, 0x9e, 0xbe, 0xf2, 0xbc, 0x09, 0xbf,
  0x24, 0xdf, 0x05, 0x3f, 0x55, 0xb3, 0xe4, 0xbe, 0xa3, 0x49, 0x82, 0x3e,
  0xda, 0x3b, 0xbb, 0xbd, 0xec, 0xf8, 0xf0, 0xbc, 0xe1, 0x48, 0xc4, 0xbd,
  0x12, 0x4e, 0x1f, 0x3e, 0xa1, 0x90, 0xd2, 0xbd, 0x64, 0xa9, 0xc8, 0xbe,
  0x58, 0x75, 0xfb, 0x3d, 0xd4, 0x99, 0x0b, 0x3e, 0x7f, 0x62, 0xad, 0xbd,
  0x79, 0x58, 0x39, 0xbe, 0xd3, 0x7d, 0x4d, 0xbe, 0x0c, 0x5e, 0x98, 0xbd,
  0x5d, 0xef, 0x32, 0xbe, 0x71, 0xda, 0xeb, 0xbd, 0xc3, 0x08, 0x3a, 0x3d,
  0xf8, 0xb4, 0x0a, 0x3e, 0x0d, 0x7a, 0x6f, 0xbe, 0xd6, 0x2f, 0x13, 0xbe,
  0xac, 0xf7, 0x3f, 0xbe, 0xe6, 0x9c, 0xaf, 0x3c, 0x1d, 0x89, 0x17, 0x3e,
  0x13, 0x1e, 0xc5, 0xbe, 0x2a, 0xcd, 0x66, 0x3e, 0x3a, 0x38, 0x63, 0x3e,
  0x5c, 0x71, 0x95, 0x3e, 0xa9, 0x0a, 0xf3, 0xbd, 0x20, 0xad, 0x96, 0xbf,
  0x7a, 0xb3, 0xb4, 0xbe, 0xbb, 0xbd, 0x28, 0x3e, 0x04, 0xa0, 0x79, 0xbe,
  0x12, 0xeb, 0xdd, 0x3d, 0x02, 0x01, 0x87, 0x3d, 0x1b, 0xb7, 0xb4, 0x3c,
  0x1d, 0xf5, 0x8c, 0xbd, 0xc5, 0xf7, 0xc9, 0xbd, 0x29, 0x6f, 0x0e, 0xbe,
  0x36, 0x5f, 0xba, 0x3e, 0xf5, 0xd9, 0x86, 0xbc, 0x2a, 0x2e, 0x0e, 0x3e,
  0x67, 0x15, 0x96, 0xbe, 0xda, 0x72, 0xb6, 0xbe, 0xe6, 0xb2, 0x25, 0x3d,
  0x13, 0x61, 0xbf, 0x3d, 0x00, 0x85, 0x1e, 0xbd, 0x22, 0xf5, 0xc5, 0xbd,
  0x6f, 0x0f, 0x86, 0x3e, 0x5b, 0xc3, 0x27, 0x3e, 0xcd, 0x33, 0x4d, 0xbe,
  0xdc, 0xd2, 0x85, 0x3e, 0x6f, 0x5c, 0xab, 0xbc, 0x34, 0x27, 0x63, 0xbf,
  0xfd, 0xda, 0x8f, 0x3f, 0x25, 0x94, 0xe4, 0xbe, 0x7b, 0xc3, 0x6a, 0xbd,
  0x0c, 0x6f, 0xc8, 0xbd, 0xa3, 0xba, 0xea, 0x3e, 0x8b, 0xf2, 0x33, 0x3e,
  0xcc, 0x49, 0xc3, 0x3e, 0x5c, 0x18, 0xb9, 0xbe, 0x2a, 0xb0, 0x07, 0xbf,
  0xf8, 0x65, 0xe5, 0xbe, 0x07, 0xbb, 0x85, 0xbd, 0x94, 0x64, 0xa5, 0xbe,
  0x95, 0xb1, 0x34, 0xbc, 0x81, 0xf7, 0x8c, 0xbd, 0x42, 0x35, 0xdb, 0xbd,
  0x7b, 0x77, 0x10, 0xbe, 0xbd, 0x06, 0x88, 0x3e, 0xff, 0xd4, 0x95, 0xbc,
  0xae, 0xc6, 0x14, 0xbd, 0x7b, 0x7c, 0x03, 0x3e, 0xc6, 0x7a, 0xa6, 0x3e,
  0x54, 0xc8, 0x88, 0xbe, 0xdd, 0xb0, 0xe4, 0x3d, 0x9c, 0xb1, 0xe8, 0xbe,
  0xe5, 0x3a, 0x9f, 0x3e, 0x7b, 0xd9, 0x30, 0xbe, 0xd7, 0x73, 0x9d, 0xbd,
  0x79, 0x37, 0x2b, 0x3f, 0xb2, 0xf8, 0x93, 0x3e, 0xa1, 0x90, 0xa6, 0xbf,
  0x53, 0x19, 0xe4, 0xbd, 0x53, 0x09, 0x3f, 0xbd, 0xc2, 0x2d, 0x93, 0x3d,
  0x60, 0xc9, 0x92, 0x3e, 0xcb, 0x23, 0x3f, 0xbe, 0xca, 0x42, 0x28, 0xbe,
  0xa5, 0x47, 0x70, 0xbe, 0xe5, 0x35, 0x57, 0x3d, 0x90, 0xc6, 0x8a, 0xbe,
  0x5b, 0xf1, 0x87, 0x3e, 0x0a, 0x30, 0x04, 0xbe, 0xa6, 0x3f, 0x25, 0xbe,
  0xa7, 0xf9, 0xfb, 0x3d, 0x4c, 0xc2, 0x0b, 0x3d, 0x84, 0x26, 0x6b, 0x3e,
  0x20, 0x43, 0x81, 0xbe, 0xc6, 0x99, 0xa3, 0xbd, 0x28, 0xd6, 0xc0, 0xbc,
  0xb8, 0x67, 0x5a, 0x3e, 0xdf, 0x7e, 0x05, 0xbd, 0x95, 0xaf, 0x37, 0x3d,
  0x4a, 0x9d, 0xb9, 0xbc, 0xc2, 0xdd, 0x21, 0x3e, 0x1d, 0xf5, 0x4a, 0xbd,
  0xb3, 0x67, 0xe3, 0xbd, 0x50, 0x64, 0xc6, 0xbe, 0x9f, 0x66, 0x96, 0xbc,
  0xfc, 0x0a, 0x54, 0x3e, 0xa8, 0xdf, 0x8d, 0x3e, 0xc4, 0xa9, 0xc3, 0x3e,
  0x76, 0x95, 0xa1, 0xbd, 0x5d, 0xa1, 0x1a, 0xbe, 0xfe, 0xca, 0x86, 0xbe,
  0x97, 0x93, 0x29, 0x3e, 0x93, 0x18, 0x71, 0xbe, 0x61, 0x2e, 0x98, 0xbe,
  0xc7, 0x39, 0x86, 0xbe, 0x02, 0x42, 0x78, 0x3e, 0x92, 0xb9, 0x9f, 0xbd,
  0x99, 0x20, 0x55, 0x3e, 0x6b, 0xe1, 0x1a, 0xbe, 0xbe, 0x40, 0xc6, 0xbd,
  0x08, 0x41, 0x3a, 0x3e, 0xf1, 0x20, 0xc7, 0x3d, 0x15, 0xf0, 0x67, 0x3d,
  0xe9, 0x14, 0x37, 0xbe, 0xc5, 0x93, 0x31, 0xbe, 0xb3, 0xf2, 0x25, 0x3e,
  0x18, 0x8d, 0x10, 0xbe, 0x3b, 0x07, 0x9d, 0x3e, 0x6c, 0x0c, 0x8b, 0x3f,
  0x31, 0x95, 0x98, 0xbf, 0xf1, 0xe8, 0xaf, 0x3e, 0x85, 0x12, 0x2b, 0xbe,
  0x64, 0x0b, 0xf6, 0xbc, 0xb2, 0x37, 0x5f, 0x3e, 0x12, 0x04, 0x9b, 0x3d,
  0x12, 0xd6, 0x57, 0x3e, 0x8c, 0x8b, 0xa5, 0x3c, 0x4f, 0x2e, 0x23, 0x3e,
  0x9b, 0xd1, 0x99, 0x3e, 0x56, 0x0b, 0x12, 0xbe, 0xf3, 0xc5, 0x8f, 0xbe,
  0xb5, 0xd0, 0x40, 0x3e, 0x7a, 0x40, 0xa2, 0xbe, 0xb9, 0xbd, 0x5b, 0xbe,
  0xd2, 0xbf, 0xdf, 0xbd, 0x33, 0x56, 0xaa, 0x3e, 0x5e, 0x57, 0xe8, 0xbc,
  0x0d, 0x0e, 0x7b, 0xbe, 0xed, 0xcf, 0x5f, 0x3e, 0x1f, 0xbe, 0x75, 0xbe,
  0x52, 0x5d, 0xa0, 0x3d, 0xbb, 0x31, 0x92, 0xbc, 0x0b, 0x3a, 0x71, 0x3d,
  0xd0, 0xbd, 0x78, 0xbe, 0x0e, 0xbb, 0xbd, 0xbd, 0x0d, 0x2f, 0xa1, 0xbe,
  0xaa, 0x10, 0xdd, 0x3e, 0x69, 0x1d, 0x30, 0x3e, 0x08, 0x34, 0x59, 0x3e,
  0x9c, 0x12, 0x9d, 0xbe, 0xad, 0xfd, 0xcc, 0xbd, 0x60, 0x55, 0x8c, 0xbe,
  0x50, 0xa5, 0x1c, 0x3e, 0x7c, 0xed, 0xa0, 0xbd, 0xab, 0x9b, 0xf6, 0x3e,
  0xd3, 0xff, 0xa1, 0x3d, 0x32, 0x7c, 0xb1, 0x3d, 0x37, 0x79, 0x0d, 0xbe,
  0x74, 0xf2, 0x66, 0xbd, 0xb1, 0x1c, 0x0f, 0x3e, 0x6a, 0x88, 0x77, 0xbd,
  0x75, 0x45, 0xca, 0x3d, 0xc8, 0xe6, 0x08, 0xbd, 0x15, 0x72, 0xeb, 0xbd,
  0x1f, 0x39, 0x02, 0x3e, 0xd4, 0xef, 0x0c, 0xbd, 0x3e, 0xf5, 0xe7, 0xbd,
  0x65, 0xb9, 0xbc, 0x3d, 0x70, 0x28, 0xc5, 0xbd, 0x98, 0xa0, 0x2c, 0x3e,
  0xa5, 0x6e, 0x5b, 0x3e, 0x8e, 0x7c, 0x18, 0xbe, 0x05, 0xdc, 0x12, 0x3f,
  0xda, 0x23, 0x5e, 0xbf, 0x5b, 0xba, 0x11, 0x3e, 0x65, 0xc8, 0x2f, 0x3f,
  0xb3, 0x50, 0xe7, 0xbd, 0xdd, 0x82, 0xab, 0x3e, 0x76, 0x3e, 0xc6, 0xbc,
  0x28, 0x8c, 0x8d, 0x3e, 0x53, 0x70, 0x8e, 0xbe, 0x87, 0xdc, 0x71, 0x3e,
  0x1c, 0xd0, 0x90, 0xbc, 0x04, 0xce, 0x53, 0x3b, 0xae, 0xa9, 0x8b, 0x3e,
  0xfe, 0xc8, 0x50, 0xbe, 0x21, 0x9c, 0x1c, 0xbe, 0xd5, 0x29, 0x59, 0x3d,
  0xa9, 0x92, 0x81, 0xbe, 0x6c, 0x95, 0x10, 0x3d, 0x8d, 0x8e, 0x37, 0x3e,
  0x41, 0xec, 0xee, 0x3d, 0x7a, 0x71, 0x37, 0xbd, 0xab, 0x84, 0xbf, 0xbd,
  0x29, 0x15, 0x9e, 0x3e, 0x28, 0x0a, 0xe0, 0xbb, 0x42, 0x5f, 0xf6, 0xbd,
  0x6d, 0x1a, 0xe4, 0x3d, 0x04, 0x59, 0x24, 0x3d, 0x6a, 0x91, 0x91, 0x3f,
  0xc2, 0xe5, 0x7d, 0xbf, 0x28, 0x92, 0x28, 0xbc, 0x4b, 0x97, 0x94, 0xbe,
  0x44, 0x21, 0xd1, 0xbd, 0x0b, 0xac, 0x8c, 0xbe, 0x26, 0x6f, 0xaf, 0xbe,
  0x03, 0x1a, 0x85, 0xbe, 0x11, 0x38, 0x80, 0xbd, 0xfd, 0xe0, 0x52, 0x3e,
  0x21, 0xbe, 0x25, 0x3f, 0x5d, 0xf7, 0x74, 0x3e, 0x27, 0x3a, 0x23, 0x3e,
  0xc8, 0x05, 0xc9, 0x3e, 0x2b, 0xcf, 0xbb, 0x3d, 0x78, 0xbb, 0xc0, 0xbe,
  0xf8, 0xe7, 0xce, 0x3b, 0x9c, 0x7a, 0x63, 0xbe, 0x25, 0x4f, 0x30, 0xbd,
  0x81, 0x1e, 0xdc, 0x3c, 0x59, 0x3f, 0x62, 0x3d, 0x9d, 0x83, 0xbe, 0x3c,
  0x0a, 0xf4, 0x83, 0xbe, 0xc4, 0x44, 0x1c, 0xbe, 0xbd, 0x98, 0x5b, 0xbe,
  0xc3, 0xf8, 0x7b, 0xbe, 0x6e, 0xe5, 0x24, 0xbe, 0x00, 0x8c, 0xf0, 0xbe,
  0xaa, 0x59, 0xf5, 0x3e, 0x7d, 0x53, 0x08, 0xbf, 0x44, 0x1a, 0x8b, 0x3f,
  0xb8, 0xf5, 0xff, 0xff, 0xbc, 0xf5, 0xff, 0xff, 0xc0, 0xf5, 0xff, 0xff,
  0xc4, 0xf5, 0xff, 0xff, 0x04, 0x00, 0x06, 0x00, 0x04, 0x00, 0x00, 0x00,
  0x00, 0x00, 0x06, 0x00, 0x08, 0x00, 0x04, 0x00, 0x06, 0x00, 0x00, 0x00,
  0x04, 0x00, 0x00, 0x00, 0x28, 0x05, 0x00, 0x00, 0x40, 0xc0, 0xf0, 0x3e,
  0x17, 0xd8, 0xe3, 0x3e, 0x85, 0x3e, 0xa9, 0x3e, 0xb0, 0xbc, 0xbe, 0x3e,
  0x71, 0x51, 0x4f, 0xbe, 0x35, 0xcc, 0x15, 0xbe, 0xa8, 0x2f, 0xce, 0x3e,
  0xbf, 0x0a, 0x14, 0x3f, 0xdb, 0xd4, 0x8d, 0xbe, 0xbf, 0x32, 0x52, 0x3e,
  0xdb, 0x53, 0xb3, 0x3e, 0xaa, 0x57, 0x06, 0xbe, 0x8d, 0x0e, 0x4c, 0x3e,
  0x82, 0x82, 0x00, 0x3f, 0x92, 0xd2, 0x8c, 0xbd, 0x1d, 0x7d, 0xc0, 0x3e,
  0xef, 0x25, 0x9f, 0x3e, 0xeb, 0x6c, 0xae, 0xbc, 0x89, 0x00, 0x04, 0x3e,
  0x23, 0x77, 0x0f, 0x3d, 0x4a, 0xd4, 0x39, 0x3d, 0xb2, 0xd1, 0xd9, 0x3b,
  0xf6, 0xd0, 0x94, 0xbb, 0x97, 0xb3, 0xe2, 0x3e, 0x9b, 0xb3, 0xd8, 0x3d,
  0xc3, 0x40, 0x68, 0x3e, 0xf7, 0xcf, 0x6d, 0xbe, 0xb0, 0x3e, 0x63, 0x3e,
  0x64, 0xee, 0x80, 0x3d, 0xcd, 0x70, 0x2d, 0xbe, 0xb2, 0x73, 0xcb, 0x3e,
  0x07, 0xe1, 0x08, 0x3f, 0xd6, 0x99, 0x8c, 0x3e, 0x9c, 0xbb, 0xf5, 0x3e,
  0xbb, 0x22, 0xc8, 0x3e, 0xca, 0xf7, 0x7d, 0x3b, 0x81, 0x53, 0x98, 0xbd,
  0x24, 0x92, 0x5d, 0x3d, 0x31, 0xd3, 0x7e, 0x3e, 0xf3, 0xf1, 0x09, 0xbf,
  0x61, 0x13, 0x20, 0xbe, 0x8e, 0x90, 0x2b, 0x3d, 0x67, 0xd9, 0xf3, 0xbe,
  0x5c, 0x10, 0x24, 0xbe, 0x5a, 0x25, 0x43, 0xbe, 0xf3, 0x38, 0x44, 0x3e,
  0x57, 0x1a, 0xb5, 0xbc, 0x0a, 0x1f, 0xd1, 0xbe, 0x78, 0x51, 0xcf, 0xbe,
  0x83, 0x4b, 0xa4, 0xbe, 0xf8, 0x01, 0x01, 0x3e, 0x97, 0x95, 0x05, 0xbf,
  0xba, 0xeb, 0x72, 0xbb, 0xdd, 0x4d, 0xf0, 0xbe, 0x66, 0xa0, 0x99, 0xbe,
  0x81, 0x95, 0x9e, 0xbe, 0x99, 0x37, 0x1c, 0xbe, 0xf8, 0xa1, 0x9d, 0x3e,
  0x11, 0x4a, 0x21, 0xbe, 0xb8, 0x5e, 0xe9, 0x3d, 0x49, 0x18, 0x26, 0xbd,
  0xf8, 0xb3, 0x29, 0xbe, 0x1a, 0x4a, 0x5a, 0x3d, 0x7f, 0xca, 0x4b, 0x3e,
  0x97, 0x33, 0xeb, 0xbc, 0xbc, 0x65, 0xc6, 0xbe, 0x24, 0x11, 0x0d, 0xbe,
  0x80, 0x4f, 0xc0, 0x3d, 0xe0, 0x86, 0x1d, 0xbe, 0xd7, 0x81, 0x6c, 0xbe,
  0x04, 0x8c, 0x8c, 0x3e, 0x56, 0xd3, 0xd4, 0xbe, 0x1f, 0x76, 0x9a, 0x3d,
  0x20, 0x07, 0xd0, 0x3e, 0x90, 0x5c, 0x87, 0xbe, 0x01, 0x61, 0xec, 0x3e,
  0x20, 0x2a, 0xa2, 0xbe, 0x20, 0xd5, 0xe6, 0x3d, 0x46, 0x28, 0x6f, 0xbe,
  0x60, 0x0a, 0x0c, 0x3f, 0xb9, 0x53, 0x27, 0x3e, 0x96, 0x98, 0x33, 0xbd,
  0xa8, 0x38, 0x3d, 0x39, 0xd7, 0xc9, 0x83, 0xbe, 0xe5, 0x5c, 0x4f, 0xbe,
  0x4b, 0xad, 0x82, 0xbe, 0x49, 0xff, 0x9e, 0x3e, 0xbb, 0x88, 0xe0, 0xbe,
  0x62, 0x46, 0x5e, 0x3e, 0xf0, 0x5d, 0x88, 0x3c, 0x9b, 0xd2, 0x8b, 0xbd,
  0x97, 0x65, 0x15, 0x3e, 0xbe, 0xa6, 0x6e, 0xbd, 0x99, 0xe6, 0x4c, 0x3d,
  0x86, 0x32, 0x48, 0xbe, 0x36, 0x75, 0xbe, 0x3e, 0xb8, 0x01, 0x1f, 0xbf,
  0xeb, 0x19, 0x8e, 0xbd, 0x2f, 0x01, 0x7f, 0xbe, 0x2f, 0xea, 0xde, 0xbd,
  0x83, 0xd4, 0x2f, 0xbe, 0x3b, 0x82, 0xc7, 0xbd, 0xab, 0x55, 0x76, 0xbe,
  0xc9, 0x4b, 0x15, 0xbe, 0x81, 0xf5, 0xea, 0xbd, 0xaf, 0x75, 0x0d, 0x3f,
  0xde, 0xdc, 0xdd, 0xbe, 0x26, 0x2e, 0xe6, 0xbd, 0xd7, 0x4e, 0x0b, 0x3e,
  0x87, 0xed, 0xb0, 0xbe, 0xf3, 0xac, 0x27, 0x3e, 0xbe, 0xec, 0xb9, 0xbc,
  0xc1, 0x2d, 0xa8, 0xbd, 0x18, 0x9b, 0xd5, 0x3e, 0x1a, 0x48, 0xfe, 0xbe,
  0x61, 0x7d, 0x68, 0x3e, 0x12, 0xea, 0xcc, 0x3e, 0x2d, 0x12, 0x7c, 0xbe,
  0xbc, 0x9b, 0x0e, 0xbe, 0xff, 0x78, 0x0f, 0xbf, 0x42, 0xe5, 0x3c, 0xbe,
  0x4f, 0x91, 0x0c, 0x3d, 0x23, 0xdb, 0xa2, 0xbe, 0x87, 0xd5, 0x58, 0xbe,
  0x2c, 0xae, 0xb3, 0xbe, 0x82, 0x66, 0x0e, 0xbf, 0x38, 0xa9, 0xc3, 0xbd,
  0x5a, 0xea, 0x7e, 0x3e, 0x23, 0xe8, 0x77, 0xbe, 0xd6, 0x59, 0xe4, 0x3e,
  0x06, 0x81, 0x03, 0x3f, 0x7e, 0xa7, 0x07, 0x3e, 0xaa, 0x73, 0xa2, 0x3d,
  0x98, 0x91, 0xf4, 0x3d, 0xbc, 0xa2, 0xdc, 0x3e, 0xb2, 0x23, 0xcf, 0xbc,
  0x89, 0x39, 0x66, 0x3e, 0x0d, 0x00, 0x46, 0x3e, 0xb3, 0xd3, 0x74, 0x3e,
  0x4f, 0x16, 0xb3, 0x3d, 0xa6, 0xf4, 0x94, 0x3e, 0xc4, 0x49, 0x48, 0xbe,
  0x83, 0x70, 0x97, 0xbe, 0x12, 0x8b, 0x01, 0x3f, 0x3c, 0xb6, 0x1c, 0xbe,
  0xdc, 0x33, 0x9e, 0xbd, 0x6d, 0xce, 0x2b, 0x3e, 0x93, 0xc8, 0xa8, 0x3e,
  0x35, 0x9d, 0xa0, 0xbe, 0x26, 0xbe, 0xce, 0x3d, 0x19, 0xdf, 0xea, 0x3d,
  0x4a, 0x41, 0xdf, 0x3b, 0x85, 0xee, 0x05, 0xbf, 0xd0, 0x78, 0xbe, 0xbe,
  0xcf, 0x5b, 0x54, 0x3e, 0x6d, 0x7a, 0xc2, 0xbd, 0x3f, 0xf4, 0x86, 0x3d,
  0xb0, 0x31, 0x14, 0x3d, 0xd2, 0xeb, 0xc8, 0x3c, 0xb4, 0x7d, 0x0b, 0xbe,
  0x81, 0xb3, 0xa8, 0xbe, 0x8c, 0x8d, 0x20, 0xbe, 0xfc, 0x73, 0xf5, 0xbb,
  0x0a, 0xe1, 0xa8, 0x3e, 0x96, 0x8a, 0xa3, 0x3d, 0xf7, 0xfc, 0xa6, 0xbe,
  0xe5, 0x44, 0x90, 0x3e, 0xcd, 0x1b, 0xad, 0xbe, 0x6c, 0x74, 0x22, 0x3d,
  0xb5, 0x15, 0xae, 0xbe, 0xf1, 0x8a, 0xc5, 0x3e, 0xc4, 0x7b, 0x85, 0xbe,
  0xe4, 0x6b, 0x19, 0x3e, 0xe5, 0x4c, 0x68, 0x3e, 0xfe, 0x8e, 0xc3, 0xbe,
  0xd3, 0x82, 0x52, 0xbd, 0x5f, 0xfb, 0xa2, 0x3e, 0x36, 0x61, 0xf2, 0xbe,
  0xef, 0x1f, 0x53, 0xbe, 0xe3, 0xad, 0x9b, 0xbb, 0xe1, 0x29, 0xc8, 0xbe,
  0xfe, 0xd7, 0xf1, 0x3c, 0x4c, 0x4c, 0xad, 0xbd, 0x2e, 0xc4, 0x8c, 0x3e,
  0x4a, 0xdc, 0x2c, 0x3e, 0x2e, 0x31, 0x3a, 0xbe, 0xac, 0x78, 0x0d, 0x3e,
  0xb5, 0x75, 0x11, 0x3e, 0xf0, 0x63, 0x8e, 0xbd, 0x1c, 0x30, 0x4f, 0xbe,
  0xef, 0x0e, 0x52, 0x3e, 0x5d, 0xd4, 0x73, 0x3b, 0x70, 0x2b, 0x08, 0x3e,
  0x8d, 0x4b, 0x58, 0xbe, 0x78, 0x83, 0x80, 0xbe, 0xc2, 0xbb, 0x75, 0x3e,
  0x26, 0xdb, 0x38, 0xbe, 0xf1, 0x98, 0xc2, 0xbe, 0x39, 0x79, 0x2e, 0xbe,
  0x08, 0xd5, 0xb2, 0x3b, 0x34, 0x3e, 0xa5, 0x3e, 0xd4, 0x0d, 0x9b, 0x3e,
  0x7e, 0x76, 0x1a, 0xbe, 0xbe, 0xcb, 0xcb, 0x3e, 0x0a, 0x46, 0x62, 0xbd,
  0xcb, 0x0e, 0xb1, 0xbc, 0x8c, 0xec, 0x84, 0x3e, 0x37, 0x1b, 0xba, 0x3d,
  0x3c, 0x3c, 0x93, 0x3d, 0x46, 0x0f, 0xc6, 0x3d, 0x3a, 0xfc, 0x84, 0x3e,
  0x69, 0x9b, 0xad, 0xbe, 0x89, 0xe2, 0x5f, 0x3e, 0x30, 0xe5, 0x70, 0xbf,
  0x75, 0x21, 0xbd, 0x3d, 0x4d, 0x61, 0x4a, 0xbe, 0x5d, 0x5f, 0x6d, 0xbe,
  0xb9, 0x6d, 0x32, 0xbe, 0x98, 0x0b, 0x87, 0xbd, 0x3c, 0xa3, 0x95, 0x3e,
  0x98, 0x3f, 0xe9, 0xbd, 0xea, 0x63, 0x51, 0xbd, 0x83, 0xbd, 0xc0, 0xbe,
  0x5a, 0x4b, 0x53, 0x3e, 0xb6, 0x45, 0x97, 0xbe, 0x01, 0xca, 0x1b, 0x3c,
  0x1f, 0x64, 0xf8, 0x3e, 0xea, 0x97, 0xb5, 0xbe, 0xfe, 0x79, 0xfd, 0x3e,
  0x30, 0xf9, 0x20, 0x3e, 0x60, 0x90, 0xa3, 0x3c, 0x65, 0xde, 0x87, 0xbc,
  0x82, 0x22, 0x9a, 0xbe, 0xf0, 0x4a, 0xf0, 0xbd, 0x4f, 0x4a, 0xd6, 0xbd,
  0x92, 0x09, 0x12, 0xbf, 0x1a, 0xd1, 0xcb, 0xbe, 0xbb, 0xd0, 0x2d, 0x3d,
  0x3a, 0xd5, 0x89, 0xbe, 0x47, 0x44, 0x0c, 0x3f, 0xf1, 0x3d, 0x82, 0x3e,
  0x63, 0x57, 0x74, 0x3e, 0x48, 0x0c, 0x9c, 0xbd, 0x1d, 0x94, 0x01, 0x3d,
  0x9b, 0xc9, 0x43, 0xbe, 0x26, 0x0b, 0x80, 0xbe, 0xdc, 0xbe, 0x11, 0xbe,
  0xf5, 0xf0, 0xce, 0x3d, 0x64, 0xe7, 0xbc, 0xbe, 0x52, 0x55, 0xfb, 0xbd,
  0x20, 0x9e, 0x8f, 0xbe, 0x48, 0xf4, 0x8f, 0xbe, 0xe9, 0x54, 0x07, 0xbf,
  0xe1, 0x2f, 0xa6, 0xbd, 0x27, 0x43, 0xf9, 0xbe, 0x65, 0x0e, 0xe0, 0x3d,
  0xad, 0xfa, 0x60, 0xbe, 0x7a, 0x4e, 0x06, 0xbe, 0xf2, 0xb1, 0xd7, 0xbc,
  0x51, 0xe8, 0x59, 0x3e, 0x7e, 0x06, 0x00, 0xbf, 0x55, 0x58, 0xa2, 0x3e,
  0xda, 0x9f, 0x35, 0x3e, 0xeb, 0x24, 0x2a, 0xbd, 0x0e, 0x8b, 0x60, 0x3e,
  0x0c, 0xb2, 0x56, 0xbe, 0xcc, 0xad, 0xd1, 0xbe, 0xbe, 0x3f, 0x90, 0x3e,
  0xe4, 0xcf, 0xea, 0xbe, 0xfa, 0x46, 0x24, 0x3e, 0x95, 0x17, 0x8f, 0xbd,
  0x75, 0xc7, 0xb7, 0xbe, 0xf7, 0x64, 0x98, 0xbe, 0x11, 0x10, 0xad, 0xbe,
  0x5d, 0xfa, 0x23, 0x3e, 0xaa, 0x32, 0x86, 0xbe, 0x46, 0xe4, 0xad, 0xbe,
  0xac, 0xa2, 0xa1, 0x3d, 0xcb, 0xc4, 0x00, 0xbf, 0xc3, 0x32, 0x87, 0x3e,
  0xa5, 0x31, 0xc3, 0x3e, 0xc4, 0x30, 0x11, 0x3f, 0x3a, 0xf1, 0x7e, 0xbe,
  0x59, 0x1f, 0x66, 0x3d, 0xb9, 0x0e, 0xbc, 0x3e, 0x5d, 0x78, 0xb5, 0xbe,
  0xfd, 0xe9, 0x36, 0x3e, 0xd2, 0x9a, 0xee, 0xbd, 0x32, 0x05, 0x51, 0xbe,
  0xa8, 0x84, 0x82, 0xbe, 0x90, 0x92, 0x72, 0x3e, 0x2a, 0x44, 0x79, 0xbe,
  0x9a, 0x01, 0xef, 0xbd, 0xf0, 0xb3, 0x3e, 0xbe, 0x80, 0xf7, 0x5c, 0x3e,
  0x92, 0x9b, 0x19, 0x3f, 0xe8, 0xbe, 0xf8, 0x3e, 0xb9, 0x42, 0xfa, 0x3e,
  0x06, 0xd6, 0xb4, 0x3e, 0x76, 0xc5, 0x83, 0xbe, 0xbd, 0xc6, 0xeb, 0x3e,
  0x08, 0xef, 0x7f, 0xbe, 0xec, 0x74, 0xa2, 0xbe, 0xc6, 0x37, 0xbd, 0xbe,
  0x3d, 0x14, 0x03, 0xbe, 0x27, 0xe7, 0x6e, 0xbe, 0x1d, 0x4b, 0x96, 0xbe,
  0xd2, 0x00, 0xc6, 0x3e, 0x89, 0xb7, 0x8d, 0xbe, 0xc4, 0x67, 0x71, 0x3e,
  0xe1, 0xfe, 0x9f, 0xbe, 0x33, 0x23, 0x77, 0x3e, 0x4b, 0x88, 0x8d, 0x3d,
  0xad, 0x12, 0xdc, 0xbe, 0x0d, 0x31, 0xbd, 0x3e, 0xf6, 0xd0, 0x57, 0x3e,
  0x00, 0x24, 0x7e, 0x3d, 0x05, 0xe7, 0x8b, 0xbe, 0x4c, 0x5d, 0xc5, 0x3c,
  0x2c, 0x67, 0x88, 0xbd, 0x6d, 0x6d, 0x27, 0x3d, 0x8e, 0x09, 0xcd, 0x3e,
  0x5d, 0xe2, 0x5d, 0x3d, 0x68, 0xe8, 0xf0, 0xbd, 0xeb, 0xa3, 0xa7, 0x3e,
  0x44, 0x05, 0x09, 0xbe, 0x7d, 0xa2, 0x82, 0xbd, 0x43, 0x7f, 0xe3, 0xbc,
  0x25, 0x5b, 0xf8, 0x3d, 0x8d, 0xfa, 0xbc, 0xbd, 0x0c, 0xfb, 0xff, 0xff,
  0x10, 0xfb, 0xff, 0xff, 0x0f, 0x00, 0x00, 0x00, 0x54, 0x4f, 0x43, 0x4f,
  0x20, 0x43, 0x6f, 0x6e, 0x76, 0x65, 0x72, 0x74, 0x65, 0x64, 0x2e, 0x00,
  0x01, 0x00, 0x00, 0x00, 0x10, 0x00, 0x00, 0x00, 0x0c, 0x00, 0x14, 0x00,
  0x04, 0x00, 0x08, 0x00, 0x0c, 0x00, 0x10, 0x00, 0x0c, 0x00, 0x00, 0x00,
  0x24, 0x01, 0x00, 0x00, 0x18, 0x01, 0x00, 0x00, 0x0c, 0x01, 0x00, 0x00,
  0x04, 0x00, 0x00, 0x00, 0x05, 0x00, 0x00, 0x00, 0xd0, 0x00, 0x00, 0x00,
  0x9c, 0x00, 0x00, 0x00, 0x5c, 0x00, 0x00, 0x00, 0x38, 0x00, 0x00, 0x00,
  0x04, 0x00, 0x00, 0x00, 0x52, 0xff, 0xff, 0xff, 0x00, 0x00, 0x00, 0x08,
  0x18, 0x00, 0x00, 0x00, 0x0c, 0x00, 0x00, 0x00, 0x04, 0x00, 0x00, 0x00,
  0x7c, 0xfb, 0xff, 0xff, 0x01, 0x00, 0x00, 0x00, 0x00, 0x00, 0x00, 0x00,
  0x03, 0x00, 0x00, 0x00, 0x09, 0x00, 0x00, 0x00, 0x0a, 0x00, 0x00, 0x00,
  0x0b, 0x00, 0x00, 0x00, 0xae, 0xff, 0xff, 0xff, 0x01, 0x00, 0x00, 0x00,
  0x10, 0x00, 0x00, 0x00, 0x04, 0x00, 0x00, 0x00, 0x01, 0x00, 0x00, 0x00,
  0x09, 0x00, 0x00, 0x00, 0x01, 0x00, 0x00, 0x00, 0x06, 0x00, 0x00, 0x00,
  0xa2, 0xff, 0xff, 0xff, 0x00, 0x00, 0x00, 0x08, 0x18, 0x00, 0x00, 0x00,
  0x0c, 0x00, 0x00, 0x00, 0x04, 0x00, 0x00, 0x00, 0xcc, 0xfb, 0xff, 0xff,
  0x01, 0x00, 0x00, 0x00, 0x06, 0x00, 0x00, 0x00, 0x03, 0x00, 0x00, 0x00,
  0x05, 0x00, 0x00, 0x00, 0x07, 0x00, 0x00, 0x00, 0x08, 0x00, 0x00, 0x00,
  0x00, 0x00, 0x0a, 0x00, 0x10, 0x00, 0x04, 0x00, 0x08, 0x00, 0x0c, 0x00,
  0x0a, 0x00, 0x00, 0x00, 0x01, 0x00, 0x00, 0x00, 0x10, 0x00, 0x00, 0x00,
  0x04, 0x00, 0x00, 0x00, 0x01, 0x00, 0x00, 0x00, 0x05, 0x00, 0x00, 0x00,
  0x01, 0x00, 0x00, 0x00, 0x02, 0x00, 0x00, 0x00, 0x00, 0x00, 0x0e, 0x00,
  0x14, 0x00, 0x00, 0x00, 0x08, 0x00, 0x0c, 0x00, 0x07, 0x00, 0x10, 0x00,
  0x0e, 0x00, 0x00, 0x00, 0x00, 0x00, 0x00, 0x08, 0x18, 0x00, 0x00, 0x00,
  0x0c, 0x00, 0x00, 0x00, 0x04, 0x00, 0x00, 0x00, 0x38, 0xfc, 0xff, 0xff,
  0x01, 0x00, 0x00, 0x00, 0x02, 0x00, 0x00, 0x00, 0x03, 0x00, 0x00, 0x00,
  0x01, 0x00, 0x00, 0x00, 0x03, 0x00, 0x00, 0x00, 0x04, 0x00, 0x00, 0x00,
  0x01, 0x00, 0x00, 0x00, 0x00, 0x00, 0x00, 0x00, 0x01, 0x00, 0x00, 0x00,
  0x01, 0x00, 0x00, 0x00, 0x0c, 0x00, 0x00, 0x00, 0x84, 0x03, 0x00, 0x00,
  0x1c, 0x03, 0x00, 0x00, 0xd4, 0x02, 0x00, 0x00, 0x74, 0x02, 0x00, 0x00,
  0x2c, 0x02, 0x00, 0x00, 0xe4, 0x01, 0x00, 0x00, 0x9c, 0x01, 0x00, 0x00,
  0x3c, 0x01, 0x00, 0x00, 0xf4, 0x00, 0x00, 0x00, 0xac, 0x00, 0x00, 0x00,
  0x4c, 0x00, 0x00, 0x00, 0x04, 0x00, 0x00, 0x00, 0xba, 0xfc, 0xff, 0xff,
  0x38, 0x00, 0x00, 0x00, 0x0c, 0x00, 0x00, 0x00, 0x0c, 0x00, 0x00, 0x00,
  0x04, 0x00, 0x00, 0x00, 0xac, 0xfc, 0xff, 0xff, 0x1e, 0x00, 0x00, 0x00,
  0x73, 0x65, 0x71, 0x75, 0x65, 0x6e, 0x74, 0x69, 0x61, 0x6c, 0x2f, 0x64,
  0x65, 0x6e, 0x73, 0x65, 0x5f, 0x32, 0x2f, 0x4d, 0x61, 0x74, 0x4d, 0x75,
  0x6c, 0x5f, 0x62, 0x69, 0x61, 0x73, 0x00, 0x00, 0x01, 0x00, 0x00, 0x00,
  0x05, 0x00, 0x00, 0x00, 0xfe, 0xfc, 0xff, 0xff, 0x4c, 0x00, 0x00, 0x00,
  0x0b, 0x00, 0x00, 0x00, 0x0c, 0x00, 0x00, 0x00, 0x04, 0x00, 0x00, 0x00,
  0xf0, 0xfc, 0xff, 0xff, 0x32, 0x00, 0x00, 0x00, 0x73, 0x65, 0x71, 0x75,
  0x65, 0x6e, 0x74, 0x69, 0x61, 0x6c, 0x2f, 0x64, 0x65, 0x6e, 0x73, 0x65,
  0x5f, 0x32, 0x2f, 0x4d, 0x61, 0x74, 0x4d, 0x75, 0x6c, 0x2f, 0x52, 0x65,
  0x61, 0x64, 0x56, 0x61, 0x72, 0x69, 0x61, 0x62, 0x6c, 0x65, 0x4f, 0x70,
  0x2f, 0x74, 0x72, 0x61, 0x6e, 0x73, 0x70, 0x6f, 0x73, 0x65, 0x00, 0x00,
  0x02, 0x00, 0x00, 0x00, 0x05, 0x00, 0x00, 0x00, 0x0f, 0x00, 0x00, 0x00,
  0x5a, 0xfd, 0xff, 0xff, 0x34, 0x00, 0x00, 0x00, 0x06, 0x00, 0x00, 0x00,
  0x0c, 0x00, 0x00, 0x00, 0x04, 0x00, 0x00, 0x00, 0x4c, 0xfd, 0xff, 0xff,
  0x1a, 0x00, 0x00, 0x00, 0x73, 0x65, 0x71, 0x75, 0x65, 0x6e, 0x74, 0x69,
  0x61, 0x6c, 0x2f, 0x64, 0x65, 0x6e, 0x73, 0x65, 0x5f, 0x31, 0x2f, 0x53,
  0x69, 0x67, 0x6d, 0x6f, 0x69, 0x64, 0x00, 0x00, 0x02, 0x00, 0x00, 0x00,
  0x01, 0x00, 0x00, 0x00, 0x0f, 0x00, 0x00, 0x00, 0x9e, 0xfd, 0xff, 0xff,
  0x38, 0x00, 0x00, 0x00, 0x0a, 0x00, 0x00, 0x00, 0x0c, 0x00, 0x00, 0x00,
  0x04, 0x00, 0x00, 0x00, 0x90, 0xfd, 0xff, 0xff, 0x1e, 0x00, 0x00, 0x00,
  0x73, 0x65, 0x71, 0x75, 0x65, 0x6e, 0x74, 0x69, 0x61, 0x6c, 0x2f, 0x64,
  0x65, 0x6e, 0x73, 0x65, 0x5f, 0x31, 0x2f, 0x4d, 0x61, 0x74, 0x4d, 0x75,
  0x6c, 0x5f, 0x62, 0x69, 0x61, 0x73, 0x00, 0x00, 0x01, 0x00, 0x00, 0x00,
  0x0f, 0x00, 0x00, 0x00, 0xe2, 0xfd, 0xff, 0xff, 0x4c, 0x00, 0x00, 0x00,
  0x02, 0x00, 0x00, 0x00, 0x0c, 0x00, 0x00, 0x00, 0x04, 0x00, 0x00, 0x00,
  0xd4, 0xfd, 0xff, 0xff, 0x32, 0x00, 0x00, 0x00, 0x73, 0x65, 0x71, 0x75,
  0x65, 0x6e, 0x74, 0x69, 0x61, 0x6c, 0x2f, 0x64, 0x65, 0x6e, 0x73, 0x65,
  0x5f, 0x31, 0x2f, 0x4d, 0x61, 0x74, 0x4d, 0x75, 0x6c, 0x2f, 0x52, 0x65,
  0x61, 0x64, 0x56, 0x61, 0x72, 0x69, 0x61, 0x62, 0x6c, 0x65, 0x4f, 0x70,
  0x2f, 0x74, 0x72, 0x61, 0x6e, 0x73, 0x70, 0x6f, 0x73, 0x65, 0x00, 0x00,
  0x02, 0x00, 0x00, 0x00, 0x0f, 0x00, 0x00, 0x00, 0x16, 0x00, 0x00, 0x00,
  0x3e, 0xfe, 0xff, 0xff, 0x34, 0x00, 0x00, 0x00, 0x04, 0x00, 0x00, 0x00,
  0x0c, 0x00, 0x00, 0x00, 0x04, 0x00, 0x00, 0x00, 0x30, 0xfe, 0xff, 0xff,
  0x1a, 0x00, 0x00, 0x00, 0x73, 0x65, 0x71, 0x75, 0x65, 0x6e, 0x74, 0x69,
  0x61, 0x6c, 0x2f, 0x64, 0x65, 0x6e, 0x73, 0x65, 0x5f, 0x31, 0x2f, 0x42,
  0x69, 0x61, 0x73, 0x41, 0x64, 0x64, 0x00, 0x00, 0x02, 0x00, 0x00, 0x00,
  0x01, 0x00, 0x00, 0x00, 0x0f, 0x00, 0x00, 0x00, 0x82, 0xfe, 0xff, 0xff,
  0x34, 0x00, 0x00, 0x00, 0x05, 0x00, 0x00, 0x00, 0x0c, 0x00, 0x00, 0x00,
  0x04, 0x00, 0x00, 0x00, 0x74, 0xfe, 0xff, 0xff, 0x18, 0x00, 0x00, 0x00,
  0x73, 0x65, 0x71, 0x75, 0x65, 0x6e, 0x74, 0x69, 0x61, 0x6c, 0x2f, 0x64,
  0x65, 0x6e, 0x73, 0x65, 0x2f, 0x53, 0x69, 0x67, 0x6d, 0x6f, 0x69, 0x64,
  0x00, 0x00, 0x00, 0x00, 0x02, 0x00, 0x00, 0x00, 0x01, 0x00, 0x00, 0x00,
  0x16, 0x00, 0x00, 0x00, 0xc6, 0xfe, 0xff, 0xff, 0x38, 0x00, 0x00, 0x00,
  0x09, 0x00, 0x00, 0x00, 0x0c, 0x00, 0x00, 0x00, 0x04, 0x00, 0x00, 0x00,
  0xb8, 0xfe, 0xff, 0xff, 0x1c, 0x00, 0x00, 0x00, 0x73, 0x65, 0x71, 0x75,
  0x65, 0x6e, 0x74, 0x69, 0x61, 0x6c, 0x2f, 0x64, 0x65, 0x6e, 0x73, 0x65,
  0x2f, 0x4d, 0x61, 0x74, 0x4d, 0x75, 0x6c, 0x5f, 0x62, 0x69, 0x61, 0x73,
  0x00, 0x00, 0x00, 0x00, 0x01, 0x00, 0x00, 0x00, 0x16, 0x00, 0x00, 0x00,
  0x0a, 0xff, 0xff, 0xff, 0x4c, 0x00, 0x00, 0x00, 0x08, 0x00, 0x00, 0x00,
  0x0c, 0x00, 0x00, 0x00, 0x04, 0x00, 0x00, 0x00, 0xfc, 0xfe, 0xff, 0xff,
  0x30, 0x00, 0x00, 0x00, 0x73, 0x65, 0x71, 0x75, 0x65, 0x6e, 0x74, 0x69,
  0x61, 0x6c, 0x2f, 0x64, 0x65, 0x6e, 0x73, 0x65, 0x2f, 0x4d, 0x61, 0x74,
  0x4d, 0x75, 0x6c, 0x2f, 0x52, 0x65, 0x61, 0x64, 0x56, 0x61, 0x72, 0x69,
  0x61, 0x62, 0x6c, 0x65, 0x4f, 0x70, 0x2f, 0x74, 0x72, 0x61, 0x6e, 0x73,
  0x70, 0x6f, 0x73, 0x65, 0x00, 0x00, 0x00, 0x00, 0x02, 0x00, 0x00, 0x00,
  0x16, 0x00, 0x00, 0x00, 0x1b, 0x00, 0x00, 0x00, 0x66, 0xff, 0xff, 0xff,
  0x34, 0x00, 0x00, 0x00, 0x03, 0x00, 0x00, 0x00, 0x0c, 0x00, 0x00, 0x00,
  0x04, 0x00, 0x00, 0x00, 0x58, 0xff, 0xff, 0xff, 0x18, 0x00, 0x00, 0x00,
  0x73, 0x65, 0x71, 0x75, 0x65, 0x6e, 0x74, 0x69, 0x61, 0x6c, 0x2f, 0x64,
  0x65, 0x6e, 0x73, 0x65, 0x2f, 0x42, 0x69, 0x61, 0x73, 0x41, 0x64, 0x64,
  0x00, 0x00, 0x00, 0x00, 0x02, 0x00, 0x00, 0x00, 0x01, 0x00, 0x00, 0x00,
  0x16, 0x00, 0x00, 0x00, 0xaa, 0xff, 0xff, 0xff, 0x44, 0x00, 0x00, 0x00,
  0x01, 0x00, 0x00, 0x00, 0x2c, 0x00, 0x00, 0x00, 0x0c, 0x00, 0x00, 0x00,
  0x08, 0x00, 0x0c, 0x00, 0x04, 0x00, 0x08, 0x00, 0x08, 0x00, 0x00, 0x00,
  0x10, 0x00, 0x00, 0x00, 0x04, 0x00, 0x00, 0x00, 0x01, 0x00, 0x00, 0x00,
  0x00, 0x00, 0x7f, 0x43, 0x01, 0x00, 0x00, 0x00, 0x00, 0x00, 0x00, 0x00,
  0x0b, 0x00, 0x00, 0x00, 0x64, 0x65, 0x6e, 0x73, 0x65, 0x5f, 0x69, 0x6e,
  0x70, 0x75, 0x74, 0x00, 0x02, 0x00, 0x00, 0x00, 0x01, 0x00, 0x00, 0x00,
  0x1b, 0x00, 0x00, 0x00, 0x00, 0x00, 0x0e, 0x00, 0x14, 0x00, 0x04, 0x00,
  0x00, 0x00, 0x08, 0x00, 0x0c, 0x00, 0x10, 0x00, 0x0e, 0x00, 0x00, 0x00,
  0x28, 0x00, 0x00, 0x00, 0x07, 0x00, 0x00, 0x00, 0x10, 0x00, 0x00, 0x00,
  0x08, 0x00, 0x00, 0x00, 0x04, 0x00, 0x04, 0x00, 0x04, 0x00, 0x00, 0x00,
  0x08, 0x00, 0x00, 0x00, 0x49, 0x64, 0x65, 0x6e, 0x74, 0x69, 0x74, 0x79,
  0x00, 0x00, 0x00, 0x00, 0x02, 0x00, 0x00, 0x00, 0x01, 0x00, 0x00, 0x00,
  0x05, 0x00, 0x00, 0x00, 0x02, 0x00, 0x00, 0x00, 0x20, 0x00, 0x00, 0x00,
  0x0c, 0x00, 0x00, 0x00, 0x00, 0x00, 0x06, 0x00, 0x06, 0x00, 0x05, 0x00,
  0x06, 0x00, 0x00, 0x00, 0x00, 0x0e, 0x0a, 0x00, 0x0c, 0x00, 0x07, 0x00,
  0x00, 0x00, 0x08, 0x00, 0x0a, 0x00, 0x00, 0x00, 0x00, 0x00, 0x00, 0x09,
  0x03, 0x00, 0x00, 0x00
};
