#define TENSORFLOW_LITE_EXPERIMENTAL_MICRO_EXAMPLES_HELLO_WORLD_SINE_MODEL_DATA_H_
#ifdef __has_attribute
#define HAVE_ATTRIBUTE(x) __has_attribute(x)
#else
#define HAVE_ATTRIBUTE(x) 0
#endif
#if HAVE_ATTRIBUTE(aligned) || (defined(__GNUC__) && !defined(__clang__))
#define DATA_ALIGN_ATTRIBUTE __attribute__((aligned(4)))
#else
#define DATA_ALIGN_ATTRIBUTE
#endif
const int g_second_model_data_len = 3300;
const unsigned char g_second_model_data[] DATA_ALIGN_ATTRIBUTE = {
 0x1c, 0x00, 0x00, 0x00, 0x54, 0x46, 0x4c, 0x33, 0x14, 0x00, 0x20, 0x00,
  0x1c, 0x00, 0x18, 0x00, 0x14, 0x00, 0x10, 0x00, 0x0c, 0x00, 0x00, 0x00,
  0x08, 0x00, 0x04, 0x00, 0x14, 0x00, 0x00, 0x00, 0x1c, 0x00, 0x00, 0x00,
  0x90, 0x00, 0x00, 0x00, 0xe8, 0x00, 0x00, 0x00, 0x88, 0x07, 0x00, 0x00,
  0x98, 0x07, 0x00, 0x00, 0x90, 0x0c, 0x00, 0x00, 0x03, 0x00, 0x00, 0x00,
  0x01, 0x00, 0x00, 0x00, 0x10, 0x00, 0x00, 0x00, 0x00, 0x00, 0x0a, 0x00,
  0x10, 0x00, 0x0c, 0x00, 0x08, 0x00, 0x04, 0x00, 0x0a, 0x00, 0x00, 0x00,
  0x0c, 0x00, 0x00, 0x00, 0x1c, 0x00, 0x00, 0x00, 0x38, 0x00, 0x00, 0x00,
  0x0f, 0x00, 0x00, 0x00, 0x73, 0x65, 0x72, 0x76, 0x69, 0x6e, 0x67, 0x5f,
  0x64, 0x65, 0x66, 0x61, 0x75, 0x6c, 0x74, 0x00, 0x01, 0x00, 0x00, 0x00,
  0x04, 0x00, 0x00, 0x00, 0x98, 0xff, 0xff, 0xff, 0x09, 0x00, 0x00, 0x00,
  0x04, 0x00, 0x00, 0x00, 0x07, 0x00, 0x00, 0x00, 0x64, 0x65, 0x6e, 0x73,
  0x65, 0x5f, 0x32, 0x00, 0x01, 0x00, 0x00, 0x00, 0x04, 0x00, 0x00, 0x00,
  0x42, 0xf9, 0xff, 0xff, 0x04, 0x00, 0x00, 0x00, 0x0b, 0x00, 0x00, 0x00,
  0x64, 0x65, 0x6e, 0x73, 0x65, 0x5f, 0x69, 0x6e, 0x70, 0x75, 0x74, 0x00,
  0x02, 0x00, 0x00, 0x00, 0x34, 0x00, 0x00, 0x00, 0x04, 0x00, 0x00, 0x00,
  0xdc, 0xff, 0xff, 0xff, 0x0c, 0x00, 0x00, 0x00, 0x04, 0x00, 0x00, 0x00,
  0x13, 0x00, 0x00, 0x00, 0x43, 0x4f, 0x4e, 0x56, 0x45, 0x52, 0x53, 0x49,
  0x4f, 0x4e, 0x5f, 0x4d, 0x45, 0x54, 0x41, 0x44, 0x41, 0x54, 0x41, 0x00,
  0x08, 0x00, 0x0c, 0x00, 0x08, 0x00, 0x04, 0x00, 0x08, 0x00, 0x00, 0x00,
  0x0b, 0x00, 0x00, 0x00, 0x04, 0x00, 0x00, 0x00, 0x13, 0x00, 0x00, 0x00,
  0x6d, 0x69, 0x6e, 0x5f, 0x72, 0x75, 0x6e, 0x74, 0x69, 0x6d, 0x65, 0x5f,
  0x76, 0x65, 0x72, 0x73, 0x69, 0x6f, 0x6e, 0x00, 0x0d, 0x00, 0x00, 0x00,
  0x9c, 0x06, 0x00, 0x00, 0x94, 0x06, 0x00, 0x00, 0x44, 0x06, 0x00, 0x00,
  0x24, 0x06, 0x00, 0x00, 0xd4, 0x05, 0x00, 0x00, 0x44, 0x05, 0x00, 0x00,
  0x34, 0x01, 0x00, 0x00, 0xa4, 0x00, 0x00, 0x00, 0x9c, 0x00, 0x00, 0x00,
  0x94, 0x00, 0x00, 0x00, 0x8c, 0x00, 0x00, 0x00, 0x6c, 0x00, 0x00, 0x00,
  0x04, 0x00, 0x00, 0x00, 0xee, 0xf9, 0xff, 0xff, 0x04, 0x00, 0x00, 0x00,
  0x58, 0x00, 0x00, 0x00, 0x0c, 0x00, 0x00, 0x00, 0x08, 0x00, 0x0e, 0x00,
  0x08, 0x00, 0x04, 0x00, 0x08, 0x00, 0x00, 0x00, 0x10, 0x00, 0x00, 0x00,
  0x28, 0x00, 0x00, 0x00, 0x00, 0x00, 0x06, 0x00, 0x08, 0x00, 0x04, 0x00,
  0x06, 0x00, 0x00, 0x00, 0x04, 0x00, 0x00, 0x00, 0x01, 0x00, 0x00, 0x00,
  0xea, 0x03, 0x00, 0x00, 0x00, 0x00, 0x0a, 0x00, 0x10, 0x00, 0x0c, 0x00,
  0x08, 0x00, 0x04, 0x00, 0x0a, 0x00, 0x00, 0x00, 0x02, 0x00, 0x00, 0x00,
  0x02, 0x00, 0x00, 0x00, 0x04, 0x00, 0x00, 0x00, 0x06, 0x00, 0x00, 0x00,
  0x32, 0x2e, 0x31, 0x30, 0x2e, 0x30, 0x00, 0x00, 0x52, 0xfa, 0xff, 0xff,
  0x04, 0x00, 0x00, 0x00, 0x10, 0x00, 0x00, 0x00, 0x31, 0x2e, 0x35, 0x2e,
  0x30, 0x00, 0x00, 0x00, 0x00, 0x00, 0x00, 0x00, 0x00, 0x00, 0x00, 0x00,
  0x3c, 0xf5, 0xff, 0xff, 0x40, 0xf5, 0xff, 0xff, 0x44, 0xf5, 0xff, 0xff,
  0x7a, 0xfa, 0xff, 0xff, 0x04, 0x00, 0x00, 0x00, 0x80, 0x00, 0x00, 0x00,
  0x7a, 0x97, 0x0a, 0xbf, 0x55, 0x38, 0x93, 0xbe, 0xea, 0x65, 0xaf, 0x3e,
  0x9c, 0x5e, 0x0b, 0x3f, 0x44, 0x75, 0x69, 0xbc, 0x7d, 0x42, 0x87, 0xbe,
  0x53, 0x36, 0x11, 0x3f, 0x65, 0x11, 0x19, 0x3f, 0x17, 0xc1, 0xe1, 0x3e,
  0xa7, 0x21, 0x4d, 0xbf, 0x5c, 0xe7, 0x19, 0x3f, 0x42, 0x38, 0x50, 0xbe,
  0x52, 0x70, 0x86, 0x3e, 0xa1, 0x1d, 0xda, 0xbe, 0x29, 0xb0, 0x1e, 0xbf,
  0xf3, 0x15, 0x2c, 0xbe, 0x0b, 0x5e, 0x15, 0x3f, 0x1a, 0x77, 0x07, 0x3f,
  0x93, 0xa2, 0x92, 0x3e, 0x8b, 0x35, 0x04, 0xbf, 0x3c, 0xa2, 0x3e, 0x3f,
  0xd8, 0xdf, 0xe5, 0xbb, 0xd0, 0x9a, 0xd8, 0xbc, 0x75, 0x79, 0x9d, 0xbe,
  0xde, 0x44, 0x18, 0xbf, 0x69, 0xd8, 0x3d, 0xbf, 0x6c, 0x83, 0xbe, 0x3e,
  0xb0, 0x33, 0x0e, 0x3d, 0xeb, 0x27, 0x7b, 0xbe, 0xc4, 0x6d, 0x0e, 0xbe,
  0xf8, 0x6b, 0x5d, 0x3e, 0x7d, 0x1d, 0x40, 0x3f, 0x06, 0xfb, 0xff, 0xff,
  0x04, 0x00, 0x00, 0x00, 0x00, 0x04, 0x00, 0x00, 0x9e, 0x5f, 0xf8, 0x3d,
  0xd5, 0xe2, 0xa6, 0x3e, 0x6f, 0xe9, 0xb3, 0x3e, 0xb0, 0xd6, 0x6e, 0x3d,
  0x07, 0xf3, 0x26, 0xbe, 0x92, 0x2f, 0x9c, 0x3e, 0x3c, 0x5c, 0xa0, 0xbe,
  0xcc, 0xe7, 0xaf, 0x3e, 0x82, 0x94, 0xc5, 0x3d, 0xc4, 0xde, 0x9e, 0x3e,
  0xcf, 0xd1, 0x69, 0x3e, 0x6d, 0xcf, 0x99, 0x3e, 0x2d, 0xf3, 0xf4, 0x3e,
  0x2e, 0xac, 0x0b, 0x3e, 0x09, 0x5f, 0x05, 0xbf, 0x29, 0x3a, 0xb3, 0xbe,
  0xd8, 0xb4, 0x88, 0x3e, 0x41, 0x3e, 0xc2, 0x3e, 0xbd, 0x23, 0xa8, 0x3e,
  0xfc, 0x0c, 0xd1, 0xbe, 0x5a, 0x8e, 0xb8, 0x3e, 0xd4, 0x40, 0xd9, 0xbe,
  0x9d, 0xab, 0x7a, 0xbe, 0x32, 0xf2, 0x3a, 0x3e, 0xfe, 0x25, 0xa5, 0x3e,
  0xbd, 0xf7, 0xfc, 0xbd, 0x19, 0x0d, 0x8b, 0x3e, 0x30, 0x6b, 0x57, 0x3d,
  0xa0, 0xb3, 0xf0, 0x3e, 0x68, 0x90, 0x66, 0xbd, 0x55, 0x2f, 0xd1, 0xbd,
  0xa9, 0x73, 0x15, 0xbe, 0x49, 0xd6, 0xaa, 0xbe, 0xa0, 0xb7, 0x4c, 0xbd,
  0x84, 0x00, 0x57, 0xbe, 0x13, 0xfd, 0xbe, 0xbe, 0x1a, 0x11, 0xab, 0x3d,
  0xe7, 0x0e, 0x93, 0xbe, 0x4f, 0xe7, 0xe1, 0x3d, 0xc7, 0x26, 0xad, 0x3c,
  0x22, 0xcb, 0x6d, 0x3e, 0x96, 0xc9, 0x22, 0x3e, 0xc6, 0xab, 0x75, 0xbe,
  0x05, 0x45, 0xbf, 0x3e, 0xe1, 0x06, 0xff, 0x3e, 0x00, 0x03, 0xe1, 0x3c,
  0xcd, 0xfb, 0x60, 0x3e, 0x30, 0x9f, 0xfc, 0x3d, 0xe0, 0xac, 0x2e, 0x3e,
  0xcc, 0x15, 0xc3, 0xbd, 0x66, 0xde, 0x62, 0x3e, 0x2f, 0x97, 0x8b, 0x3e,
  0xe1, 0x51, 0xcb, 0xbe, 0x69, 0xf2, 0xda, 0x3d, 0x06, 0x54, 0xf5, 0xbc,
  0xbd, 0x4f, 0x49, 0x3e, 0xff, 0xec, 0xad, 0xbc, 0xa7, 0x9c, 0xd9, 0xbe,
  0xf0, 0x2b, 0x3d, 0xbe, 0xf5, 0x65, 0xb7, 0xbe, 0xf9, 0x5e, 0x51, 0xbe,
  0xc0, 0x01, 0xae, 0xbb, 0x21, 0x78, 0x01, 0x3f, 0x01, 0x93, 0xd7, 0x3e,
  0x10, 0x76, 0xc8, 0xbc, 0xba, 0x6c, 0xbd, 0xbe, 0xfb, 0x03, 0x67, 0xbe,
  0x69, 0xf0, 0xc3, 0x3e, 0xec, 0x9c, 0x83, 0x3e, 0xac, 0x44, 0xae, 0xbd,
  0x84, 0x87, 0xa2, 0xbd, 0xc5, 0xdf, 0x36, 0xbe, 0x0f, 0x80, 0xc2, 0xbe,
  0x1c, 0x5b, 0xd0, 0xbe, 0x43, 0xba, 0xe9, 0xbd, 0x4f, 0xe3, 0x82, 0x3e,
  0x4a, 0x05, 0xd8, 0x3e, 0x70, 0x4c, 0x78, 0x3d, 0xb1, 0x7a, 0xe8, 0x3e,
  0xad, 0x28, 0x7f, 0x3e, 0xfd, 0x86, 0xd7, 0x3c, 0xfa, 0x19, 0x51, 0xbe,
  0x63, 0x3a, 0xd9, 0xbe, 0x95, 0x46, 0x8e, 0x3e, 0x9a, 0x19, 0xae, 0xbe,
  0x90, 0x44, 0xe9, 0xbb, 0x39, 0x63, 0x04, 0x3e, 0x85, 0x3b, 0x1e, 0x3e,
  0xe7, 0x43, 0x8e, 0x3e, 0x93, 0x8c, 0x46, 0x3d, 0xb1, 0xd5, 0xcf, 0x3d,
  0xa0, 0xff, 0x4f, 0xbe, 0x22, 0xc8, 0xf0, 0xbe, 0x6a, 0x2d, 0x8a, 0xbe,
  0xf8, 0x14, 0xb9, 0x3b, 0xcc, 0x0e, 0xec, 0xb9, 0x2c, 0x8b, 0x76, 0xbe,
  0x7a, 0x85, 0x4d, 0xbe, 0x98, 0xd2, 0x47, 0x3d, 0x46, 0x42, 0x4e, 0x3e,
  0x2a, 0x4a, 0x5b, 0x3e, 0x12, 0x3e, 0x50, 0xbe, 0x43, 0x7b, 0x77, 0xbd,
  0x33, 0x66, 0x2f, 0xbe, 0x23, 0xf4, 0xdc, 0x3e, 0xcb, 0x25, 0xa5, 0x3e,
  0xd6, 0x70, 0x4c, 0x3e, 0xca, 0xa3, 0x3d, 0x3e, 0xc4, 0xfe, 0x04, 0x3d,
  0xa5, 0x54, 0xac, 0xbe, 0xf5, 0x63, 0xba, 0xbe, 0xe3, 0xa7, 0x98, 0x3d,
  0x30, 0x56, 0xfc, 0xbe, 0x96, 0xb2, 0x7e, 0x3e, 0xdb, 0xc2, 0x64, 0xbe,
  0x38, 0x31, 0xdf, 0xbd, 0x2c, 0xb4, 0x8b, 0x3e, 0x48, 0x44, 0xb2, 0xbe,
  0xc0, 0x54, 0x88, 0xbd, 0x00, 0x76, 0x04, 0xbe, 0x6a, 0x03, 0x94, 0x3e,
  0xff, 0xbf, 0x46, 0x3d, 0x97, 0xc0, 0x0d, 0xbf, 0xc0, 0xa1, 0x0e, 0xbc,
  0x9b, 0x59, 0x9d, 0x3e, 0x14, 0x88, 0x97, 0x3d, 0xc4, 0xf4, 0xe1, 0xbb,
  0x1b, 0x3f, 0xaa, 0x3e, 0x66, 0xb6, 0xbc, 0xbe, 0xbc, 0xdb, 0x85, 0xbe,
  0x32, 0x06, 0x02, 0x3e, 0xee, 0x9c, 0xda, 0xbe, 0x82, 0x6d, 0xca, 0xbe,
  0x81, 0xc0, 0xdf, 0x3d, 0xd1, 0x67, 0xc8, 0xbe, 0xf2, 0x8d, 0xcd, 0x3e,
  0xe9, 0xfb, 0x12, 0x3f, 0x0d, 0xa4, 0x0a, 0xbf, 0x45, 0xdc, 0xc2, 0x3e,
  0xa0, 0xa9, 0x39, 0x3c, 0xe3, 0x3e, 0xd0, 0xbe, 0x6f, 0xff, 0xdb, 0x3e,
  0xfe, 0x62, 0xdd, 0xbd, 0xa5, 0x2f, 0xb5, 0x3b, 0x5f, 0xd4, 0x8b, 0x3e,
  0x88, 0x58, 0x53, 0xbe, 0x5c, 0xf4, 0xce, 0x3d, 0x96, 0xad, 0x20, 0x3e,
  0xb1, 0x6d, 0x0e, 0xbf, 0xda, 0x62, 0x13, 0xbf, 0xff, 0x4c, 0xd5, 0x3e,
  0x23, 0xdf, 0x15, 0xbf, 0x1f, 0x1e, 0xed, 0xbe, 0x1f, 0x28, 0x3b, 0x3e,
  0x41, 0x91, 0xa9, 0x3e, 0xf8, 0x31, 0x64, 0xbd, 0xc3, 0xbc, 0x39, 0xbe,
  0x08, 0x30, 0x0f, 0xbd, 0x87, 0x03, 0x21, 0xbe, 0xad, 0x51, 0x61, 0x3d,
  0xe5, 0xd4, 0xa1, 0x3e, 0x09, 0x52, 0xa2, 0x3e, 0x08, 0x98, 0x07, 0xbe,
  0x95, 0x1e, 0xa8, 0x3e, 0x56, 0xf2, 0x4f, 0x3e, 0xcb, 0xe5, 0x23, 0xbe,
  0x60, 0x89, 0x05, 0x3e, 0x42, 0x7a, 0x61, 0xbc, 0x5d, 0xc1, 0x21, 0x3c,
  0x49, 0xc1, 0x94, 0x3e, 0x02, 0x3a, 0xd5, 0x3e, 0x4f, 0x76, 0x9c, 0x3e,
  0xee, 0xd3, 0xd3, 0x3e, 0xba, 0x25, 0x13, 0xbe, 0x6c, 0x16, 0x06, 0xbe,
  0xf1, 0x64, 0x70, 0xbe, 0x5e, 0x0d, 0xa8, 0xbe, 0x4b, 0xca, 0xad, 0x3e,
  0x5f, 0x7a, 0xd5, 0xbe, 0x82, 0xeb, 0x60, 0x3e, 0x7d, 0x4e, 0x92, 0xbe,
  0x5a, 0x8b, 0x30, 0xbe, 0x7e, 0x95, 0xaf, 0xbe, 0xa6, 0xaa, 0x0e, 0xbe,
  0x83, 0x4e, 0xbb, 0xbe, 0x52, 0x7c, 0x9a, 0xbe, 0x07, 0x14, 0x8c, 0xbe,
  0xdc, 0x72, 0x36, 0xbe, 0x24, 0x51, 0xd3, 0x3d, 0x56, 0x48, 0x7f, 0x3e,
  0x04, 0x7f, 0x9d, 0x3d, 0xa2, 0xc1, 0x55, 0x3e, 0x44, 0xcb, 0xbc, 0x3e,
  0x54, 0xeb, 0xfa, 0xbd, 0xb2, 0xaf, 0x40, 0xbe, 0x48, 0xcf, 0x09, 0xbd,
  0x75, 0xc4, 0x26, 0x3e, 0x85, 0x23, 0x9a, 0x3e, 0x6a, 0xd6, 0x9e, 0x3e,
  0x88, 0x20, 0xeb, 0x3e, 0x66, 0xf6, 0x03, 0xbe, 0x67, 0xb3, 0xaf, 0xbd,
  0xbd, 0x6b, 0x05, 0xbe, 0x34, 0x79, 0xa5, 0x3d, 0x76, 0x96, 0xd4, 0x3d,
  0x83, 0x4f, 0xc8, 0x3e, 0x71, 0x62, 0x02, 0xbe, 0xb5, 0x36, 0xf4, 0xbc,
  0xf6, 0x12, 0xfc, 0xbe, 0x0a, 0xd7, 0x48, 0x3e, 0x9c, 0xfc, 0x02, 0xbe,
  0x67, 0xda, 0xd2, 0x3e, 0x57, 0x15, 0x2f, 0x3e, 0x3d, 0x41, 0xb2, 0x3e,
  0x8e, 0x6d, 0x64, 0xbe, 0xc9, 0x7b, 0xa5, 0x3e, 0x00, 0x22, 0x49, 0x3e,
  0x2c, 0x9c, 0x4c, 0x3e, 0x32, 0x28, 0x03, 0x3d, 0x74, 0x98, 0xdb, 0xbe,
  0x55, 0x5c, 0x10, 0x3b, 0x9a, 0xf2, 0x59, 0x3e, 0xfe, 0xe8, 0x11, 0x3e,
  0xc5, 0x2a, 0xd9, 0xbd, 0x66, 0xb4, 0x97, 0x3e, 0x06, 0x58, 0x3b, 0x3e,
  0xba, 0xa7, 0x4e, 0x3e, 0x3f, 0xa3, 0x71, 0xbe, 0x6b, 0x58, 0xbb, 0x3e,
  0xcc, 0xe1, 0xce, 0x3e, 0xdf, 0xf3, 0x1f, 0xbd, 0x6a, 0xa8, 0x9e, 0x3e,
  0x87, 0x03, 0x7d, 0x3e, 0x95, 0xbd, 0xb1, 0xbe, 0x89, 0x06, 0x09, 0xbf,
  0x60, 0x65, 0xd9, 0x3c, 0x94, 0xd3, 0x9b, 0xbe, 0xee, 0x11, 0x21, 0xbe,
  0x43, 0x99, 0x8d, 0xbe, 0x75, 0x2b, 0x47, 0x3e, 0x5c, 0x69, 0x68, 0x3e,
  0x08, 0x45, 0x83, 0xbe, 0x2f, 0x55, 0xb9, 0x3e, 0xbe, 0xe3, 0x0b, 0x3e,
  0x3b, 0x53, 0x8e, 0xbd, 0x93, 0x23, 0x4d, 0xbe, 0xaa, 0xe7, 0xb3, 0x3d,
  0xe2, 0x7b, 0x5c, 0x3e, 0xdf, 0xc9, 0x5d, 0x3c, 0xcf, 0x07, 0xfc, 0x3e,
  0x6d, 0x79, 0x18, 0xbe, 0x5f, 0xb5, 0xcb, 0xbe, 0x7b, 0x58, 0xb6, 0x3d,
  0xa0, 0xe1, 0x9a, 0xbd, 0x28, 0xfe, 0xdf, 0xbc, 0x50, 0x41, 0x83, 0x3e,
  0x12, 0xff, 0xff, 0xff, 0x04, 0x00, 0x00, 0x00, 0x80, 0x00, 0x00, 0x00,
  0x5d, 0x68, 0x87, 0xbe, 0x81, 0x5a, 0xe8, 0x3e, 0x1b, 0xd4, 0x01, 0xbf,
  0xa4, 0x4e, 0x04, 0xbf, 0x30, 0xe8, 0x0d, 0xbd, 0x38, 0xc8, 0xb2, 0xbd,
  0xd6, 0xeb, 0x06, 0xbf, 0x3c, 0xce, 0xef, 0xbd, 0x01, 0xa4, 0x39, 0x3e,
  0x68, 0x1a, 0xd3, 0xbe, 0x4c, 0x7b, 0xa5, 0x3e, 0x3b, 0xd7, 0xa3, 0x3e,
  0x5c, 0xd8, 0x4a, 0xbe, 0xdd, 0xad, 0xad, 0x3e, 0x95, 0x06, 0x09, 0x3f,
  0xf2, 0x76, 0x15, 0x3e, 0x11, 0x7b, 0x8e, 0x3d, 0x9b, 0x5f, 0x9b, 0xbe,
  0x48, 0x0a, 0x2b, 0xbe, 0xd1, 0x2e, 0xd7, 0x3e, 0xaa, 0xe4, 0x1b, 0xbf,
  0xcb, 0x42, 0xca, 0x3e, 0xf6, 0x41, 0xae, 0xbe, 0xd5, 0x69, 0xf7, 0xbe,
  0x66, 0x49, 0xfa, 0x3d, 0xc9, 0xfa, 0xa0, 0xbe, 0x6a, 0x79, 0xd9, 0xbe,
  0x88, 0xd5, 0x82, 0xbe, 0x34, 0x64, 0x37, 0xbe, 0xd8, 0x5f, 0x13, 0x3e,
  0x12, 0xbc, 0x38, 0x3e, 0xb1, 0x89, 0xbe, 0xbe, 0x9e, 0xff, 0xff, 0xff,
  0x04, 0x00, 0x00, 0x00, 0x40, 0x00, 0x00, 0x00, 0x24, 0x6f, 0x10, 0xbe,
  0x00, 0x00, 0x00, 0x00, 0x00, 0x00, 0x00, 0x00, 0x00, 0x00, 0x00, 0x00,
  0x78, 0xc1, 0xb7, 0x3e, 0x11, 0xed, 0xc1, 0xbe, 0x4f, 0xd4, 0x8d, 0x3e,
  0xe3, 0x7d, 0xc7, 0xbe, 0x60, 0xc2, 0xc7, 0x3d, 0x4d, 0x2b, 0xc7, 0xbe,
  0x20, 0x8c, 0xc0, 0xb7, 0x00, 0x00, 0x00, 0x00, 0x6c, 0x63, 0xec, 0x3e,
  0x00, 0x00, 0x00, 0x00, 0xec, 0x84, 0xb6, 0x3e, 0x4b, 0x97, 0x45, 0x3d,
  0xea, 0xff, 0xff, 0xff, 0x04, 0x00, 0x00, 0x00, 0x08, 0x00, 0x00, 0x00,
  0x96, 0xae, 0x2c, 0x3e, 0xdb, 0xc6, 0xe2, 0xbd, 0x00, 0x00, 0x06, 0x00,
  0x08, 0x00, 0x04, 0x00, 0x06, 0x00, 0x00, 0x00, 0x04, 0x00, 0x00, 0x00,
  0x40, 0x00, 0x00, 0x00, 0xfe, 0x61, 0x8f, 0xbe, 0xb4, 0xdd, 0xa0, 0x3e,
  0xa9, 0xf4, 0xa5, 0x3e, 0xde, 0x5e, 0x31, 0x3e, 0x6f, 0x01, 0xaf, 0x3e,
  0xe5, 0x88, 0xc9, 0xbd, 0x0e, 0x2b, 0x8a, 0x3d, 0x4e, 0x79, 0xf2, 0xbd,
  0xcf, 0x78, 0xd2, 0x3c, 0x7d, 0x5f, 0x63, 0x3e, 0xa4, 0x25, 0x45, 0x3e,
  0x00, 0x00, 0x00, 0x00, 0xe9, 0x9a, 0x2a, 0x3e, 0x4f, 0x7c, 0x45, 0xbe,
  0xd1, 0x1a, 0x84, 0xbe, 0xe8, 0x42, 0xa1, 0xbe, 0x20, 0xfb, 0xff, 0xff,
  0x24, 0xfb, 0xff, 0xff, 0x0f, 0x00, 0x00, 0x00, 0x4d, 0x4c, 0x49, 0x52,
  0x20, 0x43, 0x6f, 0x6e, 0x76, 0x65, 0x72, 0x74, 0x65, 0x64, 0x2e, 0x00,
  0x01, 0x00, 0x00, 0x00, 0x14, 0x00, 0x00, 0x00, 0x00, 0x00, 0x0e, 0x00,
  0x18, 0x00, 0x14, 0x00, 0x10, 0x00, 0x0c, 0x00, 0x08, 0x00, 0x04, 0x00,
  0x0e, 0x00, 0x00, 0x00, 0x14, 0x00, 0x00, 0x00, 0x1c, 0x00, 0x00, 0x00,
  0xd8, 0x00, 0x00, 0x00, 0xdc, 0x00, 0x00, 0x00, 0xe0, 0x00, 0x00, 0x00,
  0x04, 0x00, 0x00, 0x00, 0x6d, 0x61, 0x69, 0x6e, 0x00, 0x00, 0x00, 0x00,
  0x03, 0x00, 0x00, 0x00, 0x80, 0x00, 0x00, 0x00, 0x38, 0x00, 0x00, 0x00,
  0x04, 0x00, 0x00, 0x00, 0x9a, 0xff, 0xff, 0xff, 0x10, 0x00, 0x00, 0x00,
  0x00, 0x00, 0x00, 0x08, 0x0c, 0x00, 0x00, 0x00, 0x10, 0x00, 0x00, 0x00,
  0x9c, 0xfb, 0xff, 0xff, 0x01, 0x00, 0x00, 0x00, 0x09, 0x00, 0x00, 0x00,
  0x03, 0x00, 0x00, 0x00, 0x08, 0x00, 0x00, 0x00, 0x06, 0x00, 0x00, 0x00,
  0x02, 0x00, 0x00, 0x00, 0xca, 0xff, 0xff, 0xff, 0x10, 0x00, 0x00, 0x00,
  0x00, 0x00, 0x00, 0x08, 0x10, 0x00, 0x00, 0x00, 0x14, 0x00, 0x00, 0x00,
  0xba, 0xff, 0xff, 0xff, 0x00, 0x00, 0x00, 0x01, 0x01, 0x00, 0x00, 0x00,
  0x08, 0x00, 0x00, 0x00, 0x03, 0x00, 0x00, 0x00, 0x07, 0x00, 0x00, 0x00,
  0x05, 0x00, 0x00, 0x00, 0x01, 0x00, 0x00, 0x00, 0x00, 0x00, 0x0e, 0x00,
  0x16, 0x00, 0x00, 0x00, 0x10, 0x00, 0x0c, 0x00, 0x0b, 0x00, 0x04, 0x00,
  0x0e, 0x00, 0x00, 0x00, 0x18, 0x00, 0x00, 0x00, 0x00, 0x00, 0x00, 0x08,
  0x18, 0x00, 0x00, 0x00, 0x1c, 0x00, 0x00, 0x00, 0x00, 0x00, 0x06, 0x00,
  0x08, 0x00, 0x07, 0x00, 0x06, 0x00, 0x00, 0x00, 0x00, 0x00, 0x00, 0x01,
  0x01, 0x00, 0x00, 0x00, 0x07, 0x00, 0x00, 0x00, 0x03, 0x00, 0x00, 0x00,
  0x00, 0x00, 0x00, 0x00, 0x04, 0x00, 0x00, 0x00, 0x03, 0x00, 0x00, 0x00,
  0x01, 0x00, 0x00, 0x00, 0x09, 0x00, 0x00, 0x00, 0x01, 0x00, 0x00, 0x00,
  0x00, 0x00, 0x00, 0x00, 0x0a, 0x00, 0x00, 0x00, 0x8c, 0x03, 0x00, 0x00,
  0x1c, 0x03, 0x00, 0x00, 0xac, 0x02, 0x00, 0x00, 0x58, 0x02, 0x00, 0x00,
  0x10, 0x02, 0x00, 0x00, 0xc4, 0x01, 0x00, 0x00, 0x78, 0x01, 0x00, 0x00,
  0xf0, 0x00, 0x00, 0x00, 0x60, 0x00, 0x00, 0x00, 0x04, 0x00, 0x00, 0x00,
  0xb2, 0xfc, 0xff, 0xff, 0x00, 0x00, 0x00, 0x01, 0x14, 0x00, 0x00, 0x00,
  0x1c, 0x00, 0x00, 0x00, 0x1c, 0x00, 0x00, 0x00, 0x0a, 0x00, 0x00, 0x00,
  0x34, 0x00, 0x00, 0x00, 0x02, 0x00, 0x00, 0x00, 0xff, 0xff, 0xff, 0xff,
  0x02, 0x00, 0x00, 0x00, 0x9c, 0xfc, 0xff, 0xff, 0x19, 0x00, 0x00, 0x00,
  0x53, 0x74, 0x61, 0x74, 0x65, 0x66, 0x75, 0x6c, 0x50, 0x61, 0x72, 0x74,
  0x69, 0x74, 0x69, 0x6f, 0x6e, 0x65, 0x64, 0x43, 0x61, 0x6c, 0x6c, 0x3a,
  0x30, 0x00, 0x00, 0x00, 0x02, 0x00, 0x00, 0x00, 0x01, 0x00, 0x00, 0x00,
  0x02, 0x00, 0x00, 0x00, 0x0a, 0xfd, 0xff, 0xff, 0x00, 0x00, 0x00, 0x01,
  0x14, 0x00, 0x00, 0x00, 0x1c, 0x00, 0x00, 0x00, 0x1c, 0x00, 0x00, 0x00,
  0x09, 0x00, 0x00, 0x00, 0x68, 0x00, 0x00, 0x00, 0x02, 0x00, 0x00, 0x00,
  0xff, 0xff, 0xff, 0xff, 0x10, 0x00, 0x00, 0x00, 0xf4, 0xfc, 0xff, 0xff,
  0x4c, 0x00, 0x00, 0x00, 0x73, 0x65, 0x71, 0x75, 0x65, 0x6e, 0x74, 0x69,
  0x61, 0x6c, 0x2f, 0x64, 0x65, 0x6e, 0x73, 0x65, 0x5f, 0x31, 0x2f, 0x4d,
  0x61, 0x74, 0x4d, 0x75, 0x6c, 0x3b, 0x73, 0x65, 0x71, 0x75, 0x65, 0x6e,
  0x74, 0x69, 0x61, 0x6c, 0x2f, 0x64, 0x65, 0x6e, 0x73, 0x65, 0x5f, 0x31,
  0x2f, 0x52, 0x65, 0x6c, 0x75, 0x3b, 0x73, 0x65, 0x71, 0x75, 0x65, 0x6e,
  0x74, 0x69, 0x61, 0x6c, 0x2f, 0x64, 0x65, 0x6e, 0x73, 0x65, 0x5f, 0x31,
  0x2f, 0x42, 0x69, 0x61, 0x73, 0x41, 0x64, 0x64, 0x00, 0x00, 0x00, 0x00,
  0x02, 0x00, 0x00, 0x00, 0x01, 0x00, 0x00, 0x00, 0x10, 0x00, 0x00, 0x00,
  0x96, 0xfd, 0xff, 0xff, 0x00, 0x00, 0x00, 0x01, 0x14, 0x00, 0x00, 0x00,
  0x1c, 0x00, 0x00, 0x00, 0x1c, 0x00, 0x00, 0x00, 0x08, 0x00, 0x00, 0x00,
  0x60, 0x00, 0x00, 0x00, 0x02, 0x00, 0x00, 0x00, 0xff, 0xff, 0xff, 0xff,
  0x10, 0x00, 0x00, 0x00, 0x80, 0xfd, 0xff, 0xff, 0x46, 0x00, 0x00, 0x00,
  0x73, 0x65, 0x71, 0x75, 0x65, 0x6e, 0x74, 0x69, 0x61, 0x6c, 0x2f, 0x64,
  0x65, 0x6e, 0x73, 0x65, 0x2f, 0x4d, 0x61, 0x74, 0x4d, 0x75, 0x6c, 0x3b,
  0x73, 0x65, 0x71, 0x75, 0x65, 0x6e, 0x74, 0x69, 0x61, 0x6c, 0x2f, 0x64,
  0x65, 0x6e, 0x73, 0x65, 0x2f, 0x52, 0x65, 0x6c, 0x75, 0x3b, 0x73, 0x65,
  0x71, 0x75, 0x65, 0x6e, 0x74, 0x69, 0x61, 0x6c, 0x2f, 0x64, 0x65, 0x6e,
  0x73, 0x65, 0x2f, 0x42, 0x69, 0x61, 0x73, 0x41, 0x64, 0x64, 0x00, 0x00,
  0x02, 0x00, 0x00, 0x00, 0x01, 0x00, 0x00, 0x00, 0x10, 0x00, 0x00, 0x00,
  0x86, 0xfe, 0xff, 0xff, 0x00, 0x00, 0x00, 0x01, 0x10, 0x00, 0x00, 0x00,
  0x10, 0x00, 0x00, 0x00, 0x07, 0x00, 0x00, 0x00, 0x28, 0x00, 0x00, 0x00,
  0xf4, 0xfd, 0xff, 0xff, 0x19, 0x00, 0x00, 0x00, 0x73, 0x65, 0x71, 0x75,
  0x65, 0x6e, 0x74, 0x69, 0x61, 0x6c, 0x2f, 0x64, 0x65, 0x6e, 0x73, 0x65,
  0x5f, 0x32, 0x2f, 0x4d, 0x61, 0x74, 0x4d, 0x75, 0x6c, 0x00, 0x00, 0x00,
  0x02, 0x00, 0x00, 0x00, 0x02, 0x00, 0x00, 0x00, 0x10, 0x00, 0x00, 0x00,
  0xce, 0xfe, 0xff, 0xff, 0x00, 0x00, 0x00, 0x01, 0x10, 0x00, 0x00, 0x00,
  0x10, 0x00, 0x00, 0x00, 0x06, 0x00, 0x00, 0x00, 0x28, 0x00, 0x00, 0x00,
  0x3c, 0xfe, 0xff, 0xff, 0x19, 0x00, 0x00, 0x00, 0x73, 0x65, 0x71, 0x75,
  0x65, 0x6e, 0x74, 0x69, 0x61, 0x6c, 0x2f, 0x64, 0x65, 0x6e, 0x73, 0x65,
  0x5f, 0x31, 0x2f, 0x4d, 0x61, 0x74, 0x4d, 0x75, 0x6c, 0x00, 0x00, 0x00,
  0x02, 0x00, 0x00, 0x00, 0x10, 0x00, 0x00, 0x00, 0x10, 0x00, 0x00, 0x00,
  0x16, 0xff, 0xff, 0xff, 0x00, 0x00, 0x00, 0x01, 0x10, 0x00, 0x00, 0x00,
  0x10, 0x00, 0x00, 0x00, 0x05, 0x00, 0x00, 0x00, 0x24, 0x00, 0x00, 0x00,
  0x84, 0xfe, 0xff, 0xff, 0x17, 0x00, 0x00, 0x00, 0x73, 0x65, 0x71, 0x75,
  0x65, 0x6e, 0x74, 0x69, 0x61, 0x6c, 0x2f, 0x64, 0x65, 0x6e, 0x73, 0x65,
  0x2f, 0x4d, 0x61, 0x74, 0x4d, 0x75, 0x6c, 0x00, 0x02, 0x00, 0x00, 0x00,
  0x10, 0x00, 0x00, 0x00, 0x02, 0x00, 0x00, 0x00, 0x5a, 0xff, 0xff, 0xff,
  0x00, 0x00, 0x00, 0x01, 0x10, 0x00, 0x00, 0x00, 0x10, 0x00, 0x00, 0x00,
  0x04, 0x00, 0x00, 0x00, 0x34, 0x00, 0x00, 0x00, 0xc8, 0xfe, 0xff, 0xff,
  0x27, 0x00, 0x00, 0x00, 0x73, 0x65, 0x71, 0x75, 0x65, 0x6e, 0x74, 0x69,
  0x61, 0x6c, 0x2f, 0x64, 0x65, 0x6e, 0x73, 0x65, 0x2f, 0x42, 0x69, 0x61,
  0x73, 0x41, 0x64, 0x64, 0x2f, 0x52, 0x65, 0x61, 0x64, 0x56, 0x61, 0x72,
  0x69, 0x61, 0x62, 0x6c, 0x65, 0x4f, 0x70, 0x00, 0x01, 0x00, 0x00, 0x00,
  0x10, 0x00, 0x00, 0x00, 0xaa, 0xff, 0xff, 0xff, 0x00, 0x00, 0x00, 0x01,
  0x10, 0x00, 0x00, 0x00, 0x10, 0x00, 0x00, 0x00, 0x03, 0x00, 0x00, 0x00,
  0x38, 0x00, 0x00, 0x00, 0x18, 0xff, 0xff, 0xff, 0x29, 0x00, 0x00, 0x00,
  0x73, 0x65, 0x71, 0x75, 0x65, 0x6e, 0x74, 0x69, 0x61, 0x6c, 0x2f, 0x64,
  0x65, 0x6e, 0x73, 0x65, 0x5f, 0x32, 0x2f, 0x42, 0x69, 0x61, 0x73, 0x41,
  0x64, 0x64, 0x2f, 0x52, 0x65, 0x61, 0x64, 0x56, 0x61, 0x72, 0x69, 0x61,
  0x62, 0x6c, 0x65, 0x4f, 0x70, 0x00, 0x00, 0x00, 0x01, 0x00, 0x00, 0x00,
  0x02, 0x00, 0x00, 0x00, 0x00, 0x00, 0x16, 0x00, 0x18, 0x00, 0x14, 0x00,
  0x00, 0x00, 0x10, 0x00, 0x0c, 0x00, 0x08, 0x00, 0x00, 0x00, 0x00, 0x00,
  0x00, 0x00, 0x07, 0x00, 0x16, 0x00, 0x00, 0x00, 0x00, 0x00, 0x00, 0x01,
  0x10, 0x00, 0x00, 0x00, 0x10, 0x00, 0x00, 0x00, 0x02, 0x00, 0x00, 0x00,
  0x38, 0x00, 0x00, 0x00, 0x84, 0xff, 0xff, 0xff, 0x29, 0x00, 0x00, 0x00,
  0x73, 0x65, 0x71, 0x75, 0x65, 0x6e, 0x74, 0x69, 0x61, 0x6c, 0x2f, 0x64,
  0x65, 0x6e, 0x73, 0x65, 0x5f, 0x31, 0x2f, 0x42, 0x69, 0x61, 0x73, 0x41,
  0x64, 0x64, 0x2f, 0x52, 0x65, 0x61, 0x64, 0x56, 0x61, 0x72, 0x69, 0x61,
  0x62, 0x6c, 0x65, 0x4f, 0x70, 0x00, 0x00, 0x00, 0x01, 0x00, 0x00, 0x00,
  0x10, 0x00, 0x00, 0x00, 0x00, 0x00, 0x16, 0x00, 0x1c, 0x00, 0x18, 0x00,
  0x00, 0x00, 0x14, 0x00, 0x10, 0x00, 0x0c, 0x00, 0x00, 0x00, 0x00, 0x00,
  0x08, 0x00, 0x07, 0x00, 0x16, 0x00, 0x00, 0x00, 0x00, 0x00, 0x00, 0x01,
  0x14, 0x00, 0x00, 0x00, 0x20, 0x00, 0x00, 0x00, 0x20, 0x00, 0x00, 0x00,
  0x01, 0x00, 0x00, 0x00, 0x3c, 0x00, 0x00, 0x00, 0x02, 0x00, 0x00, 0x00,
  0xff, 0xff, 0xff, 0xff, 0x02, 0x00, 0x00, 0x00, 0x04, 0x00, 0x04, 0x00,
  0x04, 0x00, 0x00, 0x00, 0x1d, 0x00, 0x00, 0x00, 0x73, 0x65, 0x72, 0x76,
  0x69, 0x6e, 0x67, 0x5f, 0x64, 0x65, 0x66, 0x61, 0x75, 0x6c, 0x74, 0x5f,
  0x64, 0x65, 0x6e, 0x73, 0x65, 0x5f, 0x69, 0x6e, 0x70, 0x75, 0x74, 0x3a,
  0x30, 0x00, 0x00, 0x00, 0x02, 0x00, 0x00, 0x00, 0x01, 0x00, 0x00, 0x00,
  0x02, 0x00, 0x00, 0x00, 0x01, 0x00, 0x00, 0x00, 0x10, 0x00, 0x00, 0x00,
  0x0c, 0x00, 0x0c, 0x00, 0x0b, 0x00, 0x00, 0x00, 0x00, 0x00, 0x04, 0x00,
  0x0c, 0x00, 0x00, 0x00, 0x09, 0x00, 0x00, 0x00, 0x00, 0x00, 0x00, 0x09
 
};

