#define TENSORFLOW_LITE_EXPERIMENTAL_MICRO_EXAMPLES_HELLO_WORLD_SINE_MODEL_DATA_H_
#ifdef __has_attribute
#define HAVE_ATTRIBUTE(x) __has_attribute(x)
#else
#define HAVE_ATTRIBUTE(x) 0
#endif
#if HAVE_ATTRIBUTE(aligned) || (defined(__GNUC__) && !defined(__clang__))
#define DATA_ALIGN_ATTRIBUTE __attribute__((aligned(4)))
#else
#define DATA_ALIGN_ATTRIBUTE
#endif
const int g_second_model_data_len = 5184;
const unsigned char g_second_model_data[] DATA_ALIGN_ATTRIBUTE = {
 0x1c, 0x00, 0x00, 0x00, 0x54, 0x46, 0x4c, 0x33, 0x14, 0x00, 0x20, 0x00,
  0x1c, 0x00, 0x18, 0x00, 0x14, 0x00, 0x10, 0x00, 0x0c, 0x00, 0x00, 0x00,
  0x08, 0x00, 0x04, 0x00, 0x14, 0x00, 0x00, 0x00, 0x1c, 0x00, 0x00, 0x00,
  0x84, 0x00, 0x00, 0x00, 0xdc, 0x00, 0x00, 0x00, 0xd4, 0x0f, 0x00, 0x00,
  0xe4, 0x0f, 0x00, 0x00, 0xdc, 0x13, 0x00, 0x00, 0x03, 0x00, 0x00, 0x00,
  0x01, 0x00, 0x00, 0x00, 0x04, 0x00, 0x00, 0x00, 0xb2, 0xef, 0xff, 0xff,
  0x0c, 0x00, 0x00, 0x00, 0x1c, 0x00, 0x00, 0x00, 0x38, 0x00, 0x00, 0x00,
  0x0f, 0x00, 0x00, 0x00, 0x73, 0x65, 0x72, 0x76, 0x69, 0x6e, 0x67, 0x5f,
  0x64, 0x65, 0x66, 0x61, 0x75, 0x6c, 0x74, 0x00, 0x01, 0x00, 0x00, 0x00,
  0x04, 0x00, 0x00, 0x00, 0x98, 0xff, 0xff, 0xff, 0x07, 0x00, 0x00, 0x00,
  0x04, 0x00, 0x00, 0x00, 0x07, 0x00, 0x00, 0x00, 0x64, 0x65, 0x6e, 0x73,
  0x65, 0x5f, 0x31, 0x00, 0x01, 0x00, 0x00, 0x00, 0x04, 0x00, 0x00, 0x00,
  0xbe, 0xf0, 0xff, 0xff, 0x04, 0x00, 0x00, 0x00, 0x0b, 0x00, 0x00, 0x00,
  0x64, 0x65, 0x6e, 0x73, 0x65, 0x5f, 0x69, 0x6e, 0x70, 0x75, 0x74, 0x00,
  0x02, 0x00, 0x00, 0x00, 0x34, 0x00, 0x00, 0x00, 0x04, 0x00, 0x00, 0x00,
  0xdc, 0xff, 0xff, 0xff, 0x0a, 0x00, 0x00, 0x00, 0x04, 0x00, 0x00, 0x00,
  0x13, 0x00, 0x00, 0x00, 0x43, 0x4f, 0x4e, 0x56, 0x45, 0x52, 0x53, 0x49,
  0x4f, 0x4e, 0x5f, 0x4d, 0x45, 0x54, 0x41, 0x44, 0x41, 0x54, 0x41, 0x00,
  0x08, 0x00, 0x0c, 0x00, 0x08, 0x00, 0x04, 0x00, 0x08, 0x00, 0x00, 0x00,
  0x09, 0x00, 0x00, 0x00, 0x04, 0x00, 0x00, 0x00, 0x13, 0x00, 0x00, 0x00,
  0x6d, 0x69, 0x6e, 0x5f, 0x72, 0x75, 0x6e, 0x74, 0x69, 0x6d, 0x65, 0x5f,
  0x76, 0x65, 0x72, 0x73, 0x69, 0x6f, 0x6e, 0x00, 0x0b, 0x00, 0x00, 0x00,
  0xf4, 0x0e, 0x00, 0x00, 0xec, 0x0e, 0x00, 0x00, 0xc8, 0x0e, 0x00, 0x00,
  0x44, 0x0e, 0x00, 0x00, 0xd0, 0x02, 0x00, 0x00, 0xa4, 0x00, 0x00, 0x00,
  0x9c, 0x00, 0x00, 0x00, 0x94, 0x00, 0x00, 0x00, 0x8c, 0x00, 0x00, 0x00,
  0x6c, 0x00, 0x00, 0x00, 0x04, 0x00, 0x00, 0x00, 0x62, 0xf1, 0xff, 0xff,
  0x04, 0x00, 0x00, 0x00, 0x58, 0x00, 0x00, 0x00, 0x0c, 0x00, 0x00, 0x00,
  0x08, 0x00, 0x0e, 0x00, 0x08, 0x00, 0x04, 0x00, 0x08, 0x00, 0x00, 0x00,
  0x10, 0x00, 0x00, 0x00, 0x28, 0x00, 0x00, 0x00, 0x00, 0x00, 0x06, 0x00,
  0x08, 0x00, 0x04, 0x00, 0x06, 0x00, 0x00, 0x00, 0x04, 0x00, 0x00, 0x00,
  0x01, 0x00, 0x00, 0x00, 0xea, 0x03, 0x00, 0x00, 0x00, 0x00, 0x0a, 0x00,
  0x10, 0x00, 0x0c, 0x00, 0x08, 0x00, 0x04, 0x00, 0x0a, 0x00, 0x00, 0x00,
  0x02, 0x00, 0x00, 0x00, 0x02, 0x00, 0x00, 0x00, 0x04, 0x00, 0x00, 0x00,
  0x06, 0x00, 0x00, 0x00, 0x32, 0x2e, 0x31, 0x30, 0x2e, 0x30, 0x00, 0x00,
  0xc6, 0xf1, 0xff, 0xff, 0x04, 0x00, 0x00, 0x00, 0x10, 0x00, 0x00, 0x00,
  0x31, 0x2e, 0x31, 0x34, 0x2e, 0x30, 0x00, 0x00, 0x00, 0x00, 0x00, 0x00,
  0x00, 0x00, 0x00, 0x00, 0xdc, 0xed, 0xff, 0xff, 0xe0, 0xed, 0xff, 0xff,
  0xe4, 0xed, 0xff, 0xff, 0xee, 0xf1, 0xff, 0xff, 0x04, 0x00, 0x00, 0x00,
  0x1c, 0x02, 0x00, 0x00, 0x11, 0x63, 0xd3, 0x3e, 0xaa, 0x04, 0xa5, 0x3d,
  0xfe, 0x30, 0xc3, 0x3e, 0x8b, 0xda, 0xa7, 0xbe, 0x67, 0x79, 0x93, 0xbd,
  0xe7, 0x42, 0x27, 0xbd, 0x59, 0x0c, 0x5a, 0x3e, 0x8c, 0xf1, 0xa0, 0x3e,
  0x6d, 0x78, 0xbf, 0xbd, 0xac, 0xb3, 0xa9, 0xbe, 0x88, 0x3a, 0x40, 0xbe,
  0x89, 0xe3, 0xbb, 0xbd, 0x2d, 0xae, 0xad, 0x3e, 0xe2, 0xa7, 0x2f, 0x3e,
  0xd4, 0x30, 0xb0, 0x39, 0x20, 0x3b, 0x34, 0xbe, 0xe2, 0xf7, 0x5b, 0xbe,
  0x99, 0x03, 0x98, 0xbe, 0x51, 0x45, 0x00, 0xbe, 0x0f, 0xbb, 0xbb, 0xbd,
  0x5e, 0x16, 0x6e, 0xbd, 0x69, 0x3b, 0x09, 0xbc, 0xaf, 0x98, 0x99, 0xbe,
  0xc1, 0x6b, 0xc1, 0x3e, 0xef, 0x01, 0xa4, 0xbe, 0x24, 0x05, 0x0a, 0x3e,
  0x94, 0xf0, 0x6b, 0x3e, 0xab, 0xfc, 0xa7, 0xbd, 0xbd, 0x6f, 0x38, 0xbe,
  0xd8, 0xea, 0x7c, 0x3e, 0x4c, 0x83, 0x14, 0xbe, 0xf5, 0x8f, 0xa7, 0x3c,
  0x2e, 0x81, 0xcb, 0x3c, 0xf9, 0xec, 0x81, 0xbe, 0xe5, 0xe1, 0x10, 0x3e,
  0xf1, 0x2e, 0x5f, 0x3e, 0x8f, 0xc2, 0xd3, 0x3e, 0xb0, 0xc1, 0xb5, 0xbe,
  0x51, 0x9a, 0x91, 0xbe, 0xe0, 0xf8, 0xc0, 0xbe, 0x1c, 0xa2, 0x39, 0xbe,
  0xd4, 0xfb, 0x83, 0x3e, 0x4e, 0xf4, 0x1f, 0xbd, 0xb8, 0x1c, 0x44, 0x3e,
  0xb8, 0x27, 0x2c, 0x3e, 0xc7, 0x1e, 0xe0, 0x3e, 0x86, 0x52, 0x3a, 0xbe,
  0xcf, 0xae, 0xcb, 0x3e, 0xbc, 0x76, 0x88, 0x3e, 0x95, 0x67, 0xb4, 0x3e,
  0xa8, 0x85, 0x9c, 0x3e, 0xcb, 0x13, 0x03, 0x3e, 0xf5, 0xe2, 0x52, 0xbb,
  0xd0, 0x92, 0x18, 0x3d, 0x8c, 0x8c, 0xa4, 0xbe, 0xeb, 0x2b, 0x95, 0xbe,
  0x93, 0x23, 0xb9, 0x3d, 0x7d, 0xc6, 0xa8, 0x3d, 0x7d, 0xa6, 0xaf, 0x3d,
  0x96, 0x09, 0x40, 0xbe, 0xcc, 0x8a, 0xb7, 0x3c, 0x41, 0x85, 0x89, 0x3c,
  0xf4, 0xca, 0xf7, 0x3d, 0x64, 0xde, 0xb2, 0xbe, 0x07, 0x9e, 0xd2, 0x3e,
  0xfe, 0x84, 0xa4, 0x3d, 0x2a, 0x7d, 0x98, 0x3e, 0xbe, 0x91, 0x2c, 0x3d,
  0x32, 0x35, 0x50, 0xbe, 0xe8, 0x41, 0x33, 0xbe, 0x8b, 0xe7, 0x4b, 0x3e,
  0x1d, 0xac, 0x75, 0xbd, 0x59, 0x9f, 0x76, 0xbe, 0x7f, 0x64, 0x90, 0xbd,
  0x61, 0xc6, 0x0d, 0x3e, 0x5a, 0x1a, 0x2d, 0x3e, 0x2b, 0x17, 0xcd, 0xbc,
  0xa9, 0x40, 0xe9, 0x3e, 0x57, 0x1b, 0xb9, 0xbd, 0x71, 0x2e, 0x70, 0xbd,
  0x37, 0x36, 0x9b, 0x3e, 0x8f, 0xa7, 0x17, 0x3c, 0x17, 0x25, 0xf1, 0x3e,
  0xa8, 0xc9, 0x41, 0xbe, 0xa8, 0xb0, 0xdb, 0x3e, 0xbe, 0xe9, 0xc2, 0xbd,
  0xdb, 0x33, 0x19, 0xbe, 0x2d, 0xb4, 0xaa, 0x3d, 0xa3, 0x89, 0x91, 0x3e,
  0x1c, 0x5f, 0x84, 0x3c, 0x80, 0x93, 0x85, 0x3e, 0xcb, 0xc6, 0x5d, 0xbd,
  0xb0, 0xbc, 0x51, 0xbe, 0x8f, 0x1e, 0x37, 0x3e, 0x2c, 0xa1, 0xb1, 0x3e,
  0x31, 0x34, 0x16, 0x3e, 0x35, 0xde, 0x56, 0xbe, 0x60, 0x2f, 0x82, 0xbe,
  0x68, 0xc8, 0x4f, 0xbe, 0x23, 0xc6, 0xa3, 0xbe, 0x58, 0xfb, 0xa4, 0xbe,
  0xec, 0x4d, 0x24, 0xbd, 0x89, 0x86, 0x3a, 0x3e, 0x88, 0xc5, 0xa1, 0x3c,
  0x98, 0xc8, 0x81, 0x3c, 0xb7, 0x05, 0xa7, 0xbe, 0x9d, 0xbf, 0xa2, 0x3e,
  0xb0, 0xf5, 0x4f, 0xbe, 0x20, 0xd8, 0x5f, 0xbe, 0x69, 0x7f, 0x78, 0xbe,
  0x24, 0xc2, 0x9a, 0x3e, 0x55, 0xc4, 0x6b, 0xbe, 0xa7, 0x02, 0xc1, 0x3e,
  0xa8, 0xf4, 0x7c, 0xbe, 0x09, 0x42, 0xd2, 0x3e, 0x14, 0x9d, 0x5a, 0xbe,
  0x8e, 0x18, 0x8b, 0xbd, 0x18, 0x28, 0x0f, 0xbd, 0x2b, 0xad, 0x89, 0xbe,
  0x34, 0x8c, 0xdb, 0x3e, 0x7c, 0x18, 0xa9, 0x3d, 0x4b, 0xf1, 0x97, 0x3e,
  0xb1, 0x48, 0x87, 0xbe, 0xe9, 0x09, 0xaf, 0xbe, 0x5d, 0x5a, 0xa1, 0xbe,
  0xb3, 0x06, 0x88, 0x3e, 0x33, 0xc6, 0x62, 0xbe, 0x83, 0x16, 0xfb, 0xbd,
  0x6a, 0xb4, 0xa3, 0x3e, 0x25, 0xf6, 0xa1, 0xbd, 0xb1, 0xf3, 0x54, 0xbd,
  0x13, 0x66, 0xef, 0xbd, 0x1d, 0x24, 0xf1, 0x3d, 0x34, 0x08, 0xbc, 0x3e,
  0x0c, 0x3e, 0x38, 0x3e, 0x16, 0xf4, 0xff, 0xff, 0x04, 0x00, 0x00, 0x00,
  0x64, 0x0b, 0x00, 0x00, 0x4d, 0xb0, 0x90, 0x3c, 0xeb, 0x6c, 0x20, 0xbe,
  0x93, 0xed, 0x77, 0x3b, 0xaf, 0x78, 0x81, 0x3e, 0x4d, 0x0e, 0x04, 0xbd,
  0x2a, 0x65, 0xd7, 0xbd, 0x05, 0x92, 0x2b, 0xbd, 0x70, 0xa4, 0x87, 0xbe,
  0x78, 0xa1, 0x6d, 0xbd, 0xd3, 0x8b, 0x69, 0xbe, 0x43, 0xb4, 0xb8, 0xbe,
  0xeb, 0x97, 0x9d, 0x3d, 0x58, 0xb9, 0x09, 0xbd, 0xbd, 0x74, 0x35, 0xbe,
  0xd4, 0xe8, 0x51, 0xbe, 0xe4, 0x1c, 0x4a, 0x3e, 0x10, 0xf5, 0x6a, 0x3e,
  0x75, 0x13, 0x34, 0x3e, 0x39, 0x0c, 0xb6, 0xbe, 0x3f, 0x6a, 0x8a, 0xbc,
  0xb2, 0x15, 0xba, 0xbe, 0xf8, 0x50, 0xbf, 0x39, 0x6a, 0x61, 0x12, 0xbe,
  0x4b, 0x97, 0xf5, 0xbd, 0xb6, 0xd5, 0x58, 0x3e, 0xb2, 0x50, 0x4c, 0x3e,
  0xac, 0xd2, 0x82, 0xbe, 0xac, 0x92, 0x78, 0x3c, 0x93, 0x12, 0x4a, 0x3e,
  0x1c, 0xda, 0x81, 0x3e, 0x48, 0xd8, 0xe9, 0xbc, 0x67, 0x9f, 0x72, 0x3d,
  0xc1, 0xb1, 0x7a, 0x3e, 0x2b, 0x5b, 0x1b, 0xbe, 0x5a, 0xdb, 0x11, 0x3e,
  0xa0, 0xdd, 0x19, 0x3e, 0x81, 0x31, 0x4d, 0xbe, 0x66, 0xc4, 0x65, 0x3e,
  0x73, 0xec, 0x82, 0x3e, 0x6b, 0xe1, 0x9c, 0x3e, 0xae, 0xfd, 0x82, 0xbe,
  0x9d, 0x52, 0x45, 0x3c, 0x53, 0xe5, 0x8c, 0xbe, 0xfa, 0x53, 0x47, 0x3d,
  0x8d, 0xa4, 0xba, 0x3d, 0xb4, 0x51, 0x73, 0x3e, 0xb0, 0xc1, 0xb3, 0xbe,
  0x3e, 0x1e, 0x13, 0x3e, 0x38, 0x05, 0x8a, 0xbe, 0x31, 0x3f, 0x8d, 0xbe,
  0x29, 0xf6, 0x95, 0x3d, 0x3d, 0x14, 0x93, 0x3e, 0xe7, 0xc6, 0x84, 0x3e,
  0xfd, 0xe8, 0xdf, 0x3d, 0x6e, 0x62, 0x23, 0x3e, 0xac, 0xba, 0x2c, 0x3d,
  0x28, 0x49, 0x12, 0x3e, 0x7e, 0xa5, 0x8f, 0xbe, 0xb8, 0xad, 0x0a, 0x3e,
  0xa2, 0x88, 0x86, 0xbe, 0x74, 0xaa, 0xc1, 0x3d, 0x18, 0x4a, 0x1c, 0x3e,
  0x18, 0xa5, 0x50, 0x3c, 0xed, 0xa3, 0x92, 0xbe, 0x52, 0x24, 0x6d, 0x3e,
  0xf9, 0x55, 0x91, 0x3e, 0xc8, 0x6e, 0x26, 0x3e, 0x52, 0xdf, 0x3c, 0xbd,
  0xa5, 0xf8, 0x03, 0x3c, 0xe6, 0xc5, 0x3e, 0xbe, 0x36, 0x1b, 0x58, 0xbe,
  0x18, 0x25, 0x94, 0x3e, 0x78, 0x6f, 0x88, 0x3d, 0xd3, 0x18, 0x98, 0x3e,
  0x29, 0xdd, 0x0b, 0x3d, 0xce, 0xac, 0xab, 0xbd, 0xf8, 0x25, 0xb3, 0x3c,
  0x09, 0xf3, 0x5b, 0x3e, 0xa5, 0xdb, 0x64, 0x3d, 0x57, 0xd7, 0x9e, 0x3d,
  0x4e, 0x17, 0x20, 0x3e, 0x0c, 0x16, 0xb4, 0x3e, 0xf6, 0xb9, 0x3d, 0x3c,
  0xb9, 0x90, 0xb6, 0xbc, 0xf2, 0x90, 0x96, 0x3d, 0x99, 0x3e, 0xa0, 0x3e,
  0x66, 0x56, 0x88, 0xbe, 0xae, 0x43, 0x31, 0xbe, 0xaf, 0x3c, 0x98, 0xbe,
  0x2b, 0xc1, 0x8f, 0x3e, 0x49, 0xfb, 0xa1, 0x3c, 0xbf, 0x91, 0x72, 0x3d,
  0x60, 0xeb, 0x10, 0x3e, 0xc9, 0xa2, 0x29, 0xbe, 0x3b, 0xec, 0x86, 0x3c,
  0x25, 0x76, 0x84, 0x3e, 0xb9, 0xc7, 0x21, 0x3e, 0x71, 0x43, 0x76, 0x3e,
  0xbc, 0xff, 0x8c, 0xbe, 0x83, 0x78, 0xae, 0x3e, 0x91, 0x71, 0x23, 0xbe,
  0xb6, 0x8c, 0x6d, 0x3e, 0x4f, 0x9a, 0x9a, 0xbd, 0x1c, 0xbf, 0xae, 0xbd,
  0x6f, 0x0e, 0xc3, 0xbd, 0x0e, 0x77, 0x18, 0x3d, 0x00, 0x67, 0xab, 0x3e,
  0xea, 0xef, 0x19, 0x3d, 0x84, 0xbb, 0x41, 0x3e, 0x80, 0x0d, 0x2b, 0xbd,
  0x1a, 0x48, 0x54, 0x3e, 0x10, 0x31, 0xdf, 0xbd, 0x21, 0x2f, 0xb7, 0x3e,
  0xcc, 0x1e, 0x21, 0xbd, 0xb4, 0x47, 0xad, 0xbd, 0xe4, 0xbd, 0x00, 0xbe,
  0xe6, 0xdc, 0x85, 0xbe, 0xfe, 0x88, 0x1a, 0xbd, 0x01, 0xff, 0xbd, 0x3e,
  0xf1, 0x1e, 0xb4, 0x3d, 0xae, 0x75, 0x4d, 0xbe, 0xfc, 0x31, 0x2d, 0x3b,
  0xba, 0xb5, 0x3a, 0xbe, 0xad, 0x9a, 0x7c, 0xbe, 0x07, 0xb4, 0x41, 0x3e,
  0x3d, 0x61, 0xc9, 0xbd, 0x72, 0x79, 0x7a, 0xbe, 0x68, 0x73, 0x85, 0x38,
  0x31, 0x14, 0x70, 0x3e, 0xca, 0x8e, 0xb0, 0x3d, 0xc6, 0xd2, 0x90, 0x3e,
  0xbc, 0xec, 0xc7, 0x3c, 0x2a, 0xe7, 0xe3, 0x3d, 0x69, 0xbb, 0x46, 0xbd,
  0x1f, 0x85, 0x3f, 0xbd, 0x57, 0x6d, 0xb3, 0xbd, 0xb3, 0x11, 0x79, 0x3e,
  0x4b, 0x93, 0xa1, 0x3d, 0x66, 0xc7, 0x90, 0xbe, 0x52, 0x56, 0x9a, 0xbe,
  0xaf, 0x0f, 0x18, 0x3e, 0xad, 0x52, 0xa1, 0xbe, 0x6d, 0xcb, 0x18, 0x3e,
  0x43, 0xde, 0x00, 0x3e, 0x40, 0xce, 0x2a, 0x3e, 0xfd, 0x0d, 0x58, 0xbe,
  0xe0, 0xad, 0x6e, 0x3e, 0xf7, 0xb3, 0xa0, 0xbe, 0x6a, 0x17, 0xec, 0xbd,
  0x42, 0xf4, 0x75, 0xbe, 0x6b, 0x98, 0x86, 0x3d, 0x10, 0x12, 0x47, 0x3e,
  0x10, 0x1b, 0x01, 0xbe, 0x01, 0xda, 0x5f, 0x3e, 0x8c, 0x1c, 0xa2, 0xbe,
  0x58, 0x04, 0x42, 0xbe, 0x81, 0x87, 0xac, 0xbe, 0xfa, 0x24, 0xa7, 0x3c,
  0xb1, 0x68, 0x9e, 0xbe, 0x4d, 0x85, 0xa7, 0x3c, 0xc9, 0xd2, 0x9a, 0xbe,
  0x5f, 0x79, 0xf4, 0x3c, 0xbb, 0x8d, 0x90, 0x3c, 0x7d, 0xa4, 0x9a, 0xbc,
  0xb7, 0x82, 0xef, 0x3c, 0x8e, 0x6a, 0x80, 0x3e, 0xf5, 0x4d, 0xb2, 0x3e,
  0x3d, 0x88, 0xf2, 0xbd, 0x3c, 0xd9, 0xbf, 0x3e, 0x4a, 0x8e, 0x3e, 0x3e,
  0xb6, 0xe9, 0x86, 0xbe, 0x3c, 0xc1, 0xb3, 0x3e, 0xc3, 0x87, 0x6c, 0x3d,
  0xea, 0x90, 0x50, 0x3e, 0x4b, 0xeb, 0x57, 0x3e, 0xf8, 0xb4, 0x06, 0x3e,
  0xa4, 0x7f, 0x87, 0x3e, 0x4c, 0xba, 0x86, 0x3d, 0x5b, 0x0f, 0x93, 0xbe,
  0x9b, 0xff, 0x9f, 0x3d, 0x6b, 0xa9, 0x07, 0xbe, 0x81, 0x72, 0x03, 0xbc,
  0x67, 0x64, 0x78, 0x3e, 0x5f, 0x7d, 0xb5, 0x3e, 0xdd, 0x94, 0x33, 0x3e,
  0x56, 0x75, 0x27, 0xbd, 0x7a, 0xfd, 0xaf, 0x3e, 0x67, 0x0d, 0xa0, 0x3d,
  0x8d, 0x36, 0x26, 0x3e, 0xfe, 0x68, 0xfb, 0x3d, 0xa8, 0xcc, 0x97, 0x3e,
  0x55, 0xa9, 0x92, 0xbc, 0x3b, 0x87, 0xba, 0x3e, 0x9e, 0xf2, 0x59, 0x3e,
  0x3d, 0x3f, 0x82, 0xbe, 0x95, 0x70, 0xc1, 0xbd, 0x0a, 0x1c, 0x61, 0xbd,
  0xaf, 0xd6, 0x91, 0x3d, 0x3d, 0xa1, 0xe9, 0x3d, 0x85, 0x6d, 0xaa, 0x3e,
  0x69, 0x05, 0x40, 0x3c, 0x52, 0xb3, 0xec, 0x3d, 0x04, 0x1e, 0x93, 0x3e,
  0x4d, 0xac, 0x2a, 0xbe, 0x60, 0xac, 0xcb, 0xbd, 0x9a, 0x74, 0x50, 0x3e,
  0x06, 0x33, 0x6d, 0x3e, 0x63, 0xd1, 0x13, 0x3e, 0xc3, 0x23, 0x61, 0xbe,
  0xc2, 0x9e, 0x3b, 0xbe, 0xe2, 0xc7, 0x93, 0x3e, 0xc1, 0x0f, 0x02, 0x3e,
  0x52, 0x4e, 0x8b, 0xbd, 0xef, 0x4f, 0x86, 0x3e, 0x4d, 0xdb, 0x0a, 0xbe,
  0x52, 0x25, 0xe7, 0xbd, 0xb7, 0x45, 0x7e, 0x3d, 0xd9, 0xc8, 0x48, 0x3e,
  0x86, 0x7b, 0xe3, 0x3d, 0x61, 0x7b, 0x59, 0x3d, 0x2e, 0x2d, 0x90, 0xbe,
  0x16, 0x42, 0x3b, 0x3e, 0xf7, 0x22, 0x8b, 0x3d, 0x46, 0x41, 0xa2, 0x3e,
  0xac, 0x5c, 0x39, 0xbd, 0x7a, 0x9d, 0x26, 0x3d, 0xe5, 0x30, 0x29, 0xbe,
  0xd6, 0xe6, 0x8a, 0xbd, 0x2b, 0xe7, 0x3a, 0xbe, 0x5e, 0xaa, 0x86, 0xbe,
  0x44, 0x6d, 0x99, 0x3e, 0x79, 0xbd, 0x85, 0xbd, 0x90, 0x67, 0x6a, 0x3e,
  0x54, 0xd9, 0x99, 0x3e, 0x0c, 0x53, 0x7d, 0xbd, 0x29, 0x10, 0xd1, 0xbd,
  0x00, 0xa5, 0x60, 0x3e, 0x97, 0x07, 0x88, 0xbe, 0xf5, 0x19, 0x10, 0x3c,
  0xac, 0x79, 0x8a, 0xbe, 0x78, 0x13, 0x6e, 0xbe, 0xb6, 0xdb, 0x97, 0x3d,
  0xe2, 0xb7, 0xd4, 0xbb, 0xcb, 0x3e, 0x6e, 0x3d, 0x8c, 0x0b, 0xa0, 0xbe,
  0xa7, 0x6d, 0x81, 0xbe, 0x41, 0x95, 0x1c, 0x3e, 0x96, 0x96, 0x94, 0xbe,
  0xd5, 0xb7, 0x79, 0xbe, 0x01, 0xbb, 0xf3, 0x3d, 0xba, 0x9d, 0x0f, 0x3b,
  0xe2, 0xa6, 0x4d, 0xbd, 0xce, 0x07, 0x04, 0xbd, 0xee, 0x1e, 0xfa, 0xbd,
  0xb9, 0x9c, 0x69, 0xbe, 0xd7, 0x9d, 0xf9, 0x3d, 0xef, 0x27, 0xd8, 0xbd,
  0x23, 0xeb, 0x38, 0xbe, 0xea, 0x02, 0x81, 0xbd, 0xba, 0x26, 0x3f, 0xbe,
  0xa0, 0xca, 0x51, 0xbe, 0xfa, 0xd1, 0x3f, 0xbe, 0x2b, 0x96, 0x67, 0x3e,
  0x0a, 0x9a, 0x53, 0x3e, 0x65, 0x72, 0xd9, 0xbc, 0xf2, 0x52, 0xe0, 0x3d,
  0x1d, 0x56, 0xab, 0x3d, 0x7b, 0xca, 0xbf, 0x3d, 0x4f, 0x55, 0xaf, 0xbe,
  0xe1, 0x0c, 0xc2, 0xbd, 0x57, 0x5f, 0x91, 0x3e, 0x27, 0x3c, 0x43, 0x3e,
  0x57, 0xbd, 0xe2, 0xbc, 0xc7, 0x99, 0xa2, 0xbe, 0xf6, 0x31, 0x61, 0xbe,
  0xeb, 0xd9, 0x52, 0xbe, 0xec, 0x3d, 0x9b, 0xbe, 0x26, 0x6e, 0x7f, 0xbe,
  0xd2, 0x48, 0x8b, 0x3e, 0x68, 0x5a, 0x4a, 0xbe, 0x9e, 0x80, 0xbf, 0x3d,
  0x5d, 0xd2, 0x5b, 0xbe, 0xef, 0x0f, 0x92, 0xbe, 0x04, 0x5d, 0x11, 0xbd,
  0x48, 0x36, 0x88, 0xbe, 0x3c, 0x5f, 0x52, 0x3e, 0xc5, 0x84, 0xbb, 0xbd,
  0xe8, 0xd7, 0x47, 0xbd, 0xc0, 0xbc, 0x26, 0xbe, 0xa9, 0x69, 0x0d, 0xbd,
  0x38, 0xa8, 0x15, 0xbe, 0x45, 0xc7, 0xa7, 0xbd, 0xd7, 0x89, 0x8a, 0xbc,
  0x23, 0x03, 0xa6, 0x3e, 0x7c, 0x4d, 0x82, 0x3c, 0x28, 0x6c, 0x83, 0x3e,
  0xef, 0x32, 0x33, 0x3d, 0x0e, 0x15, 0x39, 0xbe, 0xe9, 0x3d, 0x37, 0x3d,
  0x01, 0x69, 0x1d, 0x3e, 0x27, 0xf7, 0x14, 0xbe, 0x5c, 0x98, 0x8d, 0x3d,
  0xb0, 0x68, 0x88, 0x3e, 0x95, 0x41, 0x3d, 0x3e, 0x79, 0x6e, 0x77, 0x3e,
  0x91, 0x28, 0x38, 0x3e, 0x61, 0x2c, 0x6c, 0xbe, 0x6f, 0x66, 0x3c, 0xbe,
  0x60, 0xed, 0x30, 0xbe, 0xf6, 0xed, 0x82, 0x3e, 0x4f, 0x06, 0x82, 0xbe,
  0x67, 0x7a, 0x71, 0x3e, 0xf7, 0xa5, 0x5d, 0x3d, 0x3d, 0x17, 0x13, 0xbe,
  0x4a, 0x59, 0xb6, 0x3e, 0x02, 0x92, 0x07, 0xbe, 0xe3, 0x63, 0x91, 0xbe,
  0xcd, 0x91, 0x2b, 0xbe, 0x68, 0x23, 0x82, 0x3e, 0xf9, 0xf2, 0x18, 0xbd,
  0xdc, 0x42, 0x9e, 0x3e, 0x44, 0xcd, 0x55, 0x3e, 0x23, 0x20, 0x4b, 0xbe,
  0x75, 0x2c, 0xad, 0x3e, 0x30, 0xa6, 0x19, 0x3e, 0x67, 0xef, 0x29, 0xbe,
  0x57, 0xbe, 0x8a, 0x3d, 0x27, 0xc0, 0x5a, 0xbe, 0xc4, 0xab, 0x52, 0xbe,
  0x7f, 0xed, 0xaf, 0x3c, 0x9c, 0xe0, 0xda, 0x3c, 0x3f, 0x4f, 0x1c, 0xbc,
  0xf8, 0x69, 0x01, 0x3e, 0x43, 0xbc, 0x72, 0x3e, 0x34, 0x76, 0x0d, 0x3c,
  0xb0, 0xe0, 0x11, 0xbe, 0x66, 0xf1, 0x89, 0x3e, 0x50, 0xfd, 0x7d, 0xbe,
  0xd8, 0xca, 0x92, 0x3d, 0xec, 0x7e, 0xa7, 0x3b, 0xb2, 0x22, 0x52, 0xbe,
  0x30, 0x02, 0x9d, 0xbd, 0xfd, 0xd9, 0xe0, 0xbc, 0xa5, 0x20, 0xb6, 0x3e,
  0xb2, 0x74, 0x2f, 0xbe, 0xf3, 0x3c, 0x42, 0x3e, 0x8a, 0x82, 0x34, 0xbd,
  0x21, 0x50, 0x31, 0x3d, 0xd0, 0x81, 0x17, 0x3e, 0xf8, 0x8e, 0xa1, 0x3c,
  0x36, 0x52, 0x37, 0xbe, 0xac, 0xff, 0xf9, 0x3c, 0xac, 0xa1, 0x42, 0xbe,
  0xf2, 0xc8, 0x9d, 0xbd, 0xa8, 0x8f, 0xbf, 0x3e, 0xf6, 0xae, 0xc3, 0xbc,
  0xdd, 0x19, 0x15, 0x3d, 0x34, 0x11, 0x87, 0x3e, 0x99, 0xe5, 0x6f, 0x3e,
  0xff, 0x49, 0x9a, 0x3d, 0x86, 0xfa, 0x46, 0xbe, 0x62, 0x6d, 0x17, 0x3d,
  0x31, 0x98, 0x7f, 0x3e, 0xb3, 0x9d, 0x99, 0x3e, 0xc6, 0x76, 0x9e, 0x3e,
  0x26, 0xd7, 0x07, 0xbe, 0x1b, 0x08, 0x72, 0xbd, 0x1a, 0xdc, 0x61, 0xbe,
  0x44, 0x5e, 0x71, 0xbe, 0x9c, 0x9e, 0x65, 0x3c, 0xf0, 0xb2, 0x9e, 0xbb,
  0xb3, 0xfe, 0xbe, 0xbd, 0x61, 0x6e, 0xd5, 0xbd, 0x6d, 0xd6, 0x4d, 0xbe,
  0x0a, 0x4a, 0x84, 0xbb, 0x7f, 0xa1, 0x28, 0xbe, 0x14, 0x42, 0xd9, 0xbd,
  0xee, 0x77, 0x23, 0x3e, 0x41, 0x9d, 0x73, 0x3e, 0x25, 0xe2, 0x59, 0xbe,
  0xd0, 0xf5, 0x85, 0xbe, 0x93, 0x66, 0x6a, 0xbe, 0x41, 0xd7, 0x0a, 0xbe,
  0x00, 0xde, 0x95, 0x3e, 0x27, 0xba, 0x3d, 0x3e, 0x8f, 0xee, 0x4b, 0x3e,
  0x2d, 0x76, 0xdb, 0xba, 0x60, 0xdd, 0x4c, 0x3e, 0x1e, 0x16, 0xa8, 0xbe,
  0xbe, 0x49, 0x73, 0xbe, 0x2e, 0x20, 0xb0, 0xbe, 0x5a, 0xae, 0xe0, 0x3d,
  0x9b, 0x39, 0xf1, 0xbd, 0x24, 0x2a, 0x12, 0xbe, 0xe7, 0x87, 0x32, 0x3d,
  0xf5, 0x3b, 0x60, 0x3e, 0xe5, 0xe8, 0xb7, 0xbe, 0x65, 0x36, 0x1c, 0xbe,
  0x3e, 0x98, 0x13, 0xbd, 0xe1, 0x69, 0xe2, 0xbc, 0x73, 0x7f, 0x92, 0xbe,
  0x4f, 0xef, 0xfd, 0x3d, 0xea, 0x69, 0xf4, 0xbc, 0x8b, 0x9f, 0x2f, 0x3d,
  0x79, 0xa5, 0x74, 0x3e, 0xb9, 0xdd, 0x87, 0xbe, 0x3f, 0xbb, 0xbc, 0xbe,
  0x96, 0x24, 0x06, 0x3e, 0x54, 0xf5, 0x1e, 0x3e, 0xa3, 0x39, 0xdc, 0x3d,
  0xdf, 0xe8, 0xe8, 0xbd, 0x1f, 0xe3, 0xd7, 0x3c, 0xf7, 0x66, 0x8c, 0x3d,
  0x9b, 0x38, 0xa4, 0x3d, 0x2a, 0x9d, 0x02, 0x3d, 0xd4, 0x1f, 0x63, 0x3e,
  0x15, 0xf3, 0x87, 0x3e, 0xed, 0xd6, 0x26, 0xbe, 0xac, 0xba, 0x5d, 0x3e,
  0x6b, 0xf5, 0x1c, 0x3e, 0x11, 0x49, 0x9e, 0xbe, 0x50, 0x6c, 0x10, 0x3d,
  0x75, 0xcf, 0xa5, 0xbe, 0x0b, 0x43, 0xc0, 0xbd, 0x08, 0x61, 0x5b, 0xbe,
  0x4d, 0x45, 0x45, 0x3e, 0x48, 0x3c, 0xea, 0x3d, 0xce, 0x39, 0x8f, 0x3d,
  0x9e, 0x72, 0xd2, 0xbc, 0xcc, 0xdb, 0x4a, 0x3e, 0x27, 0x29, 0x52, 0x3e,
  0x17, 0x49, 0x9f, 0xbd, 0x0c, 0xbd, 0x41, 0xbe, 0xfd, 0xdf, 0xad, 0x3d,
  0x4a, 0x60, 0x24, 0xbe, 0x59, 0x74, 0xa4, 0xbe, 0xfc, 0x22, 0x11, 0x3e,
  0xd0, 0x01, 0x98, 0xbe, 0x6c, 0x3d, 0x09, 0xbe, 0x4e, 0x17, 0xf8, 0xbd,
  0xeb, 0xe4, 0xc6, 0xbc, 0xe8, 0xcd, 0x89, 0x3e, 0x7f, 0x54, 0x05, 0x3e,
  0xb5, 0x06, 0x64, 0x3e, 0x1b, 0x93, 0xfb, 0x3a, 0x83, 0xab, 0xf2, 0xbd,
  0xe5, 0xab, 0x43, 0xbe, 0xa9, 0x7f, 0x6b, 0xbe, 0xf2, 0x18, 0x17, 0xbe,
  0xcf, 0x60, 0x8c, 0x3e, 0xcf, 0xa8, 0x67, 0xbe, 0x11, 0x61, 0x83, 0x3e,
  0x89, 0xb6, 0x7d, 0xbe, 0xd3, 0x0f, 0xb8, 0xbe, 0xac, 0x83, 0x2b, 0x3c,
  0x20, 0x89, 0xa4, 0xbe, 0x35, 0xb7, 0x44, 0xbe, 0xfe, 0x1c, 0x1b, 0x3e,
  0xe1, 0x5d, 0x92, 0xbe, 0x38, 0xb8, 0x14, 0x3e, 0x41, 0xe2, 0x63, 0xbb,
  0x3a, 0xd0, 0x1c, 0x3b, 0x1f, 0x6b, 0xb6, 0xbe, 0xc0, 0x74, 0xe9, 0xbc,
  0x49, 0x46, 0x44, 0x3e, 0xf0, 0x03, 0x6e, 0xbe, 0x17, 0xe5, 0xa6, 0x3d,
  0x4e, 0x44, 0x86, 0x3e, 0x30, 0xd4, 0x7e, 0xbc, 0x26, 0xd2, 0x4c, 0xbc,
  0xdd, 0x13, 0xa4, 0x3e, 0x71, 0x38, 0x66, 0x3d, 0xaf, 0x20, 0x42, 0xbe,
  0x48, 0x58, 0xa5, 0x3d, 0xd4, 0x1b, 0x0e, 0xbe, 0x82, 0xe2, 0x95, 0xbd,
  0x57, 0xd8, 0x53, 0xbe, 0x8c, 0xc9, 0x3b, 0x3d, 0x8b, 0x67, 0x77, 0x3e,
  0x60, 0xcf, 0x97, 0xbe, 0xe1, 0x45, 0xcd, 0xbd, 0x64, 0x19, 0xa8, 0xbe,
  0x12, 0x73, 0xb0, 0xbe, 0xa1, 0x2a, 0x39, 0x3e, 0x5c, 0xb6, 0x8a, 0x3e,
  0x7f, 0x04, 0x79, 0x3e, 0xda, 0x0f, 0xf8, 0xbd, 0x7a, 0xde, 0x3e, 0x3e,
  0xf4, 0x69, 0x90, 0xbe, 0xce, 0x5a, 0x30, 0x3e, 0x28, 0x8d, 0x82, 0x3d,
  0xfb, 0xbc, 0x0e, 0xbe, 0x19, 0x00, 0xf7, 0xbd, 0x5d, 0x9e, 0x54, 0xbe,
  0x5c, 0x03, 0x25, 0x3e, 0x92, 0x49, 0x3b, 0x3e, 0xa2, 0x9a, 0x9f, 0xbd,
  0x6e, 0xfa, 0x46, 0xbd, 0x7f, 0xa1, 0x31, 0xbe, 0x5c, 0xb4, 0x42, 0x3e,
  0xe4, 0xd0, 0x39, 0x3e, 0x7b, 0x6d, 0xa4, 0x3d, 0x15, 0xe1, 0xee, 0xbd,
  0x6b, 0xe8, 0xae, 0xbe, 0x40, 0x76, 0x8a, 0x3e, 0x0d, 0x21, 0x07, 0x3e,
  0x39, 0xea, 0x41, 0xba, 0x78, 0x2e, 0xac, 0xbe, 0x71, 0x8e, 0x78, 0xbe,
  0xf6, 0x0c, 0x4e, 0x3e, 0xe0, 0xe5, 0x28, 0xbd, 0x41, 0x9b, 0x99, 0x3d,
  0x87, 0xfc, 0x25, 0xbd, 0x80, 0x11, 0xb7, 0xbd, 0x2d, 0xfc, 0x8a, 0xbd,
  0x52, 0x34, 0x90, 0x3d, 0xe1, 0x4f, 0x1b, 0x3e, 0x46, 0x86, 0xb9, 0xbd,
  0x27, 0xb0, 0x7a, 0xbd, 0x2c, 0x37, 0x67, 0x3e, 0x3e, 0x55, 0x45, 0xbe,
  0xa8, 0x50, 0x8b, 0xbe, 0x7b, 0xd5, 0xa9, 0x3d, 0xd3, 0x73, 0xab, 0xbd,
  0xe2, 0x4e, 0x9c, 0x3d, 0x43, 0x59, 0xe6, 0xbd, 0xfa, 0xfc, 0x0c, 0xbe,
  0x86, 0x3b, 0x7a, 0x3e, 0xf9, 0x44, 0xa6, 0x3d, 0x16, 0x17, 0xe2, 0xbc,
  0xfb, 0x81, 0x91, 0xbe, 0xdf, 0x04, 0x3c, 0xbd, 0x24, 0x7e, 0x91, 0x3d,
  0xc2, 0x29, 0x14, 0xbe, 0x05, 0x43, 0x65, 0xbe, 0x2a, 0xd2, 0x9f, 0xbe,
  0x6f, 0x69, 0x9b, 0x3a, 0xfa, 0xb7, 0xdc, 0xbd, 0x85, 0xdf, 0x04, 0xbd,
  0x81, 0x0f, 0x86, 0xbe, 0x9a, 0x2d, 0x27, 0x3e, 0x32, 0x45, 0x0c, 0xbe,
  0xfb, 0xbd, 0x8e, 0x3d, 0x0f, 0x38, 0x67, 0xbe, 0x35, 0x94, 0x0b, 0xbe,
  0x27, 0x1e, 0x33, 0xbe, 0x5c, 0x3b, 0x9b, 0x3d, 0x72, 0x0e, 0x65, 0x3e,
  0x68, 0x92, 0x71, 0xbe, 0x58, 0x22, 0x41, 0x3e, 0x2b, 0x8f, 0x85, 0x3e,
  0x34, 0xcd, 0xab, 0xbe, 0xf5, 0xa6, 0xcb, 0xbd, 0x70, 0x7f, 0x4e, 0xbe,
  0xe0, 0xb8, 0x7f, 0xbe, 0x4f, 0x86, 0xc7, 0x3d, 0xfc, 0x56, 0x9c, 0x3a,
  0xe7, 0x6e, 0x45, 0xbe, 0xd9, 0x28, 0xce, 0xbd, 0xd0, 0x11, 0xdd, 0xbd,
  0xae, 0x55, 0x96, 0xbe, 0xab, 0x29, 0x42, 0x3e, 0x7b, 0xac, 0xfb, 0xbd,
  0x3a, 0x3c, 0x0b, 0x3b, 0xd7, 0x1b, 0x60, 0xbe, 0xcb, 0xc2, 0x5f, 0xbe,
  0x7f, 0xa9, 0xa8, 0x3c, 0xd0, 0x15, 0x78, 0xbe, 0x09, 0xe9, 0x5b, 0x3d,
  0xf7, 0xd4, 0x06, 0x3a, 0xe6, 0xc8, 0xba, 0xbd, 0x85, 0x4f, 0x83, 0x3e,
  0x5c, 0x0d, 0x68, 0x3d, 0x43, 0x48, 0xdf, 0x3d, 0x68, 0xab, 0xde, 0x3d,
  0x94, 0x03, 0x11, 0xbe, 0x02, 0xaf, 0x9d, 0x3e, 0xe6, 0x56, 0x8c, 0xbd,
  0xfe, 0x08, 0x84, 0x3e, 0x1f, 0xf3, 0xb0, 0x3d, 0x8a, 0x18, 0x23, 0xbc,
  0x92, 0x17, 0x2f, 0x3c, 0x3e, 0xec, 0x22, 0x3e, 0xb6, 0x54, 0x80, 0xbe,
  0x11, 0x56, 0x0c, 0x3e, 0x53, 0xbb, 0xd2, 0x3d, 0x5a, 0x0a, 0x80, 0xbe,
  0x8a, 0x4c, 0x8e, 0xbe, 0xb2, 0xdb, 0x06, 0xbe, 0x30, 0xd2, 0x89, 0xbd,
  0xb6, 0x7c, 0x30, 0xbe, 0x97, 0x9a, 0x7c, 0x3e, 0xd3, 0x18, 0x20, 0xbe,
  0xde, 0xb9, 0x55, 0x3e, 0xbc, 0x40, 0x2c, 0xbd, 0xc7, 0x2c, 0x87, 0xbd,
  0x2e, 0xc4, 0x03, 0xbe, 0x3e, 0x69, 0x07, 0xbd, 0x6a, 0xc5, 0xa7, 0xbe,
  0xac, 0xfb, 0xfa, 0xbd, 0xd7, 0xd0, 0x0b, 0xbe, 0x57, 0x54, 0x55, 0x3e,
  0xe6, 0xc6, 0x8e, 0x3e, 0x07, 0x81, 0x93, 0x3e, 0x81, 0xea, 0x86, 0xbe,
  0x2c, 0x18, 0x09, 0x3e, 0xff, 0x3f, 0x1e, 0x3e, 0x2e, 0x29, 0xc1, 0x3c,
  0x76, 0x40, 0x78, 0x3e, 0xc0, 0x67, 0xae, 0xbe, 0x87, 0xa0, 0xe8, 0x3d,
  0x48, 0x7e, 0x03, 0xbe, 0xb8, 0x63, 0xef, 0xbd, 0x0c, 0x25, 0x39, 0xbe,
  0x9f, 0x25, 0x03, 0x3e, 0x56, 0xf6, 0x98, 0xbe, 0x45, 0xe1, 0x68, 0xbd,
  0x2b, 0x99, 0xa9, 0xbe, 0x45, 0x53, 0x68, 0xbe, 0xc8, 0x11, 0xa8, 0xbe,
  0x3b, 0x83, 0x0d, 0x3e, 0x4d, 0x0e, 0xcb, 0xbd, 0xef, 0x67, 0x12, 0xbe,
  0x0e, 0xc6, 0xd2, 0x3d, 0xe8, 0xc2, 0x94, 0x3e, 0x90, 0x2a, 0xe9, 0x3d,
  0x8e, 0xbd, 0x83, 0x3e, 0xdc, 0x40, 0x9d, 0x3d, 0xd0, 0xc5, 0xd9, 0x3c,
  0xac, 0xcd, 0x75, 0xbe, 0x70, 0x9e, 0xa6, 0x3e, 0x55, 0x38, 0x83, 0x3e,
  0x65, 0x66, 0x72, 0x3e, 0xb4, 0x9a, 0x37, 0x3c, 0xf7, 0xb4, 0xb5, 0x3d,
  0x7e, 0x3d, 0x58, 0x3c, 0x5a, 0xdb, 0x7c, 0xbd, 0xf6, 0x5a, 0xc1, 0xbb,
  0x9c, 0x0b, 0x16, 0xbe, 0x29, 0xe7, 0x53, 0xbe, 0x67, 0x4d, 0x44, 0x3e,
  0xb9, 0x28, 0x53, 0xbe, 0x96, 0xb8, 0x84, 0xbe, 0x1d, 0xb8, 0x22, 0xbe,
  0x4c, 0x1f, 0x5a, 0x3e, 0x51, 0x1e, 0xbd, 0xbd, 0xec, 0x68, 0xbf, 0x3e,
  0x6e, 0x24, 0xf6, 0x3d, 0x20, 0xca, 0x78, 0x3e, 0xb2, 0x96, 0x5f, 0xbe,
  0x24, 0x32, 0xf2, 0x3c, 0xf5, 0x19, 0xc0, 0xbe, 0xd8, 0x0a, 0x6c, 0x3d,
  0x53, 0x31, 0xba, 0xbe, 0xc4, 0x09, 0x6f, 0x3e, 0xf5, 0x90, 0x1e, 0xbe,
  0xde, 0xb4, 0x14, 0xbe, 0x5a, 0x52, 0xaf, 0xbe, 0x8e, 0x04, 0x29, 0xbe,
  0x34, 0x3b, 0x88, 0x3e, 0xd8, 0x38, 0x1e, 0x3d, 0xea, 0x7e, 0x26, 0xbe,
  0x35, 0xe7, 0x25, 0xbe, 0x0e, 0x36, 0xa8, 0x3d, 0x55, 0x43, 0xb4, 0xbd,
  0x49, 0x7f, 0xa7, 0xbe, 0x30, 0xbd, 0x3c, 0x3d, 0xfd, 0xa1, 0x63, 0x3e,
  0x8c, 0xe2, 0xef, 0x3d, 0xf6, 0xdc, 0x87, 0x3e, 0x07, 0xf2, 0xd5, 0xbc,
  0x14, 0x43, 0x06, 0x3e, 0x76, 0xc5, 0x98, 0xbd, 0xd9, 0xba, 0x97, 0x3c,
  0x30, 0xa1, 0x38, 0x3e, 0x21, 0x77, 0x1e, 0x3e, 0x5a, 0x66, 0xbe, 0xbd,
  0xea, 0x8e, 0xbc, 0xbd, 0xfd, 0x88, 0xf0, 0xbd, 0x9b, 0x6a, 0x7b, 0x3e,
  0xf6, 0xd9, 0xa9, 0x3e, 0xa4, 0x7d, 0x59, 0x3e, 0x93, 0x9f, 0x52, 0x3e,
  0xf8, 0x36, 0x02, 0xbd, 0xc0, 0x7c, 0xc8, 0xbd, 0xb7, 0x6d, 0xfa, 0xbd,
  0x0d, 0x37, 0xf3, 0xbc, 0x50, 0xb4, 0x8a, 0xbe, 0xbc, 0x55, 0x30, 0xbe,
  0xcc, 0x77, 0x48, 0x3c, 0x93, 0x50, 0xb2, 0x3e, 0x67, 0x30, 0xf9, 0x3d,
  0x88, 0x83, 0x88, 0xbe, 0x9f, 0xae, 0x8d, 0x3d, 0x31, 0x2e, 0x92, 0xbe,
  0x8c, 0x9d, 0x5b, 0xbe, 0xf3, 0x6c, 0x93, 0x3e, 0x24, 0x50, 0x87, 0x3d,
  0x09, 0x51, 0x42, 0x3e, 0x84, 0x41, 0xd1, 0xbc, 0x5b, 0xe2, 0xe7, 0x3d,
  0xca, 0x08, 0xcf, 0x3d, 0x2b, 0xb1, 0xe8, 0xbc, 0x63, 0xbf, 0xeb, 0x3d,
  0x6e, 0x22, 0xa9, 0x3e, 0x43, 0xed, 0x85, 0x3e, 0x53, 0xb5, 0x2f, 0x3e,
  0xe3, 0x57, 0xce, 0x3d, 0xc2, 0x0e, 0xaf, 0x3e, 0x57, 0xb5, 0x60, 0xb9,
  0xbe, 0x1d, 0x0e, 0xbe, 0xb8, 0x48, 0x6b, 0x3e, 0xa3, 0x9d, 0xae, 0x3e,
  0xf0, 0x7f, 0x3d, 0x3d, 0xd1, 0x8f, 0x9b, 0x3e, 0x11, 0xf7, 0x44, 0xbe,
  0x05, 0xad, 0x8c, 0xbd, 0x5d, 0xda, 0x9d, 0x3e, 0x14, 0x93, 0x3b, 0x3e,
  0x2a, 0xef, 0xf3, 0xbc, 0x2f, 0x42, 0x70, 0xbd, 0x5f, 0x06, 0x01, 0x3e,
  0x5b, 0xee, 0x89, 0x3d, 0x93, 0x75, 0x8b, 0x3d, 0xbb, 0xcc, 0x0b, 0x3e,
  0x2e, 0x47, 0x54, 0xbe, 0xef, 0xbf, 0x56, 0xbd, 0xf3, 0x46, 0x65, 0xbe,
  0xbd, 0x1d, 0xf7, 0xbd, 0x86, 0xff, 0xff, 0xff, 0x04, 0x00, 0x00, 0x00,
  0x6c, 0x00, 0x00, 0x00, 0x57, 0x65, 0x3f, 0xbd, 0xa9, 0x03, 0x0a, 0xbc,
  0xdd, 0x70, 0x0a, 0x3d, 0x7a, 0x94, 0x05, 0x3d, 0x4d, 0x62, 0x3f, 0x3d,
  0x18, 0x04, 0x2d, 0xbd, 0x9c, 0x0e, 0x2d, 0x3d, 0x48, 0xe2, 0x44, 0x3d,
  0xfb, 0x84, 0x8c, 0x3c, 0xf7, 0x3b, 0x19, 0xbd, 0x89, 0x90, 0xde, 0x3b,
  0xa0, 0x75, 0x9b, 0x3c, 0xcf, 0x44, 0x42, 0x3d, 0x86, 0x9f, 0x3d, 0x3d,
  0x33, 0x1f, 0x22, 0xbd, 0xb6, 0x2f, 0x2e, 0xbd, 0x7c, 0xa7, 0x19, 0xbd,
  0x96, 0x99, 0x2e, 0xbd, 0xa2, 0x26, 0x38, 0xbd, 0x86, 0x6b, 0x2c, 0xbd,
  0x03, 0x70, 0x3b, 0x3d, 0x49, 0x1d, 0x57, 0x3d, 0x0e, 0xa9, 0x09, 0xbd,
  0x21, 0x23, 0x38, 0x3d, 0xad, 0xc4, 0x2f, 0xbd, 0xd4, 0xd7, 0x36, 0x3d,
  0x5c, 0x79, 0x2b, 0x3d, 0x00, 0x00, 0x06, 0x00, 0x08, 0x00, 0x04, 0x00,
  0x06, 0x00, 0x00, 0x00, 0x04, 0x00, 0x00, 0x00, 0x14, 0x00, 0x00, 0x00,
  0x3b, 0xb4, 0x08, 0x3d, 0xa8, 0x17, 0xf8, 0x3c, 0x8d, 0x4a, 0x41, 0x3d,
  0xe5, 0x72, 0x44, 0x3d, 0x35, 0xe4, 0x23, 0x3d, 0x20, 0xfc, 0xff, 0xff,
  0x24, 0xfc, 0xff, 0xff, 0x0f, 0x00, 0x00, 0x00, 0x4d, 0x4c, 0x49, 0x52,
  0x20, 0x43, 0x6f, 0x6e, 0x76, 0x65, 0x72, 0x74, 0x65, 0x64, 0x2e, 0x00,
  0x01, 0x00, 0x00, 0x00, 0x14, 0x00, 0x00, 0x00, 0x00, 0x00, 0x0e, 0x00,
  0x18, 0x00, 0x14, 0x00, 0x10, 0x00, 0x0c, 0x00, 0x08, 0x00, 0x04, 0x00,
  0x0e, 0x00, 0x00, 0x00, 0x14, 0x00, 0x00, 0x00, 0x1c, 0x00, 0x00, 0x00,
  0xc4, 0x00, 0x00, 0x00, 0xc8, 0x00, 0x00, 0x00, 0xcc, 0x00, 0x00, 0x00,
  0x04, 0x00, 0x00, 0x00, 0x6d, 0x61, 0x69, 0x6e, 0x00, 0x00, 0x00, 0x00,
  0x03, 0x00, 0x00, 0x00, 0x78, 0x00, 0x00, 0x00, 0x44, 0x00, 0x00, 0x00,
  0x04, 0x00, 0x00, 0x00, 0xa2, 0xff, 0xff, 0xff, 0x10, 0x00, 0x00, 0x00,
  0x00, 0x00, 0x00, 0x08, 0x0c, 0x00, 0x00, 0x00, 0x10, 0x00, 0x00, 0x00,
  0x9c, 0xfc, 0xff, 0xff, 0x01, 0x00, 0x00, 0x00, 0x07, 0x00, 0x00, 0x00,
  0x03, 0x00, 0x00, 0x00, 0x06, 0x00, 0x00, 0x00, 0x04, 0x00, 0x00, 0x00,
  0x01, 0x00, 0x00, 0x00, 0x00, 0x00, 0x0a, 0x00, 0x10, 0x00, 0x0c, 0x00,
  0x08, 0x00, 0x04, 0x00, 0x0a, 0x00, 0x00, 0x00, 0x0c, 0x00, 0x00, 0x00,
  0x10, 0x00, 0x00, 0x00, 0x01, 0x00, 0x00, 0x00, 0x01, 0x00, 0x00, 0x00,
  0x06, 0x00, 0x00, 0x00, 0x01, 0x00, 0x00, 0x00, 0x05, 0x00, 0x00, 0x00,
  0x00, 0x00, 0x0e, 0x00, 0x14, 0x00, 0x00, 0x00, 0x10, 0x00, 0x0c, 0x00,
  0x0b, 0x00, 0x04, 0x00, 0x0e, 0x00, 0x00, 0x00, 0x10, 0x00, 0x00, 0x00,
  0x00, 0x00, 0x00, 0x08, 0x0c, 0x00, 0x00, 0x00, 0x10, 0x00, 0x00, 0x00,
  0x08, 0xfd, 0xff, 0xff, 0x01, 0x00, 0x00, 0x00, 0x05, 0x00, 0x00, 0x00,
  0x03, 0x00, 0x00, 0x00, 0x00, 0x00, 0x00, 0x00, 0x03, 0x00, 0x00, 0x00,
  0x02, 0x00, 0x00, 0x00, 0x01, 0x00, 0x00, 0x00, 0x07, 0x00, 0x00, 0x00,
  0x01, 0x00, 0x00, 0x00, 0x00, 0x00, 0x00, 0x00, 0x08, 0x00, 0x00, 0x00,
  0xa0, 0x02, 0x00, 0x00, 0x30, 0x02, 0x00, 0x00, 0xc4, 0x01, 0x00, 0x00,
  0x7c, 0x01, 0x00, 0x00, 0x30, 0x01, 0x00, 0x00, 0xbc, 0x00, 0x00, 0x00,
  0x60, 0x00, 0x00, 0x00, 0x04, 0x00, 0x00, 0x00, 0x96, 0xfd, 0xff, 0xff,
  0x00, 0x00, 0x00, 0x01, 0x14, 0x00, 0x00, 0x00, 0x1c, 0x00, 0x00, 0x00,
  0x1c, 0x00, 0x00, 0x00, 0x08, 0x00, 0x00, 0x00, 0x34, 0x00, 0x00, 0x00,
  0x02, 0x00, 0x00, 0x00, 0xff, 0xff, 0xff, 0xff, 0x05, 0x00, 0x00, 0x00,
  0x80, 0xfd, 0xff, 0xff, 0x19, 0x00, 0x00, 0x00, 0x53, 0x74, 0x61, 0x74,
  0x65, 0x66, 0x75, 0x6c, 0x50, 0x61, 0x72, 0x74, 0x69, 0x74, 0x69, 0x6f,
  0x6e, 0x65, 0x64, 0x43, 0x61, 0x6c, 0x6c, 0x3a, 0x30, 0x00, 0x00, 0x00,
  0x02, 0x00, 0x00, 0x00, 0x01, 0x00, 0x00, 0x00, 0x05, 0x00, 0x00, 0x00,
  0xee, 0xfd, 0xff, 0xff, 0x00, 0x00, 0x00, 0x01, 0x14, 0x00, 0x00, 0x00,
  0x1c, 0x00, 0x00, 0x00, 0x1c, 0x00, 0x00, 0x00, 0x07, 0x00, 0x00, 0x00,
  0x34, 0x00, 0x00, 0x00, 0x02, 0x00, 0x00, 0x00, 0xff, 0xff, 0xff, 0xff,
  0x1b, 0x00, 0x00, 0x00, 0xd8, 0xfd, 0xff, 0xff, 0x18, 0x00, 0x00, 0x00,
  0x73, 0x65, 0x71, 0x75, 0x65, 0x6e, 0x74, 0x69, 0x61, 0x6c, 0x2f, 0x64,
  0x65, 0x6e, 0x73, 0x65, 0x2f, 0x53, 0x69, 0x67, 0x6d, 0x6f, 0x69, 0x64,
  0x00, 0x00, 0x00, 0x00, 0x02, 0x00, 0x00, 0x00, 0x01, 0x00, 0x00, 0x00,
  0x1b, 0x00, 0x00, 0x00, 0x46, 0xfe, 0xff, 0xff, 0x00, 0x00, 0x00, 0x01,
  0x14, 0x00, 0x00, 0x00, 0x1c, 0x00, 0x00, 0x00, 0x1c, 0x00, 0x00, 0x00,
  0x06, 0x00, 0x00, 0x00, 0x4c, 0x00, 0x00, 0x00, 0x02, 0x00, 0x00, 0x00,
  0xff, 0xff, 0xff, 0xff, 0x1b, 0x00, 0x00, 0x00, 0x30, 0xfe, 0xff, 0xff,
  0x30, 0x00, 0x00, 0x00, 0x73, 0x65, 0x71, 0x75, 0x65, 0x6e, 0x74, 0x69,
  0x61, 0x6c, 0x2f, 0x64, 0x65, 0x6e, 0x73, 0x65, 0x2f, 0x4d, 0x61, 0x74,
  0x4d, 0x75, 0x6c, 0x3b, 0x73, 0x65, 0x71, 0x75, 0x65, 0x6e, 0x74, 0x69,
  0x61, 0x6c, 0x2f, 0x64, 0x65, 0x6e, 0x73, 0x65, 0x2f, 0x42, 0x69, 0x61,
  0x73, 0x41, 0x64, 0x64, 0x00, 0x00, 0x00, 0x00, 0x02, 0x00, 0x00, 0x00,
  0x01, 0x00, 0x00, 0x00, 0x1b, 0x00, 0x00, 0x00, 0x22, 0xff, 0xff, 0xff,
  0x00, 0x00, 0x00, 0x01, 0x10, 0x00, 0x00, 0x00, 0x10, 0x00, 0x00, 0x00,
  0x05, 0x00, 0x00, 0x00, 0x28, 0x00, 0x00, 0x00, 0x90, 0xfe, 0xff, 0xff,
  0x19, 0x00, 0x00, 0x00, 0x73, 0x65, 0x71, 0x75, 0x65, 0x6e, 0x74, 0x69,
  0x61, 0x6c, 0x2f, 0x64, 0x65, 0x6e, 0x73, 0x65, 0x5f, 0x31, 0x2f, 0x4d,
  0x61, 0x74, 0x4d, 0x75, 0x6c, 0x00, 0x00, 0x00, 0x02, 0x00, 0x00, 0x00,
  0x05, 0x00, 0x00, 0x00, 0x1b, 0x00, 0x00, 0x00, 0x6a, 0xff, 0xff, 0xff,
  0x00, 0x00, 0x00, 0x01, 0x10, 0x00, 0x00, 0x00, 0x10, 0x00, 0x00, 0x00,
  0x04, 0x00, 0x00, 0x00, 0x24, 0x00, 0x00, 0x00, 0xd8, 0xfe, 0xff, 0xff,
  0x17, 0x00, 0x00, 0x00, 0x73, 0x65, 0x71, 0x75, 0x65, 0x6e, 0x74, 0x69,
  0x61, 0x6c, 0x2f, 0x64, 0x65, 0x6e, 0x73, 0x65, 0x2f, 0x4d, 0x61, 0x74,
  0x4d, 0x75, 0x6c, 0x00, 0x02, 0x00, 0x00, 0x00, 0x1b, 0x00, 0x00, 0x00,
  0x1b, 0x00, 0x00, 0x00, 0xae, 0xff, 0xff, 0xff, 0x00, 0x00, 0x00, 0x01,
  0x10, 0x00, 0x00, 0x00, 0x10, 0x00, 0x00, 0x00, 0x03, 0x00, 0x00, 0x00,
  0x34, 0x00, 0x00, 0x00, 0x1c, 0xff, 0xff, 0xff, 0x27, 0x00, 0x00, 0x00,
  0x73, 0x65, 0x71, 0x75, 0x65, 0x6e, 0x74, 0x69, 0x61, 0x6c, 0x2f, 0x64,
  0x65, 0x6e, 0x73, 0x65, 0x2f, 0x42, 0x69, 0x61, 0x73, 0x41, 0x64, 0x64,
  0x2f, 0x52, 0x65, 0x61, 0x64, 0x56, 0x61, 0x72, 0x69, 0x61, 0x62, 0x6c,
  0x65, 0x4f, 0x70, 0x00, 0x01, 0x00, 0x00, 0x00, 0x1b, 0x00, 0x00, 0x00,
  0x00, 0x00, 0x16, 0x00, 0x18, 0x00, 0x14, 0x00, 0x00, 0x00, 0x10, 0x00,
  0x0c, 0x00, 0x08, 0x00, 0x00, 0x00, 0x00, 0x00, 0x00, 0x00, 0x07, 0x00,
  0x16, 0x00, 0x00, 0x00, 0x00, 0x00, 0x00, 0x01, 0x10, 0x00, 0x00, 0x00,
  0x10, 0x00, 0x00, 0x00, 0x02, 0x00, 0x00, 0x00, 0x38, 0x00, 0x00, 0x00,
  0x84, 0xff, 0xff, 0xff, 0x29, 0x00, 0x00, 0x00, 0x73, 0x65, 0x71, 0x75,
  0x65, 0x6e, 0x74, 0x69, 0x61, 0x6c, 0x2f, 0x64, 0x65, 0x6e, 0x73, 0x65,
  0x5f, 0x31, 0x2f, 0x42, 0x69, 0x61, 0x73, 0x41, 0x64, 0x64, 0x2f, 0x52,
  0x65, 0x61, 0x64, 0x56, 0x61, 0x72, 0x69, 0x61, 0x62, 0x6c, 0x65, 0x4f,
  0x70, 0x00, 0x00, 0x00, 0x01, 0x00, 0x00, 0x00, 0x05, 0x00, 0x00, 0x00,
  0x00, 0x00, 0x16, 0x00, 0x1c, 0x00, 0x18, 0x00, 0x00, 0x00, 0x14, 0x00,
  0x10, 0x00, 0x0c, 0x00, 0x00, 0x00, 0x00, 0x00, 0x08, 0x00, 0x07, 0x00,
  0x16, 0x00, 0x00, 0x00, 0x00, 0x00, 0x00, 0x01, 0x14, 0x00, 0x00, 0x00,
  0x20, 0x00, 0x00, 0x00, 0x20, 0x00, 0x00, 0x00, 0x01, 0x00, 0x00, 0x00,
  0x3c, 0x00, 0x00, 0x00, 0x02, 0x00, 0x00, 0x00, 0xff, 0xff, 0xff, 0xff,
  0x1b, 0x00, 0x00, 0x00, 0x04, 0x00, 0x04, 0x00, 0x04, 0x00, 0x00, 0x00,
  0x1d, 0x00, 0x00, 0x00, 0x73, 0x65, 0x72, 0x76, 0x69, 0x6e, 0x67, 0x5f,
  0x64, 0x65, 0x66, 0x61, 0x75, 0x6c, 0x74, 0x5f, 0x64, 0x65, 0x6e, 0x73,
  0x65, 0x5f, 0x69, 0x6e, 0x70, 0x75, 0x74, 0x3a, 0x30, 0x00, 0x00, 0x00,
  0x02, 0x00, 0x00, 0x00, 0x01, 0x00, 0x00, 0x00, 0x1b, 0x00, 0x00, 0x00,
  0x02, 0x00, 0x00, 0x00, 0x20, 0x00, 0x00, 0x00, 0x04, 0x00, 0x00, 0x00,
  0xf4, 0xff, 0xff, 0xff, 0x0e, 0x00, 0x00, 0x00, 0x00, 0x00, 0x00, 0x0e,
  0x0c, 0x00, 0x0c, 0x00, 0x0b, 0x00, 0x00, 0x00, 0x00, 0x00, 0x04, 0x00,
  0x0c, 0x00, 0x00, 0x00, 0x09, 0x00, 0x00, 0x00, 0x00, 0x00, 0x00, 0x09
 
};

