#define TENSORFLOW_LITE_EXPERIMENTAL_MICRO_EXAMPLES_HELLO_WORLD_SINE_MODEL_DATA_H_
#ifdef __has_attribute
#define HAVE_ATTRIBUTE(x) __has_attribute(x)
#else
#define HAVE_ATTRIBUTE(x) 0
#endif
#if HAVE_ATTRIBUTE(aligned) || (defined(__GNUC__) && !defined(__clang__))
#define DATA_ALIGN_ATTRIBUTE __attribute__((aligned(4)))
#else
#define DATA_ALIGN_ATTRIBUTE
#endif
const int g_second_model_data_len = 4772;
const unsigned char g_second_model_data[] DATA_ALIGN_ATTRIBUTE = {
 0x1c, 0x00, 0x00, 0x00, 0x54, 0x46, 0x4c, 0x33, 0x00, 0x00, 0x12, 0x00,
  0x1c, 0x00, 0x04, 0x00, 0x08, 0x00, 0x0c, 0x00, 0x10, 0x00, 0x14, 0x00,
  0x00, 0x00, 0x18, 0x00, 0x12, 0x00, 0x00, 0x00, 0x03, 0x00, 0x00, 0x00,
  0x50, 0x12, 0x00, 0x00, 0xe0, 0x0e, 0x00, 0x00, 0xc8, 0x0e, 0x00, 0x00,
  0x34, 0x00, 0x00, 0x00, 0x04, 0x00, 0x00, 0x00, 0x01, 0x00, 0x00, 0x00,
  0x04, 0x00, 0x00, 0x00, 0x54, 0xee, 0xff, 0xff, 0x08, 0x00, 0x00, 0x00,
  0x09, 0x00, 0x00, 0x00, 0x13, 0x00, 0x00, 0x00, 0x6d, 0x69, 0x6e, 0x5f,
  0x72, 0x75, 0x6e, 0x74, 0x69, 0x6d, 0x65, 0x5f, 0x76, 0x65, 0x72, 0x73,
  0x69, 0x6f, 0x6e, 0x00, 0x0a, 0x00, 0x00, 0x00, 0x88, 0x0e, 0x00, 0x00,
  0x80, 0x0e, 0x00, 0x00, 0x54, 0x0c, 0x00, 0x00, 0x44, 0x0c, 0x00, 0x00,
  0x38, 0x0c, 0x00, 0x00, 0x30, 0x0c, 0x00, 0x00, 0xbc, 0x00, 0x00, 0x00,
  0x40, 0x00, 0x00, 0x00, 0x1c, 0x00, 0x00, 0x00, 0x04, 0x00, 0x00, 0x00,
  0xd2, 0xf3, 0xff, 0xff, 0x04, 0x00, 0x00, 0x00, 0x06, 0x00, 0x00, 0x00,
  0x31, 0x2e, 0x31, 0x34, 0x2e, 0x30, 0x00, 0x00, 0xe6, 0xf3, 0xff, 0xff,
  0x04, 0x00, 0x00, 0x00, 0x14, 0x00, 0x00, 0x00, 0xe3, 0x76, 0xdd, 0x3c,
  0x82, 0x8a, 0x98, 0x3c, 0x8f, 0x0c, 0x1e, 0x3d, 0x26, 0x3e, 0x0a, 0x3d,
  0xc1, 0x58, 0xb0, 0x3c, 0x06, 0xf4, 0xff, 0xff, 0x04, 0x00, 0x00, 0x00,
  0x6c, 0x00, 0x00, 0x00, 0xf5, 0x24, 0x2c, 0x3d, 0xdd, 0x98, 0x2f, 0xbd,
  0xed, 0x5f, 0x25, 0x3d, 0x5f, 0x02, 0x1b, 0xbd, 0xa2, 0x06, 0x0d, 0xbd,
  0xaf, 0xcc, 0xdc, 0x3c, 0x05, 0xf9, 0x04, 0xbd, 0x2d, 0xa6, 0x02, 0xbd,
  0xc3, 0x16, 0x18, 0x3d, 0xae, 0x2a, 0x3a, 0xbd, 0xe5, 0x84, 0x2b, 0xbd,
  0x3c, 0x74, 0x0c, 0xbd, 0x6f, 0x51, 0x9f, 0xbc, 0x0b, 0xac, 0x16, 0xbd,
  0x2d, 0x00, 0x19, 0xbd, 0xa8, 0x04, 0x2e, 0x3d, 0xf4, 0x3d, 0x59, 0x3c,
  0xee, 0xfa, 0x24, 0xbd, 0x0c, 0x71, 0x4c, 0x3d, 0x45, 0xb8, 0x1e, 0xbd,
  0xe9, 0x64, 0x11, 0xbd, 0x98, 0xed, 0x1a, 0xbd, 0x44, 0x79, 0x25, 0x3d,
  0x9b, 0xd9, 0x1d, 0x3d, 0xc5, 0xb2, 0x2f, 0x3d, 0xa3, 0x1c, 0x18, 0x3d,
  0x5c, 0x5c, 0x0f, 0xbd, 0x7e, 0xf4, 0xff, 0xff, 0x04, 0x00, 0x00, 0x00,
  0x64, 0x0b, 0x00, 0x00, 0x96, 0xf9, 0x9d, 0x3e, 0x00, 0x4e, 0x3c, 0x3e,
  0x58, 0xb1, 0x62, 0xbe, 0xea, 0x34, 0xfb, 0xbc, 0xa8, 0xd6, 0xa5, 0x3e,
  0x04, 0x36, 0x85, 0x3a, 0xc1, 0x47, 0x60, 0xbe, 0x4a, 0x04, 0x36, 0x3e,
  0x5a, 0x1b, 0xb2, 0x3e, 0x51, 0xe7, 0x59, 0x3d, 0xd4, 0x2e, 0x42, 0x3e,
  0xe5, 0x2a, 0x63, 0xbc, 0xbe, 0x33, 0x5d, 0xbe, 0x82, 0x47, 0x60, 0x3e,
  0xee, 0x6a, 0xab, 0xbc, 0xa3, 0xfa, 0x91, 0xbe, 0x72, 0x6c, 0x2e, 0x3d,
  0xe6, 0x55, 0x6f, 0xbe, 0xc3, 0x32, 0xdb, 0x3c, 0x45, 0x2f, 0xe4, 0x3d,
  0xcc, 0xd4, 0x4b, 0xbe, 0xee, 0x6e, 0x5d, 0x3e, 0x01, 0x19, 0x83, 0x3e,
  0xa5, 0x52, 0xcc, 0xbc, 0x33, 0x7d, 0xdf, 0xbc, 0xe6, 0x93, 0x0e, 0xbb,
  0xde, 0x93, 0x74, 0xbd, 0x15, 0x06, 0x8e, 0x3e, 0xd7, 0xd0, 0x4f, 0xbc,
  0x01, 0x2f, 0x1a, 0x3e, 0x35, 0xa6, 0x87, 0x3e, 0xc8, 0x70, 0x33, 0x3e,
  0xc4, 0x67, 0x0f, 0x3e, 0x05, 0x73, 0x63, 0xbe, 0xeb, 0x2a, 0x9e, 0xbe,
  0x5c, 0x81, 0xea, 0xbc, 0x8d, 0x61, 0x9d, 0xbe, 0x3f, 0x42, 0x97, 0xbe,
  0xcf, 0x17, 0x6a, 0xbe, 0xdd, 0xc0, 0x5a, 0x3e, 0xa0, 0xeb, 0x51, 0x3e,
  0x6d, 0x8f, 0xbf, 0xbc, 0x66, 0xcf, 0x99, 0xbe, 0x35, 0x54, 0x68, 0xbd,
  0xce, 0xe6, 0x0c, 0xbe, 0xca, 0x9e, 0x7e, 0xbe, 0x5e, 0xde, 0x52, 0x3b,
  0x0c, 0x32, 0x57, 0xbe, 0x64, 0xdd, 0xae, 0xbd, 0x9f, 0x7a, 0x27, 0x3e,
  0x73, 0x7a, 0x5a, 0xbc, 0x3b, 0xd7, 0x47, 0x3e, 0x27, 0xda, 0xbd, 0xbc,
  0x9d, 0x5c, 0x19, 0x3d, 0x7a, 0xef, 0x7c, 0xbd, 0xe3, 0x26, 0xae, 0x3e,
  0xcd, 0x6a, 0x71, 0xbe, 0x6a, 0xd0, 0x15, 0x3e, 0x9b, 0xe9, 0xbd, 0xbd,
  0x6a, 0x10, 0x44, 0x3c, 0x4b, 0x5b, 0x55, 0xbe, 0x29, 0x20, 0x25, 0x3e,
  0xa9, 0xf1, 0xcd, 0x3c, 0xa4, 0x5e, 0x94, 0xbe, 0x15, 0x25, 0x02, 0x3d,
  0xdf, 0x78, 0x02, 0xbe, 0x75, 0x1f, 0xf9, 0xbc, 0xc9, 0x86, 0x8f, 0xbe,
  0xf1, 0x4d, 0xf6, 0x3a, 0xb7, 0xf3, 0xd3, 0x3d, 0x6e, 0xc8, 0xf2, 0xbd,
  0x9e, 0x24, 0xbf, 0x3d, 0x78, 0xf3, 0xb4, 0x3e, 0x8c, 0x59, 0x01, 0x3d,
  0x1e, 0x47, 0x4b, 0xbe, 0x19, 0x42, 0x88, 0xbe, 0xa5, 0x7b, 0x8a, 0x3c,
  0xe6, 0x5c, 0x94, 0x3e, 0xbc, 0xa6, 0x4f, 0xbe, 0x73, 0x01, 0x7b, 0xbe,
  0xef, 0xf8, 0x41, 0xbd, 0xc7, 0x83, 0xa8, 0xbe, 0xe2, 0xd3, 0x65, 0x3e,
  0xae, 0x28, 0x63, 0x3e, 0x45, 0x3e, 0x73, 0x3e, 0xcb, 0x73, 0xf3, 0xbd,
  0x76, 0x48, 0x61, 0x3e, 0x91, 0x46, 0xb9, 0x3d, 0x35, 0x9b, 0xeb, 0xbd,
  0xbb, 0xd3, 0xbe, 0xbd, 0x6e, 0x16, 0xb3, 0xbe, 0x8b, 0xa0, 0xa4, 0xbd,
  0x67, 0x30, 0x30, 0xbe, 0x44, 0xc6, 0x3a, 0xbe, 0xfe, 0xe6, 0x53, 0xbd,
  0x39, 0x38, 0x8d, 0xbe, 0x03, 0x81, 0x60, 0x3c, 0xc9, 0xe9, 0xb1, 0x3d,
  0x0f, 0x63, 0x01, 0xbd, 0x29, 0x86, 0x9b, 0xbe, 0xb2, 0x6e, 0x86, 0x3e,
  0x73, 0xff, 0x41, 0xbc, 0x24, 0xe2, 0x1d, 0x3d, 0x93, 0x56, 0xa9, 0xbe,
  0xbf, 0xa9, 0x71, 0xbe, 0x23, 0xe2, 0x86, 0x3d, 0x4c, 0xb1, 0x68, 0xbe,
  0xeb, 0xda, 0x3b, 0x3b, 0xf5, 0xa6, 0x1d, 0xbe, 0x5b, 0xf5, 0x52, 0x3e,
  0x83, 0x57, 0xb3, 0xbe, 0x1b, 0xb3, 0x88, 0xbd, 0x29, 0x7c, 0xa1, 0xbe,
  0x37, 0xdc, 0x1b, 0xbe, 0x40, 0x5e, 0x75, 0xbd, 0xe0, 0x4c, 0x94, 0xbe,
  0x72, 0xc8, 0x7f, 0xbe, 0xc1, 0xf1, 0x8c, 0x3e, 0xc0, 0x98, 0x8d, 0x3e,
  0x5f, 0x8c, 0x16, 0x3e, 0x66, 0x56, 0xab, 0xbe, 0x66, 0x1b, 0x33, 0xbe,
  0x37, 0x89, 0x17, 0x3e, 0x5a, 0xce, 0x16, 0x3e, 0x0f, 0x92, 0x86, 0x3e,
  0x82, 0x26, 0x8a, 0x3e, 0x98, 0xa3, 0x17, 0xbd, 0x59, 0x72, 0x39, 0x3e,
  0x30, 0xe6, 0xa2, 0xbe, 0xb8, 0xef, 0x67, 0xbc, 0x74, 0x8f, 0x93, 0xbe,
  0x8c, 0xfd, 0x31, 0x3e, 0x79, 0x02, 0x55, 0xbe, 0x5e, 0x2f, 0x84, 0xbe,
  0x1e, 0xb0, 0xbe, 0xbc, 0xa5, 0x88, 0x0a, 0xbd, 0xf7, 0x7d, 0x53, 0xbe,
  0x6e, 0x02, 0xac, 0x3d, 0xf6, 0xa2, 0x3a, 0xbd, 0x84, 0xcf, 0x28, 0x3e,
  0x3c, 0xa0, 0x82, 0x3e, 0xb8, 0x29, 0x04, 0x3d, 0x2e, 0x86, 0x8e, 0x3c,
  0x6f, 0x7b, 0x16, 0xbe, 0xeb, 0xa0, 0x45, 0xbe, 0x4e, 0x94, 0x74, 0xbd,
  0x05, 0xd8, 0x9b, 0xbd, 0x9b, 0x4f, 0x25, 0xbe, 0x99, 0x1c, 0xe0, 0xbd,
  0xad, 0xe9, 0x15, 0xbe, 0x21, 0x54, 0x69, 0xbe, 0x61, 0x29, 0x25, 0xbd,
  0x7d, 0x89, 0x91, 0x3e, 0x89, 0xd1, 0x9c, 0xbe, 0xe1, 0x16, 0x34, 0x3e,
  0x48, 0xac, 0x5a, 0xbe, 0xa1, 0x57, 0xd9, 0xbd, 0x4e, 0xe2, 0xe3, 0x3d,
  0xd0, 0x81, 0x8f, 0x3e, 0xd4, 0x47, 0xf9, 0x3d, 0x9a, 0xb4, 0xe5, 0xbd,
  0xbe, 0x4f, 0x1a, 0x3e, 0xc5, 0x93, 0x9c, 0xbe, 0x27, 0xe1, 0x50, 0x3e,
  0xd1, 0x21, 0xba, 0xbd, 0x60, 0xa1, 0xe0, 0x3d, 0x92, 0x22, 0x8c, 0xbe,
  0xec, 0x2e, 0x58, 0xbd, 0x48, 0xd6, 0x93, 0x3e, 0xf5, 0xa6, 0x8f, 0x3e,
  0x15, 0x9f, 0x78, 0xbe, 0x6c, 0x9d, 0xe9, 0x3d, 0x51, 0xb9, 0xd3, 0x3d,
  0x7e, 0x0f, 0x89, 0x3e, 0x06, 0x87, 0x2c, 0x3c, 0x79, 0xdb, 0x6b, 0xbe,
  0x8c, 0x23, 0x66, 0xbc, 0x37, 0xde, 0x8f, 0x3d, 0xc9, 0xd8, 0x04, 0x3e,
  0xd4, 0x2d, 0x96, 0xbe, 0x28, 0x8c, 0x7b, 0xbd, 0xa7, 0xd3, 0x59, 0x3d,
  0x80, 0x74, 0x96, 0xbe, 0xe6, 0x99, 0x1a, 0xbe, 0xb8, 0x8a, 0xd4, 0x3d,
  0x91, 0x9a, 0x77, 0xbd, 0x45, 0xb8, 0xda, 0x3d, 0x6f, 0xca, 0xa2, 0x3c,
  0x2a, 0x2f, 0xa4, 0xbe, 0x21, 0xa6, 0x2f, 0xbe, 0x30, 0x88, 0x85, 0x3e,
  0x58, 0xf5, 0xb8, 0xbe, 0xc8, 0x91, 0x71, 0xbd, 0x63, 0x5a, 0x3e, 0xbd,
  0x08, 0xc1, 0x15, 0x3d, 0x15, 0xbd, 0x73, 0xbe, 0x27, 0x56, 0x96, 0xbe,
  0xee, 0x35, 0xb7, 0xbd, 0xbb, 0x27, 0x17, 0x3e, 0xb8, 0xa1, 0xd0, 0xbd,
  0x43, 0xb9, 0x39, 0x3d, 0x57, 0x9b, 0x3d, 0x3e, 0x9d, 0x6d, 0x0a, 0x3e,
  0xba, 0xb3, 0x4e, 0x3e, 0x99, 0x51, 0x90, 0xbe, 0x03, 0x22, 0x33, 0x3e,
  0xdd, 0xaf, 0xc0, 0x3d, 0x3b, 0x2c, 0x3a, 0xbd, 0xb4, 0xd6, 0x74, 0x3e,
  0xe5, 0xed, 0x5f, 0x3e, 0xc2, 0x2f, 0x50, 0x3e, 0xde, 0xd7, 0x05, 0x3e,
  0x63, 0x99, 0x82, 0xbd, 0x53, 0xc3, 0xe4, 0x3b, 0x86, 0xe4, 0x9c, 0xbd,
  0x26, 0x6f, 0x59, 0x3e, 0x0c, 0xb5, 0x32, 0xbc, 0x74, 0xd6, 0x8f, 0x3e,
  0x6e, 0x0f, 0x83, 0x3e, 0xf3, 0x3e, 0xa5, 0x3e, 0xdf, 0xd2, 0x7e, 0x3e,
  0x90, 0x0d, 0x5f, 0x3e, 0xdc, 0x33, 0xaf, 0xbd, 0x97, 0x2f, 0xef, 0xbb,
  0x9d, 0xd7, 0x9b, 0x3d, 0x95, 0xc1, 0x88, 0xbe, 0x16, 0x40, 0xb4, 0x3e,
  0x2a, 0xc7, 0x7d, 0xbd, 0xe8, 0x4b, 0x33, 0xbe, 0x63, 0xc4, 0x9d, 0x3e,
  0xea, 0xab, 0x0f, 0xbe, 0x6b, 0x49, 0xad, 0x3d, 0x20, 0x7e, 0x75, 0x3e,
  0x3a, 0x4e, 0xea, 0x3d, 0x37, 0x99, 0x18, 0x3e, 0x21, 0x9a, 0x8c, 0xbe,
  0x95, 0x81, 0x20, 0x3e, 0x2c, 0xa7, 0x6a, 0x3e, 0x8f, 0xdc, 0x01, 0x3e,
  0x06, 0xe7, 0xaa, 0x3e, 0x70, 0xd6, 0x38, 0x3e, 0xb3, 0xcb, 0xb3, 0x3e,
  0xe3, 0xa5, 0x83, 0x3d, 0x5c, 0x80, 0x0d, 0xbe, 0x7d, 0x40, 0x4a, 0xbe,
  0xfa, 0x5f, 0x96, 0xbe, 0x27, 0xfe, 0x59, 0xbc, 0x34, 0x22, 0x8a, 0xbd,
  0x54, 0x98, 0xbc, 0xbe, 0xe7, 0xbd, 0xd3, 0x3c, 0xd9, 0x43, 0x60, 0x3e,
  0x84, 0xf4, 0xc4, 0xbd, 0x7d, 0x83, 0x8c, 0x3e, 0x3f, 0x9b, 0x87, 0x3e,
  0x65, 0xcd, 0xc3, 0x3d, 0x20, 0x0c, 0xbf, 0xbd, 0x4c, 0x7e, 0x58, 0xbe,
  0xf0, 0xb7, 0x2e, 0x3e, 0xce, 0x2d, 0x85, 0xbe, 0x43, 0x04, 0x31, 0xbd,
  0xa8, 0x28, 0x87, 0xbd, 0x05, 0x7a, 0x36, 0xbd, 0xa3, 0x1f, 0x4c, 0xbe,
  0x82, 0x12, 0xca, 0x3d, 0x7d, 0x86, 0x25, 0xbe, 0x98, 0x8d, 0xd0, 0x3c,
  0x22, 0xdc, 0x78, 0x3e, 0xab, 0xce, 0x1e, 0x3c, 0x83, 0xd8, 0x6c, 0x3e,
  0x89, 0x33, 0x43, 0x3d, 0x94, 0x5a, 0xf5, 0xbd, 0x94, 0xf8, 0xaf, 0xbe,
  0xd2, 0xef, 0x5f, 0xbe, 0x0c, 0x97, 0xa1, 0x3d, 0x10, 0x3b, 0x46, 0xbd,
  0xbf, 0xcb, 0xf3, 0xbd, 0x88, 0x1b, 0xa5, 0xbd, 0x1b, 0xb6, 0xaf, 0x3d,
  0x06, 0x48, 0xa1, 0xbe, 0x1e, 0xc6, 0xb5, 0xbd, 0xe5, 0x16, 0x7e, 0xbe,
  0xd5, 0x16, 0xa8, 0xbd, 0x08, 0xd3, 0xa1, 0xbc, 0x40, 0x75, 0x17, 0x3e,
  0x73, 0x3b, 0x87, 0xbe, 0x94, 0x16, 0x3a, 0x3d, 0xbe, 0x76, 0xe0, 0xbd,
  0xe5, 0x00, 0x9d, 0x3e, 0x2e, 0x9a, 0x45, 0xbd, 0xdf, 0x90, 0x06, 0x3e,
  0x8e, 0xca, 0x2b, 0xbe, 0x9b, 0x00, 0x23, 0xbe, 0x21, 0x6f, 0x22, 0xbe,
  0x3f, 0x22, 0x29, 0x3e, 0x73, 0xbe, 0xb3, 0xbe, 0x69, 0x56, 0xab, 0xbe,
  0x57, 0xf4, 0xce, 0xbd, 0x96, 0x98, 0x94, 0xbd, 0xa4, 0x9e, 0xd7, 0x3d,
  0x6a, 0x0b, 0x5a, 0x3e, 0xd5, 0xd7, 0x60, 0x3e, 0x04, 0xeb, 0x76, 0x3e,
  0x75, 0xeb, 0xb5, 0xbe, 0x40, 0xaa, 0xf0, 0xbb, 0xc5, 0x35, 0x71, 0xbe,
  0xde, 0x33, 0x66, 0x3e, 0x34, 0xb7, 0xb8, 0xbe, 0x75, 0xc4, 0x97, 0xbc,
  0xaf, 0x5f, 0x5b, 0x3c, 0xee, 0x69, 0x04, 0xbe, 0x1c, 0x36, 0xd6, 0xbd,
  0x0a, 0xa3, 0x72, 0x3e, 0x83, 0x11, 0xf1, 0xbd, 0x14, 0xd1, 0xcf, 0x3d,
  0x9d, 0xae, 0x68, 0xbe, 0xb5, 0x2c, 0xa6, 0x3e, 0x78, 0x02, 0x95, 0xbe,
  0x09, 0xfa, 0x97, 0xbd, 0x60, 0x8b, 0x96, 0xbe, 0xc9, 0x87, 0xce, 0x3d,
  0x46, 0x9b, 0xa1, 0xbe, 0x1a, 0x7a, 0xca, 0xbd, 0xbf, 0x84, 0xb4, 0xbe,
  0x5a, 0x48, 0x7c, 0x3e, 0x80, 0x49, 0x80, 0x3e, 0xee, 0xed, 0x84, 0xbe,
  0x1e, 0x0e, 0x8f, 0x3e, 0x5e, 0xc4, 0x77, 0x3c, 0x26, 0xd1, 0xb5, 0xbe,
  0x3f, 0xd2, 0x7d, 0xbd, 0xbb, 0xc9, 0xad, 0xbe, 0xfe, 0x3a, 0x63, 0x3e,
  0x93, 0xb8, 0x9d, 0xbe, 0x95, 0xb4, 0x28, 0x3e, 0xdf, 0x34, 0x5b, 0xbe,
  0xd0, 0xcc, 0x24, 0xbc, 0x76, 0x85, 0x46, 0xbe, 0xe9, 0xd6, 0xd0, 0x3d,
  0x21, 0x4a, 0x90, 0x3d, 0x17, 0x9b, 0x09, 0xbe, 0x77, 0xa4, 0xab, 0x3d,
  0x75, 0xed, 0x17, 0x3e, 0x63, 0x5f, 0x36, 0x3e, 0xd0, 0xbd, 0xbd, 0xbe,
  0x6a, 0x1e, 0xdb, 0xbd, 0xf7, 0xb7, 0x56, 0xbe, 0x65, 0x36, 0xf8, 0x3c,
  0x8b, 0xfd, 0xb6, 0xbc, 0xad, 0x1f, 0x5f, 0x3e, 0xf1, 0x81, 0x71, 0x3e,
  0xbf, 0xea, 0x96, 0x3e, 0xac, 0x72, 0x0e, 0x3d, 0x3d, 0xf0, 0x18, 0xbe,
  0x05, 0xe4, 0x59, 0x3e, 0xce, 0xc8, 0x70, 0xbe, 0xda, 0x95, 0x69, 0x3e,
  0x39, 0x16, 0x97, 0xbe, 0xf4, 0x23, 0x1b, 0x3e, 0x97, 0x74, 0x6b, 0xbe,
  0xf6, 0xca, 0x9c, 0xbd, 0xf7, 0x1a, 0xed, 0x3d, 0x8c, 0x9d, 0xb0, 0xbc,
  0xfa, 0xf4, 0x81, 0xbe, 0x7f, 0xaf, 0xbd, 0xbe, 0xe4, 0xc5, 0xa9, 0xbe,
  0x22, 0x5b, 0x13, 0xbc, 0xb1, 0x48, 0x97, 0xbe, 0xeb, 0x07, 0x61, 0xbe,
  0x88, 0xe6, 0xa8, 0x3e, 0x9c, 0x69, 0xc6, 0xbd, 0x4a, 0xcc, 0x7f, 0xbe,
  0x1b, 0x5f, 0x1b, 0xbd, 0x33, 0x68, 0xb4, 0x3d, 0x42, 0x38, 0x9a, 0xbb,
  0xd8, 0xba, 0x57, 0x3e, 0x6c, 0x6e, 0x38, 0x3e, 0x45, 0x0a, 0x52, 0xbd,
  0xc4, 0xe4, 0x3e, 0xbc, 0x67, 0xf6, 0x85, 0xbd, 0xee, 0xd0, 0x56, 0xbe,
  0x66, 0x68, 0x5e, 0x3e, 0x09, 0x8e, 0xb3, 0xbe, 0x31, 0x8b, 0xa9, 0xbe,
  0x55, 0x63, 0xcb, 0x3d, 0x70, 0x92, 0xee, 0x3d, 0xff, 0x6c, 0x82, 0x3e,
  0xd3, 0x6e, 0x45, 0xbc, 0x33, 0x28, 0x14, 0xbe, 0x52, 0x12, 0x49, 0xbe,
  0xc0, 0x40, 0xa9, 0xbd, 0xfb, 0x74, 0x3e, 0xbe, 0x27, 0xfb, 0xca, 0xbd,
  0x2e, 0x8b, 0xe8, 0x3d, 0x65, 0xd3, 0x6d, 0xbd, 0x3d, 0xa9, 0xa2, 0x3e,
  0x67, 0x45, 0x1d, 0x3e, 0xd8, 0xb3, 0x83, 0xbe, 0xf3, 0xeb, 0x3a, 0xbe,
  0x8e, 0x13, 0x63, 0xbe, 0x9f, 0xa6, 0x8c, 0xbe, 0x45, 0xa4, 0x39, 0x3d,
  0xd6, 0x9e, 0xad, 0x3d, 0xb0, 0xb7, 0x45, 0x3d, 0x32, 0xc6, 0x04, 0x3d,
  0x63, 0x89, 0x5b, 0x3e, 0xba, 0x6b, 0xc0, 0xbd, 0x74, 0x7b, 0xfd, 0x3d,
  0xf7, 0x64, 0x13, 0xbd, 0x7b, 0x1b, 0x48, 0x3e, 0xee, 0xc0, 0x52, 0x39,
  0x65, 0x4e, 0x4d, 0xbe, 0x99, 0xf3, 0x87, 0xbd, 0xc3, 0xb6, 0x27, 0x3e,
  0x0e, 0x84, 0x7d, 0x3d, 0x9c, 0x36, 0x14, 0xbd, 0x39, 0x4b, 0x67, 0x3e,
  0x6b, 0xec, 0x0e, 0xbe, 0x19, 0xf2, 0xc9, 0xbd, 0xc1, 0x0b, 0x78, 0xbc,
  0xe9, 0x4b, 0xaa, 0xbe, 0xce, 0x02, 0xb3, 0x3e, 0x47, 0xe3, 0x9f, 0xbe,
  0xb0, 0x25, 0xed, 0x3d, 0x7b, 0x98, 0x05, 0xbd, 0x41, 0x5e, 0x67, 0xbd,
  0xc8, 0xd7, 0x8e, 0x3e, 0x9e, 0x7c, 0xfd, 0xbd, 0x6c, 0xc9, 0x05, 0x3e,
  0x90, 0xa9, 0x7e, 0xbe, 0x33, 0xf1, 0x48, 0xbe, 0x94, 0x31, 0x40, 0x3e,
  0x64, 0x58, 0x9f, 0xbb, 0x01, 0x8f, 0xdd, 0xbd, 0x73, 0xca, 0x85, 0xbe,
  0x6b, 0x4b, 0xb2, 0xbd, 0x58, 0x0f, 0x51, 0xbd, 0x6e, 0xc7, 0x9a, 0xbe,
  0xb4, 0x37, 0x3d, 0x3e, 0x97, 0xfd, 0x95, 0xbe, 0x81, 0x06, 0xf1, 0xbd,
  0x2b, 0x0d, 0x85, 0xbe, 0xad, 0x43, 0x7a, 0xbc, 0x00, 0x78, 0x7c, 0x3c,
  0x4a, 0x9a, 0xff, 0x3d, 0xaf, 0xe4, 0xd1, 0x3d, 0x05, 0xc4, 0x97, 0xbe,
  0xf2, 0x74, 0xb5, 0xbd, 0x50, 0xa9, 0xdf, 0xbc, 0xa2, 0x45, 0x3a, 0x3e,
  0xa5, 0x1d, 0x72, 0xbe, 0x56, 0x31, 0xa6, 0x3e, 0x60, 0x8c, 0xab, 0x3e,
  0x16, 0xec, 0xec, 0xbd, 0xfa, 0xce, 0xe1, 0xbc, 0x3c, 0x2b, 0x4c, 0x3d,
  0x9a, 0xec, 0x83, 0x3e, 0x12, 0x49, 0x2a, 0xbd, 0x1a, 0xa6, 0xa5, 0x3e,
  0x19, 0x07, 0x02, 0xbe, 0xdc, 0x33, 0x38, 0xbe, 0xca, 0x53, 0x6b, 0x3e,
  0x57, 0x6a, 0x2d, 0x3e, 0x3c, 0x48, 0x3c, 0x3e, 0xa0, 0x1d, 0x01, 0xbe,
  0xbc, 0xb7, 0x89, 0xbe, 0xa0, 0xf0, 0x01, 0x3e, 0x6f, 0x32, 0x9c, 0xbe,
  0xab, 0x79, 0x56, 0x3e, 0x4a, 0x1a, 0x92, 0x3e, 0xf1, 0x6f, 0x79, 0x3e,
  0x20, 0x2d, 0x41, 0xbd, 0x3f, 0x2a, 0x1f, 0x3e, 0xa8, 0xdf, 0xd3, 0x3d,
  0xa4, 0xf0, 0x94, 0x3e, 0x48, 0xb4, 0xa5, 0xbe, 0x38, 0xe2, 0x7a, 0x3e,
  0xec, 0x07, 0x87, 0xbd, 0x69, 0xe8, 0x04, 0xbd, 0x0e, 0x10, 0xa7, 0xbc,
  0x33, 0x49, 0xf7, 0x3d, 0xae, 0xb4, 0x4f, 0x3e, 0xf3, 0xb9, 0x9d, 0xbc,
  0xb0, 0x92, 0x96, 0xbd, 0xee, 0x1c, 0x6d, 0x3e, 0x56, 0x71, 0x6d, 0x3e,
  0x31, 0x8d, 0x52, 0xbe, 0x95, 0x0b, 0x73, 0x3d, 0x76, 0x20, 0x9b, 0xbd,
  0x45, 0xb0, 0x95, 0x3e, 0x00, 0xb5, 0x90, 0xbe, 0xa7, 0x12, 0xbc, 0x3e,
  0x18, 0x52, 0x7c, 0xbe, 0xde, 0x8f, 0x5f, 0x3e, 0x03, 0x56, 0xb2, 0x3e,
  0xc0, 0x0d, 0x85, 0x3e, 0x03, 0x83, 0xd9, 0x3d, 0x1e, 0xcc, 0xb1, 0x3c,
  0x6e, 0x7a, 0xd0, 0xbd, 0xb4, 0xb0, 0x6b, 0xbd, 0x38, 0xe6, 0x98, 0x3e,
  0x9b, 0x60, 0x83, 0x3e, 0xab, 0x7a, 0xa5, 0x3d, 0x8e, 0xbc, 0x2a, 0x3d,
  0x12, 0x7f, 0x45, 0x3e, 0xf2, 0x95, 0x3a, 0x3e, 0xf1, 0x29, 0x6f, 0x3e,
  0x39, 0xd1, 0xbc, 0xbe, 0x93, 0x7b, 0x66, 0x3e, 0x2b, 0xc7, 0x5d, 0x3d,
  0x42, 0xfe, 0xd9, 0xbb, 0x24, 0xf0, 0xc4, 0x3d, 0x3d, 0x66, 0x4f, 0x3e,
  0xfa, 0x48, 0xa0, 0x3e, 0x49, 0x4f, 0x4b, 0x3e, 0xbf, 0x58, 0x22, 0x3c,
  0x1d, 0xbd, 0x5c, 0x3e, 0x19, 0x97, 0xdf, 0xbd, 0xc2, 0x76, 0x93, 0xbe,
  0x8d, 0xf8, 0x92, 0xbe, 0xc5, 0xcc, 0x22, 0x3e, 0xa0, 0xcc, 0x3c, 0xbd,
  0x01, 0x1a, 0x22, 0xbe, 0x7e, 0xf6, 0xdd, 0x3d, 0x66, 0x4c, 0x83, 0x3e,
  0x01, 0x93, 0xe9, 0x3d, 0x43, 0xaa, 0x9c, 0x3d, 0xeb, 0x02, 0x83, 0x3e,
  0x98, 0x80, 0x0f, 0x3e, 0x20, 0x99, 0x02, 0x3e, 0x09, 0x83, 0x35, 0xbe,
  0xf3, 0x68, 0xd3, 0xbd, 0x37, 0xeb, 0x00, 0x3e, 0x7e, 0x2b, 0x5f, 0x3e,
  0xca, 0xaf, 0xd4, 0xbd, 0xc4, 0x6d, 0x54, 0xbe, 0x1a, 0xc8, 0x0f, 0x3e,
  0xfe, 0x95, 0x81, 0xbe, 0x70, 0x7a, 0x1d, 0xbe, 0xe8, 0xe0, 0xc0, 0xbd,
  0xba, 0x73, 0xb0, 0xbd, 0x8b, 0x79, 0xae, 0xbd, 0xd7, 0x90, 0x49, 0xbd,
  0xa0, 0x7f, 0x3e, 0xbe, 0x61, 0x62, 0x35, 0x3e, 0x03, 0x1f, 0x81, 0x3d,
  0x97, 0x32, 0x5d, 0x3e, 0xb8, 0x7e, 0x21, 0x3d, 0x3f, 0xfd, 0xab, 0xbe,
  0xb4, 0x06, 0x97, 0x3e, 0x40, 0x10, 0xe5, 0x3d, 0xa7, 0x0a, 0xa1, 0xbe,
  0xe1, 0x4d, 0x51, 0xbe, 0x0f, 0x82, 0x17, 0x3e, 0x13, 0x89, 0x52, 0xbe,
  0x2a, 0x9a, 0x42, 0xbe, 0x3f, 0xef, 0xb6, 0x3c, 0x13, 0x3f, 0xb9, 0x3d,
  0x2b, 0x9e, 0x08, 0x3d, 0xd8, 0x6c, 0x85, 0x3e, 0x8b, 0x37, 0x59, 0xbe,
  0x2d, 0x93, 0xa9, 0xbe, 0xfe, 0xd8, 0x86, 0x3e, 0x0c, 0xfd, 0x92, 0x3e,
  0xe9, 0xe4, 0x60, 0xbd, 0x7a, 0x69, 0xa9, 0xbe, 0xb6, 0xec, 0x7c, 0xbd,
  0xd6, 0x2b, 0xa8, 0xbe, 0x39, 0xa7, 0x11, 0xbd, 0x03, 0x3c, 0xfe, 0xbd,
  0x67, 0x3e, 0x86, 0x3e, 0x3f, 0x83, 0x25, 0x3e, 0x9b, 0x3c, 0x43, 0xbd,
  0xbd, 0x79, 0xbb, 0xbe, 0x87, 0x44, 0xb3, 0xbe, 0x32, 0x1f, 0x6c, 0xbc,
  0xc7, 0xf5, 0x2f, 0xbe, 0x11, 0x7d, 0x05, 0x3e, 0xe8, 0xbd, 0xa6, 0xbe,
  0xf8, 0x5c, 0x50, 0xbe, 0xe2, 0x35, 0x72, 0xbe, 0xb6, 0xac, 0x4f, 0xbd,
  0xa2, 0x60, 0x94, 0x3e, 0x9d, 0xbc, 0x92, 0xbe, 0xaf, 0x0a, 0x6e, 0x3e,
  0x32, 0xa4, 0xe3, 0xbd, 0xd7, 0x05, 0xa3, 0xbe, 0x96, 0x4b, 0x3d, 0x3c,
  0xa8, 0xd4, 0x64, 0x3e, 0xb7, 0xbd, 0xa4, 0xbe, 0xa2, 0x71, 0xe7, 0x3c,
  0x8a, 0xd9, 0xad, 0xbe, 0x0a, 0x93, 0x5c, 0x3e, 0x30, 0x9d, 0x92, 0xbe,
  0x2f, 0xcd, 0x54, 0x3e, 0x67, 0xf8, 0xfd, 0x3b, 0x5a, 0x95, 0x79, 0x3d,
  0xf3, 0x9f, 0x5e, 0x3e, 0x61, 0xf7, 0x4b, 0x3e, 0x62, 0x15, 0x11, 0xbe,
  0x05, 0x04, 0xe1, 0x3d, 0x38, 0x0c, 0xa6, 0x3e, 0x4b, 0x7b, 0x3e, 0xbe,
  0x26, 0x64, 0x71, 0x3e, 0x89, 0x84, 0x53, 0x3e, 0x54, 0x44, 0x1f, 0x3d,
  0xe8, 0xcd, 0x85, 0x3d, 0xdb, 0xb2, 0x2d, 0x3d, 0x68, 0xeb, 0x2c, 0xbe,
  0x50, 0x6b, 0x9e, 0x3e, 0xd9, 0x39, 0x10, 0x3e, 0xc3, 0x23, 0x66, 0xbd,
  0x8e, 0xbd, 0x93, 0x3c, 0xb9, 0x72, 0x9a, 0xbd, 0x41, 0x20, 0x34, 0xbd,
  0xce, 0x32, 0x49, 0x3e, 0xd6, 0x42, 0x94, 0x3e, 0x11, 0x52, 0x86, 0x3d,
  0x20, 0x8a, 0x46, 0x3d, 0x95, 0xc7, 0xac, 0x3d, 0x26, 0x77, 0xe7, 0x3c,
  0x0b, 0xbf, 0xd4, 0x3d, 0x24, 0x40, 0x90, 0xbe, 0xcb, 0x77, 0x13, 0xbe,
  0x92, 0x7a, 0x32, 0x3e, 0x06, 0x9f, 0x24, 0xbe, 0x7d, 0x39, 0xb4, 0x3e,
  0x7b, 0xe4, 0x8c, 0x3e, 0x3a, 0x72, 0x70, 0x3e, 0xb4, 0x36, 0x93, 0x3e,
  0x6f, 0x50, 0x78, 0x3d, 0x40, 0x95, 0x98, 0x3e, 0x1c, 0xd6, 0x84, 0xbe,
  0x74, 0x1a, 0x8a, 0xbe, 0x1f, 0x81, 0xe1, 0x3d, 0x55, 0xe5, 0x8d, 0x3d,
  0x9d, 0x0e, 0x0f, 0x3e, 0xfe, 0x74, 0x5c, 0xbe, 0x7a, 0xf1, 0x43, 0xbe,
  0x1b, 0xe5, 0x52, 0xbe, 0xe7, 0x6a, 0x82, 0x3e, 0x28, 0x84, 0xfe, 0xbc,
  0x8a, 0xf1, 0x69, 0xbe, 0x07, 0x25, 0x8d, 0xbd, 0xa5, 0xab, 0x8e, 0xbe,
  0x2f, 0x60, 0x5e, 0xbe, 0x28, 0xbc, 0x7d, 0x3e, 0x06, 0x42, 0x11, 0x3e,
  0x10, 0x98, 0x98, 0x3c, 0x00, 0xcf, 0x93, 0xbe, 0x48, 0x57, 0x73, 0x3e,
  0x16, 0x9f, 0x0f, 0x3d, 0xd7, 0x86, 0x98, 0xbd, 0x7d, 0x79, 0x19, 0xbe,
  0x92, 0x85, 0xb0, 0xba, 0xeb, 0xf9, 0x3a, 0xbd, 0xdd, 0x57, 0x7c, 0xbe,
  0x6b, 0xc7, 0x75, 0x3c, 0xb8, 0x5e, 0x83, 0xbe, 0xb7, 0xa5, 0x69, 0xbe,
  0x08, 0x13, 0x61, 0x3d, 0x4a, 0x42, 0x38, 0xbe, 0x84, 0x2b, 0x98, 0x3e,
  0xb0, 0x15, 0x78, 0x3e, 0x24, 0x68, 0x17, 0x3e, 0xbe, 0xdb, 0x13, 0xbe,
  0xe1, 0x35, 0xb1, 0x3e, 0xe9, 0xf0, 0x96, 0x3e, 0xd5, 0x26, 0x21, 0xbe,
  0xdb, 0xb9, 0x16, 0xbe, 0xf1, 0x1b, 0xf8, 0xbc, 0x66, 0xe1, 0x90, 0x3e,
  0xe7, 0xc1, 0x90, 0x3d, 0xc8, 0x0a, 0xbb, 0x3e, 0x86, 0xc4, 0x82, 0xbe,
  0xbd, 0x69, 0x9f, 0x3e, 0xcf, 0xba, 0x38, 0xbe, 0xc7, 0xa9, 0x64, 0xbe,
  0xce, 0xaa, 0x1d, 0xbe, 0x91, 0x84, 0x07, 0xbe, 0xe8, 0x90, 0xdd, 0xbb,
  0x30, 0x44, 0xcc, 0x3d, 0xd0, 0x5a, 0x2b, 0xbe, 0x12, 0x4c, 0xf9, 0x3d,
  0x32, 0xde, 0x70, 0x3e, 0xb5, 0x88, 0xa3, 0x3e, 0xc9, 0xb9, 0x8b, 0x3e,
  0x46, 0xc5, 0x2c, 0x3e, 0x6d, 0x23, 0x7c, 0xbc, 0x8b, 0x9f, 0x8c, 0x3c,
  0x2a, 0xa5, 0x4c, 0x3c, 0x67, 0xe2, 0xe0, 0xbc, 0xed, 0x2a, 0xff, 0xbd,
  0x79, 0x9c, 0x5d, 0xbe, 0x94, 0xec, 0xad, 0x3d, 0xfc, 0x32, 0xe3, 0xbd,
  0xcd, 0xf1, 0x65, 0xbc, 0x33, 0x99, 0x9a, 0xbb, 0x85, 0xfb, 0xbc, 0xbd,
  0x5f, 0x30, 0xa1, 0xbd, 0x79, 0x1d, 0xa7, 0x3e, 0xb3, 0xda, 0x37, 0x3e,
  0x0b, 0x5f, 0xb9, 0x3e, 0x20, 0x59, 0x46, 0x3d, 0x15, 0x24, 0x67, 0xbe,
  0xa6, 0x9c, 0x27, 0xbe, 0xf1, 0xb3, 0x74, 0x3e, 0x6a, 0x93, 0x4a, 0x3e,
  0x20, 0x9e, 0x5f, 0x3d, 0x0e, 0x3a, 0x76, 0xbe, 0x8d, 0xf3, 0xb5, 0xbe,
  0xa4, 0x9d, 0xb5, 0xbd, 0xea, 0x2d, 0xe5, 0xbb, 0x2b, 0x0f, 0x5a, 0xbd,
  0x3c, 0x74, 0x56, 0xbe, 0x44, 0x09, 0x7f, 0xbe, 0x35, 0xa3, 0xa2, 0x3d,
  0x37, 0x8c, 0x98, 0x3e, 0x20, 0x00, 0x85, 0x3e, 0xf4, 0xe2, 0x61, 0x3d,
  0xda, 0x06, 0x5b, 0x3e, 0x41, 0x90, 0xed, 0x3d, 0xfc, 0xaf, 0x56, 0x3d,
  0x4e, 0x10, 0x02, 0x3e, 0xa9, 0xf8, 0xee, 0x3d, 0xe4, 0x5a, 0x76, 0xbe,
  0x75, 0x9c, 0xe9, 0x3c, 0x40, 0xc2, 0xbf, 0xbe, 0x0b, 0xb3, 0x2f, 0x3e,
  0x43, 0x71, 0x67, 0x3e, 0x5c, 0xfa, 0xff, 0xff, 0x60, 0xfa, 0xff, 0xff,
  0x04, 0x00, 0x06, 0x00, 0x04, 0x00, 0x00, 0x00, 0x00, 0x00, 0x06, 0x00,
  0x08, 0x00, 0x04, 0x00, 0x06, 0x00, 0x00, 0x00, 0x04, 0x00, 0x00, 0x00,
  0x1c, 0x02, 0x00, 0x00, 0x81, 0x9a, 0x1b, 0xbe, 0xfc, 0xb6, 0x5b, 0xbd,
  0x5e, 0xb9, 0x63, 0xbe, 0x18, 0xf0, 0xbe, 0xbe, 0x27, 0x6f, 0x00, 0xbe,
  0x93, 0x2e, 0xb6, 0x3e, 0xf2, 0x17, 0xc9, 0xbe, 0x20, 0x8b, 0x86, 0xbe,
  0x5e, 0xd9, 0xcc, 0x3e, 0x09, 0x70, 0xc8, 0x3e, 0x6c, 0x14, 0xe9, 0x3d,
  0xb5, 0x07, 0xe6, 0xbd, 0x5b, 0xb9, 0xe0, 0xbd, 0x0d, 0xad, 0x93, 0xbe,
  0x2c, 0x02, 0x95, 0xbe, 0xc2, 0x39, 0x87, 0xbd, 0x46, 0x9e, 0xa3, 0x3e,
  0xed, 0x27, 0x22, 0x3e, 0x57, 0x81, 0x71, 0xbe, 0xa4, 0xdc, 0x8e, 0x3e,
  0xd6, 0x3a, 0xd9, 0x3e, 0x10, 0x18, 0xdb, 0x3e, 0xaf, 0xe3, 0x6c, 0x3e,
  0x18, 0x1b, 0xae, 0xbb, 0x42, 0xba, 0xab, 0xbe, 0x63, 0xde, 0xe5, 0x3e,
  0x43, 0xea, 0x03, 0x3e, 0xbb, 0x37, 0x84, 0x3e, 0x22, 0x12, 0x84, 0x3e,
  0x55, 0x44, 0xd1, 0xbd, 0x18, 0x73, 0xcf, 0x3e, 0xcd, 0x07, 0x65, 0x3d,
  0xb8, 0xa4, 0xb5, 0x3e, 0x9e, 0x62, 0xbe, 0x3e, 0x8d, 0xea, 0x32, 0xbd,
  0xe1, 0x16, 0xbb, 0xbc, 0xc9, 0xd5, 0x12, 0x3e, 0xb1, 0x95, 0xc2, 0xbd,
  0x8d, 0x30, 0x1f, 0x3e, 0x87, 0x6e, 0xcd, 0xbd, 0x20, 0x69, 0x2d, 0xbd,
  0x8c, 0x00, 0xc1, 0xbe, 0x6f, 0x03, 0xeb, 0xbd, 0xf9, 0xfa, 0x52, 0x3e,
  0x55, 0x1b, 0xa0, 0xbe, 0x07, 0xfd, 0x80, 0x3e, 0x6e, 0xff, 0x8a, 0xbe,
  0xcf, 0x04, 0x26, 0xbe, 0x92, 0x62, 0x74, 0xbe, 0x5b, 0x89, 0x58, 0xbd,
  0x7f, 0x01, 0xac, 0xbe, 0x48, 0x0c, 0x16, 0xbd, 0x7e, 0xe6, 0xb1, 0x3e,
  0x9c, 0xe7, 0xc8, 0x3e, 0x86, 0x40, 0x87, 0x3e, 0xe6, 0x29, 0xb4, 0xbe,
  0x7e, 0x7e, 0xc9, 0x3e, 0x7a, 0x0e, 0x70, 0xbe, 0xf6, 0xf4, 0x93, 0xbe,
  0x36, 0xcb, 0x87, 0x3c, 0x9f, 0xb3, 0xdc, 0xbd, 0x84, 0x2a, 0xd6, 0xbd,
  0x26, 0xcf, 0xcc, 0x3e, 0x86, 0x2c, 0xb7, 0xbe, 0xae, 0x73, 0x73, 0xbe,
  0xc9, 0xc8, 0xe7, 0xbd, 0x17, 0x7b, 0x06, 0x3e, 0x45, 0xd6, 0xa9, 0xbe,
  0xd1, 0x48, 0xbb, 0xbe, 0xf4, 0xb4, 0xdc, 0x3e, 0x56, 0x52, 0x14, 0xbe,
  0x52, 0xc1, 0xa6, 0xbe, 0x79, 0x84, 0x07, 0x3e, 0xb0, 0xf7, 0x80, 0xbe,
  0x52, 0x75, 0x8a, 0x3c, 0xe9, 0x44, 0xb7, 0xbe, 0xfb, 0x80, 0xc0, 0x3e,
  0x2a, 0x0e, 0xb0, 0x3e, 0x94, 0x3c, 0x8c, 0x3e, 0xd6, 0xd3, 0xc9, 0x3e,
  0x1d, 0xdb, 0x72, 0x3c, 0x20, 0xd4, 0x96, 0xbe, 0x74, 0x72, 0xb1, 0x3e,
  0x9a, 0xf8, 0x64, 0x3e, 0x53, 0x81, 0xdd, 0xbd, 0x96, 0xf0, 0x93, 0xbe,
  0xcb, 0x66, 0x73, 0x3c, 0xa5, 0xac, 0xa4, 0xbe, 0x24, 0x2f, 0x32, 0x3e,
  0xba, 0x66, 0x2b, 0xbb, 0xe6, 0xa4, 0xa9, 0x3d, 0x6c, 0xf1, 0x70, 0x3e,
  0xed, 0xe8, 0xa3, 0x3e, 0x2b, 0xe9, 0xbb, 0xbe, 0x96, 0x96, 0x10, 0x3e,
  0x0f, 0xb3, 0xd5, 0x3e, 0x03, 0xb6, 0xd8, 0xbd, 0x50, 0xde, 0x8d, 0x3e,
  0xf9, 0x23, 0xb8, 0x3e, 0x2f, 0xbe, 0x38, 0x3e, 0x0d, 0xfb, 0x45, 0x3d,
  0x15, 0x7e, 0x93, 0xbe, 0x42, 0xa7, 0xc6, 0xbe, 0xc8, 0xf6, 0x09, 0xbe,
  0x3b, 0xfa, 0x33, 0x3e, 0x1d, 0xd7, 0x74, 0x3e, 0x34, 0x1b, 0x21, 0x3e,
  0x83, 0x05, 0x8e, 0xbe, 0xee, 0xa5, 0x02, 0x3e, 0x6d, 0x85, 0x68, 0x3e,
  0x11, 0xa2, 0xb3, 0x3d, 0xd8, 0x62, 0x88, 0x3d, 0x5f, 0xca, 0xaf, 0xbd,
  0x73, 0x12, 0x25, 0x3e, 0x40, 0xbb, 0x5b, 0xbe, 0xc9, 0x33, 0xab, 0x3e,
  0xd7, 0x0d, 0x00, 0xbb, 0xe7, 0x8d, 0xa2, 0x3e, 0x64, 0x91, 0x89, 0x3e,
  0xc2, 0xef, 0x76, 0xbe, 0xb1, 0x1f, 0x71, 0xbe, 0x2e, 0xd8, 0x06, 0x3e,
  0x7c, 0x7e, 0xda, 0x3b, 0x71, 0x11, 0xa7, 0xbc, 0xc7, 0xd2, 0x88, 0x3e,
  0xc5, 0x2d, 0x5a, 0x3e, 0x81, 0x79, 0x53, 0xbe, 0xbe, 0x4a, 0xd2, 0x3d,
  0x72, 0x5a, 0x9e, 0x3d, 0x65, 0x2e, 0xcd, 0xbd, 0x1d, 0x24, 0xee, 0xbd,
  0x90, 0x56, 0xb3, 0x3e, 0xa2, 0xc5, 0x68, 0x3c, 0x70, 0xc5, 0x00, 0xbe,
  0x7c, 0xfe, 0x99, 0xbe, 0x9c, 0xfc, 0xff, 0xff, 0xa0, 0xfc, 0xff, 0xff,
  0x0f, 0x00, 0x00, 0x00, 0x54, 0x4f, 0x43, 0x4f, 0x20, 0x43, 0x6f, 0x6e,
  0x76, 0x65, 0x72, 0x74, 0x65, 0x64, 0x2e, 0x00, 0x01, 0x00, 0x00, 0x00,
  0x10, 0x00, 0x00, 0x00, 0x0c, 0x00, 0x14, 0x00, 0x04, 0x00, 0x08, 0x00,
  0x0c, 0x00, 0x10, 0x00, 0x0c, 0x00, 0x00, 0x00, 0xcc, 0x00, 0x00, 0x00,
  0xc0, 0x00, 0x00, 0x00, 0xb4, 0x00, 0x00, 0x00, 0x04, 0x00, 0x00, 0x00,
  0x03, 0x00, 0x00, 0x00, 0x78, 0x00, 0x00, 0x00, 0x44, 0x00, 0x00, 0x00,
  0x04, 0x00, 0x00, 0x00, 0xa2, 0xff, 0xff, 0xff, 0x00, 0x00, 0x00, 0x08,
  0x18, 0x00, 0x00, 0x00, 0x0c, 0x00, 0x00, 0x00, 0x04, 0x00, 0x00, 0x00,
  0x04, 0xfd, 0xff, 0xff, 0x01, 0x00, 0x00, 0x00, 0x00, 0x00, 0x00, 0x00,
  0x03, 0x00, 0x00, 0x00, 0x05, 0x00, 0x00, 0x00, 0x06, 0x00, 0x00, 0x00,
  0x07, 0x00, 0x00, 0x00, 0x00, 0x00, 0x0a, 0x00, 0x10, 0x00, 0x04, 0x00,
  0x08, 0x00, 0x0c, 0x00, 0x0a, 0x00, 0x00, 0x00, 0x01, 0x00, 0x00, 0x00,
  0x10, 0x00, 0x00, 0x00, 0x04, 0x00, 0x00, 0x00, 0x01, 0x00, 0x00, 0x00,
  0x05, 0x00, 0x00, 0x00, 0x01, 0x00, 0x00, 0x00, 0x02, 0x00, 0x00, 0x00,
  0x00, 0x00, 0x0e, 0x00, 0x14, 0x00, 0x00, 0x00, 0x08, 0x00, 0x0c, 0x00,
  0x07, 0x00, 0x10, 0x00, 0x0e, 0x00, 0x00, 0x00, 0x00, 0x00, 0x00, 0x08,
  0x18, 0x00, 0x00, 0x00, 0x0c, 0x00, 0x00, 0x00, 0x04, 0x00, 0x00, 0x00,
  0x70, 0xfd, 0xff, 0xff, 0x01, 0x00, 0x00, 0x00, 0x02, 0x00, 0x00, 0x00,
  0x03, 0x00, 0x00, 0x00, 0x01, 0x00, 0x00, 0x00, 0x03, 0x00, 0x00, 0x00,
  0x04, 0x00, 0x00, 0x00, 0x01, 0x00, 0x00, 0x00, 0x00, 0x00, 0x00, 0x00,
  0x01, 0x00, 0x00, 0x00, 0x01, 0x00, 0x00, 0x00, 0x08, 0x00, 0x00, 0x00,
  0x4c, 0x02, 0x00, 0x00, 0xe4, 0x01, 0x00, 0x00, 0x9c, 0x01, 0x00, 0x00,
  0x3c, 0x01, 0x00, 0x00, 0xf4, 0x00, 0x00, 0x00, 0xac, 0x00, 0x00, 0x00,
  0x4c, 0x00, 0x00, 0x00, 0x04, 0x00, 0x00, 0x00, 0xe2, 0xfd, 0xff, 0xff,
  0x38, 0x00, 0x00, 0x00, 0x08, 0x00, 0x00, 0x00, 0x0c, 0x00, 0x00, 0x00,
  0x04, 0x00, 0x00, 0x00, 0xd4, 0xfd, 0xff, 0xff, 0x1e, 0x00, 0x00, 0x00,
  0x73, 0x65, 0x71, 0x75, 0x65, 0x6e, 0x74, 0x69, 0x61, 0x6c, 0x2f, 0x64,
  0x65, 0x6e, 0x73, 0x65, 0x5f, 0x31, 0x2f, 0x4d, 0x61, 0x74, 0x4d, 0x75,
  0x6c, 0x5f, 0x62, 0x69, 0x61, 0x73, 0x00, 0x00, 0x01, 0x00, 0x00, 0x00,
  0x05, 0x00, 0x00, 0x00, 0x26, 0xfe, 0xff, 0xff, 0x4c, 0x00, 0x00, 0x00,
  0x02, 0x00, 0x00, 0x00, 0x0c, 0x00, 0x00, 0x00, 0x04, 0x00, 0x00, 0x00,
  0x18, 0xfe, 0xff, 0xff, 0x32, 0x00, 0x00, 0x00, 0x73, 0x65, 0x71, 0x75,
  0x65, 0x6e, 0x74, 0x69, 0x61, 0x6c, 0x2f, 0x64, 0x65, 0x6e, 0x73, 0x65,
  0x5f, 0x31, 0x2f, 0x4d, 0x61, 0x74, 0x4d, 0x75, 0x6c, 0x2f, 0x52, 0x65,
  0x61, 0x64, 0x56, 0x61, 0x72, 0x69, 0x61, 0x62, 0x6c, 0x65, 0x4f, 0x70,
  0x2f, 0x74, 0x72, 0x61, 0x6e, 0x73, 0x70, 0x6f, 0x73, 0x65, 0x00, 0x00,
  0x02, 0x00, 0x00, 0x00, 0x05, 0x00, 0x00, 0x00, 0x1b, 0x00, 0x00, 0x00,
  0x82, 0xfe, 0xff, 0xff, 0x34, 0x00, 0x00, 0x00, 0x03, 0x00, 0x00, 0x00,
  0x0c, 0x00, 0x00, 0x00, 0x04, 0x00, 0x00, 0x00, 0x74, 0xfe, 0xff, 0xff,
  0x18, 0x00, 0x00, 0x00, 0x73, 0x65, 0x71, 0x75, 0x65, 0x6e, 0x74, 0x69,
  0x61, 0x6c, 0x2f, 0x64, 0x65, 0x6e, 0x73, 0x65, 0x2f, 0x53, 0x69, 0x67,
  0x6d, 0x6f, 0x69, 0x64, 0x00, 0x00, 0x00, 0x00, 0x02, 0x00, 0x00, 0x00,
  0x01, 0x00, 0x00, 0x00, 0x1b, 0x00, 0x00, 0x00, 0xc6, 0xfe, 0xff, 0xff,
  0x38, 0x00, 0x00, 0x00, 0x07, 0x00, 0x00, 0x00, 0x0c, 0x00, 0x00, 0x00,
  0x04, 0x00, 0x00, 0x00, 0xb8, 0xfe, 0xff, 0xff, 0x1c, 0x00, 0x00, 0x00,
  0x73, 0x65, 0x71, 0x75, 0x65, 0x6e, 0x74, 0x69, 0x61, 0x6c, 0x2f, 0x64,
  0x65, 0x6e, 0x73, 0x65, 0x2f, 0x4d, 0x61, 0x74, 0x4d, 0x75, 0x6c, 0x5f,
  0x62, 0x69, 0x61, 0x73, 0x00, 0x00, 0x00, 0x00, 0x01, 0x00, 0x00, 0x00,
  0x1b, 0x00, 0x00, 0x00, 0x0a, 0xff, 0xff, 0xff, 0x4c, 0x00, 0x00, 0x00,
  0x06, 0x00, 0x00, 0x00, 0x0c, 0x00, 0x00, 0x00, 0x04, 0x00, 0x00, 0x00,
  0xfc, 0xfe, 0xff, 0xff, 0x30, 0x00, 0x00, 0x00, 0x73, 0x65, 0x71, 0x75,
  0x65, 0x6e, 0x74, 0x69, 0x61, 0x6c, 0x2f, 0x64, 0x65, 0x6e, 0x73, 0x65,
  0x2f, 0x4d, 0x61, 0x74, 0x4d, 0x75, 0x6c, 0x2f, 0x52, 0x65, 0x61, 0x64,
  0x56, 0x61, 0x72, 0x69, 0x61, 0x62, 0x6c, 0x65, 0x4f, 0x70, 0x2f, 0x74,
  0x72, 0x61, 0x6e, 0x73, 0x70, 0x6f, 0x73, 0x65, 0x00, 0x00, 0x00, 0x00,
  0x02, 0x00, 0x00, 0x00, 0x1b, 0x00, 0x00, 0x00, 0x1b, 0x00, 0x00, 0x00,
  0x66, 0xff, 0xff, 0xff, 0x34, 0x00, 0x00, 0x00, 0x04, 0x00, 0x00, 0x00,
  0x0c, 0x00, 0x00, 0x00, 0x04, 0x00, 0x00, 0x00, 0x58, 0xff, 0xff, 0xff,
  0x18, 0x00, 0x00, 0x00, 0x73, 0x65, 0x71, 0x75, 0x65, 0x6e, 0x74, 0x69,
  0x61, 0x6c, 0x2f, 0x64, 0x65, 0x6e, 0x73, 0x65, 0x2f, 0x42, 0x69, 0x61,
  0x73, 0x41, 0x64, 0x64, 0x00, 0x00, 0x00, 0x00, 0x02, 0x00, 0x00, 0x00,
  0x01, 0x00, 0x00, 0x00, 0x1b, 0x00, 0x00, 0x00, 0xaa, 0xff, 0xff, 0xff,
  0x44, 0x00, 0x00, 0x00, 0x01, 0x00, 0x00, 0x00, 0x2c, 0x00, 0x00, 0x00,
  0x0c, 0x00, 0x00, 0x00, 0x08, 0x00, 0x0c, 0x00, 0x04, 0x00, 0x08, 0x00,
  0x08, 0x00, 0x00, 0x00, 0x10, 0x00, 0x00, 0x00, 0x04, 0x00, 0x00, 0x00,
  0x01, 0x00, 0x00, 0x00, 0x00, 0x00, 0x7f, 0x43, 0x01, 0x00, 0x00, 0x00,
  0x00, 0x00, 0x00, 0x00, 0x0b, 0x00, 0x00, 0x00, 0x64, 0x65, 0x6e, 0x73,
  0x65, 0x5f, 0x69, 0x6e, 0x70, 0x75, 0x74, 0x00, 0x02, 0x00, 0x00, 0x00,
  0x01, 0x00, 0x00, 0x00, 0x1b, 0x00, 0x00, 0x00, 0x00, 0x00, 0x0e, 0x00,
  0x14, 0x00, 0x04, 0x00, 0x00, 0x00, 0x08, 0x00, 0x0c, 0x00, 0x10, 0x00,
  0x0e, 0x00, 0x00, 0x00, 0x28, 0x00, 0x00, 0x00, 0x05, 0x00, 0x00, 0x00,
  0x10, 0x00, 0x00, 0x00, 0x08, 0x00, 0x00, 0x00, 0x04, 0x00, 0x04, 0x00,
  0x04, 0x00, 0x00, 0x00, 0x08, 0x00, 0x00, 0x00, 0x49, 0x64, 0x65, 0x6e,
  0x74, 0x69, 0x74, 0x79, 0x00, 0x00, 0x00, 0x00, 0x02, 0x00, 0x00, 0x00,
  0x01, 0x00, 0x00, 0x00, 0x05, 0x00, 0x00, 0x00, 0x02, 0x00, 0x00, 0x00,
  0x20, 0x00, 0x00, 0x00, 0x0c, 0x00, 0x00, 0x00, 0x00, 0x00, 0x06, 0x00,
  0x06, 0x00, 0x05, 0x00, 0x06, 0x00, 0x00, 0x00, 0x00, 0x0e, 0x0a, 0x00,
  0x0c, 0x00, 0x07, 0x00, 0x00, 0x00, 0x08, 0x00, 0x0a, 0x00, 0x00, 0x00,
  0x00, 0x00, 0x00, 0x09, 0x03, 0x00, 0x00, 0x00
};

