#define TENSORFLOW_LITE_EXPERIMENTAL_MICRO_EXAMPLES_HELLO_WORLD_SINE_MODEL_DATA_H_
#ifdef __has_attribute
#define HAVE_ATTRIBUTE(x) __has_attribute(x)
#else
#define HAVE_ATTRIBUTE(x) 0
#endif
#if HAVE_ATTRIBUTE(aligned) || (defined(__GNUC__) && !defined(__clang__))
#define DATA_ALIGN_ATTRIBUTE __attribute__((aligned(4)))
#else
#define DATA_ALIGN_ATTRIBUTE
#endif
const int g_second_model_data_len = 5184;
const unsigned char g_second_model_data[] DATA_ALIGN_ATTRIBUTE = {
 0x1c, 0x00, 0x00, 0x00, 0x54, 0x46, 0x4c, 0x33, 0x14, 0x00, 0x20, 0x00,
  0x1c, 0x00, 0x18, 0x00, 0x14, 0x00, 0x10, 0x00, 0x0c, 0x00, 0x00, 0x00,
  0x08, 0x00, 0x04, 0x00, 0x14, 0x00, 0x00, 0x00, 0x1c, 0x00, 0x00, 0x00,
  0x84, 0x00, 0x00, 0x00, 0xdc, 0x00, 0x00, 0x00, 0xd4, 0x0f, 0x00, 0x00,
  0xe4, 0x0f, 0x00, 0x00, 0xdc, 0x13, 0x00, 0x00, 0x03, 0x00, 0x00, 0x00,
  0x01, 0x00, 0x00, 0x00, 0x04, 0x00, 0x00, 0x00, 0xb2, 0xef, 0xff, 0xff,
  0x0c, 0x00, 0x00, 0x00, 0x1c, 0x00, 0x00, 0x00, 0x38, 0x00, 0x00, 0x00,
  0x0f, 0x00, 0x00, 0x00, 0x73, 0x65, 0x72, 0x76, 0x69, 0x6e, 0x67, 0x5f,
  0x64, 0x65, 0x66, 0x61, 0x75, 0x6c, 0x74, 0x00, 0x01, 0x00, 0x00, 0x00,
  0x04, 0x00, 0x00, 0x00, 0x98, 0xff, 0xff, 0xff, 0x07, 0x00, 0x00, 0x00,
  0x04, 0x00, 0x00, 0x00, 0x07, 0x00, 0x00, 0x00, 0x64, 0x65, 0x6e, 0x73,
  0x65, 0x5f, 0x31, 0x00, 0x01, 0x00, 0x00, 0x00, 0x04, 0x00, 0x00, 0x00,
  0xbe, 0xf0, 0xff, 0xff, 0x04, 0x00, 0x00, 0x00, 0x0b, 0x00, 0x00, 0x00,
  0x64, 0x65, 0x6e, 0x73, 0x65, 0x5f, 0x69, 0x6e, 0x70, 0x75, 0x74, 0x00,
  0x02, 0x00, 0x00, 0x00, 0x34, 0x00, 0x00, 0x00, 0x04, 0x00, 0x00, 0x00,
  0xdc, 0xff, 0xff, 0xff, 0x0a, 0x00, 0x00, 0x00, 0x04, 0x00, 0x00, 0x00,
  0x13, 0x00, 0x00, 0x00, 0x43, 0x4f, 0x4e, 0x56, 0x45, 0x52, 0x53, 0x49,
  0x4f, 0x4e, 0x5f, 0x4d, 0x45, 0x54, 0x41, 0x44, 0x41, 0x54, 0x41, 0x00,
  0x08, 0x00, 0x0c, 0x00, 0x08, 0x00, 0x04, 0x00, 0x08, 0x00, 0x00, 0x00,
  0x09, 0x00, 0x00, 0x00, 0x04, 0x00, 0x00, 0x00, 0x13, 0x00, 0x00, 0x00,
  0x6d, 0x69, 0x6e, 0x5f, 0x72, 0x75, 0x6e, 0x74, 0x69, 0x6d, 0x65, 0x5f,
  0x76, 0x65, 0x72, 0x73, 0x69, 0x6f, 0x6e, 0x00, 0x0b, 0x00, 0x00, 0x00,
  0xf4, 0x0e, 0x00, 0x00, 0xec, 0x0e, 0x00, 0x00, 0xc8, 0x0e, 0x00, 0x00,
  0x44, 0x0e, 0x00, 0x00, 0xd0, 0x02, 0x00, 0x00, 0xa4, 0x00, 0x00, 0x00,
  0x9c, 0x00, 0x00, 0x00, 0x94, 0x00, 0x00, 0x00, 0x8c, 0x00, 0x00, 0x00,
  0x6c, 0x00, 0x00, 0x00, 0x04, 0x00, 0x00, 0x00, 0x62, 0xf1, 0xff, 0xff,
  0x04, 0x00, 0x00, 0x00, 0x58, 0x00, 0x00, 0x00, 0x0c, 0x00, 0x00, 0x00,
  0x08, 0x00, 0x0e, 0x00, 0x08, 0x00, 0x04, 0x00, 0x08, 0x00, 0x00, 0x00,
  0x10, 0x00, 0x00, 0x00, 0x28, 0x00, 0x00, 0x00, 0x00, 0x00, 0x06, 0x00,
  0x08, 0x00, 0x04, 0x00, 0x06, 0x00, 0x00, 0x00, 0x04, 0x00, 0x00, 0x00,
  0x01, 0x00, 0x00, 0x00, 0xea, 0x03, 0x00, 0x00, 0x00, 0x00, 0x0a, 0x00,
  0x10, 0x00, 0x0c, 0x00, 0x08, 0x00, 0x04, 0x00, 0x0a, 0x00, 0x00, 0x00,
  0x02, 0x00, 0x00, 0x00, 0x02, 0x00, 0x00, 0x00, 0x04, 0x00, 0x00, 0x00,
  0x06, 0x00, 0x00, 0x00, 0x32, 0x2e, 0x31, 0x30, 0x2e, 0x30, 0x00, 0x00,
  0xc6, 0xf1, 0xff, 0xff, 0x04, 0x00, 0x00, 0x00, 0x10, 0x00, 0x00, 0x00,
  0x31, 0x2e, 0x31, 0x34, 0x2e, 0x30, 0x00, 0x00, 0x00, 0x00, 0x00, 0x00,
  0x00, 0x00, 0x00, 0x00, 0xdc, 0xed, 0xff, 0xff, 0xe0, 0xed, 0xff, 0xff,
  0xe4, 0xed, 0xff, 0xff, 0xee, 0xf1, 0xff, 0xff, 0x04, 0x00, 0x00, 0x00,
  0x1c, 0x02, 0x00, 0x00, 0x4e, 0x5c, 0xed, 0x3d, 0x96, 0x09, 0x2c, 0x3e,
  0x00, 0xa3, 0x2c, 0xbc, 0x0d, 0x19, 0xed, 0x3d, 0x6f, 0xe1, 0xd6, 0x3e,
  0xfa, 0x6f, 0x8e, 0xbd, 0x24, 0x8f, 0x49, 0xbd, 0xe6, 0x8f, 0xbe, 0xbd,
  0x00, 0xe0, 0x94, 0xbe, 0x3d, 0x6a, 0x73, 0xbe, 0x0b, 0x91, 0x5f, 0x3b,
  0x5d, 0x63, 0x37, 0x3e, 0x6f, 0xab, 0xb4, 0xbd, 0x1e, 0x86, 0xef, 0xbd,
  0xd0, 0x63, 0x8e, 0xbe, 0x13, 0xa7, 0xe9, 0x3e, 0x28, 0x83, 0x3d, 0x3e,
  0x37, 0x7f, 0x83, 0xbe, 0x26, 0xc1, 0x83, 0x3e, 0xa4, 0x35, 0x0a, 0xbe,
  0x08, 0x84, 0xb6, 0xbe, 0x51, 0x48, 0xe5, 0x3d, 0xfa, 0x57, 0xb5, 0x3e,
  0xc8, 0x10, 0xa1, 0xbc, 0xcc, 0xac, 0x71, 0x3e, 0xb0, 0xf5, 0x28, 0xbe,
  0xce, 0x77, 0xc4, 0x3e, 0xf9, 0xb7, 0x57, 0xbe, 0x29, 0x47, 0xb6, 0x3e,
  0xe4, 0xc4, 0xc5, 0xbd, 0xdf, 0x30, 0x8e, 0x3d, 0xac, 0x14, 0xd1, 0xbe,
  0x53, 0x92, 0x6e, 0x3e, 0x8e, 0x0b, 0x21, 0x3d, 0x87, 0x24, 0xce, 0xbe,
  0xbd, 0x9f, 0x8f, 0x3d, 0x1e, 0xc4, 0x44, 0xbe, 0xcf, 0x72, 0xab, 0xbd,
  0xdb, 0xbb, 0x6b, 0xbe, 0x21, 0xac, 0xf8, 0x3d, 0x47, 0x5a, 0xc3, 0xbe,
  0x6d, 0x6b, 0xc8, 0x3e, 0x07, 0xf1, 0xa3, 0x3e, 0x98, 0x52, 0x94, 0x3e,
  0x66, 0x14, 0x5a, 0xbe, 0x49, 0xf9, 0xd1, 0x3c, 0x57, 0x91, 0xb3, 0xbd,
  0xcb, 0x6f, 0xc3, 0x3e, 0x08, 0x8f, 0xe3, 0x3e, 0x76, 0x06, 0x34, 0xbe,
  0xc7, 0x1a, 0xd9, 0x3e, 0xe0, 0x7a, 0x90, 0xbe, 0x3f, 0x57, 0x3f, 0xbd,
  0xb1, 0xe2, 0xe0, 0x3e, 0xaf, 0x73, 0x5e, 0xbe, 0x7c, 0x98, 0x8d, 0xbd,
  0x7b, 0x59, 0xb7, 0xbe, 0xd6, 0x5c, 0xa1, 0x3e, 0x70, 0x56, 0x49, 0x3e,
  0x34, 0x49, 0xcc, 0x3e, 0xdf, 0x24, 0x30, 0x3e, 0xc9, 0x18, 0x95, 0xbe,
  0x77, 0xf9, 0xaf, 0x3e, 0xcc, 0x8b, 0x63, 0xbd, 0x8e, 0x95, 0x92, 0x3e,
  0x64, 0x8a, 0x5d, 0xbe, 0x40, 0x7c, 0x61, 0x3e, 0x3d, 0x06, 0xcd, 0x3e,
  0x0f, 0x55, 0xa2, 0xbd, 0xdf, 0x52, 0x6a, 0x3a, 0x6f, 0x54, 0x05, 0xbe,
  0x04, 0x8e, 0xd8, 0x3d, 0xdb, 0x2e, 0xc5, 0xbe, 0xf7, 0x2d, 0x8f, 0xbe,
  0x08, 0xda, 0x2b, 0x3e, 0x70, 0xd0, 0xa4, 0xbe, 0x6b, 0xcb, 0xec, 0xbc,
  0x18, 0x19, 0x8d, 0xbd, 0x8d, 0x27, 0x9d, 0xbe, 0x4d, 0x8c, 0x12, 0xbe,
  0xdc, 0x8f, 0x85, 0x3e, 0x79, 0x72, 0x64, 0x3d, 0x35, 0xd4, 0xb0, 0xbe,
  0x5c, 0x33, 0xb2, 0x3d, 0x8c, 0x58, 0x27, 0xbe, 0x3e, 0xc5, 0x9c, 0xbe,
  0x83, 0xdf, 0x76, 0x3e, 0x43, 0xbd, 0x95, 0x3e, 0xb7, 0xa6, 0x31, 0x3e,
  0x84, 0xd3, 0x57, 0x3e, 0xcb, 0x30, 0x85, 0xbe, 0xcf, 0x53, 0xdb, 0x3d,
  0x35, 0xbc, 0xcc, 0xbe, 0x59, 0x29, 0xa1, 0x3e, 0x05, 0x10, 0x0d, 0xbe,
  0xd5, 0x28, 0x17, 0xbe, 0xab, 0xd5, 0x1f, 0x3e, 0x68, 0x19, 0xbb, 0xbe,
  0x6f, 0xf5, 0xcd, 0x3e, 0xa7, 0xf2, 0xa2, 0xbe, 0xa9, 0x8f, 0xbe, 0x3e,
  0x44, 0x9a, 0xb1, 0x3e, 0x12, 0xbf, 0x91, 0x3e, 0xf4, 0x62, 0xd1, 0xbe,
  0xa2, 0xb2, 0x1e, 0x3e, 0xa0, 0x5a, 0x92, 0xbc, 0x56, 0x9a, 0xa5, 0x3e,
  0x44, 0x1c, 0x3f, 0x3d, 0xb2, 0x6f, 0xa5, 0xbe, 0x8c, 0x1f, 0x6f, 0xbe,
  0x91, 0x7b, 0x29, 0x3e, 0x3f, 0x28, 0xdb, 0x3e, 0x39, 0xd8, 0xa2, 0x3e,
  0xbd, 0xac, 0x7c, 0xbe, 0x88, 0x22, 0x66, 0xbe, 0x38, 0x35, 0xf9, 0x3d,
  0xd0, 0xe2, 0x72, 0x3e, 0xd4, 0xaf, 0xb6, 0xbe, 0x48, 0x8f, 0x95, 0x3e,
  0xfb, 0x2a, 0x9e, 0xbe, 0xe2, 0x5f, 0x93, 0x3e, 0x2c, 0x55, 0xae, 0xbe,
  0x0a, 0x71, 0x2f, 0xbd, 0x53, 0xc2, 0x5c, 0xbd, 0x29, 0x28, 0x6b, 0x3d,
  0xde, 0x04, 0x45, 0xbd, 0xab, 0x83, 0x9b, 0xbe, 0xdb, 0xa7, 0x7c, 0xbe,
  0x0e, 0x1d, 0x22, 0x3e, 0xfb, 0x5d, 0xb0, 0x3e, 0xcc, 0xb4, 0xaa, 0x3e,
  0x4f, 0xae, 0xc9, 0xbd, 0x28, 0x1a, 0xb0, 0xbe, 0x4c, 0x63, 0x64, 0x3e,
  0x49, 0xfd, 0x41, 0xbc, 0x16, 0xf4, 0xff, 0xff, 0x04, 0x00, 0x00, 0x00,
  0x64, 0x0b, 0x00, 0x00, 0xa1, 0x5f, 0x6d, 0xbd, 0x4d, 0x90, 0xd3, 0x3d,
  0x38, 0xed, 0x02, 0xbe, 0x2c, 0x71, 0x81, 0x3e, 0x01, 0x8d, 0x18, 0x3e,
  0x56, 0x58, 0x00, 0x3e, 0x10, 0x0b, 0x61, 0xbe, 0x3c, 0xb7, 0x25, 0x3e,
  0x53, 0x1a, 0x4c, 0x3e, 0x87, 0xa7, 0xe4, 0xbd, 0x3b, 0x30, 0x24, 0x3e,
  0xd5, 0x71, 0x3b, 0xbe, 0xfe, 0x13, 0xaf, 0xbe, 0x18, 0x0b, 0x34, 0xbd,
  0x10, 0x30, 0x54, 0xbe, 0x37, 0xb2, 0x3e, 0xbe, 0xaa, 0x28, 0x04, 0xbd,
  0xb9, 0xe5, 0x8c, 0xbe, 0x75, 0xbc, 0xfc, 0xbd, 0xdc, 0x54, 0x9d, 0xbc,
  0xe3, 0x1d, 0x3d, 0xbe, 0xf7, 0x79, 0x13, 0x3e, 0xa3, 0x3d, 0x98, 0x3e,
  0xb2, 0x53, 0x92, 0x3e, 0xde, 0x60, 0x16, 0x3e, 0xe8, 0xec, 0x73, 0xbd,
  0x9a, 0xf9, 0xf3, 0xbc, 0x3a, 0x02, 0x59, 0x3e, 0xdd, 0xa0, 0x0a, 0x3d,
  0x48, 0x9a, 0xbd, 0xbd, 0x11, 0x94, 0xa8, 0xbe, 0x7f, 0x0e, 0xdf, 0x3d,
  0xe6, 0x61, 0x1e, 0xbe, 0xe5, 0xc2, 0x06, 0xbe, 0x33, 0x3e, 0x1f, 0xbd,
  0x25, 0xa4, 0xde, 0x3c, 0x60, 0xe8, 0xe8, 0x3d, 0x74, 0xc5, 0x1e, 0x3e,
  0x31, 0x27, 0x2f, 0xbe, 0xd5, 0x00, 0x28, 0xbe, 0x6f, 0xae, 0x36, 0x3e,
  0x98, 0xe6, 0x5a, 0xbe, 0xaf, 0x1c, 0xa9, 0xbe, 0x25, 0x03, 0x9e, 0x3e,
  0x49, 0x54, 0x85, 0x3e, 0x39, 0x8f, 0x15, 0xbe, 0x62, 0x1c, 0x3e, 0x3c,
  0xe7, 0x2f, 0xe9, 0xbd, 0xc1, 0x30, 0xa1, 0xbe, 0x5c, 0x41, 0xbe, 0xbe,
  0xb6, 0x1f, 0x04, 0x3e, 0x5e, 0x4d, 0x8d, 0xbe, 0x68, 0x1e, 0x91, 0xbd,
  0xc7, 0xa2, 0x63, 0xbe, 0x6d, 0x2a, 0x81, 0x3d, 0x9f, 0xf6, 0xcb, 0xbd,
  0x3c, 0x28, 0x5b, 0xbe, 0x3f, 0x4c, 0x21, 0x3e, 0xa4, 0x80, 0x33, 0x3e,
  0xa8, 0xd6, 0xcc, 0xbd, 0x36, 0xc1, 0x32, 0xbd, 0x59, 0x09, 0x8d, 0x3d,
  0x02, 0x08, 0x8a, 0x3e, 0x33, 0x79, 0x5b, 0x3e, 0xa9, 0x6d, 0x9e, 0xbd,
  0x2a, 0xa4, 0x25, 0x3d, 0xff, 0x60, 0x9e, 0xbe, 0x10, 0x91, 0x3a, 0xbd,
  0x4a, 0xe5, 0x14, 0xbd, 0x0c, 0x3c, 0x54, 0xbe, 0xa1, 0x42, 0x05, 0x3d,
  0x22, 0x27, 0x0b, 0xbe, 0xcd, 0x74, 0xa7, 0x3e, 0x47, 0x60, 0xce, 0x3b,
  0x7d, 0x00, 0xf5, 0xbc, 0x36, 0x41, 0x35, 0x3e, 0x79, 0x5d, 0xc5, 0x3c,
  0xbd, 0x9c, 0x90, 0x3e, 0xa0, 0x08, 0xc9, 0xbd, 0x57, 0x8c, 0x42, 0xbe,
  0xb4, 0x60, 0x8c, 0x3e, 0xda, 0x62, 0x9a, 0x3e, 0x53, 0x85, 0xca, 0xbd,
  0xc3, 0x3f, 0x92, 0x3e, 0xd5, 0x04, 0xae, 0x3e, 0xa3, 0x7d, 0xe7, 0x3d,
  0x19, 0x78, 0x5d, 0x3e, 0x16, 0x4e, 0x6c, 0x3e, 0x77, 0x15, 0x9a, 0x3e,
  0xe2, 0x77, 0x94, 0xbc, 0xe1, 0x43, 0x27, 0x3e, 0x21, 0x15, 0xcc, 0xbd,
  0xdf, 0xc7, 0x26, 0x3d, 0x8b, 0xca, 0x1b, 0xbe, 0xa2, 0x0a, 0x85, 0x3e,
  0x7c, 0xb6, 0xf5, 0x3d, 0x2a, 0x2e, 0x37, 0x3d, 0x3b, 0xc6, 0xde, 0x3d,
  0x31, 0xfe, 0x2d, 0x3e, 0x71, 0x1e, 0x59, 0x3e, 0xc1, 0xe3, 0xf4, 0x3c,
  0x49, 0x53, 0x6d, 0x3e, 0x01, 0x04, 0x01, 0xbd, 0x0f, 0xe8, 0xea, 0x3d,
  0xea, 0x0b, 0x3c, 0x3e, 0xed, 0xc4, 0xc8, 0xbd, 0x7a, 0xb6, 0x42, 0x3e,
  0x35, 0xc2, 0xa0, 0x3e, 0xba, 0x17, 0xe3, 0xbd, 0x99, 0xdc, 0x87, 0x3e,
  0x15, 0x01, 0x84, 0x3e, 0xde, 0xfd, 0x80, 0x3d, 0xec, 0x47, 0x18, 0xbe,
  0xe8, 0xc9, 0x80, 0xbe, 0xa5, 0xd0, 0xdc, 0x3d, 0xf4, 0x4b, 0xb3, 0x3c,
  0x4e, 0xa5, 0x6a, 0x3e, 0x8b, 0x06, 0xa8, 0xbd, 0x30, 0x3d, 0x17, 0xbe,
  0xc1, 0x60, 0xb5, 0xbd, 0xf5, 0x17, 0x22, 0x3d, 0xaa, 0x2f, 0x57, 0xbe,
  0x10, 0x25, 0x36, 0xbe, 0x6f, 0xa1, 0x6c, 0xbe, 0xf8, 0x20, 0x7d, 0x3d,
  0x82, 0x84, 0xa9, 0xbe, 0x58, 0x3e, 0xf3, 0x3b, 0xfd, 0x04, 0x1a, 0xbe,
  0x5d, 0x9a, 0xa8, 0x3d, 0xd8, 0x21, 0x1c, 0xbc, 0x17, 0xc4, 0xc3, 0x3d,
  0x4c, 0xe8, 0x70, 0x3e, 0x16, 0x02, 0x51, 0x3e, 0xf5, 0xf6, 0x8e, 0xbe,
  0xe3, 0x9f, 0x41, 0xbe, 0x17, 0x5a, 0x81, 0x3b, 0xf8, 0xa9, 0x36, 0xbd,
  0x1a, 0x33, 0xcd, 0x3d, 0xbc, 0x49, 0x48, 0xbe, 0xb0, 0xff, 0x75, 0xbc,
  0x80, 0xbe, 0x68, 0xbe, 0x4f, 0x45, 0x77, 0x3e, 0x54, 0x01, 0x69, 0xbe,
  0x85, 0xec, 0x4d, 0xbe, 0x03, 0xca, 0xf7, 0x3d, 0x52, 0x35, 0xb0, 0x3e,
  0xaa, 0xd6, 0x05, 0xbe, 0x28, 0xf6, 0xb0, 0x3e, 0x1f, 0x18, 0x54, 0xbe,
  0xf4, 0xa4, 0x7f, 0x3e, 0x76, 0x82, 0x9d, 0x3e, 0xdb, 0x28, 0xe6, 0xbd,
  0xed, 0xb0, 0x19, 0x3e, 0x1e, 0xb7, 0xc5, 0xbe, 0x54, 0x24, 0x5d, 0x3e,
  0x1d, 0xaa, 0x9b, 0xbe, 0xe9, 0x6f, 0x11, 0xbd, 0x3c, 0x24, 0x73, 0x3e,
  0x7a, 0x4b, 0x20, 0xbd, 0x13, 0x1d, 0x10, 0x3b, 0x37, 0x5c, 0xdb, 0x3d,
  0x9c, 0x2d, 0x67, 0xbe, 0x6b, 0xc0, 0xb1, 0xbc, 0x24, 0xf5, 0x2a, 0xbe,
  0xd0, 0x92, 0x91, 0x3d, 0x45, 0x65, 0xf7, 0x3d, 0x86, 0x9d, 0x00, 0xbe,
  0x23, 0xbd, 0x2f, 0x3e, 0x6e, 0xcb, 0x5e, 0x3e, 0x33, 0xef, 0xa9, 0xbe,
  0x20, 0x11, 0xb2, 0xbe, 0xfc, 0x6a, 0x81, 0x3e, 0x78, 0x67, 0x75, 0x3e,
  0x29, 0x5e, 0x9a, 0x3d, 0x96, 0xbe, 0x11, 0xba, 0xfe, 0xaa, 0x1c, 0x3e,
  0x0b, 0xa7, 0x8a, 0xbe, 0xb5, 0xfe, 0x7a, 0x3d, 0xf9, 0xf8, 0x64, 0xbd,
  0x38, 0x73, 0x76, 0x3e, 0x03, 0xac, 0x55, 0x3e, 0x58, 0x6c, 0x10, 0x3e,
  0x24, 0x79, 0xa3, 0x3e, 0x2a, 0x88, 0xe2, 0x3d, 0xb9, 0x4d, 0x78, 0xbe,
  0xea, 0x80, 0x06, 0xbe, 0xea, 0xe8, 0x0c, 0xbe, 0x25, 0xea, 0x96, 0xbd,
  0x86, 0x22, 0x1f, 0x3d, 0x94, 0x8f, 0x35, 0x3e, 0x08, 0x94, 0x48, 0xbe,
  0x10, 0x5e, 0x6e, 0x3e, 0xdc, 0x69, 0xae, 0xbe, 0xbb, 0x1d, 0x62, 0xbe,
  0xc3, 0x79, 0x98, 0xbe, 0xb1, 0xf6, 0xff, 0x3d, 0xe2, 0xca, 0xf4, 0x3d,
  0x74, 0xfe, 0x9e, 0xbe, 0x3d, 0x45, 0x40, 0xbe, 0x8a, 0xa0, 0x25, 0xbe,
  0x48, 0xe6, 0xc0, 0x3d, 0x95, 0xa3, 0x0b, 0x3e, 0x37, 0x10, 0x0f, 0xbe,
  0x09, 0xb2, 0x73, 0xbe, 0x15, 0x20, 0x77, 0x3d, 0xf0, 0x89, 0xbb, 0x3e,
  0x22, 0x18, 0x83, 0xbe, 0x84, 0x81, 0xc7, 0xbd, 0x5f, 0x28, 0x7a, 0xbe,
  0x84, 0x28, 0x1d, 0x3e, 0x3e, 0x9d, 0xa4, 0xbe, 0x8f, 0x2a, 0x8d, 0xbd,
  0x3c, 0xa7, 0x3c, 0x3e, 0x14, 0x69, 0xaa, 0xbd, 0x84, 0xb5, 0xbe, 0xbd,
  0x0a, 0xce, 0x01, 0xb9, 0xdc, 0xa7, 0xaa, 0x3e, 0x98, 0xe5, 0x2c, 0x3e,
  0xd8, 0x01, 0x1d, 0xbe, 0x62, 0xac, 0x74, 0xbe, 0x44, 0x77, 0xac, 0x3e,
  0xe6, 0xf2, 0x8a, 0x3e, 0xc3, 0xb5, 0x28, 0x3e, 0x20, 0xc6, 0x91, 0x3e,
  0x4d, 0x10, 0x62, 0x3e, 0xe1, 0xcd, 0x61, 0x3e, 0xd7, 0xbe, 0xec, 0xbd,
  0x27, 0x5c, 0x8c, 0x3e, 0xa4, 0xb8, 0x9b, 0x3e, 0xdc, 0xb2, 0x6c, 0xbc,
  0x84, 0x42, 0x05, 0xbe, 0x72, 0x07, 0x5e, 0x3d, 0xf7, 0xa4, 0x52, 0x3e,
  0x21, 0x15, 0x4f, 0xbe, 0x84, 0x8f, 0x9b, 0xbc, 0x98, 0x50, 0x8c, 0x3e,
  0x47, 0x4d, 0x26, 0x3e, 0x79, 0xe1, 0x60, 0x3e, 0xb4, 0xed, 0x36, 0x3e,
  0x71, 0xed, 0xb1, 0x3e, 0x44, 0x0b, 0x1d, 0xbc, 0xfa, 0x5f, 0x86, 0x3e,
  0xf7, 0x6d, 0xbf, 0xbc, 0xce, 0xbf, 0x46, 0xbe, 0x20, 0xd4, 0x95, 0xbe,
  0xe8, 0xdc, 0x53, 0xbe, 0xbb, 0xba, 0x96, 0xbe, 0x6d, 0x31, 0x8f, 0xbe,
  0x9a, 0xf9, 0x68, 0xbe, 0x8c, 0x20, 0x46, 0xbd, 0x10, 0xcd, 0x1b, 0xbe,
  0x77, 0x63, 0xc7, 0xbc, 0x75, 0x63, 0xfa, 0x3d, 0x5f, 0xb4, 0x92, 0x3e,
  0xc9, 0x31, 0xeb, 0xbd, 0x57, 0x97, 0xb4, 0xbe, 0x69, 0x66, 0x8c, 0x3d,
  0x58, 0x28, 0xdb, 0xbc, 0x60, 0xba, 0x10, 0xbe, 0xf7, 0x62, 0x46, 0x3c,
  0x9d, 0xa0, 0xa1, 0x3d, 0x00, 0x00, 0x12, 0x3e, 0xf3, 0x84, 0xc8, 0xbd,
  0xd4, 0xc2, 0x0e, 0x3d, 0xed, 0xec, 0x8d, 0xbe, 0x49, 0x08, 0xb6, 0xbe,
  0x6e, 0xa4, 0x8c, 0x3e, 0x5a, 0x34, 0x34, 0x3d, 0xbc, 0xb3, 0x0a, 0x3e,
  0x6b, 0xeb, 0xb9, 0x3d, 0x4b, 0x9c, 0x92, 0xbd, 0xbb, 0xe9, 0x80, 0xbc,
  0x5c, 0x32, 0xca, 0xbd, 0x6a, 0xb5, 0x41, 0x3e, 0xe8, 0xe4, 0x94, 0xbe,
  0x16, 0x12, 0xcc, 0x3d, 0x60, 0xa3, 0x3a, 0x3e, 0x45, 0xaf, 0xae, 0x3e,
  0xfe, 0x8a, 0x1f, 0xbe, 0x8c, 0x40, 0x94, 0x3d, 0xa3, 0x8f, 0xb1, 0xbd,
  0x1e, 0x8f, 0x24, 0x3c, 0xbc, 0x65, 0x55, 0xbe, 0x7d, 0x2b, 0xbd, 0x3e,
  0x7b, 0x72, 0x9e, 0xbd, 0x85, 0xcf, 0x44, 0x3e, 0x3e, 0xb2, 0xdd, 0x3d,
  0xbd, 0x65, 0x9a, 0xbc, 0x2e, 0x43, 0x2a, 0x3e, 0xc6, 0x1d, 0x93, 0xbe,
  0x80, 0xd0, 0x99, 0xbe, 0x9f, 0xe8, 0x73, 0xbe, 0x61, 0x7a, 0x91, 0x3e,
  0xf0, 0x3c, 0x70, 0x3e, 0xd6, 0x77, 0x3f, 0xbe, 0x42, 0x73, 0xc5, 0xbb,
  0xc0, 0xe3, 0x13, 0x3e, 0xef, 0x6e, 0x21, 0xbe, 0x55, 0x51, 0xa1, 0xbe,
  0xa6, 0x81, 0xe1, 0xbc, 0x29, 0x94, 0xda, 0x3d, 0xe2, 0x8e, 0xf0, 0xbd,
  0xd6, 0x78, 0x25, 0x3e, 0x65, 0x20, 0x14, 0x3e, 0x5d, 0x3b, 0x84, 0x3d,
  0x78, 0x11, 0x98, 0xbd, 0xe0, 0x48, 0x51, 0xbd, 0xa2, 0xe8, 0x52, 0x3d,
  0x91, 0x14, 0x82, 0x3e, 0x75, 0x4c, 0x9a, 0xbd, 0x56, 0x0c, 0xb2, 0xbe,
  0x8d, 0xb3, 0xd2, 0xbd, 0xfa, 0x57, 0xb6, 0x3d, 0xf7, 0x38, 0x5d, 0x3e,
  0xe8, 0x06, 0xea, 0x3d, 0x8b, 0x63, 0xaa, 0xbc, 0xa7, 0x9b, 0xda, 0x3c,
  0xe8, 0xb9, 0xab, 0xbd, 0xbb, 0x8c, 0xeb, 0x3d, 0x1c, 0xa1, 0x70, 0xbd,
  0x36, 0x3b, 0xef, 0xbd, 0x8c, 0xe0, 0x53, 0xbc, 0xc5, 0x92, 0x28, 0xbd,
  0x69, 0x20, 0x82, 0x3e, 0x56, 0x8d, 0x88, 0x3e, 0x16, 0xff, 0x04, 0x3e,
  0xa0, 0x0c, 0x74, 0x3e, 0x81, 0x7c, 0x03, 0x3e, 0x76, 0x97, 0xc1, 0x3d,
  0x41, 0xfb, 0x6d, 0xbe, 0x40, 0xfa, 0xc9, 0x39, 0x77, 0x8f, 0xc6, 0x3d,
  0xf7, 0xb0, 0xba, 0xbd, 0xc2, 0x5c, 0x75, 0xbe, 0x23, 0x15, 0x6d, 0xbe,
  0x85, 0x0e, 0x95, 0xbe, 0xc2, 0x2d, 0x63, 0x3c, 0x64, 0xeb, 0x0c, 0xbe,
  0x43, 0xa5, 0xbd, 0x3d, 0xad, 0x8c, 0x96, 0xbd, 0xf3, 0xf3, 0x8b, 0x3c,
  0x99, 0x55, 0x36, 0x3e, 0x83, 0xfb, 0x88, 0x3d, 0x43, 0xf9, 0x61, 0xbe,
  0x8a, 0x21, 0x32, 0x3e, 0x6f, 0xb0, 0x6c, 0x3e, 0xd0, 0xe3, 0xd6, 0x3d,
  0x36, 0x45, 0x6a, 0x3d, 0xd1, 0xe4, 0x49, 0x3c, 0x95, 0x39, 0x44, 0xbe,
  0x69, 0xd7, 0xac, 0x3e, 0x4b, 0xb5, 0x3a, 0x3e, 0x8e, 0xe3, 0x7b, 0x3e,
  0xff, 0xfb, 0x1a, 0x3e, 0xbf, 0x8f, 0x05, 0x3d, 0xf5, 0x23, 0x2e, 0xbe,
  0xa5, 0x40, 0x43, 0xbe, 0x99, 0x08, 0x99, 0x3e, 0xee, 0x79, 0xd9, 0x3c,
  0x28, 0x5a, 0x60, 0xbe, 0xc0, 0x1a, 0x83, 0xbe, 0x2e, 0x07, 0x8b, 0x3e,
  0xcc, 0xe4, 0x9e, 0x3d, 0x2f, 0x89, 0x61, 0xbe, 0x21, 0x74, 0x07, 0xbe,
  0x35, 0xfd, 0xa8, 0x3d, 0xe7, 0x0e, 0x9a, 0x3e, 0x83, 0x79, 0x6b, 0x3d,
  0x69, 0xbc, 0x46, 0xbe, 0x86, 0xa0, 0xe7, 0x3c, 0x57, 0x51, 0xd2, 0xbd,
  0xff, 0x71, 0xb5, 0xbc, 0xdc, 0x46, 0x4b, 0x3d, 0x88, 0xcd, 0x31, 0x3e,
  0x96, 0x0f, 0x2b, 0xbe, 0xc0, 0xf8, 0x8b, 0x3e, 0xf0, 0x7d, 0x0f, 0x3d,
  0x8d, 0x7c, 0x6f, 0xbe, 0xf2, 0xc9, 0xd7, 0x3d, 0xdb, 0x35, 0x27, 0xbe,
  0xc9, 0xaf, 0x95, 0xbe, 0x9d, 0x1e, 0xaf, 0xbe, 0x60, 0xf7, 0x2c, 0xbe,
  0x23, 0x04, 0xc9, 0xbd, 0xb1, 0xc1, 0x90, 0x3e, 0x31, 0xc5, 0x8c, 0xbe,
  0xce, 0x66, 0xcf, 0xbd, 0x68, 0x5c, 0x9a, 0xbc, 0xbc, 0x16, 0xbc, 0x3d,
  0x10, 0xe2, 0xea, 0xbd, 0x2c, 0x6a, 0x54, 0x3e, 0xb0, 0x0d, 0x43, 0xbe,
  0x3d, 0x2c, 0x49, 0xbe, 0x06, 0x8d, 0xab, 0xbe, 0x31, 0x42, 0x61, 0x3e,
  0x28, 0xac, 0xbb, 0x3d, 0x52, 0x92, 0x0b, 0x3d, 0x27, 0xdc, 0x15, 0xbe,
  0x95, 0xc4, 0x67, 0xbe, 0xe3, 0x53, 0x3b, 0xbe, 0xa6, 0x94, 0xf6, 0x3d,
  0xd5, 0x0f, 0x5e, 0xbe, 0x8e, 0x4f, 0x66, 0x3d, 0x23, 0xd1, 0x5e, 0x3e,
  0x17, 0x2b, 0xcc, 0xbd, 0xa2, 0x94, 0x1a, 0x3e, 0x99, 0x81, 0x02, 0xbe,
  0x1f, 0x2f, 0xaf, 0x3c, 0x0e, 0x7e, 0x12, 0xbd, 0xd5, 0x6e, 0x95, 0x3e,
  0x4b, 0xcf, 0x47, 0x3d, 0x09, 0x51, 0x9d, 0x3e, 0x11, 0x55, 0x4a, 0x3d,
  0x37, 0xcb, 0x0a, 0x3e, 0xa9, 0x71, 0x49, 0x3e, 0xf0, 0x2d, 0x61, 0xbd,
  0xf1, 0x54, 0x8e, 0xbe, 0x7e, 0xf6, 0x11, 0x3d, 0x53, 0x2f, 0x0e, 0x3e,
  0x60, 0x48, 0xad, 0x3e, 0x78, 0xdf, 0xf6, 0xbd, 0x3b, 0x48, 0x2f, 0x3e,
  0xff, 0xcf, 0x67, 0x3d, 0x43, 0x62, 0xb3, 0x3d, 0x32, 0x04, 0xfe, 0x3d,
  0x0e, 0x6c, 0x33, 0x3e, 0x96, 0x7c, 0x93, 0xbe, 0xd6, 0x8b, 0x8d, 0x3d,
  0xb3, 0xb9, 0xff, 0x3b, 0x65, 0xe2, 0xbf, 0x3d, 0xe1, 0x19, 0x92, 0x3e,
  0xdd, 0xb7, 0x23, 0xbd, 0x05, 0x3d, 0x75, 0xbd, 0x1e, 0xd5, 0xf2, 0xbd,
  0x0f, 0xf4, 0xa0, 0xbd, 0xb7, 0x41, 0xc1, 0xbd, 0x05, 0x72, 0x33, 0x3d,
  0xdc, 0x48, 0x1c, 0xbc, 0x21, 0x2b, 0xa9, 0x3e, 0xbb, 0xb1, 0x92, 0x3e,
  0xd1, 0xad, 0xf0, 0x3d, 0xd7, 0xae, 0xa0, 0x3e, 0xed, 0xa2, 0x80, 0x3e,
  0xe2, 0xb1, 0xa8, 0x3e, 0x30, 0x58, 0x10, 0xbe, 0x6e, 0x32, 0x2f, 0xbd,
  0x64, 0xf6, 0x7b, 0x3e, 0xb2, 0x92, 0x1d, 0xbe, 0xeb, 0x54, 0x6c, 0xbe,
  0xa3, 0xa5, 0xa5, 0xbc, 0xf8, 0x15, 0x39, 0xbd, 0x0e, 0x96, 0x28, 0xbc,
  0x6d, 0xf8, 0x9b, 0xbc, 0x27, 0x99, 0x7f, 0x3e, 0x01, 0xf2, 0x8a, 0x3c,
  0xb9, 0xb7, 0x8b, 0x3e, 0xc0, 0x7f, 0x8e, 0xbe, 0x19, 0x92, 0x08, 0xbd,
  0x1d, 0x94, 0x00, 0xbe, 0xa8, 0xa9, 0x77, 0xbe, 0x19, 0x64, 0x5a, 0x3e,
  0xc7, 0x5f, 0x60, 0x3e, 0x42, 0x9e, 0x25, 0x3e, 0x4d, 0x5f, 0x41, 0x3e,
  0x77, 0x6e, 0xed, 0xbd, 0xc2, 0x57, 0x8c, 0xbe, 0x60, 0x57, 0x12, 0x3e,
  0x35, 0x95, 0x10, 0x3e, 0xe3, 0x62, 0xe8, 0xbd, 0xcc, 0x95, 0xd0, 0xbd,
  0x0d, 0xab, 0xb0, 0xbd, 0x56, 0x45, 0x95, 0x3e, 0xb3, 0x25, 0xf2, 0x3d,
  0x07, 0x4f, 0x1f, 0x3e, 0x03, 0x24, 0x51, 0x3e, 0x22, 0xd1, 0x60, 0x3d,
  0x0b, 0xcc, 0x8a, 0x3e, 0xea, 0x88, 0x36, 0xbe, 0xeb, 0x9e, 0x3e, 0xbd,
  0xfe, 0x1f, 0x5a, 0xbe, 0xef, 0x60, 0x3c, 0xbe, 0x0a, 0x46, 0x22, 0xbe,
  0xdb, 0xe0, 0x9f, 0xbe, 0x03, 0xb8, 0x38, 0xbd, 0x0d, 0x93, 0x99, 0x3b,
  0xb6, 0xd0, 0x0f, 0x3e, 0xd0, 0xee, 0x03, 0xbe, 0x77, 0x9d, 0x0a, 0x3e,
  0xa1, 0x50, 0x9b, 0xbe, 0xbc, 0xe8, 0x64, 0x3e, 0x86, 0x59, 0xa6, 0xbe,
  0xc3, 0x6a, 0xcc, 0x3c, 0x04, 0x73, 0x8b, 0xbd, 0xe9, 0xa3, 0x89, 0xbd,
  0xc3, 0xbf, 0xc2, 0xbd, 0x89, 0x98, 0x93, 0x3d, 0x46, 0x25, 0xac, 0xbe,
  0xe0, 0xd7, 0x76, 0xbe, 0xd0, 0xf1, 0xb1, 0xbe, 0x3d, 0x84, 0x41, 0xbe,
  0xf5, 0x0f, 0x33, 0x3e, 0xb1, 0x78, 0x50, 0x3d, 0x54, 0x1d, 0x83, 0xbe,
  0x9f, 0x4d, 0x1b, 0xbe, 0xb5, 0x2e, 0x4e, 0xbe, 0x7f, 0xa4, 0x96, 0x3e,
  0x61, 0xca, 0x82, 0xbe, 0x4d, 0xe6, 0x4d, 0x3d, 0xd5, 0xeb, 0x85, 0xbc,
  0x25, 0xf1, 0x99, 0xbe, 0xd5, 0x3c, 0xdf, 0xbd, 0x26, 0xc1, 0xb4, 0xbd,
  0x60, 0x77, 0x00, 0xbd, 0x08, 0xd1, 0xa6, 0xbe, 0x6f, 0x45, 0x4f, 0xbe,
  0x76, 0x3d, 0x5b, 0x3d, 0xbe, 0x8b, 0x7c, 0xbe, 0x85, 0xbd, 0x7f, 0x3e,
  0xe4, 0xf2, 0xdd, 0x3d, 0x8a, 0x31, 0xbe, 0xbe, 0xc4, 0x66, 0x71, 0xbe,
  0xde, 0x38, 0x8f, 0xbe, 0xa9, 0x8e, 0x92, 0xbb, 0x8f, 0x4b, 0xa2, 0xbe,
  0x2a, 0xab, 0xc4, 0x3d, 0xcc, 0x65, 0x35, 0x3e, 0xbd, 0xff, 0xaa, 0x3d,
  0x2b, 0x51, 0x68, 0x3e, 0xaa, 0x16, 0xab, 0xbe, 0x87, 0xa1, 0x91, 0x3d,
  0x82, 0xe5, 0x88, 0x3e, 0xba, 0x79, 0xe7, 0x3d, 0x9b, 0x41, 0x63, 0x3e,
  0x68, 0x81, 0x89, 0x3e, 0x25, 0xed, 0x3b, 0xbe, 0x2a, 0x3e, 0x7a, 0x3e,
  0xab, 0x8d, 0x19, 0x3e, 0xda, 0xdf, 0xdc, 0xbd, 0x0f, 0x92, 0x8e, 0x3e,
  0x7d, 0xbf, 0xa0, 0xbe, 0x0e, 0x8d, 0x8c, 0xbe, 0xc9, 0xe8, 0x95, 0x3e,
  0x60, 0x9a, 0x7f, 0xbd, 0xc6, 0x67, 0x50, 0x3d, 0xb1, 0xf5, 0x2d, 0x3c,
  0x89, 0x6f, 0x5c, 0x3e, 0x11, 0x46, 0x7b, 0x3e, 0x5f, 0xbc, 0x92, 0x3e,
  0x09, 0xa0, 0x35, 0xbe, 0x99, 0xf5, 0x71, 0x3e, 0xd8, 0x39, 0xac, 0x3d,
  0xcf, 0xf3, 0x8e, 0xbe, 0x4d, 0x99, 0x7c, 0xbd, 0x86, 0x36, 0xeb, 0x3d,
  0x1e, 0xb8, 0xfe, 0x3d, 0xe4, 0x69, 0xfd, 0xbc, 0xe4, 0xac, 0x88, 0xbe,
  0x7e, 0x6c, 0xa1, 0xbe, 0x20, 0x22, 0x09, 0x3e, 0x46, 0x63, 0x04, 0xbd,
  0xed, 0x76, 0x54, 0x3e, 0x4f, 0xf6, 0x8b, 0x3e, 0xf4, 0xbd, 0x6f, 0xbd,
  0x03, 0xe6, 0x68, 0x3e, 0x24, 0xf8, 0x83, 0x3e, 0xac, 0x98, 0xb8, 0x3e,
  0xe3, 0x32, 0xf2, 0xbd, 0xd5, 0x07, 0x0d, 0x3e, 0x3c, 0x76, 0x37, 0x3e,
  0xf8, 0x9b, 0xa7, 0x3e, 0x69, 0xa6, 0x50, 0xbe, 0x28, 0xc0, 0x91, 0xbd,
  0xa5, 0xe8, 0x6d, 0xbe, 0x54, 0x1e, 0x69, 0xbd, 0x60, 0x09, 0x95, 0x3d,
  0xc8, 0xa1, 0x47, 0x3e, 0x94, 0x51, 0x32, 0xbe, 0xc3, 0x79, 0xb2, 0x3e,
  0x24, 0x30, 0x64, 0xbe, 0x59, 0xf8, 0x92, 0xbe, 0x76, 0x5c, 0x58, 0xbe,
  0x08, 0x19, 0x74, 0x3e, 0x71, 0x7d, 0x5c, 0x3e, 0x20, 0xa8, 0x0d, 0xbd,
  0x43, 0x04, 0xf2, 0xbd, 0x8a, 0x8b, 0xb2, 0xbd, 0xa6, 0x37, 0x8e, 0xbd,
  0x06, 0xba, 0x82, 0xbe, 0xc7, 0x0b, 0x92, 0x3e, 0x0b, 0xa0, 0x66, 0xbe,
  0x4e, 0xd5, 0xa0, 0x3d, 0xa0, 0x86, 0x88, 0xbe, 0x80, 0x80, 0x48, 0xbe,
  0xe8, 0x1d, 0x1c, 0x3e, 0x42, 0x4c, 0x78, 0xbe, 0x2b, 0x07, 0x82, 0xbe,
  0xb5, 0x31, 0x6e, 0x3e, 0x1f, 0x39, 0x34, 0xbe, 0x50, 0xb4, 0xba, 0x3e,
  0x36, 0xb7, 0x3a, 0xbe, 0x31, 0xfc, 0x67, 0xbc, 0xdf, 0xb6, 0x21, 0x3e,
  0x8c, 0x39, 0x70, 0x3e, 0xb6, 0x58, 0x5c, 0xbe, 0xa6, 0xd8, 0xb4, 0x3e,
  0xe6, 0x91, 0x7b, 0x3e, 0xf2, 0x3c, 0x18, 0xbe, 0xa5, 0x85, 0x69, 0x3e,
  0xed, 0xba, 0x26, 0xbd, 0x67, 0xf7, 0x5a, 0x3e, 0xcc, 0x0c, 0xcc, 0x3c,
  0x8f, 0x14, 0x8c, 0xbd, 0x6e, 0xf8, 0xc2, 0x3c, 0x32, 0xa1, 0x8c, 0x3e,
  0x9f, 0x0c, 0x65, 0x3e, 0x9d, 0x75, 0x75, 0x3e, 0x32, 0xb6, 0x2a, 0x3c,
  0x7c, 0x57, 0x28, 0xbe, 0x63, 0x19, 0xad, 0x3d, 0x26, 0xde, 0x53, 0x3e,
  0xaf, 0xbd, 0x49, 0x3e, 0x42, 0xe2, 0x9c, 0xbd, 0x2b, 0xa1, 0x55, 0xbe,
  0xa2, 0xd6, 0x95, 0x3e, 0xcf, 0x16, 0x50, 0xbe, 0x6a, 0x8e, 0x7b, 0x3e,
  0xa8, 0xc1, 0x52, 0xbe, 0x34, 0x46, 0x73, 0xbe, 0x1b, 0x2d, 0x8c, 0xbd,
  0x4c, 0xa7, 0xce, 0x3d, 0xb5, 0xed, 0x15, 0xbd, 0x58, 0xae, 0x5e, 0xbb,
  0xfd, 0xf4, 0xaf, 0x3c, 0x1f, 0x58, 0x66, 0xbd, 0x5d, 0xe9, 0x03, 0x3e,
  0x94, 0x9d, 0x19, 0xbe, 0xe5, 0x69, 0x66, 0xbe, 0x17, 0xf3, 0x08, 0xbe,
  0x3c, 0xbe, 0x19, 0xbc, 0xac, 0xd9, 0x15, 0x3e, 0x9c, 0xe0, 0x57, 0xbe,
  0x21, 0xa3, 0x0d, 0xbe, 0x6f, 0xb3, 0x5c, 0x3d, 0x30, 0x53, 0x92, 0xbe,
  0x5c, 0xde, 0x59, 0x3d, 0x8e, 0x7a, 0x66, 0x3e, 0x7a, 0x7b, 0xab, 0xbe,
  0x15, 0x3b, 0x9c, 0xbe, 0xc3, 0x5c, 0xaf, 0xbe, 0x5d, 0x44, 0x34, 0x3d,
  0x1b, 0x18, 0xe8, 0xbc, 0xa0, 0x72, 0x0c, 0x3e, 0x7b, 0x03, 0xeb, 0x3d,
  0x55, 0xc9, 0xa9, 0xbe, 0xc6, 0xb9, 0x7a, 0x3e, 0x48, 0x91, 0xad, 0x3d,
  0x30, 0xc4, 0xa8, 0xbe, 0x85, 0x01, 0xae, 0xbe, 0x60, 0xcf, 0xcb, 0xbd,
  0x98, 0x08, 0xa0, 0xbd, 0x9f, 0x49, 0xa9, 0xbd, 0x24, 0x63, 0x25, 0x3e,
  0x0a, 0x5d, 0x7a, 0x3e, 0x22, 0x84, 0x9a, 0xbe, 0xb3, 0xb3, 0x7b, 0xbe,
  0xfb, 0x69, 0x10, 0x3e, 0x7a, 0xed, 0x80, 0x3e, 0xa8, 0x61, 0x07, 0xbc,
  0xea, 0x40, 0x6a, 0xbe, 0x3c, 0x12, 0xcb, 0x3d, 0x80, 0xc1, 0xa5, 0xbe,
  0x1a, 0xfc, 0x8d, 0xbe, 0x8d, 0x89, 0xf3, 0x3d, 0x59, 0x47, 0x53, 0x3d,
  0x7b, 0xb1, 0x4c, 0xbe, 0x05, 0x93, 0x33, 0xbe, 0xc9, 0x0b, 0x24, 0x3e,
  0x43, 0x69, 0xd7, 0xbc, 0x13, 0x57, 0xa9, 0xbe, 0x98, 0xb1, 0xa0, 0xbe,
  0x84, 0x76, 0x58, 0xbe, 0x09, 0xd0, 0xcd, 0xbd, 0x4e, 0x46, 0x29, 0x3e,
  0x78, 0x2f, 0x26, 0x3e, 0x16, 0x64, 0x57, 0x3e, 0xa2, 0x0d, 0x13, 0x3d,
  0x23, 0x7d, 0x86, 0x3e, 0x3b, 0x5e, 0x7a, 0x3e, 0x99, 0xc8, 0xf3, 0xbd,
  0xa8, 0x44, 0x6c, 0x3e, 0xcc, 0xc8, 0x01, 0xbe, 0xa9, 0x16, 0x00, 0xbe,
  0x2c, 0x8b, 0x41, 0xbe, 0x40, 0x6f, 0xd0, 0xbc, 0x2f, 0x84, 0x83, 0xbe,
  0x42, 0x27, 0xa1, 0xbd, 0xf0, 0x8a, 0x60, 0x3e, 0x45, 0x46, 0x5e, 0xbc,
  0xd0, 0x48, 0x9d, 0x3b, 0x1a, 0x0a, 0x8c, 0xbe, 0xd7, 0xed, 0x99, 0xbe,
  0x59, 0xb4, 0x09, 0x3e, 0x01, 0xd7, 0xb1, 0x3e, 0xa6, 0x8f, 0x09, 0xbe,
  0x81, 0x53, 0x1c, 0xbe, 0x46, 0x7b, 0x81, 0xbe, 0xcf, 0x33, 0x4a, 0x3e,
  0x84, 0xd5, 0x3d, 0x3e, 0xaa, 0x97, 0x43, 0xbe, 0x18, 0x68, 0x89, 0x3c,
  0xf9, 0xba, 0x96, 0xbe, 0xe4, 0x12, 0x3b, 0xbc, 0xb3, 0xa4, 0x94, 0xbe,
  0x2b, 0xaf, 0x72, 0xbd, 0xca, 0xb7, 0x38, 0xbe, 0x73, 0x37, 0x8c, 0x3d,
  0x05, 0x8d, 0xd1, 0xbd, 0xae, 0x49, 0x9d, 0x3e, 0x1f, 0x35, 0x3c, 0x3e,
  0x09, 0xf6, 0x96, 0xbe, 0x25, 0xf8, 0x3c, 0x3e, 0x6a, 0x37, 0xaa, 0xbe,
  0xce, 0x62, 0x5e, 0xbd, 0x31, 0xcc, 0x77, 0xbe, 0x85, 0xb1, 0x97, 0x3e,
  0xff, 0xdf, 0x40, 0xbd, 0x97, 0x1d, 0x25, 0xbe, 0xd6, 0xf6, 0x89, 0x3e,
  0xe1, 0xff, 0x33, 0xbe, 0x86, 0xff, 0xff, 0xff, 0x04, 0x00, 0x00, 0x00,
  0x6c, 0x00, 0x00, 0x00, 0xe1, 0xca, 0x12, 0xbd, 0xd9, 0xa8, 0x1f, 0xbd,
  0x58, 0xf4, 0x11, 0xbd, 0x34, 0xe2, 0x21, 0x3d, 0x2d, 0x68, 0x20, 0x3d,
  0x5f, 0x7c, 0x34, 0x3d, 0x18, 0x25, 0xef, 0xbc, 0xee, 0x43, 0xfe, 0xbc,
  0x1b, 0x3f, 0x27, 0x3d, 0x88, 0x88, 0x10, 0xbd, 0x05, 0x5d, 0x25, 0x3d,
  0xdf, 0x89, 0x16, 0xbd, 0x75, 0x21, 0x27, 0x3d, 0xbb, 0xcb, 0xa2, 0xbc,
  0x2c, 0xf7, 0x21, 0xbd, 0xb4, 0x8f, 0x17, 0x3d, 0x13, 0x5e, 0x22, 0x3c,
  0xd2, 0xf6, 0xc8, 0xbc, 0x8e, 0x9a, 0x2b, 0xbd, 0xce, 0x64, 0x0a, 0xbd,
  0xd5, 0x4b, 0x18, 0x3d, 0xeb, 0x10, 0xe9, 0x3c, 0x21, 0xbb, 0x1a, 0x3d,
  0x44, 0xc3, 0x24, 0xbd, 0x66, 0xe6, 0x11, 0xbd, 0xe6, 0xae, 0xcb, 0xbc,
  0xf5, 0x83, 0x11, 0x3d, 0x00, 0x00, 0x06, 0x00, 0x08, 0x00, 0x04, 0x00,
  0x06, 0x00, 0x00, 0x00, 0x04, 0x00, 0x00, 0x00, 0x14, 0x00, 0x00, 0x00,
  0x65, 0xaa, 0x0c, 0x3d, 0x9f, 0xb1, 0x2f, 0x3c, 0x39, 0x86, 0x1e, 0x3d,
  0x8c, 0x0b, 0xeb, 0xbb, 0xa1, 0x25, 0x17, 0x3d, 0x20, 0xfc, 0xff, 0xff,
  0x24, 0xfc, 0xff, 0xff, 0x0f, 0x00, 0x00, 0x00, 0x4d, 0x4c, 0x49, 0x52,
  0x20, 0x43, 0x6f, 0x6e, 0x76, 0x65, 0x72, 0x74, 0x65, 0x64, 0x2e, 0x00,
  0x01, 0x00, 0x00, 0x00, 0x14, 0x00, 0x00, 0x00, 0x00, 0x00, 0x0e, 0x00,
  0x18, 0x00, 0x14, 0x00, 0x10, 0x00, 0x0c, 0x00, 0x08, 0x00, 0x04, 0x00,
  0x0e, 0x00, 0x00, 0x00, 0x14, 0x00, 0x00, 0x00, 0x1c, 0x00, 0x00, 0x00,
  0xc4, 0x00, 0x00, 0x00, 0xc8, 0x00, 0x00, 0x00, 0xcc, 0x00, 0x00, 0x00,
  0x04, 0x00, 0x00, 0x00, 0x6d, 0x61, 0x69, 0x6e, 0x00, 0x00, 0x00, 0x00,
  0x03, 0x00, 0x00, 0x00, 0x78, 0x00, 0x00, 0x00, 0x44, 0x00, 0x00, 0x00,
  0x04, 0x00, 0x00, 0x00, 0xa2, 0xff, 0xff, 0xff, 0x10, 0x00, 0x00, 0x00,
  0x00, 0x00, 0x00, 0x08, 0x0c, 0x00, 0x00, 0x00, 0x10, 0x00, 0x00, 0x00,
  0x9c, 0xfc, 0xff, 0xff, 0x01, 0x00, 0x00, 0x00, 0x07, 0x00, 0x00, 0x00,
  0x03, 0x00, 0x00, 0x00, 0x06, 0x00, 0x00, 0x00, 0x04, 0x00, 0x00, 0x00,
  0x01, 0x00, 0x00, 0x00, 0x00, 0x00, 0x0a, 0x00, 0x10, 0x00, 0x0c, 0x00,
  0x08, 0x00, 0x04, 0x00, 0x0a, 0x00, 0x00, 0x00, 0x0c, 0x00, 0x00, 0x00,
  0x10, 0x00, 0x00, 0x00, 0x01, 0x00, 0x00, 0x00, 0x01, 0x00, 0x00, 0x00,
  0x06, 0x00, 0x00, 0x00, 0x01, 0x00, 0x00, 0x00, 0x05, 0x00, 0x00, 0x00,
  0x00, 0x00, 0x0e, 0x00, 0x14, 0x00, 0x00, 0x00, 0x10, 0x00, 0x0c, 0x00,
  0x0b, 0x00, 0x04, 0x00, 0x0e, 0x00, 0x00, 0x00, 0x10, 0x00, 0x00, 0x00,
  0x00, 0x00, 0x00, 0x08, 0x0c, 0x00, 0x00, 0x00, 0x10, 0x00, 0x00, 0x00,
  0x08, 0xfd, 0xff, 0xff, 0x01, 0x00, 0x00, 0x00, 0x05, 0x00, 0x00, 0x00,
  0x03, 0x00, 0x00, 0x00, 0x00, 0x00, 0x00, 0x00, 0x03, 0x00, 0x00, 0x00,
  0x02, 0x00, 0x00, 0x00, 0x01, 0x00, 0x00, 0x00, 0x07, 0x00, 0x00, 0x00,
  0x01, 0x00, 0x00, 0x00, 0x00, 0x00, 0x00, 0x00, 0x08, 0x00, 0x00, 0x00,
  0xa0, 0x02, 0x00, 0x00, 0x30, 0x02, 0x00, 0x00, 0xc4, 0x01, 0x00, 0x00,
  0x7c, 0x01, 0x00, 0x00, 0x30, 0x01, 0x00, 0x00, 0xbc, 0x00, 0x00, 0x00,
  0x60, 0x00, 0x00, 0x00, 0x04, 0x00, 0x00, 0x00, 0x96, 0xfd, 0xff, 0xff,
  0x00, 0x00, 0x00, 0x01, 0x14, 0x00, 0x00, 0x00, 0x1c, 0x00, 0x00, 0x00,
  0x1c, 0x00, 0x00, 0x00, 0x08, 0x00, 0x00, 0x00, 0x34, 0x00, 0x00, 0x00,
  0x02, 0x00, 0x00, 0x00, 0xff, 0xff, 0xff, 0xff, 0x05, 0x00, 0x00, 0x00,
  0x80, 0xfd, 0xff, 0xff, 0x19, 0x00, 0x00, 0x00, 0x53, 0x74, 0x61, 0x74,
  0x65, 0x66, 0x75, 0x6c, 0x50, 0x61, 0x72, 0x74, 0x69, 0x74, 0x69, 0x6f,
  0x6e, 0x65, 0x64, 0x43, 0x61, 0x6c, 0x6c, 0x3a, 0x30, 0x00, 0x00, 0x00,
  0x02, 0x00, 0x00, 0x00, 0x01, 0x00, 0x00, 0x00, 0x05, 0x00, 0x00, 0x00,
  0xee, 0xfd, 0xff, 0xff, 0x00, 0x00, 0x00, 0x01, 0x14, 0x00, 0x00, 0x00,
  0x1c, 0x00, 0x00, 0x00, 0x1c, 0x00, 0x00, 0x00, 0x07, 0x00, 0x00, 0x00,
  0x34, 0x00, 0x00, 0x00, 0x02, 0x00, 0x00, 0x00, 0xff, 0xff, 0xff, 0xff,
  0x1b, 0x00, 0x00, 0x00, 0xd8, 0xfd, 0xff, 0xff, 0x18, 0x00, 0x00, 0x00,
  0x73, 0x65, 0x71, 0x75, 0x65, 0x6e, 0x74, 0x69, 0x61, 0x6c, 0x2f, 0x64,
  0x65, 0x6e, 0x73, 0x65, 0x2f, 0x53, 0x69, 0x67, 0x6d, 0x6f, 0x69, 0x64,
  0x00, 0x00, 0x00, 0x00, 0x02, 0x00, 0x00, 0x00, 0x01, 0x00, 0x00, 0x00,
  0x1b, 0x00, 0x00, 0x00, 0x46, 0xfe, 0xff, 0xff, 0x00, 0x00, 0x00, 0x01,
  0x14, 0x00, 0x00, 0x00, 0x1c, 0x00, 0x00, 0x00, 0x1c, 0x00, 0x00, 0x00,
  0x06, 0x00, 0x00, 0x00, 0x4c, 0x00, 0x00, 0x00, 0x02, 0x00, 0x00, 0x00,
  0xff, 0xff, 0xff, 0xff, 0x1b, 0x00, 0x00, 0x00, 0x30, 0xfe, 0xff, 0xff,
  0x30, 0x00, 0x00, 0x00, 0x73, 0x65, 0x71, 0x75, 0x65, 0x6e, 0x74, 0x69,
  0x61, 0x6c, 0x2f, 0x64, 0x65, 0x6e, 0x73, 0x65, 0x2f, 0x4d, 0x61, 0x74,
  0x4d, 0x75, 0x6c, 0x3b, 0x73, 0x65, 0x71, 0x75, 0x65, 0x6e, 0x74, 0x69,
  0x61, 0x6c, 0x2f, 0x64, 0x65, 0x6e, 0x73, 0x65, 0x2f, 0x42, 0x69, 0x61,
  0x73, 0x41, 0x64, 0x64, 0x00, 0x00, 0x00, 0x00, 0x02, 0x00, 0x00, 0x00,
  0x01, 0x00, 0x00, 0x00, 0x1b, 0x00, 0x00, 0x00, 0x22, 0xff, 0xff, 0xff,
  0x00, 0x00, 0x00, 0x01, 0x10, 0x00, 0x00, 0x00, 0x10, 0x00, 0x00, 0x00,
  0x05, 0x00, 0x00, 0x00, 0x28, 0x00, 0x00, 0x00, 0x90, 0xfe, 0xff, 0xff,
  0x19, 0x00, 0x00, 0x00, 0x73, 0x65, 0x71, 0x75, 0x65, 0x6e, 0x74, 0x69,
  0x61, 0x6c, 0x2f, 0x64, 0x65, 0x6e, 0x73, 0x65, 0x5f, 0x31, 0x2f, 0x4d,
  0x61, 0x74, 0x4d, 0x75, 0x6c, 0x00, 0x00, 0x00, 0x02, 0x00, 0x00, 0x00,
  0x05, 0x00, 0x00, 0x00, 0x1b, 0x00, 0x00, 0x00, 0x6a, 0xff, 0xff, 0xff,
  0x00, 0x00, 0x00, 0x01, 0x10, 0x00, 0x00, 0x00, 0x10, 0x00, 0x00, 0x00,
  0x04, 0x00, 0x00, 0x00, 0x24, 0x00, 0x00, 0x00, 0xd8, 0xfe, 0xff, 0xff,
  0x17, 0x00, 0x00, 0x00, 0x73, 0x65, 0x71, 0x75, 0x65, 0x6e, 0x74, 0x69,
  0x61, 0x6c, 0x2f, 0x64, 0x65, 0x6e, 0x73, 0x65, 0x2f, 0x4d, 0x61, 0x74,
  0x4d, 0x75, 0x6c, 0x00, 0x02, 0x00, 0x00, 0x00, 0x1b, 0x00, 0x00, 0x00,
  0x1b, 0x00, 0x00, 0x00, 0xae, 0xff, 0xff, 0xff, 0x00, 0x00, 0x00, 0x01,
  0x10, 0x00, 0x00, 0x00, 0x10, 0x00, 0x00, 0x00, 0x03, 0x00, 0x00, 0x00,
  0x34, 0x00, 0x00, 0x00, 0x1c, 0xff, 0xff, 0xff, 0x27, 0x00, 0x00, 0x00,
  0x73, 0x65, 0x71, 0x75, 0x65, 0x6e, 0x74, 0x69, 0x61, 0x6c, 0x2f, 0x64,
  0x65, 0x6e, 0x73, 0x65, 0x2f, 0x42, 0x69, 0x61, 0x73, 0x41, 0x64, 0x64,
  0x2f, 0x52, 0x65, 0x61, 0x64, 0x56, 0x61, 0x72, 0x69, 0x61, 0x62, 0x6c,
  0x65, 0x4f, 0x70, 0x00, 0x01, 0x00, 0x00, 0x00, 0x1b, 0x00, 0x00, 0x00,
  0x00, 0x00, 0x16, 0x00, 0x18, 0x00, 0x14, 0x00, 0x00, 0x00, 0x10, 0x00,
  0x0c, 0x00, 0x08, 0x00, 0x00, 0x00, 0x00, 0x00, 0x00, 0x00, 0x07, 0x00,
  0x16, 0x00, 0x00, 0x00, 0x00, 0x00, 0x00, 0x01, 0x10, 0x00, 0x00, 0x00,
  0x10, 0x00, 0x00, 0x00, 0x02, 0x00, 0x00, 0x00, 0x38, 0x00, 0x00, 0x00,
  0x84, 0xff, 0xff, 0xff, 0x29, 0x00, 0x00, 0x00, 0x73, 0x65, 0x71, 0x75,
  0x65, 0x6e, 0x74, 0x69, 0x61, 0x6c, 0x2f, 0x64, 0x65, 0x6e, 0x73, 0x65,
  0x5f, 0x31, 0x2f, 0x42, 0x69, 0x61, 0x73, 0x41, 0x64, 0x64, 0x2f, 0x52,
  0x65, 0x61, 0x64, 0x56, 0x61, 0x72, 0x69, 0x61, 0x62, 0x6c, 0x65, 0x4f,
  0x70, 0x00, 0x00, 0x00, 0x01, 0x00, 0x00, 0x00, 0x05, 0x00, 0x00, 0x00,
  0x00, 0x00, 0x16, 0x00, 0x1c, 0x00, 0x18, 0x00, 0x00, 0x00, 0x14, 0x00,
  0x10, 0x00, 0x0c, 0x00, 0x00, 0x00, 0x00, 0x00, 0x08, 0x00, 0x07, 0x00,
  0x16, 0x00, 0x00, 0x00, 0x00, 0x00, 0x00, 0x01, 0x14, 0x00, 0x00, 0x00,
  0x20, 0x00, 0x00, 0x00, 0x20, 0x00, 0x00, 0x00, 0x01, 0x00, 0x00, 0x00,
  0x3c, 0x00, 0x00, 0x00, 0x02, 0x00, 0x00, 0x00, 0xff, 0xff, 0xff, 0xff,
  0x1b, 0x00, 0x00, 0x00, 0x04, 0x00, 0x04, 0x00, 0x04, 0x00, 0x00, 0x00,
  0x1d, 0x00, 0x00, 0x00, 0x73, 0x65, 0x72, 0x76, 0x69, 0x6e, 0x67, 0x5f,
  0x64, 0x65, 0x66, 0x61, 0x75, 0x6c, 0x74, 0x5f, 0x64, 0x65, 0x6e, 0x73,
  0x65, 0x5f, 0x69, 0x6e, 0x70, 0x75, 0x74, 0x3a, 0x30, 0x00, 0x00, 0x00,
  0x02, 0x00, 0x00, 0x00, 0x01, 0x00, 0x00, 0x00, 0x1b, 0x00, 0x00, 0x00,
  0x02, 0x00, 0x00, 0x00, 0x20, 0x00, 0x00, 0x00, 0x04, 0x00, 0x00, 0x00,
  0xf4, 0xff, 0xff, 0xff, 0x0e, 0x00, 0x00, 0x00, 0x00, 0x00, 0x00, 0x0e,
  0x0c, 0x00, 0x0c, 0x00, 0x0b, 0x00, 0x00, 0x00, 0x00, 0x00, 0x04, 0x00,
  0x0c, 0x00, 0x00, 0x00, 0x09, 0x00, 0x00, 0x00, 0x00, 0x00, 0x00, 0x09
 
};

