#define TENSORFLOW_LITE_EXPERIMENTAL_MICRO_EXAMPLES_HELLO_WORLD_SINE_MODEL_DATA_H_
#ifdef __has_attribute
#define HAVE_ATTRIBUTE(x) __has_attribute(x)
#else
#define HAVE_ATTRIBUTE(x) 0
#endif
#if HAVE_ATTRIBUTE(aligned) || (defined(__GNUC__) && !defined(__clang__))
#define DATA_ALIGN_ATTRIBUTE __attribute__((aligned(4)))
#else
#define DATA_ALIGN_ATTRIBUTE
#endif
const int g_second_model_data_len = 5184;
const unsigned char g_second_model_data[] DATA_ALIGN_ATTRIBUTE = {
 0x1c, 0x00, 0x00, 0x00, 0x54, 0x46, 0x4c, 0x33, 0x14, 0x00, 0x20, 0x00,
  0x1c, 0x00, 0x18, 0x00, 0x14, 0x00, 0x10, 0x00, 0x0c, 0x00, 0x00, 0x00,
  0x08, 0x00, 0x04, 0x00, 0x14, 0x00, 0x00, 0x00, 0x1c, 0x00, 0x00, 0x00,
  0x84, 0x00, 0x00, 0x00, 0xdc, 0x00, 0x00, 0x00, 0xd4, 0x0f, 0x00, 0x00,
  0xe4, 0x0f, 0x00, 0x00, 0xdc, 0x13, 0x00, 0x00, 0x03, 0x00, 0x00, 0x00,
  0x01, 0x00, 0x00, 0x00, 0x04, 0x00, 0x00, 0x00, 0xb2, 0xef, 0xff, 0xff,
  0x0c, 0x00, 0x00, 0x00, 0x1c, 0x00, 0x00, 0x00, 0x38, 0x00, 0x00, 0x00,
  0x0f, 0x00, 0x00, 0x00, 0x73, 0x65, 0x72, 0x76, 0x69, 0x6e, 0x67, 0x5f,
  0x64, 0x65, 0x66, 0x61, 0x75, 0x6c, 0x74, 0x00, 0x01, 0x00, 0x00, 0x00,
  0x04, 0x00, 0x00, 0x00, 0x98, 0xff, 0xff, 0xff, 0x07, 0x00, 0x00, 0x00,
  0x04, 0x00, 0x00, 0x00, 0x07, 0x00, 0x00, 0x00, 0x64, 0x65, 0x6e, 0x73,
  0x65, 0x5f, 0x31, 0x00, 0x01, 0x00, 0x00, 0x00, 0x04, 0x00, 0x00, 0x00,
  0xbe, 0xf0, 0xff, 0xff, 0x04, 0x00, 0x00, 0x00, 0x0b, 0x00, 0x00, 0x00,
  0x64, 0x65, 0x6e, 0x73, 0x65, 0x5f, 0x69, 0x6e, 0x70, 0x75, 0x74, 0x00,
  0x02, 0x00, 0x00, 0x00, 0x34, 0x00, 0x00, 0x00, 0x04, 0x00, 0x00, 0x00,
  0xdc, 0xff, 0xff, 0xff, 0x0a, 0x00, 0x00, 0x00, 0x04, 0x00, 0x00, 0x00,
  0x13, 0x00, 0x00, 0x00, 0x43, 0x4f, 0x4e, 0x56, 0x45, 0x52, 0x53, 0x49,
  0x4f, 0x4e, 0x5f, 0x4d, 0x45, 0x54, 0x41, 0x44, 0x41, 0x54, 0x41, 0x00,
  0x08, 0x00, 0x0c, 0x00, 0x08, 0x00, 0x04, 0x00, 0x08, 0x00, 0x00, 0x00,
  0x09, 0x00, 0x00, 0x00, 0x04, 0x00, 0x00, 0x00, 0x13, 0x00, 0x00, 0x00,
  0x6d, 0x69, 0x6e, 0x5f, 0x72, 0x75, 0x6e, 0x74, 0x69, 0x6d, 0x65, 0x5f,
  0x76, 0x65, 0x72, 0x73, 0x69, 0x6f, 0x6e, 0x00, 0x0b, 0x00, 0x00, 0x00,
  0xf4, 0x0e, 0x00, 0x00, 0xec, 0x0e, 0x00, 0x00, 0xc8, 0x0e, 0x00, 0x00,
  0x44, 0x0e, 0x00, 0x00, 0xd0, 0x02, 0x00, 0x00, 0xa4, 0x00, 0x00, 0x00,
  0x9c, 0x00, 0x00, 0x00, 0x94, 0x00, 0x00, 0x00, 0x8c, 0x00, 0x00, 0x00,
  0x6c, 0x00, 0x00, 0x00, 0x04, 0x00, 0x00, 0x00, 0x62, 0xf1, 0xff, 0xff,
  0x04, 0x00, 0x00, 0x00, 0x58, 0x00, 0x00, 0x00, 0x0c, 0x00, 0x00, 0x00,
  0x08, 0x00, 0x0e, 0x00, 0x08, 0x00, 0x04, 0x00, 0x08, 0x00, 0x00, 0x00,
  0x10, 0x00, 0x00, 0x00, 0x28, 0x00, 0x00, 0x00, 0x00, 0x00, 0x06, 0x00,
  0x08, 0x00, 0x04, 0x00, 0x06, 0x00, 0x00, 0x00, 0x04, 0x00, 0x00, 0x00,
  0x01, 0x00, 0x00, 0x00, 0xea, 0x03, 0x00, 0x00, 0x00, 0x00, 0x0a, 0x00,
  0x10, 0x00, 0x0c, 0x00, 0x08, 0x00, 0x04, 0x00, 0x0a, 0x00, 0x00, 0x00,
  0x02, 0x00, 0x00, 0x00, 0x02, 0x00, 0x00, 0x00, 0x04, 0x00, 0x00, 0x00,
  0x06, 0x00, 0x00, 0x00, 0x32, 0x2e, 0x31, 0x30, 0x2e, 0x30, 0x00, 0x00,
  0xc6, 0xf1, 0xff, 0xff, 0x04, 0x00, 0x00, 0x00, 0x10, 0x00, 0x00, 0x00,
  0x31, 0x2e, 0x31, 0x34, 0x2e, 0x30, 0x00, 0x00, 0x00, 0x00, 0x00, 0x00,
  0x00, 0x00, 0x00, 0x00, 0xdc, 0xed, 0xff, 0xff, 0xe0, 0xed, 0xff, 0xff,
  0xe4, 0xed, 0xff, 0xff, 0xee, 0xf1, 0xff, 0xff, 0x04, 0x00, 0x00, 0x00,
  0x1c, 0x02, 0x00, 0x00, 0xa0, 0x38, 0x2e, 0x3e, 0x09, 0xd6, 0x19, 0xbe,
  0x0c, 0x65, 0x37, 0xbe, 0x6a, 0xfb, 0x97, 0xbe, 0x35, 0xbf, 0xdf, 0x3e,
  0x30, 0xa0, 0x93, 0x3d, 0xba, 0x0d, 0x70, 0xbd, 0x02, 0xd3, 0xa4, 0x3d,
  0x63, 0x28, 0xf5, 0x3d, 0xec, 0x82, 0xda, 0xbd, 0xaa, 0x58, 0x87, 0x3d,
  0x69, 0x88, 0x82, 0xbe, 0x00, 0x4a, 0x4d, 0xbe, 0xb9, 0x35, 0xdb, 0xbd,
  0x25, 0x8a, 0x58, 0x3e, 0x86, 0x9f, 0xa2, 0xbe, 0x31, 0xd9, 0x9a, 0x3d,
  0x66, 0xe1, 0x86, 0x3d, 0x4e, 0x6e, 0x63, 0xbe, 0xa0, 0xa9, 0x63, 0x3d,
  0xea, 0x55, 0x5b, 0xbe, 0x8c, 0x9a, 0xce, 0x3e, 0x67, 0x9e, 0x38, 0x3e,
  0xb4, 0x26, 0x83, 0x3e, 0xdb, 0x46, 0xe0, 0xbc, 0xdd, 0xa8, 0x88, 0xbe,
  0x2b, 0x13, 0x77, 0x3e, 0xc6, 0xbc, 0x98, 0x3e, 0x74, 0x61, 0xc0, 0xbd,
  0x11, 0x96, 0x70, 0x3e, 0x90, 0x4c, 0x3b, 0x3e, 0xf3, 0x62, 0x29, 0x3d,
  0x28, 0x8b, 0xca, 0xbe, 0xad, 0x0a, 0x13, 0xbe, 0xfb, 0xdd, 0x7b, 0xbe,
  0xd3, 0xcc, 0x0c, 0x3e, 0x2e, 0xb6, 0x74, 0x3e, 0xc6, 0x40, 0xe4, 0x3e,
  0x06, 0x77, 0x38, 0xbe, 0x20, 0x26, 0x97, 0xbe, 0x99, 0x2e, 0x9e, 0xbd,
  0x90, 0x1a, 0xb9, 0x3e, 0x02, 0xc8, 0x3e, 0xbe, 0x31, 0x7e, 0xf9, 0x3d,
  0xc9, 0x97, 0xb7, 0xbe, 0x3b, 0x99, 0x70, 0x3d, 0x14, 0xe9, 0xae, 0x3e,
  0x61, 0xcc, 0x3d, 0xbe, 0xe9, 0xb1, 0xe2, 0x3e, 0x61, 0x12, 0x95, 0x3e,
  0x27, 0xe9, 0x06, 0xbe, 0x71, 0x73, 0xf2, 0x3a, 0xad, 0x58, 0xc5, 0xbe,
  0x2a, 0x63, 0x3a, 0xbe, 0x69, 0xc3, 0x99, 0xbd, 0xb1, 0x65, 0x9e, 0xbe,
  0xcd, 0x87, 0x2e, 0x3e, 0x97, 0x23, 0x7f, 0x3e, 0xe6, 0xc8, 0xdd, 0x3e,
  0x16, 0x5e, 0x85, 0xbe, 0x77, 0x56, 0xc9, 0x3d, 0xd2, 0x87, 0x82, 0xbe,
  0x1c, 0x6a, 0x60, 0x3e, 0x9b, 0x46, 0x41, 0x3c, 0x7c, 0xdf, 0x26, 0xbd,
  0xba, 0x7f, 0x9b, 0xbc, 0xc6, 0xad, 0x6d, 0x3e, 0x1a, 0x92, 0x3b, 0xbe,
  0x69, 0x36, 0x85, 0x3e, 0xeb, 0x39, 0xe2, 0xbd, 0x41, 0x4e, 0x59, 0xbe,
  0xbe, 0xe0, 0xc1, 0x3e, 0x4b, 0xf7, 0xe4, 0x3e, 0xae, 0x28, 0xa3, 0xbe,
  0x9b, 0x54, 0x83, 0xbe, 0x64, 0x16, 0xef, 0x3e, 0x0c, 0xae, 0x80, 0xbe,
  0x80, 0xd7, 0xec, 0xbb, 0xd9, 0xca, 0xb2, 0xbe, 0xd8, 0x6c, 0xad, 0xbe,
  0x9f, 0x8d, 0x8d, 0xbe, 0x8b, 0xcd, 0x31, 0xbd, 0x5b, 0x29, 0x9a, 0x3e,
  0xbd, 0x7d, 0xc9, 0xbe, 0x72, 0x8c, 0xa8, 0x3e, 0x23, 0x71, 0x96, 0x3c,
  0x6e, 0x75, 0xfb, 0xbd, 0x99, 0xe8, 0x93, 0x3e, 0xc0, 0xc1, 0x44, 0x3d,
  0x2a, 0x03, 0x56, 0xbe, 0xf0, 0xde, 0xaf, 0x3e, 0x3a, 0xbf, 0x9e, 0xbe,
  0x9f, 0xcc, 0x76, 0x3e, 0x8f, 0x5a, 0x7a, 0x3e, 0xdc, 0x20, 0x31, 0xbe,
  0xc9, 0x7e, 0x8b, 0xbe, 0xec, 0x59, 0x83, 0x3d, 0x80, 0xa3, 0x0a, 0x3e,
  0x8d, 0xf4, 0x90, 0x3d, 0x30, 0x2d, 0xc2, 0xbc, 0xf6, 0x26, 0x61, 0x3e,
  0x69, 0x86, 0x2c, 0x3e, 0x05, 0x18, 0x33, 0x3e, 0xd3, 0xa9, 0x1c, 0xbe,
  0x87, 0x5c, 0xd5, 0x3e, 0x17, 0xbb, 0x16, 0x3e, 0x65, 0x2e, 0x24, 0xbe,
  0xe4, 0x90, 0x80, 0x3e, 0xfe, 0x74, 0x9d, 0xbd, 0x09, 0x38, 0xa2, 0xbd,
  0xa3, 0x7a, 0x3a, 0xbe, 0xde, 0x25, 0x23, 0x3e, 0x5e, 0xaa, 0x2d, 0x3e,
  0x33, 0xd4, 0xbd, 0x3e, 0x0a, 0x39, 0x3e, 0x3e, 0x49, 0xe5, 0x90, 0xbe,
  0xcb, 0x9a, 0x88, 0x3e, 0x56, 0xa1, 0x9f, 0x3e, 0x9a, 0x92, 0xcb, 0x3e,
  0x0e, 0x5e, 0x28, 0x3e, 0x88, 0x41, 0xd2, 0xbb, 0x82, 0x15, 0xdb, 0xbe,
  0x89, 0xf8, 0x9a, 0x3c, 0x59, 0x80, 0xce, 0xbe, 0x78, 0x2b, 0xa3, 0x3e,
  0x38, 0x5a, 0x2d, 0x3e, 0x3d, 0x33, 0x9d, 0x3d, 0xa2, 0x90, 0x5a, 0xbe,
  0x50, 0x57, 0x56, 0x3e, 0xe2, 0x13, 0x22, 0x3e, 0x14, 0x5d, 0x58, 0xbc,
  0xcb, 0xaa, 0xd5, 0xbe, 0xaa, 0xf8, 0x3e, 0xbe, 0x04, 0xb3, 0xa7, 0x3e,
  0xa0, 0x46, 0x96, 0xbe, 0x16, 0xf4, 0xff, 0xff, 0x04, 0x00, 0x00, 0x00,
  0x64, 0x0b, 0x00, 0x00, 0xba, 0xb0, 0x92, 0x3e, 0x04, 0x70, 0xb7, 0xbd,
  0xf2, 0x9f, 0x7d, 0xbe, 0x31, 0x8a, 0x74, 0xbe, 0x8a, 0x6e, 0x8c, 0x3d,
  0x8d, 0x1b, 0xb0, 0x3e, 0x8e, 0x56, 0x85, 0xbe, 0x5b, 0x45, 0xaf, 0xbc,
  0x9c, 0x44, 0x6e, 0xbe, 0xe3, 0xfe, 0x5c, 0x3e, 0x88, 0x86, 0x66, 0xbd,
  0x13, 0xac, 0x96, 0xbe, 0x98, 0x92, 0x01, 0xbd, 0x1b, 0xb4, 0xce, 0x3c,
  0x41, 0x26, 0x23, 0x3e, 0xed, 0x1b, 0xdb, 0xbd, 0x04, 0x58, 0x67, 0x3e,
  0x7d, 0x99, 0x85, 0xbe, 0xc5, 0xa3, 0x7c, 0xbe, 0x85, 0x5e, 0x7f, 0x3e,
  0x25, 0xee, 0xf7, 0xbd, 0x5c, 0x87, 0x1f, 0x3e, 0x65, 0xc2, 0xb7, 0x3e,
  0x3d, 0xf7, 0x3f, 0xbe, 0xdd, 0xea, 0x5a, 0x3d, 0x14, 0x52, 0xdc, 0x3c,
  0xc4, 0x19, 0x5c, 0x3e, 0x1e, 0xbb, 0x7e, 0x3d, 0xb6, 0xe2, 0xf3, 0x3d,
  0x31, 0x5b, 0x8d, 0xbe, 0x44, 0x41, 0xe6, 0x3d, 0x39, 0x39, 0x85, 0x3e,
  0xbc, 0x34, 0x61, 0x3e, 0x1e, 0x12, 0x7a, 0xbc, 0x9b, 0x27, 0xa9, 0x3d,
  0x07, 0x59, 0xdc, 0x3d, 0x91, 0x81, 0x2e, 0x3e, 0x05, 0xba, 0x4d, 0xbe,
  0x3b, 0x95, 0x29, 0xbe, 0x22, 0x0d, 0x2e, 0x3e, 0x72, 0xc2, 0x49, 0xbe,
  0x6d, 0x36, 0xea, 0xbd, 0x05, 0x4f, 0xc4, 0xbd, 0xd3, 0xbb, 0x90, 0xbd,
  0xbe, 0x29, 0x47, 0xbe, 0xfa, 0x5f, 0xe7, 0x3c, 0xb6, 0xee, 0x42, 0xbd,
  0x2d, 0x9e, 0x82, 0x3e, 0xde, 0xbf, 0xe2, 0xbd, 0x67, 0x2b, 0xea, 0xbc,
  0x7d, 0xc2, 0x1b, 0xbe, 0x67, 0x95, 0x8b, 0x3d, 0x65, 0x48, 0xe5, 0x3d,
  0x9a, 0xf6, 0xe0, 0x3c, 0x74, 0x5d, 0x76, 0xbe, 0xf1, 0xbf, 0x8b, 0x3e,
  0x5d, 0x4c, 0x2e, 0xbd, 0x9e, 0x4a, 0x8f, 0xbe, 0x36, 0x4c, 0xec, 0xbd,
  0xb0, 0x60, 0xc9, 0x3d, 0x15, 0x90, 0x92, 0xbe, 0x0d, 0x65, 0x54, 0xbe,
  0x3a, 0xbb, 0x0c, 0x3e, 0xda, 0xa9, 0x85, 0xbd, 0x0a, 0xb2, 0x43, 0xbe,
  0x09, 0x44, 0xbc, 0x3e, 0xcf, 0x93, 0x08, 0xbd, 0x15, 0x2d, 0x83, 0xbe,
  0x0e, 0xf4, 0x5a, 0xbe, 0xfe, 0xac, 0x61, 0xbe, 0x92, 0x16, 0x11, 0xbc,
  0x74, 0xce, 0x7a, 0xbe, 0x99, 0x10, 0x23, 0xbe, 0xcc, 0x59, 0xbe, 0x3c,
  0x81, 0xb4, 0xd8, 0x3d, 0xe7, 0xc0, 0xb8, 0xbe, 0x8c, 0x8e, 0x2c, 0x3e,
  0x6c, 0x67, 0x6d, 0x3e, 0x23, 0xbe, 0x15, 0x3e, 0x4a, 0x71, 0x76, 0xbe,
  0xc5, 0x44, 0x2c, 0xbc, 0x8c, 0x67, 0x90, 0xbe, 0xaa, 0xf8, 0x7e, 0xbd,
  0x28, 0x43, 0x66, 0xbd, 0x30, 0x50, 0xaf, 0xbd, 0x13, 0xc2, 0x21, 0xbe,
  0xbb, 0xf5, 0x61, 0xbe, 0xec, 0x6c, 0x5a, 0xbe, 0x33, 0xdf, 0x10, 0x3d,
  0x68, 0x4a, 0xf7, 0xbd, 0x38, 0x6a, 0x67, 0xbe, 0x6c, 0x31, 0xa1, 0xbe,
  0x51, 0x4c, 0x2b, 0x3e, 0xf0, 0x8f, 0xad, 0xbe, 0x53, 0x57, 0xad, 0x3c,
  0xda, 0x65, 0x02, 0xbe, 0xfb, 0xc8, 0x88, 0x3d, 0x06, 0x72, 0xa2, 0x3d,
  0xc7, 0x4f, 0x31, 0xbe, 0xc7, 0x25, 0xdb, 0xbd, 0xf2, 0xff, 0x7d, 0xbd,
  0x77, 0x8d, 0x51, 0x3d, 0xa6, 0xcf, 0x1a, 0xbe, 0x2b, 0x39, 0xff, 0x3d,
  0xce, 0x0b, 0x25, 0x3e, 0x5c, 0xcc, 0x1e, 0x3e, 0x45, 0x71, 0x28, 0x3d,
  0xc9, 0x96, 0x61, 0x3e, 0xe0, 0xe4, 0x85, 0xbe, 0x7b, 0x09, 0x44, 0x3e,
  0x71, 0x2f, 0x86, 0xbe, 0x27, 0x8a, 0x03, 0x3e, 0x4e, 0x68, 0x86, 0xbe,
  0x63, 0x1c, 0x6a, 0x3d, 0xc4, 0x12, 0xe2, 0xbc, 0x85, 0x2f, 0xb0, 0x3e,
  0xd0, 0xdb, 0x70, 0xbe, 0xce, 0x80, 0xe0, 0xbd, 0xe6, 0xcc, 0x8a, 0x3e,
  0x21, 0xe1, 0x5b, 0x3e, 0xfc, 0x5d, 0x0d, 0x3e, 0x3f, 0x16, 0x8e, 0x3e,
  0x28, 0xfc, 0x71, 0xbe, 0xcf, 0x3a, 0x58, 0x3e, 0xb5, 0x83, 0x50, 0xbe,
  0xef, 0x12, 0xb2, 0xbd, 0x2a, 0x24, 0x4b, 0x3e, 0x68, 0xca, 0xe8, 0xbd,
  0xd7, 0xfb, 0x49, 0x3d, 0x8d, 0xb6, 0xff, 0xbd, 0x46, 0x47, 0xd7, 0x3c,
  0xe8, 0x52, 0x3e, 0x3c, 0x01, 0x73, 0xb6, 0x3e, 0x59, 0xf0, 0xcd, 0xbd,
  0x1e, 0x37, 0xa8, 0x3d, 0xda, 0x5b, 0x87, 0xbe, 0x85, 0x8c, 0xf3, 0xbd,
  0xed, 0x40, 0x7d, 0xbe, 0x2d, 0x3e, 0x3e, 0xbd, 0x75, 0x45, 0x80, 0x3e,
  0x60, 0xe6, 0x71, 0xbe, 0x3c, 0xe5, 0x85, 0x3e, 0x35, 0x15, 0xa7, 0xbe,
  0xe4, 0x80, 0x61, 0x3d, 0x81, 0x77, 0x72, 0x3e, 0x80, 0x7c, 0xa9, 0xbe,
  0xe7, 0x86, 0x16, 0xbe, 0xc1, 0xf2, 0x93, 0x3d, 0xd3, 0x2d, 0xca, 0xbd,
  0x34, 0x7d, 0x43, 0xbe, 0x6f, 0xd1, 0xe1, 0x3d, 0x00, 0x3b, 0x92, 0xbe,
  0xaa, 0x1d, 0x9d, 0xbd, 0x8a, 0xa9, 0xf4, 0x3a, 0x69, 0x99, 0x66, 0x3e,
  0x05, 0xc3, 0xb7, 0x3d, 0x99, 0xd7, 0xaa, 0xbe, 0xd7, 0x07, 0x8d, 0x3e,
  0x66, 0xad, 0x51, 0xbe, 0xd9, 0x05, 0x98, 0xbe, 0xc7, 0x56, 0x61, 0x3e,
  0x92, 0x24, 0x48, 0x3d, 0x6b, 0xed, 0x94, 0x3d, 0xb5, 0xd4, 0x2b, 0x3e,
  0x7f, 0x03, 0xb2, 0xbe, 0x0b, 0x34, 0xb0, 0xbe, 0x6b, 0x73, 0xa1, 0xbe,
  0x8a, 0x2f, 0x9b, 0xbe, 0x7e, 0x7c, 0x51, 0xbc, 0x10, 0x13, 0x2c, 0xbd,
  0x05, 0x62, 0x55, 0x3e, 0xf1, 0xf1, 0x25, 0xbc, 0x22, 0xbf, 0x04, 0x3e,
  0x4a, 0x9d, 0x48, 0xbd, 0x9c, 0x6b, 0x02, 0xbd, 0x98, 0xfa, 0x87, 0xbe,
  0x10, 0x8d, 0x58, 0xbe, 0xe5, 0xe2, 0x7d, 0xbe, 0x84, 0x91, 0x47, 0xbd,
  0xfe, 0xb5, 0x6f, 0x3e, 0x2c, 0x32, 0x92, 0xbe, 0xe6, 0x1e, 0x87, 0x3e,
  0x62, 0x44, 0x2e, 0x3e, 0x27, 0x5d, 0xa9, 0xbe, 0xb0, 0x10, 0x05, 0x3e,
  0xef, 0x75, 0x8d, 0xbe, 0xf5, 0x9d, 0x1b, 0xbd, 0xb9, 0x1c, 0x6a, 0xbe,
  0x0b, 0xa9, 0x76, 0x3d, 0xea, 0x7b, 0x1e, 0xbe, 0xf6, 0x93, 0x29, 0x3e,
  0x39, 0x9b, 0x9d, 0xbe, 0x34, 0x7b, 0xb7, 0xbe, 0x51, 0x5d, 0x8b, 0xbe,
  0x4b, 0x79, 0x81, 0xbe, 0x97, 0xb3, 0x91, 0xbe, 0x88, 0x11, 0x12, 0x3d,
  0xea, 0x74, 0x48, 0xbd, 0xe4, 0xed, 0xfd, 0x3d, 0xc8, 0x22, 0x30, 0x3e,
  0x16, 0x2e, 0x3c, 0x3e, 0xac, 0xd2, 0xb0, 0xbd, 0xcb, 0x67, 0x4b, 0x3e,
  0xc6, 0xdf, 0x2f, 0xbe, 0x23, 0x5c, 0x61, 0xbe, 0xb6, 0xb9, 0x1f, 0xbe,
  0x2a, 0x30, 0x0b, 0x3e, 0xed, 0xa6, 0x9e, 0x3d, 0xbb, 0x95, 0x03, 0x3e,
  0x8d, 0x5b, 0x70, 0x3d, 0x84, 0xf0, 0x34, 0x3e, 0x6d, 0x3c, 0x46, 0xbe,
  0x10, 0x74, 0x54, 0x3d, 0x44, 0xa4, 0xd3, 0x3d, 0x50, 0x03, 0x54, 0x3e,
  0xef, 0xc8, 0xab, 0xbe, 0x91, 0x9b, 0x2c, 0xbe, 0xc2, 0xd2, 0x69, 0xbe,
  0x93, 0x68, 0x08, 0x3e, 0xa7, 0x02, 0x03, 0x3d, 0xea, 0x22, 0x5c, 0x3e,
  0x14, 0xc5, 0x25, 0xbe, 0x45, 0xf1, 0x22, 0x3e, 0xfd, 0x12, 0xb4, 0x3e,
  0x04, 0x5b, 0x0a, 0x3e, 0xf8, 0x4f, 0x92, 0x3c, 0x5e, 0xd8, 0xb8, 0xbd,
  0xb9, 0x26, 0x2a, 0xbe, 0xcf, 0xd3, 0xa9, 0x3e, 0xba, 0xf7, 0xd0, 0x3d,
  0xe5, 0x26, 0x45, 0xbe, 0xd8, 0x52, 0x37, 0xbd, 0xc0, 0xbf, 0x14, 0x3d,
  0x8a, 0x4c, 0x86, 0x3e, 0x5c, 0x0c, 0xfc, 0x3d, 0xd2, 0x85, 0x75, 0x3e,
  0x9e, 0x83, 0x1a, 0xbe, 0xf9, 0x7f, 0x50, 0xbe, 0x79, 0xa6, 0xba, 0x3e,
  0x6e, 0xd7, 0xc8, 0x3d, 0x98, 0xcd, 0x49, 0x3e, 0xe7, 0xff, 0x68, 0xbe,
  0x65, 0x52, 0x58, 0x3e, 0x5a, 0x0f, 0xb8, 0xbd, 0x9a, 0x93, 0xb8, 0xbe,
  0xd5, 0x36, 0x11, 0xbe, 0x5c, 0x82, 0x1c, 0xbe, 0x9b, 0xf2, 0x65, 0x3d,
  0x0a, 0xbd, 0x0c, 0xbd, 0xd0, 0x8d, 0x4c, 0x3e, 0xa8, 0xd6, 0x07, 0x3e,
  0x43, 0xa1, 0x70, 0x3e, 0xbe, 0xdb, 0x11, 0xbd, 0xd4, 0x3a, 0xab, 0xbd,
  0x4a, 0x3b, 0xa2, 0x3e, 0xf8, 0x03, 0x53, 0xbe, 0xf5, 0x6d, 0x6f, 0xbd,
  0x4f, 0xea, 0x43, 0x3e, 0xda, 0x2e, 0xbf, 0x3d, 0xba, 0xa4, 0x20, 0xbe,
  0x16, 0xc6, 0x46, 0xbe, 0xd8, 0x98, 0x2a, 0x3e, 0x87, 0x57, 0x87, 0x3e,
  0xdd, 0x52, 0xf6, 0x3d, 0x70, 0xdd, 0x80, 0xbd, 0x84, 0x89, 0x12, 0x3e,
  0x19, 0x23, 0x98, 0xbd, 0xe4, 0x1c, 0x35, 0xbe, 0x5e, 0xfb, 0x1c, 0xbe,
  0x57, 0xf4, 0x37, 0xbc, 0x3d, 0x72, 0x98, 0x3e, 0xdb, 0x4e, 0x7f, 0x3e,
  0xaf, 0x01, 0x29, 0x3e, 0x07, 0x4e, 0x94, 0xbe, 0x25, 0x71, 0x2d, 0x3e,
  0x08, 0x4e, 0x7e, 0xbc, 0x2f, 0x24, 0x91, 0x3d, 0xd4, 0x33, 0x8e, 0x3e,
  0x4a, 0x6c, 0xe9, 0xbc, 0xd0, 0xc0, 0x8b, 0xbd, 0x2f, 0x9e, 0x16, 0xbd,
  0x15, 0x8f, 0x5c, 0x3e, 0x47, 0xe8, 0x76, 0x3e, 0xd7, 0x44, 0x2a, 0x3e,
  0x53, 0x5e, 0x7a, 0xbe, 0xb3, 0xa6, 0xf2, 0x3d, 0x7e, 0xdb, 0xd9, 0x3d,
  0x20, 0x7d, 0x1d, 0xbe, 0x7e, 0xca, 0x13, 0xbe, 0xe5, 0xc2, 0x9a, 0x3e,
  0xa9, 0xc8, 0x76, 0xbd, 0xa6, 0x53, 0xe1, 0xb8, 0xc3, 0x08, 0x66, 0x3e,
  0x19, 0x34, 0x0a, 0xbe, 0x80, 0xdd, 0x13, 0xbe, 0xd2, 0x5e, 0x4a, 0x3e,
  0xae, 0x52, 0x07, 0xbe, 0x45, 0x49, 0x5c, 0x3e, 0x3a, 0x45, 0x4c, 0xbb,
  0xc5, 0x04, 0x9c, 0xbe, 0x59, 0x2c, 0x84, 0xbe, 0x88, 0x2d, 0x07, 0x3e,
  0x6a, 0xf3, 0x69, 0xbe, 0x74, 0x80, 0x6b, 0xbe, 0xe9, 0x32, 0x9f, 0xbe,
  0xf6, 0xa6, 0xe5, 0x3c, 0x16, 0x77, 0x5f, 0xbd, 0xdd, 0x0d, 0x03, 0x3e,
  0x31, 0x06, 0x46, 0x3e, 0x23, 0x6e, 0x68, 0xbe, 0xb1, 0xa1, 0x09, 0x3e,
  0x5f, 0x92, 0x8d, 0xbd, 0x73, 0xc8, 0x26, 0x3e, 0x9c, 0x82, 0x87, 0xbe,
  0x2a, 0x4f, 0x2b, 0xbe, 0xfb, 0x28, 0x85, 0x3e, 0xbc, 0xab, 0xd5, 0x3d,
  0x89, 0x96, 0x38, 0x3e, 0x2a, 0xbc, 0xbd, 0xbe, 0x4d, 0x39, 0x5d, 0xbd,
  0x96, 0x37, 0x8c, 0xbe, 0x20, 0x60, 0xbb, 0xbe, 0x74, 0x61, 0xc4, 0xbe,
  0x4d, 0x07, 0xd6, 0x3d, 0x13, 0xe7, 0xa6, 0xbe, 0x18, 0xe0, 0x6c, 0x3d,
  0x72, 0x05, 0x47, 0xbe, 0x41, 0x17, 0xae, 0xbe, 0x94, 0xc4, 0xae, 0xbe,
  0xcd, 0xff, 0x24, 0xbd, 0xd4, 0x5d, 0x6a, 0x3e, 0xd8, 0xb6, 0x65, 0xbe,
  0xa4, 0x20, 0xb2, 0x3d, 0x30, 0x63, 0x6d, 0xbd, 0xa4, 0x95, 0xa1, 0xbe,
  0x13, 0xcc, 0x5e, 0xbc, 0xce, 0x54, 0x23, 0x3e, 0xee, 0x5d, 0x50, 0x3d,
  0xab, 0x2a, 0xb1, 0xbc, 0x1e, 0x24, 0xef, 0xbc, 0x49, 0x49, 0x4e, 0xbd,
  0x8c, 0x05, 0x47, 0xbd, 0xc4, 0xe5, 0x8b, 0x3e, 0xb0, 0x5b, 0x49, 0x3e,
  0x62, 0x9d, 0xac, 0x3d, 0x25, 0x60, 0x9c, 0x3d, 0x6c, 0x5a, 0x47, 0xbd,
  0x73, 0x76, 0xb4, 0xbd, 0x28, 0x8d, 0x7b, 0x3e, 0x71, 0x68, 0x49, 0x3e,
  0x60, 0x3b, 0x86, 0xbd, 0xc8, 0x4e, 0xc0, 0xbe, 0x61, 0xa0, 0x68, 0xbe,
  0x7f, 0x27, 0x00, 0xbd, 0xb8, 0xa8, 0xa2, 0xbe, 0xf7, 0x92, 0x83, 0x3d,
  0xda, 0xc2, 0xb3, 0xbe, 0x58, 0x1c, 0x9c, 0xbd, 0xb5, 0xe4, 0x97, 0xbe,
  0x77, 0x1e, 0x76, 0x3e, 0x39, 0xe9, 0xab, 0xbe, 0xc2, 0x89, 0x6b, 0x3e,
  0x7a, 0x4c, 0x27, 0xbe, 0x4a, 0xfb, 0xc7, 0x3c, 0x23, 0x60, 0x82, 0xbe,
  0xbd, 0x6f, 0xf4, 0xbd, 0x51, 0xe0, 0x5d, 0xbe, 0xc2, 0x73, 0x43, 0x3e,
  0x32, 0x02, 0x95, 0xbe, 0xa1, 0xbf, 0x6f, 0x3e, 0x56, 0x82, 0x66, 0xbe,
  0xdc, 0x3c, 0xa9, 0xbc, 0x76, 0xb3, 0x9d, 0xbe, 0x6e, 0x30, 0x80, 0xbe,
  0xa4, 0x1e, 0x1e, 0x3e, 0x2c, 0x30, 0x20, 0xbe, 0x18, 0x2c, 0xb8, 0xbe,
  0xa8, 0xd5, 0x8f, 0xbe, 0x49, 0xdf, 0xa0, 0x3e, 0xe4, 0x06, 0xde, 0xbd,
  0xb5, 0x1b, 0xcc, 0xbb, 0xb7, 0x84, 0xc6, 0x3e, 0x6d, 0x22, 0x6f, 0xbe,
  0xa1, 0x89, 0x84, 0x3e, 0x4f, 0xd9, 0xe0, 0x3d, 0x9e, 0x24, 0x33, 0x3e,
  0x8b, 0x4b, 0x94, 0x3e, 0x1d, 0xbe, 0xf8, 0x3d, 0xdd, 0x12, 0x79, 0x3e,
  0x73, 0xba, 0x85, 0xbd, 0x7a, 0x4e, 0xc2, 0x3e, 0x0d, 0xe1, 0x08, 0x3e,
  0x1b, 0x5d, 0x81, 0x3e, 0x28, 0x1a, 0x97, 0x3e, 0x59, 0x1e, 0x4c, 0x3b,
  0x98, 0xd2, 0x81, 0x3e, 0xad, 0x47, 0x59, 0x3e, 0x17, 0xd8, 0x18, 0xbe,
  0xd3, 0x0b, 0xa9, 0x3e, 0x00, 0x9e, 0x76, 0x3e, 0xa8, 0x6f, 0xa0, 0x3e,
  0x7f, 0xa2, 0x30, 0xbe, 0xf9, 0xcf, 0x86, 0xbe, 0xcc, 0x47, 0x68, 0x3e,
  0xc0, 0x26, 0x22, 0xbd, 0x61, 0x81, 0x6f, 0x3d, 0x21, 0x7b, 0xc2, 0x3d,
  0x44, 0x5e, 0x33, 0x3e, 0xfe, 0x1b, 0x91, 0xbe, 0xc6, 0x4f, 0xc8, 0xbc,
  0x75, 0x91, 0x85, 0x3e, 0x5c, 0xc4, 0x09, 0xbd, 0x72, 0x0b, 0x14, 0x3e,
  0xe6, 0xf9, 0xbf, 0xbe, 0x76, 0xe3, 0x1b, 0xbd, 0xc7, 0xe8, 0x23, 0xbe,
  0x2c, 0x55, 0x88, 0xbe, 0x7d, 0x4c, 0xd0, 0xbd, 0x5f, 0xe4, 0x3c, 0xbe,
  0xa1, 0xc7, 0x11, 0xbe, 0x5f, 0x71, 0x3c, 0xbe, 0xf3, 0x2f, 0xc4, 0xbd,
  0xa9, 0x15, 0x92, 0xbe, 0x74, 0xc0, 0x51, 0x3c, 0x18, 0x72, 0x94, 0x3e,
  0xa0, 0x86, 0xb2, 0xbe, 0xc3, 0xc7, 0xc3, 0xbe, 0x8d, 0x08, 0xc4, 0xbd,
  0xb8, 0xa8, 0xbb, 0x3d, 0x91, 0x1e, 0x38, 0xbe, 0x50, 0xc4, 0x70, 0x3e,
  0x3e, 0xf6, 0x44, 0x3e, 0x43, 0xd6, 0x59, 0xbe, 0xf9, 0x52, 0x2b, 0x3e,
  0xfa, 0xc7, 0x0a, 0x3e, 0xf7, 0x02, 0x01, 0x3e, 0xa6, 0xc6, 0xde, 0xbd,
  0xa3, 0x7d, 0x2f, 0xbe, 0xa6, 0x68, 0x47, 0xbe, 0xb3, 0x83, 0x83, 0xbe,
  0x31, 0xf4, 0x1c, 0x3d, 0x36, 0x8c, 0xa9, 0xbe, 0xa2, 0x92, 0x59, 0xbe,
  0x64, 0x7e, 0xd6, 0x3a, 0x94, 0xe8, 0x85, 0xbd, 0x22, 0xdb, 0x1f, 0x3e,
  0xf7, 0x13, 0x8b, 0x3e, 0xf5, 0x4e, 0x74, 0x3e, 0x15, 0xd7, 0xfe, 0xbc,
  0xec, 0xeb, 0xa5, 0xbe, 0x8f, 0x6d, 0x66, 0x3e, 0x62, 0xa9, 0x9d, 0xbe,
  0x3e, 0x80, 0x95, 0xbb, 0x85, 0x01, 0xa2, 0x3d, 0xb7, 0x84, 0x12, 0x3e,
  0xab, 0xf4, 0x56, 0xbe, 0x9e, 0xfb, 0x65, 0xbe, 0x55, 0xc7, 0x17, 0xbe,
  0x4f, 0xf3, 0x8d, 0x3e, 0x80, 0xf7, 0x49, 0x3e, 0xd0, 0xac, 0x91, 0x3e,
  0x02, 0xb0, 0x7b, 0x3e, 0xe9, 0xd6, 0xab, 0x3e, 0x18, 0xbf, 0x18, 0xbe,
  0x3c, 0xa7, 0x86, 0x3e, 0x67, 0xf1, 0x91, 0x3e, 0x58, 0x47, 0x86, 0x3d,
  0xc2, 0xaa, 0x4c, 0xbe, 0x97, 0xc3, 0x00, 0xbe, 0xdf, 0x00, 0x1d, 0xbe,
  0xed, 0xea, 0xb1, 0xbe, 0xc6, 0x67, 0xbd, 0xbd, 0x4e, 0xba, 0xfc, 0x3c,
  0x9d, 0x8d, 0x5c, 0xbe, 0x46, 0xac, 0x80, 0x3d, 0x03, 0x49, 0xbf, 0x3a,
  0x0d, 0x08, 0x61, 0xbd, 0xd9, 0xc0, 0x37, 0x3e, 0x7e, 0x79, 0x2b, 0xbe,
  0xca, 0x29, 0x04, 0x3e, 0x9f, 0x17, 0x70, 0x3d, 0xcf, 0xa4, 0xa3, 0xbc,
  0x43, 0x2f, 0x8d, 0x3e, 0xdc, 0xc3, 0x2d, 0xbe, 0x41, 0x6c, 0x41, 0xbe,
  0xa7, 0x79, 0xbe, 0x3e, 0x14, 0x47, 0x81, 0xbe, 0xc6, 0x17, 0xb9, 0x3e,
  0x04, 0xdd, 0x01, 0x3e, 0x4a, 0xbb, 0x31, 0x3e, 0x4e, 0xbd, 0xc6, 0x3e,
  0xe0, 0xdb, 0xdc, 0x3d, 0x19, 0x7c, 0x5a, 0xbe, 0xae, 0xc8, 0x08, 0xbd,
  0x7a, 0x55, 0xb6, 0x3e, 0xf4, 0x66, 0x87, 0x3e, 0xc1, 0xa7, 0xac, 0x3e,
  0x0f, 0x91, 0x85, 0xbe, 0xf4, 0x6a, 0xa8, 0x3d, 0xed, 0x72, 0xc9, 0x3e,
  0x14, 0x00, 0x5c, 0x3e, 0x11, 0xa8, 0xaa, 0xbd, 0xc0, 0xe6, 0xf2, 0xbd,
  0x7d, 0x20, 0x3a, 0x3e, 0x08, 0xce, 0x6d, 0xbd, 0x41, 0x37, 0xe4, 0xbc,
  0xf6, 0x8c, 0x52, 0x3e, 0x42, 0x44, 0x58, 0xbe, 0x71, 0x83, 0xd4, 0xbd,
  0xd9, 0x37, 0xde, 0x3d, 0x2a, 0x28, 0x3e, 0xbe, 0x85, 0x77, 0x84, 0xbe,
  0x1c, 0x06, 0x51, 0x3d, 0xab, 0xa9, 0x24, 0xbe, 0x0a, 0xd8, 0x62, 0xbe,
  0x43, 0x46, 0xae, 0x3d, 0x84, 0xc3, 0xc4, 0xbe, 0xc8, 0x09, 0x61, 0x3c,
  0xb7, 0x41, 0x85, 0xbd, 0x23, 0x7a, 0x38, 0x3e, 0x7a, 0xa9, 0x72, 0x3e,
  0x4d, 0x16, 0x3c, 0xbe, 0x86, 0x7b, 0x8d, 0xbe, 0x53, 0xa1, 0xad, 0x3d,
  0x2b, 0x92, 0x95, 0x3e, 0x05, 0xcf, 0x83, 0x3d, 0x0e, 0xb9, 0x38, 0x3e,
  0xbd, 0x95, 0x92, 0xbe, 0x3b, 0x0f, 0x7a, 0xbe, 0xd8, 0x1a, 0x56, 0xbe,
  0xb0, 0x6c, 0x97, 0xbe, 0x88, 0x2a, 0xe3, 0x3d, 0xe2, 0xfc, 0x35, 0x3e,
  0x94, 0x0e, 0x65, 0xbb, 0xac, 0x34, 0x8d, 0xbe, 0xc9, 0xe1, 0x07, 0xbe,
  0xa4, 0x5d, 0xd7, 0xbc, 0x29, 0xbf, 0xe1, 0x3d, 0x07, 0x8d, 0x41, 0x3d,
  0x04, 0x24, 0xe1, 0xbc, 0x43, 0x79, 0x87, 0x3c, 0xde, 0x3d, 0xbc, 0x3d,
  0x2f, 0xc7, 0xa3, 0xbe, 0x17, 0xca, 0xbf, 0xbe, 0xc1, 0x7a, 0x85, 0xbe,
  0xa8, 0x72, 0x8e, 0x3d, 0x60, 0x69, 0x61, 0x3e, 0x07, 0x5c, 0xb3, 0xbe,
  0x81, 0x64, 0x2c, 0x3d, 0xce, 0xf0, 0xa6, 0xbe, 0x8e, 0x98, 0x5e, 0xbe,
  0xf8, 0x25, 0x03, 0xbd, 0xec, 0x88, 0x99, 0xbe, 0x96, 0xd9, 0x88, 0xbc,
  0x0d, 0x03, 0x35, 0xbe, 0x83, 0xed, 0x4f, 0xbe, 0xc7, 0xfd, 0x9c, 0x3e,
  0x72, 0x11, 0x83, 0xbd, 0x66, 0x3b, 0x78, 0x3d, 0x88, 0x21, 0xb6, 0xbe,
  0x4c, 0x11, 0xe9, 0xbc, 0x31, 0x90, 0x66, 0x3e, 0x90, 0xef, 0x13, 0xbe,
  0xe0, 0x3c, 0x8c, 0xbe, 0x1f, 0x58, 0x45, 0x3e, 0xf8, 0x07, 0x1e, 0xbe,
  0xdb, 0xc7, 0xe8, 0x3b, 0xd7, 0x0f, 0x63, 0xbe, 0xb6, 0xf7, 0x45, 0xbe,
  0x01, 0xc7, 0x60, 0x3e, 0xc1, 0x08, 0x7a, 0x3e, 0xc9, 0xe2, 0x5a, 0x3c,
  0x6f, 0xb7, 0x63, 0xbe, 0x2f, 0x1a, 0x3e, 0xbd, 0xe1, 0x19, 0xd5, 0xbc,
  0x80, 0x7b, 0x04, 0xbe, 0x12, 0x36, 0x41, 0xbe, 0x13, 0xe5, 0x42, 0x3e,
  0xc0, 0xdb, 0xee, 0xbd, 0x2c, 0x78, 0x79, 0xbe, 0x49, 0xa3, 0xa4, 0x3c,
  0x71, 0x5f, 0x37, 0xbe, 0xf7, 0xaa, 0xaa, 0xbc, 0xab, 0xec, 0xd5, 0xbd,
  0xe0, 0x9e, 0x6f, 0xbe, 0xbb, 0x3e, 0x3a, 0xbd, 0x8d, 0x50, 0x8a, 0xbd,
  0xf4, 0xc7, 0x7e, 0xbd, 0x75, 0x37, 0xcf, 0xbc, 0xd0, 0x4a, 0x09, 0xbe,
  0x06, 0xd9, 0x85, 0xbe, 0x6d, 0x0d, 0x2b, 0x3e, 0x4b, 0xcf, 0x70, 0x3e,
  0xac, 0x3a, 0x93, 0x3d, 0x36, 0x56, 0x2b, 0x3e, 0x8c, 0x62, 0x02, 0xbd,
  0xc2, 0x55, 0x7f, 0xbe, 0x63, 0x67, 0x50, 0x3e, 0xd5, 0xa0, 0x21, 0xbe,
  0x04, 0xcd, 0xaa, 0xbe, 0xb5, 0x9d, 0x1c, 0xbd, 0x6e, 0x15, 0x91, 0xbe,
  0xf5, 0xd3, 0x2a, 0xbc, 0x8c, 0x24, 0x9b, 0x3b, 0x88, 0xc0, 0xc1, 0xbe,
  0x50, 0xad, 0x8a, 0x3e, 0xf5, 0x0d, 0xbf, 0xbe, 0x78, 0xf3, 0x7e, 0xbd,
  0x8f, 0xe0, 0x60, 0xbe, 0xe7, 0xac, 0x85, 0x3e, 0x0d, 0x68, 0xec, 0x3d,
  0x7e, 0x39, 0x7a, 0xbe, 0xfd, 0x93, 0x63, 0x3e, 0x2e, 0xc5, 0x10, 0xbe,
  0x56, 0x3d, 0x9a, 0x3e, 0x18, 0xf8, 0xb3, 0xbe, 0x33, 0xc6, 0x9e, 0xbd,
  0xcf, 0xf2, 0x8d, 0x3e, 0x73, 0x89, 0x76, 0x3d, 0xb7, 0x5f, 0xa5, 0x3d,
  0xa9, 0x65, 0xbb, 0xbe, 0x89, 0xc1, 0x00, 0xbe, 0xc9, 0x6a, 0x03, 0x3e,
  0x32, 0x34, 0xd1, 0x3b, 0x8c, 0x45, 0xf8, 0x3c, 0x20, 0x17, 0xd5, 0xbc,
  0x07, 0xbc, 0xeb, 0xbd, 0x3e, 0x3a, 0x8a, 0x3e, 0x79, 0x2e, 0xb9, 0x3e,
  0x45, 0xfd, 0x94, 0x3e, 0x57, 0x02, 0x5f, 0x3e, 0x86, 0x57, 0xe4, 0x3d,
  0x8e, 0xf9, 0x0f, 0x3e, 0x89, 0x0e, 0x8c, 0xbd, 0x51, 0x31, 0xc0, 0xbd,
  0x0a, 0x04, 0x62, 0x3e, 0x95, 0x39, 0xbf, 0xbd, 0x22, 0xff, 0x4d, 0x3e,
  0x0a, 0x4a, 0xfd, 0x3d, 0x6d, 0xcf, 0xef, 0xbd, 0xe5, 0x92, 0x9c, 0x3a,
  0xbf, 0x58, 0x83, 0x3e, 0x02, 0xef, 0xb2, 0x3d, 0xe0, 0xd2, 0x88, 0x3e,
  0x2e, 0x89, 0xca, 0xbd, 0x3c, 0x89, 0x17, 0xbe, 0x32, 0x25, 0x7f, 0xbd,
  0x34, 0x28, 0x29, 0xbe, 0x2c, 0x1f, 0x41, 0x3e, 0x8e, 0x11, 0x29, 0x3e,
  0x48, 0xb7, 0x8f, 0xbd, 0xad, 0x09, 0x89, 0xbd, 0xb1, 0xdd, 0x75, 0x3e,
  0x34, 0xe4, 0xac, 0xbd, 0xbf, 0x60, 0x75, 0x3e, 0x5e, 0x7c, 0xdf, 0xbd,
  0x25, 0x20, 0xbd, 0xbc, 0x51, 0xcf, 0xa9, 0xbd, 0x82, 0x0f, 0x2b, 0x3c,
  0xac, 0xb6, 0x92, 0xbd, 0x69, 0xbc, 0xbf, 0xbe, 0xe6, 0x3e, 0x95, 0xbe,
  0x7e, 0x04, 0x41, 0x3d, 0x14, 0x9a, 0xad, 0xbe, 0x9e, 0xec, 0xc5, 0xbd,
  0x5f, 0x10, 0x65, 0x3e, 0xce, 0x4f, 0x40, 0x3d, 0x64, 0xbd, 0xd9, 0xbd,
  0x44, 0xce, 0x50, 0x3e, 0xc0, 0x47, 0x84, 0x3e, 0x93, 0xcf, 0x97, 0xbe,
  0xd6, 0x29, 0x6b, 0xbe, 0xb0, 0xdc, 0x24, 0xbd, 0xa9, 0x52, 0x35, 0xbe,
  0x67, 0x5e, 0xc7, 0xbe, 0x37, 0x8b, 0x23, 0x3d, 0xaf, 0xb3, 0xb0, 0x3c,
  0xf4, 0x82, 0x3a, 0x3e, 0x2c, 0x9d, 0x9a, 0x3d, 0x98, 0xd2, 0x61, 0x3e,
  0xff, 0x06, 0xc0, 0xbe, 0xd3, 0xe7, 0x8f, 0xbc, 0xc9, 0x53, 0x82, 0x3e,
  0x89, 0xcf, 0xbf, 0xbd, 0xae, 0x2d, 0x07, 0xbe, 0x5b, 0x29, 0x26, 0xbe,
  0xa2, 0x77, 0xc2, 0x3e, 0xc5, 0x31, 0xc0, 0xbe, 0x5a, 0x95, 0x22, 0xbe,
  0xa3, 0x7b, 0x4b, 0x3e, 0xf9, 0xd5, 0x2c, 0xbe, 0x61, 0x1c, 0x05, 0xbe,
  0x31, 0x05, 0x79, 0x3e, 0x43, 0x2f, 0x0f, 0x3c, 0x74, 0x75, 0x4c, 0xbe,
  0x57, 0x9f, 0xb0, 0xbe, 0x0f, 0xe8, 0xcf, 0xbd, 0x4c, 0x02, 0x93, 0xbe,
  0xbd, 0xa1, 0x34, 0xbd, 0xa4, 0x6c, 0xeb, 0xbd, 0x52, 0xc8, 0x55, 0x3d,
  0xdd, 0x77, 0xbe, 0xbc, 0x38, 0x3c, 0x3a, 0xbc, 0x98, 0xa0, 0xd4, 0x3d,
  0xf4, 0xf1, 0x0f, 0xbd, 0xd0, 0x55, 0x89, 0xbd, 0x4b, 0xcc, 0x23, 0x3e,
  0x65, 0x16, 0x98, 0xbe, 0xbf, 0x0c, 0xd6, 0xbd, 0x36, 0x74, 0x33, 0xbe,
  0x4f, 0x33, 0x43, 0x3d, 0xff, 0x07, 0x6c, 0xbe, 0xfa, 0x21, 0x9b, 0xbe,
  0xe4, 0x14, 0xaf, 0x3e, 0xf7, 0x2e, 0x49, 0x3e, 0xab, 0xa4, 0x6d, 0x3e,
  0x4d, 0xb0, 0xc8, 0x3c, 0x74, 0xb9, 0x20, 0x3e, 0x63, 0x89, 0x87, 0xbe,
  0x93, 0xff, 0xa1, 0xbd, 0x20, 0x51, 0x59, 0x3e, 0xc9, 0x6f, 0x16, 0x3e,
  0x5c, 0x2a, 0x89, 0xbe, 0x1c, 0xee, 0x76, 0xbe, 0xdd, 0xdf, 0x67, 0x3d,
  0x0b, 0x04, 0x8d, 0x3e, 0x31, 0xf6, 0xaf, 0xbe, 0xaf, 0xdf, 0x53, 0xbd,
  0xd4, 0x87, 0x8d, 0xbe, 0x86, 0xff, 0xff, 0xff, 0x04, 0x00, 0x00, 0x00,
  0x6c, 0x00, 0x00, 0x00, 0x5f, 0xe9, 0x7c, 0x3d, 0x39, 0x5e, 0x80, 0xbd,
  0x3a, 0xd2, 0x29, 0xbc, 0xdf, 0x01, 0xb1, 0xbc, 0xc2, 0x55, 0x85, 0x3d,
  0x02, 0xb8, 0x52, 0xbd, 0x78, 0xf6, 0x8c, 0xbc, 0x52, 0x49, 0x5d, 0xbd,
  0xd7, 0x6e, 0x89, 0x3d, 0xbf, 0x86, 0x85, 0xbd, 0x52, 0xa2, 0x08, 0x3d,
  0x1b, 0xa6, 0x66, 0xbd, 0x66, 0x53, 0xa0, 0xbc, 0x67, 0x42, 0x69, 0xbd,
  0xb5, 0x47, 0x7a, 0x3d, 0x4c, 0x8b, 0x79, 0xbd, 0x42, 0x7e, 0x6c, 0xbd,
  0x67, 0x6b, 0x99, 0x3d, 0xb7, 0xb7, 0x86, 0x3d, 0xe1, 0xd0, 0x89, 0xbd,
  0x6a, 0x3a, 0x6a, 0xbd, 0x9c, 0xfc, 0x82, 0x3d, 0x04, 0xa6, 0x73, 0xbd,
  0x28, 0xdf, 0x90, 0x3d, 0x88, 0xba, 0x74, 0xbd, 0x24, 0x9e, 0x6b, 0xbd,
  0x80, 0x64, 0x4d, 0xbd, 0x00, 0x00, 0x06, 0x00, 0x08, 0x00, 0x04, 0x00,
  0x06, 0x00, 0x00, 0x00, 0x04, 0x00, 0x00, 0x00, 0x14, 0x00, 0x00, 0x00,
  0x6e, 0x5b, 0x84, 0x3d, 0x9d, 0xb5, 0x16, 0x3d, 0x92, 0xbf, 0x80, 0x3d,
  0x67, 0x95, 0x17, 0x3d, 0xe2, 0x39, 0xd7, 0xbc, 0x20, 0xfc, 0xff, 0xff,
  0x24, 0xfc, 0xff, 0xff, 0x0f, 0x00, 0x00, 0x00, 0x4d, 0x4c, 0x49, 0x52,
  0x20, 0x43, 0x6f, 0x6e, 0x76, 0x65, 0x72, 0x74, 0x65, 0x64, 0x2e, 0x00,
  0x01, 0x00, 0x00, 0x00, 0x14, 0x00, 0x00, 0x00, 0x00, 0x00, 0x0e, 0x00,
  0x18, 0x00, 0x14, 0x00, 0x10, 0x00, 0x0c, 0x00, 0x08, 0x00, 0x04, 0x00,
  0x0e, 0x00, 0x00, 0x00, 0x14, 0x00, 0x00, 0x00, 0x1c, 0x00, 0x00, 0x00,
  0xc4, 0x00, 0x00, 0x00, 0xc8, 0x00, 0x00, 0x00, 0xcc, 0x00, 0x00, 0x00,
  0x04, 0x00, 0x00, 0x00, 0x6d, 0x61, 0x69, 0x6e, 0x00, 0x00, 0x00, 0x00,
  0x03, 0x00, 0x00, 0x00, 0x78, 0x00, 0x00, 0x00, 0x44, 0x00, 0x00, 0x00,
  0x04, 0x00, 0x00, 0x00, 0xa2, 0xff, 0xff, 0xff, 0x10, 0x00, 0x00, 0x00,
  0x00, 0x00, 0x00, 0x08, 0x0c, 0x00, 0x00, 0x00, 0x10, 0x00, 0x00, 0x00,
  0x9c, 0xfc, 0xff, 0xff, 0x01, 0x00, 0x00, 0x00, 0x07, 0x00, 0x00, 0x00,
  0x03, 0x00, 0x00, 0x00, 0x06, 0x00, 0x00, 0x00, 0x04, 0x00, 0x00, 0x00,
  0x01, 0x00, 0x00, 0x00, 0x00, 0x00, 0x0a, 0x00, 0x10, 0x00, 0x0c, 0x00,
  0x08, 0x00, 0x04, 0x00, 0x0a, 0x00, 0x00, 0x00, 0x0c, 0x00, 0x00, 0x00,
  0x10, 0x00, 0x00, 0x00, 0x01, 0x00, 0x00, 0x00, 0x01, 0x00, 0x00, 0x00,
  0x06, 0x00, 0x00, 0x00, 0x01, 0x00, 0x00, 0x00, 0x05, 0x00, 0x00, 0x00,
  0x00, 0x00, 0x0e, 0x00, 0x14, 0x00, 0x00, 0x00, 0x10, 0x00, 0x0c, 0x00,
  0x0b, 0x00, 0x04, 0x00, 0x0e, 0x00, 0x00, 0x00, 0x10, 0x00, 0x00, 0x00,
  0x00, 0x00, 0x00, 0x08, 0x0c, 0x00, 0x00, 0x00, 0x10, 0x00, 0x00, 0x00,
  0x08, 0xfd, 0xff, 0xff, 0x01, 0x00, 0x00, 0x00, 0x05, 0x00, 0x00, 0x00,
  0x03, 0x00, 0x00, 0x00, 0x00, 0x00, 0x00, 0x00, 0x03, 0x00, 0x00, 0x00,
  0x02, 0x00, 0x00, 0x00, 0x01, 0x00, 0x00, 0x00, 0x07, 0x00, 0x00, 0x00,
  0x01, 0x00, 0x00, 0x00, 0x00, 0x00, 0x00, 0x00, 0x08, 0x00, 0x00, 0x00,
  0xa0, 0x02, 0x00, 0x00, 0x30, 0x02, 0x00, 0x00, 0xc4, 0x01, 0x00, 0x00,
  0x7c, 0x01, 0x00, 0x00, 0x30, 0x01, 0x00, 0x00, 0xbc, 0x00, 0x00, 0x00,
  0x60, 0x00, 0x00, 0x00, 0x04, 0x00, 0x00, 0x00, 0x96, 0xfd, 0xff, 0xff,
  0x00, 0x00, 0x00, 0x01, 0x14, 0x00, 0x00, 0x00, 0x1c, 0x00, 0x00, 0x00,
  0x1c, 0x00, 0x00, 0x00, 0x08, 0x00, 0x00, 0x00, 0x34, 0x00, 0x00, 0x00,
  0x02, 0x00, 0x00, 0x00, 0xff, 0xff, 0xff, 0xff, 0x05, 0x00, 0x00, 0x00,
  0x80, 0xfd, 0xff, 0xff, 0x19, 0x00, 0x00, 0x00, 0x53, 0x74, 0x61, 0x74,
  0x65, 0x66, 0x75, 0x6c, 0x50, 0x61, 0x72, 0x74, 0x69, 0x74, 0x69, 0x6f,
  0x6e, 0x65, 0x64, 0x43, 0x61, 0x6c, 0x6c, 0x3a, 0x30, 0x00, 0x00, 0x00,
  0x02, 0x00, 0x00, 0x00, 0x01, 0x00, 0x00, 0x00, 0x05, 0x00, 0x00, 0x00,
  0xee, 0xfd, 0xff, 0xff, 0x00, 0x00, 0x00, 0x01, 0x14, 0x00, 0x00, 0x00,
  0x1c, 0x00, 0x00, 0x00, 0x1c, 0x00, 0x00, 0x00, 0x07, 0x00, 0x00, 0x00,
  0x34, 0x00, 0x00, 0x00, 0x02, 0x00, 0x00, 0x00, 0xff, 0xff, 0xff, 0xff,
  0x1b, 0x00, 0x00, 0x00, 0xd8, 0xfd, 0xff, 0xff, 0x18, 0x00, 0x00, 0x00,
  0x73, 0x65, 0x71, 0x75, 0x65, 0x6e, 0x74, 0x69, 0x61, 0x6c, 0x2f, 0x64,
  0x65, 0x6e, 0x73, 0x65, 0x2f, 0x53, 0x69, 0x67, 0x6d, 0x6f, 0x69, 0x64,
  0x00, 0x00, 0x00, 0x00, 0x02, 0x00, 0x00, 0x00, 0x01, 0x00, 0x00, 0x00,
  0x1b, 0x00, 0x00, 0x00, 0x46, 0xfe, 0xff, 0xff, 0x00, 0x00, 0x00, 0x01,
  0x14, 0x00, 0x00, 0x00, 0x1c, 0x00, 0x00, 0x00, 0x1c, 0x00, 0x00, 0x00,
  0x06, 0x00, 0x00, 0x00, 0x4c, 0x00, 0x00, 0x00, 0x02, 0x00, 0x00, 0x00,
  0xff, 0xff, 0xff, 0xff, 0x1b, 0x00, 0x00, 0x00, 0x30, 0xfe, 0xff, 0xff,
  0x30, 0x00, 0x00, 0x00, 0x73, 0x65, 0x71, 0x75, 0x65, 0x6e, 0x74, 0x69,
  0x61, 0x6c, 0x2f, 0x64, 0x65, 0x6e, 0x73, 0x65, 0x2f, 0x4d, 0x61, 0x74,
  0x4d, 0x75, 0x6c, 0x3b, 0x73, 0x65, 0x71, 0x75, 0x65, 0x6e, 0x74, 0x69,
  0x61, 0x6c, 0x2f, 0x64, 0x65, 0x6e, 0x73, 0x65, 0x2f, 0x42, 0x69, 0x61,
  0x73, 0x41, 0x64, 0x64, 0x00, 0x00, 0x00, 0x00, 0x02, 0x00, 0x00, 0x00,
  0x01, 0x00, 0x00, 0x00, 0x1b, 0x00, 0x00, 0x00, 0x22, 0xff, 0xff, 0xff,
  0x00, 0x00, 0x00, 0x01, 0x10, 0x00, 0x00, 0x00, 0x10, 0x00, 0x00, 0x00,
  0x05, 0x00, 0x00, 0x00, 0x28, 0x00, 0x00, 0x00, 0x90, 0xfe, 0xff, 0xff,
  0x19, 0x00, 0x00, 0x00, 0x73, 0x65, 0x71, 0x75, 0x65, 0x6e, 0x74, 0x69,
  0x61, 0x6c, 0x2f, 0x64, 0x65, 0x6e, 0x73, 0x65, 0x5f, 0x31, 0x2f, 0x4d,
  0x61, 0x74, 0x4d, 0x75, 0x6c, 0x00, 0x00, 0x00, 0x02, 0x00, 0x00, 0x00,
  0x05, 0x00, 0x00, 0x00, 0x1b, 0x00, 0x00, 0x00, 0x6a, 0xff, 0xff, 0xff,
  0x00, 0x00, 0x00, 0x01, 0x10, 0x00, 0x00, 0x00, 0x10, 0x00, 0x00, 0x00,
  0x04, 0x00, 0x00, 0x00, 0x24, 0x00, 0x00, 0x00, 0xd8, 0xfe, 0xff, 0xff,
  0x17, 0x00, 0x00, 0x00, 0x73, 0x65, 0x71, 0x75, 0x65, 0x6e, 0x74, 0x69,
  0x61, 0x6c, 0x2f, 0x64, 0x65, 0x6e, 0x73, 0x65, 0x2f, 0x4d, 0x61, 0x74,
  0x4d, 0x75, 0x6c, 0x00, 0x02, 0x00, 0x00, 0x00, 0x1b, 0x00, 0x00, 0x00,
  0x1b, 0x00, 0x00, 0x00, 0xae, 0xff, 0xff, 0xff, 0x00, 0x00, 0x00, 0x01,
  0x10, 0x00, 0x00, 0x00, 0x10, 0x00, 0x00, 0x00, 0x03, 0x00, 0x00, 0x00,
  0x34, 0x00, 0x00, 0x00, 0x1c, 0xff, 0xff, 0xff, 0x27, 0x00, 0x00, 0x00,
  0x73, 0x65, 0x71, 0x75, 0x65, 0x6e, 0x74, 0x69, 0x61, 0x6c, 0x2f, 0x64,
  0x65, 0x6e, 0x73, 0x65, 0x2f, 0x42, 0x69, 0x61, 0x73, 0x41, 0x64, 0x64,
  0x2f, 0x52, 0x65, 0x61, 0x64, 0x56, 0x61, 0x72, 0x69, 0x61, 0x62, 0x6c,
  0x65, 0x4f, 0x70, 0x00, 0x01, 0x00, 0x00, 0x00, 0x1b, 0x00, 0x00, 0x00,
  0x00, 0x00, 0x16, 0x00, 0x18, 0x00, 0x14, 0x00, 0x00, 0x00, 0x10, 0x00,
  0x0c, 0x00, 0x08, 0x00, 0x00, 0x00, 0x00, 0x00, 0x00, 0x00, 0x07, 0x00,
  0x16, 0x00, 0x00, 0x00, 0x00, 0x00, 0x00, 0x01, 0x10, 0x00, 0x00, 0x00,
  0x10, 0x00, 0x00, 0x00, 0x02, 0x00, 0x00, 0x00, 0x38, 0x00, 0x00, 0x00,
  0x84, 0xff, 0xff, 0xff, 0x29, 0x00, 0x00, 0x00, 0x73, 0x65, 0x71, 0x75,
  0x65, 0x6e, 0x74, 0x69, 0x61, 0x6c, 0x2f, 0x64, 0x65, 0x6e, 0x73, 0x65,
  0x5f, 0x31, 0x2f, 0x42, 0x69, 0x61, 0x73, 0x41, 0x64, 0x64, 0x2f, 0x52,
  0x65, 0x61, 0x64, 0x56, 0x61, 0x72, 0x69, 0x61, 0x62, 0x6c, 0x65, 0x4f,
  0x70, 0x00, 0x00, 0x00, 0x01, 0x00, 0x00, 0x00, 0x05, 0x00, 0x00, 0x00,
  0x00, 0x00, 0x16, 0x00, 0x1c, 0x00, 0x18, 0x00, 0x00, 0x00, 0x14, 0x00,
  0x10, 0x00, 0x0c, 0x00, 0x00, 0x00, 0x00, 0x00, 0x08, 0x00, 0x07, 0x00,
  0x16, 0x00, 0x00, 0x00, 0x00, 0x00, 0x00, 0x01, 0x14, 0x00, 0x00, 0x00,
  0x20, 0x00, 0x00, 0x00, 0x20, 0x00, 0x00, 0x00, 0x01, 0x00, 0x00, 0x00,
  0x3c, 0x00, 0x00, 0x00, 0x02, 0x00, 0x00, 0x00, 0xff, 0xff, 0xff, 0xff,
  0x1b, 0x00, 0x00, 0x00, 0x04, 0x00, 0x04, 0x00, 0x04, 0x00, 0x00, 0x00,
  0x1d, 0x00, 0x00, 0x00, 0x73, 0x65, 0x72, 0x76, 0x69, 0x6e, 0x67, 0x5f,
  0x64, 0x65, 0x66, 0x61, 0x75, 0x6c, 0x74, 0x5f, 0x64, 0x65, 0x6e, 0x73,
  0x65, 0x5f, 0x69, 0x6e, 0x70, 0x75, 0x74, 0x3a, 0x30, 0x00, 0x00, 0x00,
  0x02, 0x00, 0x00, 0x00, 0x01, 0x00, 0x00, 0x00, 0x1b, 0x00, 0x00, 0x00,
  0x02, 0x00, 0x00, 0x00, 0x20, 0x00, 0x00, 0x00, 0x04, 0x00, 0x00, 0x00,
  0xf4, 0xff, 0xff, 0xff, 0x0e, 0x00, 0x00, 0x00, 0x00, 0x00, 0x00, 0x0e,
  0x0c, 0x00, 0x0c, 0x00, 0x0b, 0x00, 0x00, 0x00, 0x00, 0x00, 0x04, 0x00,
  0x0c, 0x00, 0x00, 0x00, 0x09, 0x00, 0x00, 0x00, 0x00, 0x00, 0x00, 0x09
 
};

