#ifndef SOME_MODEL_H
#define SOME_MODEL_H


unsigned int some_model_len = 3168;
unsigned char some_model[] = {
 0x1c, 0x00, 0x00, 0x00, 0x54, 0x46, 0x4c, 0x33, 0x14, 0x00, 0x20, 0x00,
  0x1c, 0x00, 0x18, 0x00, 0x14, 0x00, 0x10, 0x00, 0x0c, 0x00, 0x00, 0x00,
  0x08, 0x00, 0x04, 0x00, 0x14, 0x00, 0x00, 0x00, 0x1c, 0x00, 0x00, 0x00,
  0x90, 0x00, 0x00, 0x00, 0xe8, 0x00, 0x00, 0x00, 0x04, 0x07, 0x00, 0x00,
  0x14, 0x07, 0x00, 0x00, 0x0c, 0x0c, 0x00, 0x00, 0x03, 0x00, 0x00, 0x00,
  0x01, 0x00, 0x00, 0x00, 0x10, 0x00, 0x00, 0x00, 0x00, 0x00, 0x0a, 0x00,
  0x10, 0x00, 0x0c, 0x00, 0x08, 0x00, 0x04, 0x00, 0x0a, 0x00, 0x00, 0x00,
  0x0c, 0x00, 0x00, 0x00, 0x1c, 0x00, 0x00, 0x00, 0x38, 0x00, 0x00, 0x00,
  0x0f, 0x00, 0x00, 0x00, 0x73, 0x65, 0x72, 0x76, 0x69, 0x6e, 0x67, 0x5f,
  0x64, 0x65, 0x66, 0x61, 0x75, 0x6c, 0x74, 0x00, 0x01, 0x00, 0x00, 0x00,
  0x04, 0x00, 0x00, 0x00, 0x98, 0xff, 0xff, 0xff, 0x09, 0x00, 0x00, 0x00,
  0x04, 0x00, 0x00, 0x00, 0x07, 0x00, 0x00, 0x00, 0x64, 0x65, 0x6e, 0x73,
  0x65, 0x5f, 0x32, 0x00, 0x01, 0x00, 0x00, 0x00, 0x04, 0x00, 0x00, 0x00,
  0xc6, 0xf9, 0xff, 0xff, 0x04, 0x00, 0x00, 0x00, 0x0b, 0x00, 0x00, 0x00,
  0x64, 0x65, 0x6e, 0x73, 0x65, 0x5f, 0x69, 0x6e, 0x70, 0x75, 0x74, 0x00,
  0x02, 0x00, 0x00, 0x00, 0x34, 0x00, 0x00, 0x00, 0x04, 0x00, 0x00, 0x00,
  0xdc, 0xff, 0xff, 0xff, 0x0c, 0x00, 0x00, 0x00, 0x04, 0x00, 0x00, 0x00,
  0x13, 0x00, 0x00, 0x00, 0x43, 0x4f, 0x4e, 0x56, 0x45, 0x52, 0x53, 0x49,
  0x4f, 0x4e, 0x5f, 0x4d, 0x45, 0x54, 0x41, 0x44, 0x41, 0x54, 0x41, 0x00,
  0x08, 0x00, 0x0c, 0x00, 0x08, 0x00, 0x04, 0x00, 0x08, 0x00, 0x00, 0x00,
  0x0b, 0x00, 0x00, 0x00, 0x04, 0x00, 0x00, 0x00, 0x13, 0x00, 0x00, 0x00,
  0x6d, 0x69, 0x6e, 0x5f, 0x72, 0x75, 0x6e, 0x74, 0x69, 0x6d, 0x65, 0x5f,
  0x76, 0x65, 0x72, 0x73, 0x69, 0x6f, 0x6e, 0x00, 0x0d, 0x00, 0x00, 0x00,
  0x18, 0x06, 0x00, 0x00, 0x10, 0x06, 0x00, 0x00, 0xc0, 0x05, 0x00, 0x00,
  0xa4, 0x05, 0x00, 0x00, 0x54, 0x05, 0x00, 0x00, 0x04, 0x05, 0x00, 0x00,
  0xf4, 0x00, 0x00, 0x00, 0xa4, 0x00, 0x00, 0x00, 0x9c, 0x00, 0x00, 0x00,
  0x94, 0x00, 0x00, 0x00, 0x8c, 0x00, 0x00, 0x00, 0x6c, 0x00, 0x00, 0x00,
  0x04, 0x00, 0x00, 0x00, 0x72, 0xfa, 0xff, 0xff, 0x04, 0x00, 0x00, 0x00,
  0x58, 0x00, 0x00, 0x00, 0x0c, 0x00, 0x00, 0x00, 0x08, 0x00, 0x0e, 0x00,
  0x08, 0x00, 0x04, 0x00, 0x08, 0x00, 0x00, 0x00, 0x10, 0x00, 0x00, 0x00,
  0x28, 0x00, 0x00, 0x00, 0x00, 0x00, 0x06, 0x00, 0x08, 0x00, 0x04, 0x00,
  0x06, 0x00, 0x00, 0x00, 0x04, 0x00, 0x00, 0x00, 0x01, 0x00, 0x00, 0x00,
  0xea, 0x03, 0x00, 0x00, 0x00, 0x00, 0x0a, 0x00, 0x10, 0x00, 0x0c, 0x00,
  0x08, 0x00, 0x04, 0x00, 0x0a, 0x00, 0x00, 0x00, 0x02, 0x00, 0x00, 0x00,
  0x02, 0x00, 0x00, 0x00, 0x04, 0x00, 0x00, 0x00, 0x06, 0x00, 0x00, 0x00,
  0x32, 0x2e, 0x31, 0x30, 0x2e, 0x30, 0x00, 0x00, 0xd6, 0xfa, 0xff, 0xff,
  0x04, 0x00, 0x00, 0x00, 0x10, 0x00, 0x00, 0x00, 0x31, 0x2e, 0x35, 0x2e,
  0x30, 0x00, 0x00, 0x00, 0x00, 0x00, 0x00, 0x00, 0x00, 0x00, 0x00, 0x00,
  0xc0, 0xf5, 0xff, 0xff, 0xc4, 0xf5, 0xff, 0xff, 0xc8, 0xf5, 0xff, 0xff,
  0xfe, 0xfa, 0xff, 0xff, 0x04, 0x00, 0x00, 0x00, 0x40, 0x00, 0x00, 0x00,
  0xeb, 0xc0, 0x78, 0x3f, 0xcc, 0x9d, 0xcd, 0x3e, 0x67, 0x9c, 0xdf, 0x3e,
  0x3f, 0x10, 0x6d, 0xbf, 0x00, 0xa6, 0x02, 0x3f, 0x89, 0x52, 0xda, 0xbe,
  0xe2, 0x47, 0xe3, 0xbe, 0x74, 0xc8, 0x2b, 0x3f, 0x20, 0x2f, 0x85, 0x3f,
  0xce, 0x66, 0x73, 0xbe, 0xf9, 0xcf, 0x14, 0xbe, 0x22, 0xf2, 0x02, 0xbf,
  0xa7, 0xd9, 0xdf, 0x3e, 0xc5, 0xe6, 0xb0, 0x3f, 0x15, 0x56, 0x2b, 0x3f,
  0x59, 0xe9, 0x9b, 0xbd, 0x4a, 0xfb, 0xff, 0xff, 0x04, 0x00, 0x00, 0x00,
  0x00, 0x04, 0x00, 0x00, 0xc0, 0x7d, 0x5c, 0xbc, 0x36, 0x9b, 0xa6, 0x3e,
  0xc0, 0x42, 0x32, 0x3c, 0x11, 0x3f, 0x8b, 0xbe, 0x88, 0xa8, 0x08, 0x3f,
  0x0d, 0x45, 0x34, 0xbe, 0xfa, 0x0c, 0x14, 0xbe, 0x04, 0xcf, 0xc9, 0xbd,
  0x9f, 0xa8, 0xa1, 0x3e, 0x48, 0x3d, 0x20, 0x3f, 0x70, 0x39, 0xc3, 0x3c,
  0xf2, 0x6a, 0x2a, 0x3e, 0xd4, 0xe1, 0xc3, 0xbe, 0x43, 0x04, 0xe1, 0xbe,
  0xd5, 0x97, 0xa9, 0x3e, 0x1d, 0x6a, 0xc1, 0x3e, 0x52, 0x75, 0x02, 0x3e,
  0x10, 0xa0, 0xcd, 0xbc, 0x08, 0x41, 0x2c, 0x3d, 0x95, 0x69, 0x8d, 0x3e,
  0x9d, 0xf5, 0x90, 0xbe, 0x58, 0x8f, 0xb1, 0xbe, 0x52, 0x0a, 0xb7, 0xbe,
  0xf7, 0x0c, 0x8c, 0xbe, 0x61, 0x6d, 0x42, 0xbf, 0x9b, 0xdb, 0x03, 0xbe,
  0x65, 0xf5, 0x42, 0xbe, 0xf5, 0xc3, 0xd0, 0x3e, 0xfa, 0xcd, 0xcd, 0x3e,
  0x6e, 0xd2, 0x99, 0x3e, 0xd2, 0x21, 0x88, 0xbe, 0x76, 0x87, 0x16, 0xbe,
  0x58, 0x9f, 0xb2, 0xbe, 0xda, 0xc2, 0xe2, 0x3d, 0x0e, 0x97, 0x70, 0x3e,
  0x90, 0x93, 0xc0, 0xbc, 0xd5, 0xcb, 0x4d, 0x3d, 0xdd, 0xf2, 0xe8, 0x3e,
  0x72, 0x16, 0x70, 0x3e, 0xc0, 0x2b, 0x50, 0x3c, 0x77, 0xce, 0x4d, 0x3f,
  0x9e, 0x7e, 0x17, 0xbe, 0x20, 0xa7, 0xe9, 0xbd, 0x98, 0x8a, 0xcd, 0xbe,
  0x85, 0x8b, 0xb5, 0xbd, 0x95, 0x28, 0x86, 0x3e, 0x60, 0x46, 0x8b, 0xbe,
  0xf9, 0x68, 0x52, 0x3e, 0x7c, 0x35, 0x83, 0xbe, 0xf1, 0xc4, 0x70, 0xbd,
  0x85, 0xd2, 0xdb, 0x3e, 0x99, 0x8a, 0xd5, 0x3e, 0xa4, 0x5c, 0x13, 0xbf,
  0x51, 0xe6, 0xb5, 0x3d, 0xb0, 0x7b, 0x6b, 0x3d, 0x27, 0xc5, 0x81, 0x3e,
  0x42, 0xb5, 0x16, 0xbe, 0xde, 0xef, 0xc3, 0xbe, 0xef, 0x28, 0xda, 0xbe,
  0xd5, 0xe5, 0xbc, 0x3e, 0xf2, 0x7a, 0x85, 0x3e, 0x4a, 0x80, 0x62, 0x3e,
  0x2a, 0xdd, 0x9f, 0xbe, 0x93, 0x68, 0x4a, 0xbf, 0xb6, 0x63, 0x63, 0x3e,
  0x09, 0x7c, 0x8f, 0xbd, 0x02, 0xbc, 0xd4, 0xbe, 0xcf, 0x74, 0x40, 0xbe,
  0xa2, 0x81, 0x98, 0xbe, 0xe4, 0x3c, 0xc3, 0x3e, 0xb1, 0x2b, 0x69, 0xbe,
  0xaa, 0xf7, 0x73, 0x3e, 0xd1, 0xfc, 0xc0, 0xbd, 0x8d, 0x92, 0x75, 0xbe,
  0x65, 0x70, 0xbd, 0xbe, 0xa0, 0xf5, 0x5c, 0xbd, 0x30, 0xcf, 0xa8, 0xbe,
  0xe6, 0x1d, 0x02, 0x3e, 0xf4, 0x00, 0x2f, 0xbe, 0xfb, 0xde, 0x11, 0xbc,
  0x40, 0xc2, 0xe9, 0xbd, 0xdb, 0xef, 0x8a, 0xbe, 0x40, 0xa5, 0xc9, 0x3b,
  0xe0, 0x7e, 0x99, 0xbd, 0x5a, 0xee, 0xf7, 0x3d, 0x68, 0x06, 0x8b, 0x3e,
  0x8b, 0x72, 0x93, 0x3e, 0x60, 0xad, 0x66, 0xbc, 0x88, 0x14, 0x7d, 0xbe,
  0x5e, 0xa7, 0xce, 0xbe, 0xb5, 0x0a, 0x7c, 0xbe, 0x73, 0x9a, 0x81, 0x3e,
  0x96, 0x4f, 0xe1, 0xbc, 0x00, 0xaf, 0xd7, 0xbd, 0x92, 0xaf, 0x6a, 0x3e,
  0x78, 0x18, 0xd8, 0x3e, 0xc3, 0x55, 0xa3, 0xbe, 0x65, 0x2b, 0xfe, 0xbd,
  0x00, 0x5a, 0x92, 0x3c, 0x1b, 0x8c, 0x7b, 0xbe, 0x83, 0xde, 0x9c, 0x3e,
  0x05, 0xa2, 0xaa, 0xbe, 0x40, 0x75, 0xe7, 0xbc, 0x15, 0x47, 0x91, 0x3e,
  0xcd, 0x9b, 0x59, 0x3e, 0xff, 0x14, 0x5d, 0xbe, 0xb0, 0xb4, 0x1b, 0xbe,
  0xb9, 0x53, 0xbb, 0xbe, 0xea, 0x55, 0x62, 0x3e, 0x33, 0xef, 0x1c, 0xbe,
  0x19, 0x66, 0xb3, 0x3e, 0x9e, 0x12, 0x5b, 0x3d, 0xa6, 0x10, 0x25, 0x3e,
  0xe9, 0x48, 0xf1, 0x3c, 0x0c, 0x49, 0x97, 0xbe, 0x01, 0x6a, 0x81, 0xbe,
  0x3a, 0x5a, 0x0f, 0x3f, 0x65, 0xa8, 0xad, 0x3e, 0xad, 0x5e, 0xb2, 0xbe,
  0x4b, 0x00, 0x44, 0xbe, 0x12, 0x05, 0x1d, 0x3f, 0xbf, 0xa5, 0x30, 0xbe,
  0xac, 0x52, 0xbd, 0x3d, 0x62, 0x27, 0x22, 0xbe, 0xf1, 0x70, 0x97, 0xbe,
  0x1c, 0x64, 0x93, 0xbe, 0x2b, 0x92, 0xbb, 0x3e, 0xb5, 0x1f, 0x9e, 0x3e,
  0x40, 0xdc, 0x18, 0x3c, 0x0b, 0x49, 0xb7, 0xbd, 0x34, 0xd7, 0x06, 0xbe,
  0x84, 0x58, 0x89, 0xbd, 0xfd, 0xb0, 0xdf, 0xbe, 0x69, 0x79, 0xfa, 0xbe,
  0xa7, 0x68, 0x64, 0xbe, 0xbd, 0x9f, 0x90, 0x3e, 0x1c, 0x35, 0x15, 0xbf,
  0xb7, 0xe1, 0x19, 0xbf, 0xf0, 0x9d, 0x10, 0x3d, 0xfb, 0x6e, 0xb4, 0xbe,
  0xaf, 0x39, 0xf1, 0x3e, 0x4d, 0xf6, 0x1b, 0xbe, 0x65, 0xc7, 0x97, 0x3e,
  0xd6, 0x63, 0x1c, 0x3e, 0x5e, 0xaf, 0x0c, 0x3e, 0xe2, 0x01, 0xd4, 0xb9,
  0xba, 0xf1, 0x0c, 0xbe, 0x12, 0xc6, 0x37, 0xbe, 0x1e, 0x34, 0xc5, 0xbe,
  0x58, 0xf5, 0x3c, 0x3e, 0x0b, 0x97, 0xa7, 0x3e, 0x3c, 0x17, 0xd4, 0x3d,
  0xa9, 0x58, 0xf2, 0xbd, 0xc0, 0x11, 0x18, 0xbe, 0xb6, 0x17, 0x26, 0x3e,
  0xfa, 0xc8, 0xd8, 0xbe, 0xad, 0x90, 0xc7, 0x3e, 0x96, 0x98, 0xed, 0x3e,
  0x60, 0x36, 0x52, 0x3d, 0x01, 0x09, 0xd0, 0x3e, 0x53, 0x0f, 0xdb, 0x3e,
  0x0f, 0xb9, 0xfb, 0xbc, 0x94, 0x1e, 0xd2, 0x3d, 0xf0, 0x1a, 0x8b, 0x3c,
  0x26, 0xf0, 0xd9, 0x3e, 0x4c, 0x93, 0xf1, 0x3d, 0x8f, 0xbc, 0x8b, 0x3e,
  0x42, 0x73, 0x0f, 0x3e, 0xe4, 0x44, 0x23, 0xbe, 0xce, 0x16, 0xc0, 0xbe,
  0x29, 0x38, 0xd7, 0x3e, 0xe5, 0xa8, 0xae, 0x3e, 0x93, 0x8d, 0x9c, 0x3d,
  0x5f, 0xed, 0xb7, 0xbe, 0x2e, 0xdc, 0xce, 0xbe, 0x7e, 0x77, 0x15, 0xbd,
  0x85, 0x0d, 0xc2, 0x3e, 0x5c, 0xfe, 0x09, 0xbe, 0xbd, 0xdc, 0xc1, 0x3e,
  0xa8, 0x9b, 0x60, 0x3d, 0x21, 0x2a, 0xda, 0xbe, 0x48, 0x34, 0x84, 0x3e,
  0x60, 0x9a, 0x7f, 0xbd, 0xde, 0x54, 0x09, 0x3e, 0x2c, 0xc2, 0x06, 0xbf,
  0x0f, 0xb4, 0x36, 0x3e, 0xa4, 0xe5, 0xb8, 0x3d, 0xd5, 0x7a, 0x97, 0x3e,
  0x55, 0x1f, 0x80, 0xbc, 0x3a, 0x43, 0x15, 0xbe, 0x34, 0x43, 0xbd, 0xbd,
  0xcb, 0x76, 0xf0, 0x3e, 0x90, 0x0e, 0x36, 0x3d, 0x39, 0x30, 0xb1, 0xbd,
  0x7e, 0x65, 0x42, 0x3e, 0x5c, 0xce, 0x19, 0xbe, 0xa5, 0x20, 0x9d, 0x3e,
  0x5e, 0x0c, 0x11, 0xbd, 0xf2, 0xe9, 0x07, 0x3e, 0xf2, 0x6e, 0xab, 0xbe,
  0x78, 0x89, 0x84, 0x3d, 0xf9, 0x2d, 0x2d, 0xbe, 0xaa, 0xd9, 0x17, 0x3e,
  0xc7, 0xf6, 0x97, 0x3e, 0xc3, 0xaa, 0x06, 0x3e, 0xcc, 0x68, 0xad, 0xbe,
  0x80, 0xaf, 0x79, 0xbd, 0xd4, 0xda, 0xc3, 0x3e, 0xa0, 0x47, 0x7a, 0x3c,
  0x10, 0x67, 0xa5, 0x3d, 0xc0, 0x69, 0xcf, 0x3b, 0xeb, 0x58, 0xc3, 0x3e,
  0x2c, 0x7c, 0x65, 0xbf, 0x3a, 0x0c, 0xf6, 0xbe, 0xf1, 0x57, 0xc2, 0xbe,
  0x80, 0xff, 0x68, 0xbc, 0x5e, 0x3d, 0x69, 0xbf, 0xb0, 0xf4, 0x33, 0xbf,
  0x1e, 0x79, 0x3f, 0x3e, 0xe4, 0x5c, 0xfb, 0x3d, 0xee, 0xd6, 0x17, 0x3d,
  0x47, 0x83, 0x1c, 0x3e, 0xb3, 0xb5, 0xa2, 0x3e, 0x5e, 0xef, 0x68, 0x3e,
  0x8e, 0x4e, 0xbb, 0xbe, 0xff, 0x92, 0x34, 0x3e, 0x31, 0x6d, 0x97, 0x3e,
  0x6c, 0xbc, 0xf3, 0x3d, 0x3b, 0x30, 0x9e, 0xbe, 0x37, 0xec, 0x08, 0xbf,
  0xdf, 0x70, 0x92, 0x3e, 0x4c, 0x50, 0xaf, 0x3d, 0x8e, 0x7b, 0x53, 0xbf,
  0x35, 0xcf, 0xfe, 0xbe, 0x71, 0x12, 0x8c, 0x3e, 0xf9, 0xcb, 0xa8, 0x3e,
  0xcb, 0xfd, 0xb2, 0x3e, 0x7f, 0xc9, 0xac, 0x3e, 0x0d, 0x25, 0x9e, 0xbe,
  0xbf, 0x75, 0xe6, 0xbd, 0x78, 0x6b, 0xa6, 0xbd, 0x69, 0x46, 0x83, 0xbe,
  0xa0, 0xa1, 0x6c, 0x3d, 0x52, 0xad, 0x70, 0xbe, 0x29, 0xcd, 0xfa, 0xbd,
  0x5c, 0x94, 0xb8, 0xbe, 0x40, 0x36, 0x58, 0xbc, 0xaf, 0x9f, 0xa3, 0x3e,
  0xd0, 0x17, 0xec, 0x3c, 0x4b, 0x54, 0xca, 0x3e, 0xcc, 0x3b, 0xe9, 0xbd,
  0x90, 0x91, 0xbc, 0x3c, 0x39, 0xaf, 0xa7, 0xbe, 0x08, 0x64, 0xb4, 0xbe,
  0xdb, 0x2a, 0xba, 0x3e, 0x36, 0x24, 0x84, 0x3e, 0x56, 0xff, 0xff, 0xff,
  0x04, 0x00, 0x00, 0x00, 0x40, 0x00, 0x00, 0x00, 0x00, 0x2d, 0xb0, 0xbb,
  0x2a, 0x55, 0x45, 0x3e, 0x20, 0x71, 0x9f, 0xbc, 0x9a, 0xf6, 0xd8, 0xbe,
  0x63, 0x74, 0x48, 0x3e, 0x78, 0x1d, 0xb7, 0x3e, 0x80, 0x54, 0x2a, 0xbe,
  0xe9, 0x94, 0x94, 0xbe, 0xe2, 0xbe, 0x40, 0x3e, 0x2d, 0x34, 0x27, 0x3e,
  0x6c, 0xd2, 0x37, 0xbe, 0x2e, 0xfc, 0x0e, 0xbf, 0x9a, 0x63, 0x73, 0x3e,
  0xc8, 0x73, 0xc9, 0x3e, 0x96, 0x8b, 0x9a, 0xbe, 0x9e, 0x10, 0x49, 0x3f,
  0xa2, 0xff, 0xff, 0xff, 0x04, 0x00, 0x00, 0x00, 0x40, 0x00, 0x00, 0x00,
  0x00, 0x00, 0x00, 0x00, 0xa5, 0xb8, 0x79, 0xbd, 0x00, 0x00, 0x00, 0x00,
  0x00, 0x00, 0x00, 0x00, 0xa5, 0xff, 0xf2, 0xbe, 0x7c, 0xc2, 0xb9, 0xbe,
  0x00, 0x00, 0x00, 0x00, 0x00, 0x00, 0x00, 0x00, 0xb7, 0xf7, 0x0e, 0xbf,
  0x59, 0xa8, 0x91, 0xbe, 0x00, 0x00, 0x00, 0x00, 0x00, 0x00, 0x00, 0x00,
  0xea, 0x29, 0xc6, 0x3e, 0x2f, 0x01, 0x2b, 0x3f, 0x00, 0x00, 0x00, 0x00,
  0xba, 0x8a, 0x8e, 0xbd, 0xee, 0xff, 0xff, 0xff, 0x04, 0x00, 0x00, 0x00,
  0x04, 0x00, 0x00, 0x00, 0x84, 0xbf, 0xc6, 0xbe, 0x00, 0x00, 0x06, 0x00,
  0x08, 0x00, 0x04, 0x00, 0x06, 0x00, 0x00, 0x00, 0x04, 0x00, 0x00, 0x00,
  0x40, 0x00, 0x00, 0x00, 0x77, 0x6f, 0xd2, 0xbe, 0xe1, 0x7a, 0xb4, 0x3d,
  0x7d, 0x3f, 0x65, 0xbe, 0x1f, 0x22, 0xfa, 0x3e, 0x45, 0xac, 0x9c, 0xbc,
  0xd5, 0x88, 0x9c, 0x3d, 0xa4, 0x88, 0xd8, 0xbc, 0x50, 0x4e, 0x92, 0xbe,
  0x22, 0x7c, 0x7f, 0x3e, 0xd3, 0xfc, 0xa5, 0x3e, 0x1a, 0x79, 0x36, 0xbb,
  0xfe, 0x06, 0x07, 0x3c, 0x6b, 0x2d, 0x8f, 0xbe, 0x96, 0x74, 0x44, 0x3e,
  0x64, 0xbb, 0x5c, 0x3e, 0xac, 0x3d, 0x4d, 0x3a, 0x20, 0xfb, 0xff, 0xff,
  0x24, 0xfb, 0xff, 0xff, 0x0f, 0x00, 0x00, 0x00, 0x4d, 0x4c, 0x49, 0x52,
  0x20, 0x43, 0x6f, 0x6e, 0x76, 0x65, 0x72, 0x74, 0x65, 0x64, 0x2e, 0x00,
  0x01, 0x00, 0x00, 0x00, 0x14, 0x00, 0x00, 0x00, 0x00, 0x00, 0x0e, 0x00,
  0x18, 0x00, 0x14, 0x00, 0x10, 0x00, 0x0c, 0x00, 0x08, 0x00, 0x04, 0x00,
  0x0e, 0x00, 0x00, 0x00, 0x14, 0x00, 0x00, 0x00, 0x1c, 0x00, 0x00, 0x00,
  0xd8, 0x00, 0x00, 0x00, 0xdc, 0x00, 0x00, 0x00, 0xe0, 0x00, 0x00, 0x00,
  0x04, 0x00, 0x00, 0x00, 0x6d, 0x61, 0x69, 0x6e, 0x00, 0x00, 0x00, 0x00,
  0x03, 0x00, 0x00, 0x00, 0x80, 0x00, 0x00, 0x00, 0x38, 0x00, 0x00, 0x00,
  0x04, 0x00, 0x00, 0x00, 0x9a, 0xff, 0xff, 0xff, 0x10, 0x00, 0x00, 0x00,
  0x00, 0x00, 0x00, 0x08, 0x0c, 0x00, 0x00, 0x00, 0x10, 0x00, 0x00, 0x00,
  0x9c, 0xfb, 0xff, 0xff, 0x01, 0x00, 0x00, 0x00, 0x09, 0x00, 0x00, 0x00,
  0x03, 0x00, 0x00, 0x00, 0x08, 0x00, 0x00, 0x00, 0x06, 0x00, 0x00, 0x00,
  0x02, 0x00, 0x00, 0x00, 0xca, 0xff, 0xff, 0xff, 0x10, 0x00, 0x00, 0x00,
  0x00, 0x00, 0x00, 0x08, 0x10, 0x00, 0x00, 0x00, 0x14, 0x00, 0x00, 0x00,
  0xba, 0xff, 0xff, 0xff, 0x00, 0x00, 0x00, 0x01, 0x01, 0x00, 0x00, 0x00,
  0x08, 0x00, 0x00, 0x00, 0x03, 0x00, 0x00, 0x00, 0x07, 0x00, 0x00, 0x00,
  0x05, 0x00, 0x00, 0x00, 0x01, 0x00, 0x00, 0x00, 0x00, 0x00, 0x0e, 0x00,
  0x16, 0x00, 0x00, 0x00, 0x10, 0x00, 0x0c, 0x00, 0x0b, 0x00, 0x04, 0x00,
  0x0e, 0x00, 0x00, 0x00, 0x18, 0x00, 0x00, 0x00, 0x00, 0x00, 0x00, 0x08,
  0x18, 0x00, 0x00, 0x00, 0x1c, 0x00, 0x00, 0x00, 0x00, 0x00, 0x06, 0x00,
  0x08, 0x00, 0x07, 0x00, 0x06, 0x00, 0x00, 0x00, 0x00, 0x00, 0x00, 0x01,
  0x01, 0x00, 0x00, 0x00, 0x07, 0x00, 0x00, 0x00, 0x03, 0x00, 0x00, 0x00,
  0x00, 0x00, 0x00, 0x00, 0x04, 0x00, 0x00, 0x00, 0x03, 0x00, 0x00, 0x00,
  0x01, 0x00, 0x00, 0x00, 0x09, 0x00, 0x00, 0x00, 0x01, 0x00, 0x00, 0x00,
  0x00, 0x00, 0x00, 0x00, 0x0a, 0x00, 0x00, 0x00, 0x8c, 0x03, 0x00, 0x00,
  0x1c, 0x03, 0x00, 0x00, 0xac, 0x02, 0x00, 0x00, 0x58, 0x02, 0x00, 0x00,
  0x10, 0x02, 0x00, 0x00, 0xc4, 0x01, 0x00, 0x00, 0x78, 0x01, 0x00, 0x00,
  0xf0, 0x00, 0x00, 0x00, 0x60, 0x00, 0x00, 0x00, 0x04, 0x00, 0x00, 0x00,
  0xb2, 0xfc, 0xff, 0xff, 0x00, 0x00, 0x00, 0x01, 0x14, 0x00, 0x00, 0x00,
  0x1c, 0x00, 0x00, 0x00, 0x1c, 0x00, 0x00, 0x00, 0x0a, 0x00, 0x00, 0x00,
  0x34, 0x00, 0x00, 0x00, 0x02, 0x00, 0x00, 0x00, 0xff, 0xff, 0xff, 0xff,
  0x01, 0x00, 0x00, 0x00, 0x9c, 0xfc, 0xff, 0xff, 0x19, 0x00, 0x00, 0x00,
  0x53, 0x74, 0x61, 0x74, 0x65, 0x66, 0x75, 0x6c, 0x50, 0x61, 0x72, 0x74,
  0x69, 0x74, 0x69, 0x6f, 0x6e, 0x65, 0x64, 0x43, 0x61, 0x6c, 0x6c, 0x3a,
  0x30, 0x00, 0x00, 0x00, 0x02, 0x00, 0x00, 0x00, 0x01, 0x00, 0x00, 0x00,
  0x01, 0x00, 0x00, 0x00, 0x0a, 0xfd, 0xff, 0xff, 0x00, 0x00, 0x00, 0x01,
  0x14, 0x00, 0x00, 0x00, 0x1c, 0x00, 0x00, 0x00, 0x1c, 0x00, 0x00, 0x00,
  0x09, 0x00, 0x00, 0x00, 0x68, 0x00, 0x00, 0x00, 0x02, 0x00, 0x00, 0x00,
  0xff, 0xff, 0xff, 0xff, 0x10, 0x00, 0x00, 0x00, 0xf4, 0xfc, 0xff, 0xff,
  0x4c, 0x00, 0x00, 0x00, 0x73, 0x65, 0x71, 0x75, 0x65, 0x6e, 0x74, 0x69,
  0x61, 0x6c, 0x2f, 0x64, 0x65, 0x6e, 0x73, 0x65, 0x5f, 0x31, 0x2f, 0x4d,
  0x61, 0x74, 0x4d, 0x75, 0x6c, 0x3b, 0x73, 0x65, 0x71, 0x75, 0x65, 0x6e,
  0x74, 0x69, 0x61, 0x6c, 0x2f, 0x64, 0x65, 0x6e, 0x73, 0x65, 0x5f, 0x31,
  0x2f, 0x52, 0x65, 0x6c, 0x75, 0x3b, 0x73, 0x65, 0x71, 0x75, 0x65, 0x6e,
  0x74, 0x69, 0x61, 0x6c, 0x2f, 0x64, 0x65, 0x6e, 0x73, 0x65, 0x5f, 0x31,
  0x2f, 0x42, 0x69, 0x61, 0x73, 0x41, 0x64, 0x64, 0x00, 0x00, 0x00, 0x00,
  0x02, 0x00, 0x00, 0x00, 0x01, 0x00, 0x00, 0x00, 0x10, 0x00, 0x00, 0x00,
  0x96, 0xfd, 0xff, 0xff, 0x00, 0x00, 0x00, 0x01, 0x14, 0x00, 0x00, 0x00,
  0x1c, 0x00, 0x00, 0x00, 0x1c, 0x00, 0x00, 0x00, 0x08, 0x00, 0x00, 0x00,
  0x60, 0x00, 0x00, 0x00, 0x02, 0x00, 0x00, 0x00, 0xff, 0xff, 0xff, 0xff,
  0x10, 0x00, 0x00, 0x00, 0x80, 0xfd, 0xff, 0xff, 0x46, 0x00, 0x00, 0x00,
  0x73, 0x65, 0x71, 0x75, 0x65, 0x6e, 0x74, 0x69, 0x61, 0x6c, 0x2f, 0x64,
  0x65, 0x6e, 0x73, 0x65, 0x2f, 0x4d, 0x61, 0x74, 0x4d, 0x75, 0x6c, 0x3b,
  0x73, 0x65, 0x71, 0x75, 0x65, 0x6e, 0x74, 0x69, 0x61, 0x6c, 0x2f, 0x64,
  0x65, 0x6e, 0x73, 0x65, 0x2f, 0x52, 0x65, 0x6c, 0x75, 0x3b, 0x73, 0x65,
  0x71, 0x75, 0x65, 0x6e, 0x74, 0x69, 0x61, 0x6c, 0x2f, 0x64, 0x65, 0x6e,
  0x73, 0x65, 0x2f, 0x42, 0x69, 0x61, 0x73, 0x41, 0x64, 0x64, 0x00, 0x00,
  0x02, 0x00, 0x00, 0x00, 0x01, 0x00, 0x00, 0x00, 0x10, 0x00, 0x00, 0x00,
  0x86, 0xfe, 0xff, 0xff, 0x00, 0x00, 0x00, 0x01, 0x10, 0x00, 0x00, 0x00,
  0x10, 0x00, 0x00, 0x00, 0x07, 0x00, 0x00, 0x00, 0x28, 0x00, 0x00, 0x00,
  0xf4, 0xfd, 0xff, 0xff, 0x19, 0x00, 0x00, 0x00, 0x73, 0x65, 0x71, 0x75,
  0x65, 0x6e, 0x74, 0x69, 0x61, 0x6c, 0x2f, 0x64, 0x65, 0x6e, 0x73, 0x65,
  0x5f, 0x32, 0x2f, 0x4d, 0x61, 0x74, 0x4d, 0x75, 0x6c, 0x00, 0x00, 0x00,
  0x02, 0x00, 0x00, 0x00, 0x01, 0x00, 0x00, 0x00, 0x10, 0x00, 0x00, 0x00,
  0xce, 0xfe, 0xff, 0xff, 0x00, 0x00, 0x00, 0x01, 0x10, 0x00, 0x00, 0x00,
  0x10, 0x00, 0x00, 0x00, 0x06, 0x00, 0x00, 0x00, 0x28, 0x00, 0x00, 0x00,
  0x3c, 0xfe, 0xff, 0xff, 0x19, 0x00, 0x00, 0x00, 0x73, 0x65, 0x71, 0x75,
  0x65, 0x6e, 0x74, 0x69, 0x61, 0x6c, 0x2f, 0x64, 0x65, 0x6e, 0x73, 0x65,
  0x5f, 0x31, 0x2f, 0x4d, 0x61, 0x74, 0x4d, 0x75, 0x6c, 0x00, 0x00, 0x00,
  0x02, 0x00, 0x00, 0x00, 0x10, 0x00, 0x00, 0x00, 0x10, 0x00, 0x00, 0x00,
  0x16, 0xff, 0xff, 0xff, 0x00, 0x00, 0x00, 0x01, 0x10, 0x00, 0x00, 0x00,
  0x10, 0x00, 0x00, 0x00, 0x05, 0x00, 0x00, 0x00, 0x24, 0x00, 0x00, 0x00,
  0x84, 0xfe, 0xff, 0xff, 0x17, 0x00, 0x00, 0x00, 0x73, 0x65, 0x71, 0x75,
  0x65, 0x6e, 0x74, 0x69, 0x61, 0x6c, 0x2f, 0x64, 0x65, 0x6e, 0x73, 0x65,
  0x2f, 0x4d, 0x61, 0x74, 0x4d, 0x75, 0x6c, 0x00, 0x02, 0x00, 0x00, 0x00,
  0x10, 0x00, 0x00, 0x00, 0x01, 0x00, 0x00, 0x00, 0x5a, 0xff, 0xff, 0xff,
  0x00, 0x00, 0x00, 0x01, 0x10, 0x00, 0x00, 0x00, 0x10, 0x00, 0x00, 0x00,
  0x04, 0x00, 0x00, 0x00, 0x34, 0x00, 0x00, 0x00, 0xc8, 0xfe, 0xff, 0xff,
  0x27, 0x00, 0x00, 0x00, 0x73, 0x65, 0x71, 0x75, 0x65, 0x6e, 0x74, 0x69,
  0x61, 0x6c, 0x2f, 0x64, 0x65, 0x6e, 0x73, 0x65, 0x2f, 0x42, 0x69, 0x61,
  0x73, 0x41, 0x64, 0x64, 0x2f, 0x52, 0x65, 0x61, 0x64, 0x56, 0x61, 0x72,
  0x69, 0x61, 0x62, 0x6c, 0x65, 0x4f, 0x70, 0x00, 0x01, 0x00, 0x00, 0x00,
  0x10, 0x00, 0x00, 0x00, 0xaa, 0xff, 0xff, 0xff, 0x00, 0x00, 0x00, 0x01,
  0x10, 0x00, 0x00, 0x00, 0x10, 0x00, 0x00, 0x00, 0x03, 0x00, 0x00, 0x00,
  0x38, 0x00, 0x00, 0x00, 0x18, 0xff, 0xff, 0xff, 0x29, 0x00, 0x00, 0x00,
  0x73, 0x65, 0x71, 0x75, 0x65, 0x6e, 0x74, 0x69, 0x61, 0x6c, 0x2f, 0x64,
  0x65, 0x6e, 0x73, 0x65, 0x5f, 0x32, 0x2f, 0x42, 0x69, 0x61, 0x73, 0x41,
  0x64, 0x64, 0x2f, 0x52, 0x65, 0x61, 0x64, 0x56, 0x61, 0x72, 0x69, 0x61,
  0x62, 0x6c, 0x65, 0x4f, 0x70, 0x00, 0x00, 0x00, 0x01, 0x00, 0x00, 0x00,
  0x01, 0x00, 0x00, 0x00, 0x00, 0x00, 0x16, 0x00, 0x18, 0x00, 0x14, 0x00,
  0x00, 0x00, 0x10, 0x00, 0x0c, 0x00, 0x08, 0x00, 0x00, 0x00, 0x00, 0x00,
  0x00, 0x00, 0x07, 0x00, 0x16, 0x00, 0x00, 0x00, 0x00, 0x00, 0x00, 0x01,
  0x10, 0x00, 0x00, 0x00, 0x10, 0x00, 0x00, 0x00, 0x02, 0x00, 0x00, 0x00,
  0x38, 0x00, 0x00, 0x00, 0x84, 0xff, 0xff, 0xff, 0x29, 0x00, 0x00, 0x00,
  0x73, 0x65, 0x71, 0x75, 0x65, 0x6e, 0x74, 0x69, 0x61, 0x6c, 0x2f, 0x64,
  0x65, 0x6e, 0x73, 0x65, 0x5f, 0x31, 0x2f, 0x42, 0x69, 0x61, 0x73, 0x41,
  0x64, 0x64, 0x2f, 0x52, 0x65, 0x61, 0x64, 0x56, 0x61, 0x72, 0x69, 0x61,
  0x62, 0x6c, 0x65, 0x4f, 0x70, 0x00, 0x00, 0x00, 0x01, 0x00, 0x00, 0x00,
  0x10, 0x00, 0x00, 0x00, 0x00, 0x00, 0x16, 0x00, 0x1c, 0x00, 0x18, 0x00,
  0x00, 0x00, 0x14, 0x00, 0x10, 0x00, 0x0c, 0x00, 0x00, 0x00, 0x00, 0x00,
  0x08, 0x00, 0x07, 0x00, 0x16, 0x00, 0x00, 0x00, 0x00, 0x00, 0x00, 0x01,
  0x14, 0x00, 0x00, 0x00, 0x20, 0x00, 0x00, 0x00, 0x20, 0x00, 0x00, 0x00,
  0x01, 0x00, 0x00, 0x00, 0x3c, 0x00, 0x00, 0x00, 0x02, 0x00, 0x00, 0x00,
  0xff, 0xff, 0xff, 0xff, 0x01, 0x00, 0x00, 0x00, 0x04, 0x00, 0x04, 0x00,
  0x04, 0x00, 0x00, 0x00, 0x1d, 0x00, 0x00, 0x00, 0x73, 0x65, 0x72, 0x76,
  0x69, 0x6e, 0x67, 0x5f, 0x64, 0x65, 0x66, 0x61, 0x75, 0x6c, 0x74, 0x5f,
  0x64, 0x65, 0x6e, 0x73, 0x65, 0x5f, 0x69, 0x6e, 0x70, 0x75, 0x74, 0x3a,
  0x30, 0x00, 0x00, 0x00, 0x02, 0x00, 0x00, 0x00, 0x01, 0x00, 0x00, 0x00,
  0x01, 0x00, 0x00, 0x00, 0x01, 0x00, 0x00, 0x00, 0x10, 0x00, 0x00, 0x00,
  0x0c, 0x00, 0x0c, 0x00, 0x0b, 0x00, 0x00, 0x00, 0x00, 0x00, 0x04, 0x00,
  0x0c, 0x00, 0x00, 0x00, 0x09, 0x00, 0x00, 0x00, 0x00, 0x00, 0x00, 0x09
 
};

#endif //SOME_MODEL_H