#define TENSORFLOW_LITE_EXPERIMENTAL_MICRO_EXAMPLES_HELLO_WORLD_SINE_MODEL_DATA_H_
#ifdef __has_attribute
#define HAVE_ATTRIBUTE(x) __has_attribute(x)
#else
#define HAVE_ATTRIBUTE(x) 0
#endif
#if HAVE_ATTRIBUTE(aligned) || (defined(__GNUC__) && !defined(__clang__))
#define DATA_ALIGN_ATTRIBUTE __attribute__((aligned(4)))
#else
#define DATA_ALIGN_ATTRIBUTE
#endif
const int g_second_model_data_len = 5184;
const unsigned char g_second_model_data[] DATA_ALIGN_ATTRIBUTE = {
 0x1c, 0x00, 0x00, 0x00, 0x54, 0x46, 0x4c, 0x33, 0x14, 0x00, 0x20, 0x00,
  0x1c, 0x00, 0x18, 0x00, 0x14, 0x00, 0x10, 0x00, 0x0c, 0x00, 0x00, 0x00,
  0x08, 0x00, 0x04, 0x00, 0x14, 0x00, 0x00, 0x00, 0x1c, 0x00, 0x00, 0x00,
  0x84, 0x00, 0x00, 0x00, 0xdc, 0x00, 0x00, 0x00, 0xd4, 0x0f, 0x00, 0x00,
  0xe4, 0x0f, 0x00, 0x00, 0xdc, 0x13, 0x00, 0x00, 0x03, 0x00, 0x00, 0x00,
  0x01, 0x00, 0x00, 0x00, 0x04, 0x00, 0x00, 0x00, 0xb2, 0xef, 0xff, 0xff,
  0x0c, 0x00, 0x00, 0x00, 0x1c, 0x00, 0x00, 0x00, 0x38, 0x00, 0x00, 0x00,
  0x0f, 0x00, 0x00, 0x00, 0x73, 0x65, 0x72, 0x76, 0x69, 0x6e, 0x67, 0x5f,
  0x64, 0x65, 0x66, 0x61, 0x75, 0x6c, 0x74, 0x00, 0x01, 0x00, 0x00, 0x00,
  0x04, 0x00, 0x00, 0x00, 0x98, 0xff, 0xff, 0xff, 0x07, 0x00, 0x00, 0x00,
  0x04, 0x00, 0x00, 0x00, 0x07, 0x00, 0x00, 0x00, 0x64, 0x65, 0x6e, 0x73,
  0x65, 0x5f, 0x31, 0x00, 0x01, 0x00, 0x00, 0x00, 0x04, 0x00, 0x00, 0x00,
  0xbe, 0xf0, 0xff, 0xff, 0x04, 0x00, 0x00, 0x00, 0x0b, 0x00, 0x00, 0x00,
  0x64, 0x65, 0x6e, 0x73, 0x65, 0x5f, 0x69, 0x6e, 0x70, 0x75, 0x74, 0x00,
  0x02, 0x00, 0x00, 0x00, 0x34, 0x00, 0x00, 0x00, 0x04, 0x00, 0x00, 0x00,
  0xdc, 0xff, 0xff, 0xff, 0x0a, 0x00, 0x00, 0x00, 0x04, 0x00, 0x00, 0x00,
  0x13, 0x00, 0x00, 0x00, 0x43, 0x4f, 0x4e, 0x56, 0x45, 0x52, 0x53, 0x49,
  0x4f, 0x4e, 0x5f, 0x4d, 0x45, 0x54, 0x41, 0x44, 0x41, 0x54, 0x41, 0x00,
  0x08, 0x00, 0x0c, 0x00, 0x08, 0x00, 0x04, 0x00, 0x08, 0x00, 0x00, 0x00,
  0x09, 0x00, 0x00, 0x00, 0x04, 0x00, 0x00, 0x00, 0x13, 0x00, 0x00, 0x00,
  0x6d, 0x69, 0x6e, 0x5f, 0x72, 0x75, 0x6e, 0x74, 0x69, 0x6d, 0x65, 0x5f,
  0x76, 0x65, 0x72, 0x73, 0x69, 0x6f, 0x6e, 0x00, 0x0b, 0x00, 0x00, 0x00,
  0xf4, 0x0e, 0x00, 0x00, 0xec, 0x0e, 0x00, 0x00, 0xc8, 0x0e, 0x00, 0x00,
  0x44, 0x0e, 0x00, 0x00, 0xd0, 0x02, 0x00, 0x00, 0xa4, 0x00, 0x00, 0x00,
  0x9c, 0x00, 0x00, 0x00, 0x94, 0x00, 0x00, 0x00, 0x8c, 0x00, 0x00, 0x00,
  0x6c, 0x00, 0x00, 0x00, 0x04, 0x00, 0x00, 0x00, 0x62, 0xf1, 0xff, 0xff,
  0x04, 0x00, 0x00, 0x00, 0x58, 0x00, 0x00, 0x00, 0x0c, 0x00, 0x00, 0x00,
  0x08, 0x00, 0x0e, 0x00, 0x08, 0x00, 0x04, 0x00, 0x08, 0x00, 0x00, 0x00,
  0x10, 0x00, 0x00, 0x00, 0x28, 0x00, 0x00, 0x00, 0x00, 0x00, 0x06, 0x00,
  0x08, 0x00, 0x04, 0x00, 0x06, 0x00, 0x00, 0x00, 0x04, 0x00, 0x00, 0x00,
  0x01, 0x00, 0x00, 0x00, 0xea, 0x03, 0x00, 0x00, 0x00, 0x00, 0x0a, 0x00,
  0x10, 0x00, 0x0c, 0x00, 0x08, 0x00, 0x04, 0x00, 0x0a, 0x00, 0x00, 0x00,
  0x02, 0x00, 0x00, 0x00, 0x02, 0x00, 0x00, 0x00, 0x04, 0x00, 0x00, 0x00,
  0x06, 0x00, 0x00, 0x00, 0x32, 0x2e, 0x31, 0x30, 0x2e, 0x30, 0x00, 0x00,
  0xc6, 0xf1, 0xff, 0xff, 0x04, 0x00, 0x00, 0x00, 0x10, 0x00, 0x00, 0x00,
  0x31, 0x2e, 0x31, 0x34, 0x2e, 0x30, 0x00, 0x00, 0x00, 0x00, 0x00, 0x00,
  0x00, 0x00, 0x00, 0x00, 0xdc, 0xed, 0xff, 0xff, 0xe0, 0xed, 0xff, 0xff,
  0xe4, 0xed, 0xff, 0xff, 0xee, 0xf1, 0xff, 0xff, 0x04, 0x00, 0x00, 0x00,
  0x1c, 0x02, 0x00, 0x00, 0xd6, 0x2d, 0xcf, 0xbc, 0x96, 0xfd, 0x17, 0xbd,
  0x25, 0xda, 0xda, 0x3c, 0x39, 0x79, 0xb3, 0xbe, 0xd2, 0x06, 0x8d, 0xbe,
  0x8c, 0xc2, 0x0f, 0xbe, 0x82, 0x6f, 0x35, 0xbe, 0x3e, 0x3c, 0x50, 0x3e,
  0xa7, 0x34, 0x72, 0x3d, 0x4d, 0x78, 0x9e, 0x3c, 0xda, 0x88, 0x9d, 0xbe,
  0x24, 0x2f, 0xf4, 0x3e, 0xe5, 0xb8, 0xaa, 0xbe, 0x33, 0x8d, 0xcb, 0xbc,
  0xfd, 0x91, 0x9d, 0x3e, 0xde, 0x2c, 0x9f, 0x3e, 0xf3, 0xde, 0x70, 0x3d,
  0x39, 0x6a, 0x8d, 0xbe, 0x33, 0x81, 0x59, 0xbe, 0x1a, 0xc6, 0xc3, 0x3e,
  0x7f, 0xa3, 0xae, 0x3e, 0xb6, 0xa9, 0x95, 0xbe, 0xbe, 0x55, 0x1c, 0x3d,
  0x12, 0x21, 0x54, 0x3e, 0x37, 0xac, 0xb7, 0x3e, 0xc6, 0x98, 0x00, 0xbe,
  0x59, 0x98, 0x45, 0x3e, 0xa4, 0x94, 0x1e, 0xbe, 0x92, 0x8c, 0xca, 0x3e,
  0x74, 0xa2, 0x85, 0x3e, 0x2b, 0x6e, 0xe4, 0xbc, 0x03, 0x49, 0x0c, 0xbe,
  0xd4, 0x3e, 0x9c, 0x3e, 0xb2, 0x28, 0xb4, 0xbe, 0x87, 0x50, 0x8f, 0x3e,
  0xec, 0xd8, 0x18, 0xbd, 0x0e, 0x28, 0x5f, 0x3e, 0xfc, 0xbd, 0xcb, 0xbe,
  0x81, 0xcb, 0x8b, 0xbd, 0xe1, 0xfc, 0xcb, 0x3d, 0xbc, 0x74, 0x3f, 0x3e,
  0xfd, 0xb1, 0x57, 0xbc, 0x01, 0xba, 0x77, 0x3e, 0xc8, 0x62, 0x91, 0x3d,
  0x33, 0x33, 0x17, 0x3d, 0x8b, 0x77, 0xaa, 0xbe, 0x31, 0xca, 0x58, 0x3e,
  0x81, 0x7a, 0xa1, 0xbe, 0xa3, 0x9e, 0x90, 0x3e, 0xc9, 0xc1, 0x99, 0xbd,
  0x80, 0xfe, 0x3f, 0xbe, 0x14, 0xc9, 0x46, 0x3e, 0x85, 0xb4, 0xe1, 0x3c,
  0x03, 0x40, 0xb6, 0xbe, 0xd8, 0xca, 0x82, 0x3e, 0x82, 0x62, 0x87, 0x3e,
  0xe9, 0x5b, 0x96, 0x3e, 0xb7, 0xe5, 0x8f, 0x3e, 0xc1, 0xac, 0x8e, 0x3d,
  0x0c, 0x01, 0xc0, 0xbe, 0x77, 0x7b, 0x0c, 0xbe, 0x96, 0x03, 0xaa, 0xbd,
  0x00, 0x1e, 0x68, 0xbd, 0x6d, 0xcd, 0x97, 0xbe, 0xc1, 0x49, 0xd9, 0xbe,
  0xfd, 0x48, 0xd9, 0x3d, 0xba, 0x90, 0xa6, 0x3d, 0xb3, 0x73, 0x20, 0x3e,
  0x20, 0xea, 0xc3, 0xbe, 0x71, 0x51, 0xcc, 0x3e, 0xc5, 0x3d, 0x28, 0x3e,
  0x02, 0x44, 0xa4, 0x3d, 0xe1, 0xd3, 0xab, 0x3e, 0x0c, 0x42, 0x3b, 0x3e,
  0xdd, 0xee, 0xbc, 0xbe, 0x5e, 0x21, 0xb1, 0x3c, 0x5c, 0x1a, 0xbc, 0x3e,
  0xec, 0xf2, 0x3d, 0x3d, 0x9a, 0x9e, 0x4e, 0x3e, 0x8e, 0x38, 0xbf, 0x3c,
  0x91, 0xa1, 0x50, 0xbe, 0xbe, 0x43, 0x91, 0x3d, 0x25, 0xe0, 0x84, 0xbe,
  0x6f, 0x55, 0xca, 0x3d, 0xb5, 0xa1, 0xc1, 0xbd, 0x8b, 0x00, 0xda, 0xbd,
  0xcf, 0x76, 0x7b, 0x3e, 0xf1, 0x23, 0x73, 0xbd, 0x66, 0x53, 0xb0, 0x3e,
  0x04, 0x8f, 0xef, 0x3c, 0x1a, 0xc7, 0xa2, 0x3e, 0x3c, 0x26, 0x0f, 0x3e,
  0xa7, 0x70, 0xdd, 0xbd, 0x92, 0xa1, 0xa2, 0x3d, 0xac, 0x7a, 0x1f, 0xbe,
  0x95, 0x2f, 0xed, 0xbc, 0xdd, 0xc5, 0xdf, 0x3d, 0x48, 0x15, 0x38, 0xbe,
  0x1c, 0xac, 0x2e, 0xbe, 0x78, 0x6a, 0xbe, 0x3e, 0x6d, 0xff, 0x7e, 0xbe,
  0xd1, 0xb7, 0xe1, 0x3d, 0x03, 0x43, 0xa5, 0x3e, 0xe2, 0x05, 0xcb, 0xbd,
  0x93, 0x96, 0x2a, 0x3e, 0xa9, 0x4b, 0x9c, 0x3e, 0x7f, 0x05, 0xb2, 0x3e,
  0x06, 0x1e, 0x33, 0x3e, 0x1b, 0x5a, 0xd4, 0xbd, 0x8a, 0x22, 0x69, 0x3e,
  0x3d, 0xd0, 0xba, 0x3e, 0xb9, 0xe5, 0x6b, 0xbe, 0x3f, 0x87, 0x2a, 0x3e,
  0xe5, 0x11, 0x85, 0x3d, 0xd4, 0xf5, 0x2b, 0xbe, 0x8c, 0x1e, 0x93, 0xbe,
  0xd6, 0x1c, 0xc7, 0x3e, 0x16, 0x73, 0x62, 0x3d, 0xdc, 0xbd, 0xe7, 0xbe,
  0x60, 0x17, 0x7e, 0xbe, 0x38, 0x11, 0xdb, 0xbd, 0x9f, 0x82, 0xd5, 0x3d,
  0x7c, 0xa0, 0x61, 0xbd, 0x13, 0x42, 0x91, 0x3e, 0x02, 0x0f, 0xc7, 0x3e,
  0x7c, 0xed, 0x44, 0xbe, 0x40, 0x9b, 0x2f, 0x3d, 0xe3, 0x69, 0xd1, 0x3d,
  0x94, 0xd4, 0xa4, 0x3e, 0x51, 0x92, 0x08, 0x3e, 0x70, 0xe2, 0x20, 0xbc,
  0x4a, 0xc5, 0x5c, 0xbd, 0xd8, 0x00, 0xba, 0xbd, 0x88, 0xc0, 0x8f, 0x3e,
  0x1f, 0x33, 0x32, 0xbe, 0x16, 0xf4, 0xff, 0xff, 0x04, 0x00, 0x00, 0x00,
  0x64, 0x0b, 0x00, 0x00, 0xc4, 0x23, 0x77, 0x3e, 0x89, 0xe1, 0xd7, 0x3d,
  0x9d, 0x4a, 0x91, 0x3e, 0x80, 0x04, 0x5a, 0x3b, 0x6d, 0xa9, 0x43, 0x3c,
  0xb6, 0x24, 0x9d, 0xbd, 0x4f, 0xbb, 0xab, 0xbe, 0x50, 0xa3, 0xfe, 0x3d,
  0x40, 0xd0, 0x7f, 0x3c, 0x2b, 0x04, 0x01, 0xbd, 0xef, 0x1a, 0x01, 0x3e,
  0xda, 0x3a, 0xa4, 0x3e, 0xdc, 0xaa, 0x54, 0x3e, 0x7a, 0xf7, 0xf4, 0xbd,
  0x10, 0x27, 0x71, 0x3e, 0x31, 0x3c, 0x73, 0x3e, 0xe3, 0x79, 0x93, 0xbd,
  0x44, 0x28, 0xdb, 0x3d, 0xe8, 0x5a, 0x91, 0x3e, 0xe9, 0xec, 0x1c, 0x3e,
  0xb1, 0x69, 0x68, 0xbe, 0x49, 0x10, 0x93, 0x3e, 0x9d, 0xb4, 0x58, 0x3e,
  0xaa, 0x5c, 0x81, 0x3d, 0xe4, 0x03, 0x86, 0xbe, 0xcb, 0x9e, 0x79, 0xbe,
  0x2c, 0x97, 0x92, 0x3e, 0xee, 0xe8, 0xbd, 0x3e, 0xf3, 0x3f, 0x03, 0x3e,
  0x5a, 0x7a, 0x5d, 0xbe, 0xcd, 0x4b, 0x00, 0xbe, 0xa3, 0xb2, 0xf8, 0xbc,
  0xbf, 0xb5, 0x45, 0x3e, 0xb3, 0xe0, 0x30, 0xbc, 0x5a, 0xbf, 0x3d, 0x3e,
  0x53, 0x87, 0xe6, 0xbd, 0xc3, 0xf5, 0x27, 0xbc, 0xd4, 0x3d, 0xac, 0x3e,
  0xed, 0xc2, 0x55, 0x3e, 0xa8, 0xae, 0x46, 0x3e, 0x56, 0xb3, 0x8c, 0xbe,
  0xae, 0xb4, 0xe9, 0xbc, 0x76, 0xcc, 0x9c, 0xbd, 0x30, 0x71, 0xae, 0x3e,
  0x8f, 0x14, 0x3a, 0xbd, 0x3f, 0x86, 0x18, 0x3e, 0xc2, 0xb5, 0x22, 0xbe,
  0xbe, 0x33, 0x08, 0x3e, 0x5a, 0x92, 0x33, 0xbd, 0x47, 0xe9, 0xa8, 0x3e,
  0x11, 0x91, 0xf1, 0x3d, 0xaf, 0x91, 0x50, 0x3c, 0x9d, 0x45, 0xa4, 0x3e,
  0x74, 0x0c, 0x74, 0x3e, 0xf1, 0x09, 0x68, 0xbe, 0x39, 0xfb, 0x87, 0x3e,
  0xc9, 0x2b, 0x65, 0x3e, 0xda, 0xbb, 0x93, 0xbe, 0x41, 0x8a, 0xab, 0xbe,
  0x96, 0x3a, 0xb4, 0x3d, 0xe6, 0x3d, 0x0a, 0xbd, 0x8d, 0x77, 0xe9, 0x3d,
  0x79, 0xf6, 0xe6, 0xbb, 0xc5, 0xdb, 0xa6, 0xbe, 0x86, 0xdb, 0x1d, 0x3d,
  0x93, 0xc6, 0x1e, 0x3e, 0x5c, 0x0e, 0x8b, 0xbe, 0xd4, 0x87, 0x69, 0x3e,
  0x4e, 0x84, 0xbf, 0x3a, 0x38, 0x26, 0x44, 0x3d, 0xee, 0xcf, 0xbb, 0xbd,
  0xc6, 0x9f, 0xa4, 0xbe, 0x9b, 0x18, 0x62, 0x3e, 0x34, 0x60, 0x46, 0xbe,
  0x3d, 0x7b, 0x84, 0xbe, 0x6d, 0x4d, 0x1c, 0xbe, 0xae, 0x72, 0x38, 0x3e,
  0xe4, 0x30, 0x6c, 0x3e, 0xfe, 0xf0, 0x08, 0xbd, 0xc6, 0x8f, 0x67, 0x3b,
  0xb8, 0x33, 0x88, 0xbd, 0x57, 0x44, 0x80, 0xbe, 0x70, 0x02, 0x6f, 0x3e,
  0x8e, 0x04, 0xec, 0xbc, 0x57, 0xfd, 0x89, 0xbe, 0x19, 0x5d, 0xfe, 0xbc,
  0x6f, 0x68, 0x4a, 0xbe, 0x60, 0xe0, 0x91, 0xbe, 0xab, 0x14, 0x14, 0xbe,
  0x08, 0x35, 0x9c, 0xbd, 0x8c, 0xbe, 0x02, 0x3e, 0xcb, 0xaa, 0xb5, 0xbd,
  0xc6, 0x35, 0x93, 0x3e, 0xaf, 0x62, 0x5b, 0xbd, 0xa7, 0xf7, 0x83, 0x3d,
  0x91, 0x1d, 0x85, 0xbe, 0x1e, 0x68, 0x13, 0xbe, 0x72, 0x8e, 0x94, 0x3d,
  0xf8, 0x34, 0x98, 0xbe, 0x47, 0x81, 0xac, 0x3e, 0x5c, 0xcd, 0x9a, 0x3d,
  0x85, 0x71, 0xa5, 0x3e, 0x3b, 0xaa, 0xa1, 0xbc, 0x5f, 0x29, 0x89, 0xbe,
  0x23, 0x28, 0xb6, 0x3d, 0x89, 0x96, 0x99, 0x3e, 0x5b, 0xe0, 0x8a, 0xbe,
  0x66, 0x75, 0x94, 0x3e, 0xb4, 0x79, 0x6f, 0x3e, 0x9d, 0x87, 0x7e, 0xbe,
  0xc1, 0x57, 0x13, 0x3e, 0x56, 0xea, 0x0b, 0x3e, 0x15, 0xba, 0xfe, 0x3c,
  0x3c, 0x38, 0x27, 0xbe, 0x3f, 0xf6, 0x04, 0xbe, 0xb5, 0x7a, 0x4f, 0xbe,
  0x03, 0x55, 0xcc, 0xbd, 0xcd, 0xf7, 0x04, 0x3e, 0x10, 0x3b, 0xf3, 0xbd,
  0x5c, 0xb2, 0xd8, 0xbd, 0xde, 0xb9, 0x2a, 0xbe, 0x97, 0xce, 0x8b, 0xbe,
  0x7d, 0xfb, 0x74, 0x3e, 0x93, 0x9f, 0xa8, 0xbe, 0x1e, 0x37, 0x55, 0xbe,
  0x16, 0xf2, 0x17, 0x3d, 0x2a, 0x2e, 0x94, 0xbe, 0x43, 0xa2, 0x0d, 0x3e,
  0x8e, 0x97, 0xa1, 0xbe, 0x5d, 0x1e, 0xb6, 0xbe, 0x58, 0xea, 0x91, 0x3e,
  0xbc, 0xcb, 0x6e, 0xbe, 0xe8, 0x0d, 0x2b, 0x3e, 0xfc, 0xfd, 0x05, 0xbe,
  0x3a, 0xf3, 0x38, 0x3e, 0x5d, 0x22, 0xf8, 0x3d, 0xf3, 0xff, 0x7d, 0x3e,
  0xee, 0xa1, 0x43, 0xba, 0x0d, 0xdf, 0xdc, 0xbd, 0x73, 0x5a, 0xae, 0xbe,
  0xe5, 0x18, 0x8b, 0x3e, 0x80, 0xc6, 0x6e, 0x3d, 0x26, 0x0d, 0x37, 0x3e,
  0x67, 0xdc, 0xbd, 0xbe, 0xde, 0x41, 0xd3, 0x3d, 0xf6, 0x9c, 0xb2, 0xbe,
  0x68, 0xbb, 0x57, 0x3c, 0xd6, 0xbf, 0x48, 0xbc, 0x9f, 0x9e, 0x08, 0x3c,
  0x77, 0xc4, 0x05, 0x3e, 0x0e, 0x79, 0x3e, 0x3d, 0x2f, 0x43, 0x32, 0x3d,
  0x51, 0x7b, 0xbf, 0xbd, 0x2d, 0x04, 0x15, 0xbe, 0x30, 0x57, 0xbc, 0xbe,
  0x80, 0xa5, 0x44, 0x3e, 0xcf, 0x07, 0xc1, 0x3d, 0xd4, 0x89, 0xe7, 0xbc,
  0x40, 0xac, 0x8a, 0x3e, 0xd9, 0x31, 0x2f, 0x3e, 0x1f, 0xda, 0x49, 0x3e,
  0xb0, 0xa4, 0x11, 0xbe, 0xb1, 0xba, 0x20, 0x3e, 0xc0, 0x8b, 0x25, 0x3d,
  0x3e, 0x0f, 0x19, 0x3c, 0x92, 0x5f, 0x8d, 0x3e, 0x7f, 0x83, 0xcd, 0xbc,
  0x21, 0x3e, 0x23, 0xbe, 0x9e, 0xf2, 0xa1, 0xbe, 0x0a, 0x62, 0x61, 0xbe,
  0x08, 0xfb, 0x11, 0x3d, 0xc1, 0x53, 0x33, 0xbc, 0x6f, 0xbf, 0xae, 0xbe,
  0xca, 0x62, 0x98, 0x3e, 0xac, 0xaa, 0x13, 0xbe, 0xfe, 0x3a, 0x6f, 0x3e,
  0x69, 0x32, 0xad, 0xbd, 0xd4, 0x7e, 0x79, 0xbe, 0x83, 0x89, 0xe0, 0xbd,
  0x9e, 0x64, 0x81, 0xbd, 0x6f, 0x12, 0x75, 0x3c, 0xb9, 0x2a, 0x4f, 0xbc,
  0xfc, 0x2e, 0xf1, 0x3d, 0xef, 0xa9, 0x1b, 0xbd, 0x01, 0x5c, 0x15, 0xbe,
  0x74, 0xa2, 0x18, 0x3e, 0x1d, 0x57, 0xef, 0x3d, 0xfb, 0x16, 0x94, 0xbe,
  0x9d, 0x61, 0x27, 0xbc, 0xd5, 0x7b, 0x87, 0x3e, 0xb6, 0x58, 0xc1, 0xbe,
  0xf2, 0x45, 0x6c, 0x3e, 0x26, 0x4f, 0x3c, 0xbc, 0x07, 0xc2, 0xb8, 0xbd,
  0xd6, 0xbd, 0xb7, 0xbe, 0x72, 0x3a, 0xa3, 0xbe, 0x8f, 0x87, 0xbc, 0x3d,
  0x52, 0x2e, 0xa7, 0xbe, 0xb5, 0xd8, 0xd2, 0xbd, 0x79, 0x76, 0xe0, 0xbd,
  0x42, 0x6d, 0x78, 0x3e, 0xd4, 0x04, 0xf6, 0xbd, 0xf5, 0xfb, 0x4c, 0xbd,
  0x76, 0xd1, 0x31, 0x3c, 0x9a, 0x09, 0x27, 0x3d, 0x46, 0xf1, 0x16, 0x3d,
  0x02, 0x8b, 0x3c, 0x3e, 0x73, 0x2f, 0x95, 0xbd, 0x0c, 0xe2, 0xb8, 0xbe,
  0x05, 0x55, 0x68, 0x3d, 0x5a, 0xc1, 0x5d, 0x3e, 0x94, 0x70, 0x89, 0xbe,
  0x01, 0x5f, 0xff, 0xbd, 0x37, 0xde, 0x4e, 0xbe, 0xae, 0x9e, 0x85, 0x3e,
  0xb6, 0x8e, 0x18, 0xbd, 0x9e, 0xe4, 0x65, 0xbc, 0x2c, 0x4f, 0x22, 0x3e,
  0x1e, 0xd5, 0x23, 0x3e, 0x8e, 0xa4, 0x6d, 0x3e, 0x67, 0xce, 0x34, 0x3e,
  0x91, 0xe9, 0x8d, 0xbe, 0xc7, 0x00, 0x03, 0x3e, 0x92, 0x06, 0x19, 0xbe,
  0xc4, 0xcc, 0x8c, 0x3e, 0x16, 0xf1, 0xf1, 0xbc, 0xd6, 0x86, 0x70, 0x3e,
  0x1b, 0x28, 0x88, 0x3c, 0xb0, 0x5c, 0x2e, 0x3d, 0xf7, 0xa6, 0xad, 0xbe,
  0x60, 0x8b, 0x30, 0xbe, 0xb0, 0xf6, 0xc4, 0xbd, 0x4e, 0x5f, 0xfe, 0x3d,
  0x8f, 0xfa, 0xa0, 0xbe, 0x12, 0xa0, 0x9b, 0xbd, 0x8b, 0xe8, 0x13, 0x3e,
  0xf6, 0x52, 0x6e, 0x3e, 0xbc, 0xd2, 0x53, 0x3e, 0x48, 0xbd, 0x1a, 0x3e,
  0x71, 0x35, 0x1c, 0xbe, 0xd6, 0xc9, 0xe0, 0x3d, 0xa3, 0x9c, 0x9d, 0xbe,
  0x8b, 0x05, 0x54, 0x3e, 0xbd, 0xc4, 0x81, 0xbe, 0x23, 0xb4, 0x25, 0x3e,
  0xb2, 0xe9, 0x84, 0x3e, 0xe8, 0xc1, 0x28, 0x3e, 0x0f, 0x9f, 0x4c, 0xbe,
  0x92, 0xa3, 0xbc, 0xbe, 0xf6, 0x23, 0x32, 0xbe, 0x4b, 0xcf, 0x5b, 0x3e,
  0x82, 0x84, 0x54, 0xbe, 0xa5, 0x56, 0x65, 0xbc, 0xf0, 0xe3, 0x8b, 0x3e,
  0xd6, 0xc4, 0xbd, 0x3c, 0x77, 0xa9, 0x26, 0x3e, 0xd6, 0x32, 0x67, 0x3e,
  0x11, 0xad, 0x13, 0x3e, 0x00, 0xc4, 0x87, 0x3e, 0x71, 0xde, 0xf5, 0xbc,
  0x64, 0xfc, 0x48, 0x3e, 0xac, 0xfe, 0xb0, 0xbe, 0xbb, 0xa3, 0x50, 0x3e,
  0x99, 0xdf, 0x41, 0xbe, 0xc4, 0x08, 0xcc, 0xbd, 0x6e, 0xd6, 0x35, 0xbe,
  0x4d, 0x9b, 0x53, 0xbe, 0x2e, 0xcd, 0xb6, 0xbd, 0xa6, 0x26, 0x82, 0xbe,
  0x11, 0x4c, 0x52, 0x3d, 0x11, 0xa1, 0x69, 0x3d, 0xe0, 0xf0, 0x9a, 0xbe,
  0xf4, 0x9e, 0xab, 0xbe, 0x56, 0xb4, 0x4d, 0xbe, 0xd6, 0xe5, 0xba, 0xbe,
  0x74, 0x78, 0x90, 0x3d, 0x3d, 0x50, 0x90, 0xbb, 0x18, 0x5f, 0x63, 0x3d,
  0x92, 0xa6, 0x45, 0x3c, 0x31, 0xd6, 0x35, 0xbe, 0x1f, 0xdc, 0x34, 0x3e,
  0xf7, 0x0a, 0x01, 0x3e, 0x12, 0x79, 0x85, 0xbe, 0x4b, 0x23, 0x81, 0xbc,
  0xba, 0xde, 0xee, 0x3d, 0xf5, 0xe4, 0x98, 0xbe, 0x15, 0xe9, 0x9b, 0xbd,
  0x22, 0xbc, 0x06, 0xbd, 0x8b, 0x6a, 0x2d, 0x3e, 0x6c, 0xa5, 0x15, 0xbe,
  0xfb, 0x35, 0x8e, 0x3e, 0x99, 0x3d, 0x15, 0x3e, 0x0d, 0xef, 0xc5, 0xbd,
  0xa5, 0xe2, 0x3c, 0x3e, 0x11, 0x7c, 0x79, 0x3d, 0xfe, 0xc3, 0xd1, 0x3d,
  0x62, 0xbf, 0x07, 0xbe, 0x7e, 0x6f, 0x46, 0xbe, 0xf4, 0xfe, 0x42, 0xbe,
  0x9f, 0xd4, 0x8b, 0x3d, 0x8a, 0xba, 0x27, 0xbe, 0x0c, 0x68, 0x54, 0xbe,
  0x0a, 0xef, 0x37, 0xbe, 0x9b, 0x32, 0x9b, 0x3c, 0xf9, 0x23, 0x05, 0xbe,
  0xc7, 0x74, 0x7d, 0x3e, 0xb9, 0x47, 0xf2, 0x3d, 0xb6, 0xf0, 0xb1, 0x3e,
  0xc8, 0x3d, 0x25, 0xbe, 0xa8, 0xf8, 0x11, 0x3e, 0x43, 0x25, 0xb1, 0x3e,
  0xfc, 0xd0, 0x83, 0xbe, 0x07, 0x0a, 0x97, 0x3e, 0x32, 0x6d, 0x98, 0x3e,
  0xc3, 0xfa, 0x0c, 0xbd, 0xc9, 0x7f, 0x4e, 0xbe, 0xd4, 0x66, 0x50, 0xbe,
  0xa1, 0x82, 0x9b, 0x3e, 0x5a, 0x4e, 0x06, 0x3e, 0xd0, 0xd7, 0x81, 0x3e,
  0x18, 0xe8, 0x6b, 0x3d, 0xbb, 0xeb, 0x81, 0x3d, 0xee, 0xd9, 0xcd, 0x3d,
  0x5d, 0xc6, 0xe3, 0xbd, 0x37, 0x71, 0xdf, 0x3d, 0xa9, 0x33, 0x0b, 0x3c,
  0xc8, 0x22, 0x21, 0xbe, 0xe7, 0x11, 0x36, 0x3e, 0xa9, 0x29, 0x47, 0x3e,
  0xb8, 0x30, 0xb6, 0x3d, 0xd9, 0x80, 0xec, 0xbd, 0x96, 0xa8, 0x5b, 0xbe,
  0x20, 0x03, 0x88, 0x3e, 0x49, 0x10, 0x85, 0x3e, 0xb2, 0xe8, 0x88, 0x3e,
  0x79, 0x8a, 0x30, 0xbc, 0xa5, 0x4b, 0xbc, 0xbe, 0x63, 0x23, 0xbd, 0x3d,
  0x60, 0xf7, 0x61, 0x3d, 0xa7, 0x9c, 0x91, 0xbe, 0xf8, 0x18, 0x9a, 0x3e,
  0x4f, 0x77, 0xf6, 0x3d, 0x1b, 0x88, 0x0e, 0x3e, 0x66, 0x5f, 0x0f, 0xbe,
  0x64, 0x3d, 0xad, 0xbc, 0x87, 0x1f, 0x0f, 0x3e, 0xf0, 0x18, 0xe3, 0x3d,
  0x35, 0xd0, 0x73, 0x3e, 0x24, 0xd8, 0xb0, 0xbe, 0x00, 0x20, 0x60, 0xbd,
  0xc9, 0x3f, 0xa6, 0xbd, 0x12, 0xda, 0x12, 0xbd, 0xa1, 0xd2, 0x5b, 0x3e,
  0x7f, 0x17, 0x76, 0xbe, 0xc8, 0x8d, 0x29, 0x3c, 0xca, 0xbb, 0x5e, 0xbe,
  0x03, 0x47, 0x5f, 0xbe, 0xa6, 0x4a, 0x1b, 0xbe, 0x51, 0xbb, 0x6c, 0xbe,
  0xee, 0xd2, 0x5e, 0xbc, 0xe1, 0xe2, 0x8e, 0x3e, 0x3c, 0xb0, 0x57, 0xbe,
  0xfc, 0x86, 0xa4, 0xbe, 0x11, 0x38, 0x45, 0xbe, 0x81, 0x8c, 0x5f, 0x3e,
  0x36, 0xc8, 0x14, 0x3e, 0x8f, 0x0c, 0xc3, 0x3d, 0xd1, 0x8f, 0x23, 0xbe,
  0xd3, 0x1d, 0x76, 0x3e, 0x94, 0x53, 0x28, 0x3d, 0xc8, 0x7c, 0x9f, 0xbd,
  0xfa, 0x7c, 0xfe, 0x3d, 0x95, 0x48, 0x29, 0x3e, 0xb2, 0x47, 0x98, 0x3e,
  0x1b, 0x6f, 0x8e, 0x3e, 0x39, 0xf0, 0xfe, 0x3c, 0x33, 0xa7, 0x73, 0xbe,
  0x69, 0x24, 0x4d, 0xbe, 0x88, 0x13, 0x35, 0xbe, 0x1c, 0x4a, 0x92, 0xbe,
  0xac, 0xda, 0x92, 0xbd, 0xa8, 0x72, 0x27, 0x3e, 0xb2, 0xec, 0x84, 0xbe,
  0x8c, 0x94, 0xb3, 0x3e, 0xb3, 0x23, 0xaf, 0xbd, 0x98, 0x0b, 0xa7, 0x3c,
  0x63, 0xbd, 0xa5, 0x3e, 0xd1, 0x0c, 0x21, 0x3e, 0x30, 0x50, 0x87, 0x3e,
  0x7b, 0xe7, 0x2c, 0xbe, 0xc9, 0x76, 0x93, 0x3e, 0xc2, 0x8d, 0x1f, 0xbe,
  0x36, 0x2f, 0x64, 0xbe, 0x04, 0x72, 0xa2, 0x3e, 0x27, 0x01, 0x40, 0x3e,
  0xeb, 0x2f, 0x0b, 0xbe, 0x37, 0x36, 0x52, 0x3d, 0xce, 0xa6, 0xc6, 0xbd,
  0x55, 0x82, 0xa2, 0x3e, 0x0a, 0xd7, 0x5a, 0x3d, 0x5c, 0xed, 0x22, 0x3d,
  0xc9, 0xd1, 0xc7, 0xbd, 0x0a, 0x59, 0xd2, 0xbd, 0x08, 0xc5, 0x11, 0x3e,
  0xae, 0xb3, 0xa3, 0x3e, 0x56, 0xfb, 0xc1, 0xbb, 0xef, 0x46, 0x19, 0xbd,
  0x81, 0xfd, 0x82, 0xbe, 0x9f, 0xbd, 0x54, 0x3e, 0x37, 0xdb, 0x94, 0x3e,
  0x64, 0xaa, 0x28, 0x3e, 0x82, 0xe3, 0x8a, 0x3d, 0x96, 0xaa, 0x35, 0x3e,
  0xd9, 0x0a, 0x5b, 0xbd, 0x38, 0x96, 0x4a, 0xbe, 0xef, 0x48, 0x6b, 0x3e,
  0xcf, 0x2f, 0xfc, 0xbc, 0x6a, 0x0c, 0xc0, 0x3d, 0x88, 0x68, 0x7a, 0xbe,
  0xa2, 0xc3, 0xc9, 0xbd, 0x39, 0xec, 0x7c, 0x3d, 0x58, 0xc7, 0x76, 0xbe,
  0x86, 0xd4, 0x1d, 0x3e, 0xbd, 0x9a, 0x1b, 0x3e, 0x19, 0xf9, 0x65, 0x3e,
  0x4c, 0x7a, 0xb4, 0x3d, 0xf5, 0x04, 0x1f, 0x3e, 0x32, 0x86, 0x17, 0xbd,
  0xf3, 0x77, 0xae, 0xbd, 0xb6, 0xa1, 0x90, 0xbe, 0xb4, 0x41, 0x56, 0x3e,
  0xec, 0xa3, 0x35, 0x3c, 0x42, 0x98, 0x2d, 0xbe, 0x78, 0x1b, 0xe2, 0x3d,
  0x76, 0xd3, 0x17, 0xbe, 0xf2, 0x6c, 0xd4, 0xbd, 0x9d, 0x51, 0xc8, 0x3d,
  0xbb, 0x1b, 0xe3, 0xbc, 0x22, 0xd9, 0x6d, 0x3e, 0xab, 0xb3, 0x54, 0xba,
  0x73, 0x03, 0x22, 0xbe, 0xaa, 0xb3, 0x08, 0x3e, 0x21, 0xc2, 0xfa, 0xbd,
  0x9b, 0x84, 0x01, 0x3d, 0x93, 0x11, 0x14, 0x3e, 0x23, 0x2f, 0xb1, 0x3d,
  0x7f, 0xfd, 0xa6, 0xbc, 0x31, 0x26, 0xb1, 0x3e, 0xbc, 0xdb, 0x4e, 0x3e,
  0x5c, 0xbf, 0x76, 0xbe, 0x17, 0xca, 0x5c, 0x3e, 0x19, 0x5f, 0x26, 0x3e,
  0x74, 0xb8, 0x9b, 0x3d, 0x49, 0xe2, 0x8a, 0xbd, 0xaf, 0x75, 0x31, 0xbe,
  0x8d, 0xf3, 0x29, 0xbe, 0x0f, 0x65, 0x4b, 0xbe, 0xfc, 0xad, 0xcb, 0xbc,
  0x75, 0x06, 0x1c, 0xbe, 0x2a, 0xae, 0x57, 0xbd, 0x24, 0x72, 0x65, 0x3e,
  0x7c, 0x21, 0x37, 0xbe, 0xc5, 0x47, 0x6c, 0x3e, 0x50, 0x52, 0x49, 0xbe,
  0xce, 0x09, 0xb2, 0xbd, 0x50, 0xaa, 0x54, 0x3e, 0x9a, 0xc0, 0x3d, 0xbd,
  0x6c, 0x95, 0x85, 0xbe, 0x3d, 0xd0, 0xf8, 0x3d, 0x80, 0x51, 0x26, 0x3e,
  0xf2, 0xd9, 0x62, 0xbc, 0x21, 0x07, 0x0f, 0xbe, 0xa5, 0xc0, 0x94, 0x3c,
  0xb4, 0x69, 0xa9, 0xbe, 0xb9, 0x1b, 0x8a, 0xbd, 0x0a, 0xbc, 0x87, 0xbe,
  0xc7, 0xe2, 0x73, 0xbe, 0xe6, 0x94, 0x3f, 0xbe, 0xe5, 0x5a, 0xf8, 0xbd,
  0xb6, 0x11, 0xb2, 0x3c, 0x17, 0x8e, 0x4c, 0xbe, 0x1a, 0x16, 0xb6, 0x3d,
  0x14, 0xe5, 0x7b, 0x3e, 0x72, 0x04, 0x33, 0xbe, 0xa3, 0xe4, 0x77, 0xbe,
  0xe1, 0x31, 0x4f, 0xbc, 0x3d, 0x37, 0x93, 0xbe, 0x4a, 0x25, 0xa7, 0xbd,
  0x4e, 0x85, 0x50, 0xbe, 0xab, 0x13, 0x80, 0x3d, 0x2d, 0x77, 0x36, 0x3e,
  0xb1, 0x34, 0x1c, 0xbc, 0x31, 0xe8, 0x2b, 0xbe, 0x27, 0xbd, 0x81, 0x3e,
  0x63, 0x8c, 0x99, 0x3a, 0x5c, 0x65, 0x93, 0x3e, 0x11, 0x6b, 0x1a, 0x3e,
  0x28, 0x30, 0x47, 0x3e, 0x3a, 0xc2, 0xc2, 0x3d, 0x35, 0x16, 0x44, 0x3d,
  0x88, 0x30, 0xb6, 0xbd, 0xab, 0xbd, 0x9a, 0xbe, 0xbc, 0x5c, 0x92, 0xbe,
  0x5d, 0xea, 0xd1, 0x3d, 0x7d, 0xf5, 0xc8, 0xbd, 0x04, 0xa1, 0x60, 0x3e,
  0x33, 0xa9, 0x51, 0xbc, 0x6e, 0xd7, 0xbe, 0xbe, 0xa4, 0x75, 0x35, 0xbe,
  0xb4, 0x8e, 0xcf, 0xbc, 0x31, 0xe2, 0x82, 0xbe, 0x33, 0x5d, 0x98, 0xbe,
  0x4b, 0x44, 0x93, 0x3d, 0xcd, 0xbe, 0x90, 0xbe, 0x36, 0xb5, 0x3e, 0xbe,
  0x4e, 0x5f, 0x4e, 0xbe, 0x51, 0xc1, 0xae, 0x3d, 0x25, 0x8c, 0xf7, 0x3c,
  0xd1, 0x5e, 0x00, 0xbc, 0x09, 0x6b, 0x28, 0x3e, 0xfb, 0x4f, 0x8e, 0xbe,
  0x67, 0xae, 0xb5, 0x3e, 0x74, 0x1c, 0xb6, 0xbd, 0x54, 0xa4, 0x91, 0xbe,
  0xb4, 0x7d, 0x30, 0xbe, 0xe3, 0xdc, 0x6e, 0x3e, 0xff, 0x94, 0x9c, 0x3e,
  0x30, 0x6a, 0x5d, 0x3e, 0x67, 0x77, 0x80, 0x3e, 0x89, 0xd2, 0x84, 0xbe,
  0xf5, 0xbd, 0x46, 0x3d, 0xac, 0xe5, 0x8f, 0xbe, 0x6a, 0x7c, 0xaa, 0x3d,
  0x74, 0xf9, 0x1b, 0x3c, 0x7d, 0x9e, 0xdd, 0xbb, 0x1e, 0xef, 0x9a, 0x3e,
  0x1e, 0x45, 0x5d, 0x3e, 0xd5, 0x28, 0x7f, 0x3d, 0x36, 0xe4, 0x60, 0x3d,
  0x66, 0xcd, 0x91, 0xbe, 0xc6, 0xca, 0x80, 0xbe, 0x82, 0x58, 0x8e, 0xbe,
  0xbf, 0xd3, 0x85, 0xbe, 0x1c, 0x71, 0xf5, 0xbd, 0xda, 0x9f, 0x82, 0xbd,
  0xe2, 0x9a, 0x23, 0x3e, 0xf7, 0xe3, 0x8e, 0xbe, 0x98, 0xbd, 0xb0, 0x3c,
  0xfa, 0xec, 0x47, 0xbb, 0x59, 0xb2, 0x5d, 0xbe, 0xfe, 0x8b, 0x38, 0xbd,
  0x4b, 0x37, 0x79, 0xbe, 0xb9, 0xb4, 0xa8, 0xbe, 0xa6, 0x4c, 0x30, 0x3e,
  0xa0, 0x8f, 0x06, 0x3e, 0x72, 0x0b, 0x05, 0xbe, 0x3e, 0x36, 0xf3, 0xbd,
  0x9b, 0x70, 0x81, 0xbe, 0x3a, 0xc0, 0x45, 0x3b, 0x46, 0x41, 0x8b, 0x3e,
  0xb6, 0x83, 0xef, 0xbd, 0xcf, 0xc4, 0x02, 0x3e, 0x0b, 0x9c, 0x33, 0x3e,
  0xcf, 0x7c, 0xa3, 0xbe, 0x53, 0xc7, 0xb9, 0xbd, 0x5e, 0x5b, 0x41, 0x3e,
  0x3d, 0x48, 0x55, 0x3e, 0x93, 0x41, 0xc1, 0xbe, 0x66, 0x8e, 0x14, 0xbe,
  0xbd, 0x55, 0xbb, 0xbe, 0x4d, 0x78, 0x15, 0x3e, 0x1d, 0x6f, 0x08, 0x3d,
  0xfa, 0x5b, 0x03, 0x3d, 0xc8, 0xb0, 0x0f, 0xbe, 0x51, 0x57, 0x6a, 0x3e,
  0xdb, 0x22, 0x04, 0x3e, 0x86, 0x81, 0x0f, 0x3e, 0x61, 0xa3, 0x70, 0xbd,
  0xac, 0xc0, 0x2d, 0xbe, 0x4a, 0x40, 0x2d, 0x3e, 0xb9, 0x12, 0xe8, 0xbd,
  0xf8, 0x18, 0x8a, 0xbe, 0x5a, 0x4a, 0x44, 0x3e, 0x15, 0x5d, 0xd9, 0x3d,
  0xaf, 0x3f, 0x2a, 0x3e, 0x1d, 0x09, 0x32, 0x3d, 0x4f, 0xe2, 0x4a, 0x3e,
  0x1b, 0xe0, 0x8e, 0xbe, 0xbe, 0x30, 0x25, 0xbe, 0xd4, 0x86, 0x08, 0x3e,
  0xff, 0x05, 0x28, 0xbc, 0x83, 0x5b, 0x54, 0xbe, 0x97, 0xe4, 0x23, 0x3d,
  0x68, 0x02, 0xbf, 0xbe, 0x79, 0x32, 0x4d, 0xbd, 0x8e, 0x30, 0x79, 0xbe,
  0x80, 0xf0, 0x9f, 0xbd, 0x11, 0xa2, 0x9a, 0xbe, 0x0a, 0x23, 0x9f, 0xbc,
  0x52, 0xad, 0x8f, 0xbe, 0xec, 0xe7, 0x87, 0x3e, 0xa2, 0xa3, 0x8c, 0x3e,
  0xf8, 0x52, 0x35, 0x3e, 0x04, 0x2e, 0xa0, 0xb9, 0x88, 0xb6, 0x2a, 0xbe,
  0xcf, 0x1a, 0x1f, 0x3c, 0x02, 0xb5, 0xe9, 0xbd, 0xde, 0x76, 0xa1, 0x3d,
  0x12, 0x50, 0x56, 0x3e, 0x5e, 0x5f, 0x3a, 0x3e, 0xd0, 0x53, 0x7a, 0x3e,
  0x4c, 0xae, 0x71, 0xbe, 0x57, 0x2b, 0x89, 0xbe, 0xbd, 0xce, 0x82, 0xbe,
  0x37, 0x77, 0x0e, 0x3e, 0x3e, 0x0a, 0x8d, 0x3d, 0x83, 0x0c, 0x92, 0xbd,
  0x53, 0xf6, 0x25, 0xbd, 0xab, 0x1b, 0x6e, 0xbe, 0x23, 0x4e, 0x77, 0xbe,
  0x75, 0x7b, 0x85, 0xbe, 0xbb, 0xec, 0x8f, 0xbd, 0xce, 0x41, 0x58, 0xbe,
  0xf2, 0x4c, 0x82, 0x3d, 0x06, 0xc8, 0xcc, 0x3d, 0x7f, 0xf5, 0x9a, 0xbc,
  0xec, 0x56, 0x24, 0x3e, 0x1a, 0x49, 0x5b, 0x3e, 0xaf, 0x62, 0x67, 0x3e,
  0x41, 0x08, 0x7c, 0x3e, 0x1b, 0x28, 0x61, 0xbe, 0x0a, 0x0f, 0xdf, 0xbd,
  0x38, 0xa9, 0x58, 0xbd, 0xb5, 0x53, 0xbc, 0xbe, 0x3e, 0xe8, 0xfb, 0xbd,
  0xa2, 0xaf, 0x17, 0x3e, 0xb9, 0x7c, 0x4e, 0xbe, 0x23, 0x71, 0x6c, 0x3e,
  0x09, 0x6e, 0x95, 0x3e, 0x35, 0x77, 0x87, 0x3d, 0xa7, 0xb1, 0x6e, 0x3e,
  0x75, 0x75, 0xc0, 0xbd, 0xd2, 0x4d, 0x8d, 0x3e, 0xa6, 0xc8, 0xa8, 0xbd,
  0x20, 0xbe, 0xa8, 0xbe, 0x35, 0xb3, 0x2d, 0xbc, 0x4a, 0xa8, 0x4e, 0xbd,
  0xad, 0x87, 0xa9, 0x3d, 0x54, 0x4b, 0x49, 0xbd, 0xd4, 0x20, 0xc2, 0xbe,
  0xd8, 0x34, 0xe5, 0x3d, 0x40, 0xae, 0xe2, 0xbd, 0x93, 0xd8, 0x82, 0x3e,
  0xca, 0x17, 0xd5, 0xbc, 0xa2, 0xdc, 0xe1, 0xbd, 0xd1, 0xee, 0xef, 0x3d,
  0xd1, 0xfc, 0x87, 0xbe, 0xc9, 0x9d, 0x88, 0xbe, 0x25, 0x96, 0xff, 0x3d,
  0xd4, 0x4c, 0x0b, 0xbe, 0x64, 0xbc, 0x8b, 0x3e, 0x3e, 0x7b, 0x55, 0x3e,
  0xf0, 0x82, 0x86, 0xbe, 0x4c, 0xb3, 0xa9, 0xbe, 0xdb, 0x02, 0x91, 0xbd,
  0x46, 0x2d, 0xb4, 0xbe, 0x10, 0xc4, 0x49, 0x3e, 0xd5, 0x62, 0x66, 0xbc,
  0x1b, 0xe6, 0x19, 0xbd, 0x4a, 0xd4, 0xa3, 0xbe, 0xc2, 0x9b, 0x55, 0xbd,
  0x99, 0x2d, 0x67, 0xbd, 0xb6, 0x09, 0x70, 0xbd, 0xdc, 0x96, 0x37, 0x3e,
  0xa7, 0x33, 0x96, 0xbd, 0x68, 0xef, 0xc8, 0x3d, 0x2c, 0xb0, 0x45, 0x3c,
  0x89, 0x94, 0x61, 0x3e, 0x09, 0xa1, 0x8a, 0x3c, 0x49, 0xef, 0xbe, 0xbe,
  0xbd, 0x5b, 0x64, 0x3e, 0xd5, 0x7a, 0x85, 0xbe, 0x3c, 0x7f, 0xb5, 0xbe,
  0x18, 0x6f, 0x94, 0xbe, 0x3e, 0x5f, 0xe7, 0xbd, 0x24, 0xbe, 0x21, 0x3c,
  0x1a, 0x86, 0xb4, 0x3e, 0x9b, 0x91, 0x8c, 0x3e, 0x23, 0xb5, 0x40, 0x3e,
  0x60, 0x63, 0x52, 0x3e, 0x3f, 0x12, 0x44, 0x3e, 0xec, 0x0a, 0x0e, 0x3c,
  0x7a, 0xc7, 0x6c, 0x3e, 0xf7, 0x77, 0x8b, 0x3d, 0x5e, 0xe8, 0x3b, 0x3e,
  0x8a, 0x85, 0xa4, 0xbe, 0x85, 0x6d, 0x30, 0xbe, 0x5b, 0x43, 0xa4, 0x3d,
  0xd3, 0xe1, 0x12, 0xbe, 0x41, 0x64, 0x55, 0xbe, 0x57, 0x3d, 0x6a, 0x3e,
  0xe6, 0xc2, 0xc1, 0xbc, 0x26, 0xf7, 0x17, 0x3e, 0x3d, 0xa2, 0x94, 0x3e,
  0xaa, 0x5d, 0xb0, 0x3d, 0x59, 0xb2, 0xc3, 0x3c, 0x30, 0x17, 0x1f, 0x3e,
  0x16, 0x64, 0x1c, 0x3e, 0x0e, 0xcf, 0xdb, 0xbd, 0x83, 0x38, 0x96, 0xbe,
  0xfd, 0x5b, 0x90, 0xbe, 0x20, 0xd9, 0x32, 0xbd, 0x91, 0xc9, 0x99, 0xbe,
  0x5c, 0x7c, 0x81, 0x3e, 0x70, 0xa9, 0x6c, 0xbe, 0xdc, 0x4f, 0xc9, 0xbd,
  0xcc, 0xf9, 0x90, 0x3e, 0x0d, 0x46, 0x31, 0xbe, 0x32, 0x26, 0x2b, 0x3e,
  0x1a, 0xfc, 0xb3, 0x3d, 0x23, 0xe8, 0x62, 0xbe, 0xf8, 0xed, 0x9d, 0xbd,
  0xd8, 0x59, 0x3e, 0xbe, 0x4a, 0xce, 0x4f, 0xbe, 0x42, 0xb0, 0x6e, 0xbe,
  0xf6, 0xe2, 0xb1, 0x3c, 0xf5, 0xda, 0x9d, 0xbe, 0x25, 0x91, 0xb5, 0xbd,
  0x70, 0x60, 0x99, 0xbe, 0x86, 0xff, 0xff, 0xff, 0x04, 0x00, 0x00, 0x00,
  0x6c, 0x00, 0x00, 0x00, 0xd8, 0xd2, 0x1f, 0xbd, 0x4b, 0x97, 0x47, 0x3d,
  0x62, 0xc5, 0x22, 0xbd, 0x39, 0x67, 0x14, 0xbd, 0xd1, 0xc7, 0x06, 0xbd,
  0x19, 0xad, 0x50, 0xbd, 0x89, 0x9e, 0x0e, 0xbd, 0x03, 0xfe, 0x71, 0xbd,
  0x50, 0xb4, 0x00, 0xbd, 0xec, 0xfa, 0x4d, 0xbd, 0xd0, 0x96, 0x32, 0xbd,
  0x7b, 0x85, 0x40, 0x3d, 0x8d, 0x81, 0x36, 0xbd, 0x31, 0x7c, 0x67, 0x3d,
  0x31, 0x92, 0x37, 0x3d, 0xd3, 0xd7, 0x29, 0x3d, 0x2d, 0xc6, 0x70, 0x3d,
  0xdc, 0x93, 0xfe, 0xbb, 0xb1, 0xa5, 0x2f, 0xbd, 0x48, 0x62, 0x43, 0x3d,
  0x0d, 0xd3, 0xb3, 0xbc, 0xcc, 0x70, 0x3f, 0xbd, 0xd5, 0xe5, 0xad, 0x3c,
  0x3e, 0x02, 0x26, 0xbd, 0x1f, 0x62, 0x68, 0xbd, 0x27, 0x0f, 0x38, 0xbd,
  0x37, 0x37, 0x28, 0xbd, 0x00, 0x00, 0x06, 0x00, 0x08, 0x00, 0x04, 0x00,
  0x06, 0x00, 0x00, 0x00, 0x04, 0x00, 0x00, 0x00, 0x14, 0x00, 0x00, 0x00,
  0xef, 0x5f, 0x34, 0x3d, 0xb8, 0x82, 0x0b, 0x3d, 0xf9, 0x20, 0xde, 0xbc,
  0x85, 0x47, 0x46, 0xbd, 0x88, 0xfd, 0xfe, 0xbc, 0x20, 0xfc, 0xff, 0xff,
  0x24, 0xfc, 0xff, 0xff, 0x0f, 0x00, 0x00, 0x00, 0x4d, 0x4c, 0x49, 0x52,
  0x20, 0x43, 0x6f, 0x6e, 0x76, 0x65, 0x72, 0x74, 0x65, 0x64, 0x2e, 0x00,
  0x01, 0x00, 0x00, 0x00, 0x14, 0x00, 0x00, 0x00, 0x00, 0x00, 0x0e, 0x00,
  0x18, 0x00, 0x14, 0x00, 0x10, 0x00, 0x0c, 0x00, 0x08, 0x00, 0x04, 0x00,
  0x0e, 0x00, 0x00, 0x00, 0x14, 0x00, 0x00, 0x00, 0x1c, 0x00, 0x00, 0x00,
  0xc4, 0x00, 0x00, 0x00, 0xc8, 0x00, 0x00, 0x00, 0xcc, 0x00, 0x00, 0x00,
  0x04, 0x00, 0x00, 0x00, 0x6d, 0x61, 0x69, 0x6e, 0x00, 0x00, 0x00, 0x00,
  0x03, 0x00, 0x00, 0x00, 0x78, 0x00, 0x00, 0x00, 0x44, 0x00, 0x00, 0x00,
  0x04, 0x00, 0x00, 0x00, 0xa2, 0xff, 0xff, 0xff, 0x10, 0x00, 0x00, 0x00,
  0x00, 0x00, 0x00, 0x08, 0x0c, 0x00, 0x00, 0x00, 0x10, 0x00, 0x00, 0x00,
  0x9c, 0xfc, 0xff, 0xff, 0x01, 0x00, 0x00, 0x00, 0x07, 0x00, 0x00, 0x00,
  0x03, 0x00, 0x00, 0x00, 0x06, 0x00, 0x00, 0x00, 0x04, 0x00, 0x00, 0x00,
  0x01, 0x00, 0x00, 0x00, 0x00, 0x00, 0x0a, 0x00, 0x10, 0x00, 0x0c, 0x00,
  0x08, 0x00, 0x04, 0x00, 0x0a, 0x00, 0x00, 0x00, 0x0c, 0x00, 0x00, 0x00,
  0x10, 0x00, 0x00, 0x00, 0x01, 0x00, 0x00, 0x00, 0x01, 0x00, 0x00, 0x00,
  0x06, 0x00, 0x00, 0x00, 0x01, 0x00, 0x00, 0x00, 0x05, 0x00, 0x00, 0x00,
  0x00, 0x00, 0x0e, 0x00, 0x14, 0x00, 0x00, 0x00, 0x10, 0x00, 0x0c, 0x00,
  0x0b, 0x00, 0x04, 0x00, 0x0e, 0x00, 0x00, 0x00, 0x10, 0x00, 0x00, 0x00,
  0x00, 0x00, 0x00, 0x08, 0x0c, 0x00, 0x00, 0x00, 0x10, 0x00, 0x00, 0x00,
  0x08, 0xfd, 0xff, 0xff, 0x01, 0x00, 0x00, 0x00, 0x05, 0x00, 0x00, 0x00,
  0x03, 0x00, 0x00, 0x00, 0x00, 0x00, 0x00, 0x00, 0x03, 0x00, 0x00, 0x00,
  0x02, 0x00, 0x00, 0x00, 0x01, 0x00, 0x00, 0x00, 0x07, 0x00, 0x00, 0x00,
  0x01, 0x00, 0x00, 0x00, 0x00, 0x00, 0x00, 0x00, 0x08, 0x00, 0x00, 0x00,
  0xa0, 0x02, 0x00, 0x00, 0x30, 0x02, 0x00, 0x00, 0xc4, 0x01, 0x00, 0x00,
  0x7c, 0x01, 0x00, 0x00, 0x30, 0x01, 0x00, 0x00, 0xbc, 0x00, 0x00, 0x00,
  0x60, 0x00, 0x00, 0x00, 0x04, 0x00, 0x00, 0x00, 0x96, 0xfd, 0xff, 0xff,
  0x00, 0x00, 0x00, 0x01, 0x14, 0x00, 0x00, 0x00, 0x1c, 0x00, 0x00, 0x00,
  0x1c, 0x00, 0x00, 0x00, 0x08, 0x00, 0x00, 0x00, 0x34, 0x00, 0x00, 0x00,
  0x02, 0x00, 0x00, 0x00, 0xff, 0xff, 0xff, 0xff, 0x05, 0x00, 0x00, 0x00,
  0x80, 0xfd, 0xff, 0xff, 0x19, 0x00, 0x00, 0x00, 0x53, 0x74, 0x61, 0x74,
  0x65, 0x66, 0x75, 0x6c, 0x50, 0x61, 0x72, 0x74, 0x69, 0x74, 0x69, 0x6f,
  0x6e, 0x65, 0x64, 0x43, 0x61, 0x6c, 0x6c, 0x3a, 0x30, 0x00, 0x00, 0x00,
  0x02, 0x00, 0x00, 0x00, 0x01, 0x00, 0x00, 0x00, 0x05, 0x00, 0x00, 0x00,
  0xee, 0xfd, 0xff, 0xff, 0x00, 0x00, 0x00, 0x01, 0x14, 0x00, 0x00, 0x00,
  0x1c, 0x00, 0x00, 0x00, 0x1c, 0x00, 0x00, 0x00, 0x07, 0x00, 0x00, 0x00,
  0x34, 0x00, 0x00, 0x00, 0x02, 0x00, 0x00, 0x00, 0xff, 0xff, 0xff, 0xff,
  0x1b, 0x00, 0x00, 0x00, 0xd8, 0xfd, 0xff, 0xff, 0x18, 0x00, 0x00, 0x00,
  0x73, 0x65, 0x71, 0x75, 0x65, 0x6e, 0x74, 0x69, 0x61, 0x6c, 0x2f, 0x64,
  0x65, 0x6e, 0x73, 0x65, 0x2f, 0x53, 0x69, 0x67, 0x6d, 0x6f, 0x69, 0x64,
  0x00, 0x00, 0x00, 0x00, 0x02, 0x00, 0x00, 0x00, 0x01, 0x00, 0x00, 0x00,
  0x1b, 0x00, 0x00, 0x00, 0x46, 0xfe, 0xff, 0xff, 0x00, 0x00, 0x00, 0x01,
  0x14, 0x00, 0x00, 0x00, 0x1c, 0x00, 0x00, 0x00, 0x1c, 0x00, 0x00, 0x00,
  0x06, 0x00, 0x00, 0x00, 0x4c, 0x00, 0x00, 0x00, 0x02, 0x00, 0x00, 0x00,
  0xff, 0xff, 0xff, 0xff, 0x1b, 0x00, 0x00, 0x00, 0x30, 0xfe, 0xff, 0xff,
  0x30, 0x00, 0x00, 0x00, 0x73, 0x65, 0x71, 0x75, 0x65, 0x6e, 0x74, 0x69,
  0x61, 0x6c, 0x2f, 0x64, 0x65, 0x6e, 0x73, 0x65, 0x2f, 0x4d, 0x61, 0x74,
  0x4d, 0x75, 0x6c, 0x3b, 0x73, 0x65, 0x71, 0x75, 0x65, 0x6e, 0x74, 0x69,
  0x61, 0x6c, 0x2f, 0x64, 0x65, 0x6e, 0x73, 0x65, 0x2f, 0x42, 0x69, 0x61,
  0x73, 0x41, 0x64, 0x64, 0x00, 0x00, 0x00, 0x00, 0x02, 0x00, 0x00, 0x00,
  0x01, 0x00, 0x00, 0x00, 0x1b, 0x00, 0x00, 0x00, 0x22, 0xff, 0xff, 0xff,
  0x00, 0x00, 0x00, 0x01, 0x10, 0x00, 0x00, 0x00, 0x10, 0x00, 0x00, 0x00,
  0x05, 0x00, 0x00, 0x00, 0x28, 0x00, 0x00, 0x00, 0x90, 0xfe, 0xff, 0xff,
  0x19, 0x00, 0x00, 0x00, 0x73, 0x65, 0x71, 0x75, 0x65, 0x6e, 0x74, 0x69,
  0x61, 0x6c, 0x2f, 0x64, 0x65, 0x6e, 0x73, 0x65, 0x5f, 0x31, 0x2f, 0x4d,
  0x61, 0x74, 0x4d, 0x75, 0x6c, 0x00, 0x00, 0x00, 0x02, 0x00, 0x00, 0x00,
  0x05, 0x00, 0x00, 0x00, 0x1b, 0x00, 0x00, 0x00, 0x6a, 0xff, 0xff, 0xff,
  0x00, 0x00, 0x00, 0x01, 0x10, 0x00, 0x00, 0x00, 0x10, 0x00, 0x00, 0x00,
  0x04, 0x00, 0x00, 0x00, 0x24, 0x00, 0x00, 0x00, 0xd8, 0xfe, 0xff, 0xff,
  0x17, 0x00, 0x00, 0x00, 0x73, 0x65, 0x71, 0x75, 0x65, 0x6e, 0x74, 0x69,
  0x61, 0x6c, 0x2f, 0x64, 0x65, 0x6e, 0x73, 0x65, 0x2f, 0x4d, 0x61, 0x74,
  0x4d, 0x75, 0x6c, 0x00, 0x02, 0x00, 0x00, 0x00, 0x1b, 0x00, 0x00, 0x00,
  0x1b, 0x00, 0x00, 0x00, 0xae, 0xff, 0xff, 0xff, 0x00, 0x00, 0x00, 0x01,
  0x10, 0x00, 0x00, 0x00, 0x10, 0x00, 0x00, 0x00, 0x03, 0x00, 0x00, 0x00,
  0x34, 0x00, 0x00, 0x00, 0x1c, 0xff, 0xff, 0xff, 0x27, 0x00, 0x00, 0x00,
  0x73, 0x65, 0x71, 0x75, 0x65, 0x6e, 0x74, 0x69, 0x61, 0x6c, 0x2f, 0x64,
  0x65, 0x6e, 0x73, 0x65, 0x2f, 0x42, 0x69, 0x61, 0x73, 0x41, 0x64, 0x64,
  0x2f, 0x52, 0x65, 0x61, 0x64, 0x56, 0x61, 0x72, 0x69, 0x61, 0x62, 0x6c,
  0x65, 0x4f, 0x70, 0x00, 0x01, 0x00, 0x00, 0x00, 0x1b, 0x00, 0x00, 0x00,
  0x00, 0x00, 0x16, 0x00, 0x18, 0x00, 0x14, 0x00, 0x00, 0x00, 0x10, 0x00,
  0x0c, 0x00, 0x08, 0x00, 0x00, 0x00, 0x00, 0x00, 0x00, 0x00, 0x07, 0x00,
  0x16, 0x00, 0x00, 0x00, 0x00, 0x00, 0x00, 0x01, 0x10, 0x00, 0x00, 0x00,
  0x10, 0x00, 0x00, 0x00, 0x02, 0x00, 0x00, 0x00, 0x38, 0x00, 0x00, 0x00,
  0x84, 0xff, 0xff, 0xff, 0x29, 0x00, 0x00, 0x00, 0x73, 0x65, 0x71, 0x75,
  0x65, 0x6e, 0x74, 0x69, 0x61, 0x6c, 0x2f, 0x64, 0x65, 0x6e, 0x73, 0x65,
  0x5f, 0x31, 0x2f, 0x42, 0x69, 0x61, 0x73, 0x41, 0x64, 0x64, 0x2f, 0x52,
  0x65, 0x61, 0x64, 0x56, 0x61, 0x72, 0x69, 0x61, 0x62, 0x6c, 0x65, 0x4f,
  0x70, 0x00, 0x00, 0x00, 0x01, 0x00, 0x00, 0x00, 0x05, 0x00, 0x00, 0x00,
  0x00, 0x00, 0x16, 0x00, 0x1c, 0x00, 0x18, 0x00, 0x00, 0x00, 0x14, 0x00,
  0x10, 0x00, 0x0c, 0x00, 0x00, 0x00, 0x00, 0x00, 0x08, 0x00, 0x07, 0x00,
  0x16, 0x00, 0x00, 0x00, 0x00, 0x00, 0x00, 0x01, 0x14, 0x00, 0x00, 0x00,
  0x20, 0x00, 0x00, 0x00, 0x20, 0x00, 0x00, 0x00, 0x01, 0x00, 0x00, 0x00,
  0x3c, 0x00, 0x00, 0x00, 0x02, 0x00, 0x00, 0x00, 0xff, 0xff, 0xff, 0xff,
  0x1b, 0x00, 0x00, 0x00, 0x04, 0x00, 0x04, 0x00, 0x04, 0x00, 0x00, 0x00,
  0x1d, 0x00, 0x00, 0x00, 0x73, 0x65, 0x72, 0x76, 0x69, 0x6e, 0x67, 0x5f,
  0x64, 0x65, 0x66, 0x61, 0x75, 0x6c, 0x74, 0x5f, 0x64, 0x65, 0x6e, 0x73,
  0x65, 0x5f, 0x69, 0x6e, 0x70, 0x75, 0x74, 0x3a, 0x30, 0x00, 0x00, 0x00,
  0x02, 0x00, 0x00, 0x00, 0x01, 0x00, 0x00, 0x00, 0x1b, 0x00, 0x00, 0x00,
  0x02, 0x00, 0x00, 0x00, 0x20, 0x00, 0x00, 0x00, 0x04, 0x00, 0x00, 0x00,
  0xf4, 0xff, 0xff, 0xff, 0x0e, 0x00, 0x00, 0x00, 0x00, 0x00, 0x00, 0x0e,
  0x0c, 0x00, 0x0c, 0x00, 0x0b, 0x00, 0x00, 0x00, 0x00, 0x00, 0x04, 0x00,
  0x0c, 0x00, 0x00, 0x00, 0x09, 0x00, 0x00, 0x00, 0x00, 0x00, 0x00, 0x09
 
};

