#define TENSORFLOW_LITE_EXPERIMENTAL_MICRO_EXAMPLES_HELLO_WORLD_SINE_MODEL_DATA_H_
#ifdef __has_attribute
#define HAVE_ATTRIBUTE(x) __has_attribute(x)
#else
#define HAVE_ATTRIBUTE(x) 0
#endif
#if HAVE_ATTRIBUTE(aligned) || (defined(__GNUC__) && !defined(__clang__))
#define DATA_ALIGN_ATTRIBUTE __attribute__((aligned(4)))
#else
#define DATA_ALIGN_ATTRIBUTE
#endif
const int g_second_model_data_len = 6836;
const unsigned char g_second_model_data[] DATA_ALIGN_ATTRIBUTE = {
 0x1c, 0x00, 0x00, 0x00, 0x54, 0x46, 0x4c, 0x33, 0x14, 0x00, 0x20, 0x00,
  0x1c, 0x00, 0x18, 0x00, 0x14, 0x00, 0x10, 0x00, 0x0c, 0x00, 0x00, 0x00,
  0x08, 0x00, 0x04, 0x00, 0x14, 0x00, 0x00, 0x00, 0x1c, 0x00, 0x00, 0x00,
  0x84, 0x00, 0x00, 0x00, 0xdc, 0x00, 0x00, 0x00, 0xa8, 0x12, 0x00, 0x00,
  0xb8, 0x12, 0x00, 0x00, 0x50, 0x1a, 0x00, 0x00, 0x03, 0x00, 0x00, 0x00,
  0x01, 0x00, 0x00, 0x00, 0x04, 0x00, 0x00, 0x00, 0x2e, 0xec, 0xff, 0xff,
  0x0c, 0x00, 0x00, 0x00, 0x1c, 0x00, 0x00, 0x00, 0x38, 0x00, 0x00, 0x00,
  0x0f, 0x00, 0x00, 0x00, 0x73, 0x65, 0x72, 0x76, 0x69, 0x6e, 0x67, 0x5f,
  0x64, 0x65, 0x66, 0x61, 0x75, 0x6c, 0x74, 0x00, 0x01, 0x00, 0x00, 0x00,
  0x04, 0x00, 0x00, 0x00, 0x98, 0xff, 0xff, 0xff, 0x0f, 0x00, 0x00, 0x00,
  0x04, 0x00, 0x00, 0x00, 0x07, 0x00, 0x00, 0x00, 0x64, 0x65, 0x6e, 0x73,
  0x65, 0x5f, 0x33, 0x00, 0x01, 0x00, 0x00, 0x00, 0x04, 0x00, 0x00, 0x00,
  0x26, 0xee, 0xff, 0xff, 0x04, 0x00, 0x00, 0x00, 0x0b, 0x00, 0x00, 0x00,
  0x64, 0x65, 0x6e, 0x73, 0x65, 0x5f, 0x69, 0x6e, 0x70, 0x75, 0x74, 0x00,
  0x02, 0x00, 0x00, 0x00, 0x34, 0x00, 0x00, 0x00, 0x04, 0x00, 0x00, 0x00,
  0xdc, 0xff, 0xff, 0xff, 0x12, 0x00, 0x00, 0x00, 0x04, 0x00, 0x00, 0x00,
  0x13, 0x00, 0x00, 0x00, 0x43, 0x4f, 0x4e, 0x56, 0x45, 0x52, 0x53, 0x49,
  0x4f, 0x4e, 0x5f, 0x4d, 0x45, 0x54, 0x41, 0x44, 0x41, 0x54, 0x41, 0x00,
  0x08, 0x00, 0x0c, 0x00, 0x08, 0x00, 0x04, 0x00, 0x08, 0x00, 0x00, 0x00,
  0x11, 0x00, 0x00, 0x00, 0x04, 0x00, 0x00, 0x00, 0x13, 0x00, 0x00, 0x00,
  0x6d, 0x69, 0x6e, 0x5f, 0x72, 0x75, 0x6e, 0x74, 0x69, 0x6d, 0x65, 0x5f,
  0x76, 0x65, 0x72, 0x73, 0x69, 0x6f, 0x6e, 0x00, 0x13, 0x00, 0x00, 0x00,
  0xc8, 0x11, 0x00, 0x00, 0xc0, 0x11, 0x00, 0x00, 0x60, 0x11, 0x00, 0x00,
  0x20, 0x11, 0x00, 0x00, 0xfc, 0x10, 0x00, 0x00, 0xac, 0x10, 0x00, 0x00,
  0xdc, 0x09, 0x00, 0x00, 0xcc, 0x04, 0x00, 0x00, 0x9c, 0x01, 0x00, 0x00,
  0xc4, 0x00, 0x00, 0x00, 0xbc, 0x00, 0x00, 0x00, 0xb4, 0x00, 0x00, 0x00,
  0xac, 0x00, 0x00, 0x00, 0xa4, 0x00, 0x00, 0x00, 0x9c, 0x00, 0x00, 0x00,
  0x94, 0x00, 0x00, 0x00, 0x8c, 0x00, 0x00, 0x00, 0x6c, 0x00, 0x00, 0x00,
  0x04, 0x00, 0x00, 0x00, 0xea, 0xee, 0xff, 0xff, 0x04, 0x00, 0x00, 0x00,
  0x58, 0x00, 0x00, 0x00, 0x0c, 0x00, 0x00, 0x00, 0x08, 0x00, 0x0e, 0x00,
  0x08, 0x00, 0x04, 0x00, 0x08, 0x00, 0x00, 0x00, 0x10, 0x00, 0x00, 0x00,
  0x28, 0x00, 0x00, 0x00, 0x00, 0x00, 0x06, 0x00, 0x08, 0x00, 0x04, 0x00,
  0x06, 0x00, 0x00, 0x00, 0x04, 0x00, 0x00, 0x00, 0x01, 0x00, 0x00, 0x00,
  0xea, 0x03, 0x00, 0x00, 0x00, 0x00, 0x0a, 0x00, 0x10, 0x00, 0x0c, 0x00,
  0x08, 0x00, 0x04, 0x00, 0x0a, 0x00, 0x00, 0x00, 0x02, 0x00, 0x00, 0x00,
  0x02, 0x00, 0x00, 0x00, 0x04, 0x00, 0x00, 0x00, 0x06, 0x00, 0x00, 0x00,
  0x32, 0x2e, 0x31, 0x30, 0x2e, 0x30, 0x00, 0x00, 0x4e, 0xef, 0xff, 0xff,
  0x04, 0x00, 0x00, 0x00, 0x10, 0x00, 0x00, 0x00, 0x31, 0x2e, 0x31, 0x34,
  0x2e, 0x30, 0x00, 0x00, 0x00, 0x00, 0x00, 0x00, 0x00, 0x00, 0x00, 0x00,
  0x88, 0xe7, 0xff, 0xff, 0x8c, 0xe7, 0xff, 0xff, 0x90, 0xe7, 0xff, 0xff,
  0x94, 0xe7, 0xff, 0xff, 0x98, 0xe7, 0xff, 0xff, 0x9c, 0xe7, 0xff, 0xff,
  0xa0, 0xe7, 0xff, 0xff, 0x86, 0xef, 0xff, 0xff, 0x04, 0x00, 0x00, 0x00,
  0xc8, 0x00, 0x00, 0x00, 0x67, 0xbd, 0x49, 0x3e, 0x35, 0xe0, 0x7c, 0xbd,
  0x10, 0x5e, 0x18, 0x3f, 0x30, 0x67, 0xaa, 0xbd, 0x99, 0x37, 0x8b, 0x3e,
  0x3b, 0x14, 0x5c, 0xbd, 0x23, 0xc3, 0x40, 0xbd, 0xe4, 0xd0, 0x3f, 0x3d,
  0x23, 0xfd, 0xb7, 0x3e, 0x4f, 0x9a, 0x86, 0xbd, 0x41, 0xcc, 0x27, 0x3f,
  0x18, 0xdb, 0x1a, 0xbf, 0xcb, 0x2f, 0x0e, 0xbe, 0x73, 0xf8, 0xf8, 0x3e,
  0xc1, 0x37, 0xa7, 0x3d, 0x8f, 0xce, 0x6f, 0xbe, 0xe3, 0xef, 0xbb, 0xbe,
  0xae, 0xa2, 0x8e, 0xbe, 0xf0, 0x33, 0xe8, 0x3e, 0xcb, 0x31, 0x2d, 0x3e,
  0x88, 0x6f, 0xd6, 0xbc, 0x9c, 0x58, 0xa7, 0xbc, 0xce, 0xbe, 0xd5, 0x3e,
  0x44, 0x0b, 0xa8, 0x3e, 0xd9, 0x06, 0x79, 0xbe, 0x5c, 0x6b, 0x84, 0x3e,
  0x8b, 0x24, 0xae, 0xbe, 0xb4, 0x2b, 0xd2, 0xbe, 0xcc, 0xa8, 0xde, 0x3d,
  0xa3, 0x64, 0xf0, 0xbe, 0x1c, 0x27, 0xa3, 0xbe, 0x4c, 0x1d, 0x15, 0x3f,
  0x50, 0x18, 0x5e, 0x3e, 0x2f, 0xa5, 0x4c, 0xbe, 0x2a, 0xdc, 0xe9, 0xbd,
  0x60, 0x70, 0xdd, 0x3e, 0x85, 0x95, 0xc7, 0x3b, 0xc8, 0xbe, 0xd2, 0x3e,
  0xbd, 0x6d, 0x78, 0xbe, 0x9a, 0x8a, 0x06, 0x3f, 0xf1, 0xcd, 0x1d, 0x3e,
  0x6e, 0x9e, 0x1b, 0x3f, 0x9e, 0x1e, 0x74, 0x3e, 0x40, 0x3f, 0x7c, 0xbe,
  0x3f, 0x3c, 0x1d, 0xbf, 0x0a, 0xc9, 0x05, 0x3f, 0xf5, 0xec, 0xab, 0x3d,
  0x34, 0xd3, 0x0d, 0xbf, 0xcb, 0xea, 0xcb, 0xbe, 0xe8, 0xfd, 0x0c, 0x3f,
  0x5a, 0xf0, 0xff, 0xff, 0x04, 0x00, 0x00, 0x00, 0x20, 0x03, 0x00, 0x00,
  0x2c, 0xda, 0xde, 0x3e, 0x34, 0x6d, 0x7a, 0xbe, 0x91, 0xfc, 0x9c, 0xbd,
  0x8a, 0x51, 0xa5, 0xbd, 0x20, 0xc5, 0x5d, 0x3e, 0xbc, 0xfa, 0x76, 0x3c,
  0x9c, 0x8f, 0x8a, 0xbe, 0x1a, 0x8c, 0x30, 0x3e, 0x53, 0x51, 0x8c, 0x3e,
  0xb5, 0xa1, 0x51, 0x3d, 0xdb, 0xb2, 0x49, 0xbe, 0x9e, 0x20, 0x8c, 0xbc,
  0xc4, 0x35, 0x61, 0x3e, 0xaf, 0xe2, 0xd4, 0xbd, 0x57, 0xaa, 0x5c, 0x3c,
  0xb0, 0x5b, 0xab, 0xbb, 0xf1, 0x85, 0xab, 0x3e, 0x48, 0xb3, 0x9f, 0xbe,
  0xff, 0xac, 0x9a, 0x3d, 0xdb, 0xe7, 0xb9, 0x3e, 0x10, 0x81, 0x85, 0xbe,
  0x42, 0xae, 0xe3, 0xbe, 0x5e, 0x78, 0x15, 0x3d, 0x7a, 0x17, 0x8f, 0x3e,
  0x9f, 0x93, 0xe1, 0xbd, 0x04, 0xf1, 0xc5, 0xbe, 0x9f, 0x8e, 0x8c, 0xbe,
  0x72, 0xdd, 0x98, 0x3b, 0x33, 0x64, 0xf9, 0x3d, 0x55, 0x98, 0x31, 0xbe,
  0x0a, 0x5f, 0xe1, 0xbd, 0x08, 0xdb, 0x14, 0x3e, 0x4d, 0x27, 0x48, 0xbe,
  0xa6, 0x9f, 0xd1, 0xbd, 0xa8, 0x23, 0x17, 0xbd, 0xf1, 0xcf, 0x80, 0xbe,
  0x61, 0x14, 0xde, 0xbe, 0x0b, 0x49, 0x1b, 0xbe, 0x69, 0x01, 0x33, 0xbe,
  0x39, 0xff, 0x86, 0xbc, 0xcd, 0x6e, 0x12, 0xbe, 0x36, 0xb2, 0x93, 0xbe,
  0xbc, 0x11, 0x2f, 0x3e, 0x4b, 0xf6, 0xd8, 0x3e, 0x3f, 0xbe, 0x8b, 0xbd,
  0x01, 0xc2, 0x7f, 0xbd, 0xbe, 0xda, 0xb2, 0xbe, 0x8c, 0xa9, 0x96, 0x3e,
  0xae, 0x15, 0x9c, 0x3e, 0x76, 0x64, 0x88, 0x3e, 0x60, 0x26, 0xb5, 0xba,
  0xcc, 0x54, 0x01, 0xbb, 0xd8, 0x4b, 0x02, 0x3e, 0xee, 0xae, 0x9a, 0xbe,
  0x85, 0x3d, 0x32, 0x3e, 0x4d, 0x5d, 0x33, 0xbe, 0xe3, 0x49, 0x8a, 0x3e,
  0x74, 0x50, 0xfe, 0xbd, 0xb7, 0xdd, 0xcd, 0xbd, 0x01, 0x09, 0x25, 0xbe,
  0xdc, 0xd9, 0x9d, 0x3e, 0xe1, 0xec, 0x90, 0x3e, 0xdd, 0x0b, 0x53, 0xbe,
  0xbd, 0x0a, 0xb6, 0x3e, 0x8b, 0x5d, 0x0a, 0x3e, 0xe2, 0x15, 0x84, 0x3d,
  0xb9, 0xd4, 0x34, 0xbe, 0x2d, 0xaa, 0xb0, 0x3e, 0x32, 0x65, 0x00, 0x3f,
  0xee, 0x6d, 0x9c, 0xbe, 0x90, 0x65, 0x85, 0x3e, 0x32, 0x14, 0x97, 0xbd,
  0x56, 0x51, 0x9f, 0x3e, 0x20, 0xf7, 0xab, 0x3e, 0xcf, 0xdc, 0x03, 0x3f,
  0xbb, 0xbb, 0xc2, 0x3e, 0x2a, 0x45, 0x3f, 0x3e, 0xf8, 0xee, 0xfb, 0x3e,
  0x78, 0xf2, 0xe1, 0x3e, 0x7a, 0xd6, 0xbf, 0x3e, 0xa5, 0x67, 0x55, 0xbe,
  0xc0, 0x44, 0x30, 0x3e, 0xf8, 0xae, 0xb0, 0x3c, 0xe4, 0xf6, 0x4d, 0xbe,
  0x2e, 0x5c, 0xac, 0x3e, 0x5e, 0xab, 0xe0, 0x3c, 0xd1, 0x6b, 0xb6, 0x3e,
  0xa2, 0xec, 0xca, 0xbe, 0xef, 0x32, 0x3f, 0x3d, 0x05, 0x9a, 0x98, 0x3d,
  0x79, 0xe9, 0x80, 0x3e, 0xa3, 0xca, 0x16, 0x3d, 0xc3, 0x9b, 0x22, 0xbc,
  0x40, 0x97, 0x90, 0xbc, 0x82, 0xd6, 0x8a, 0xbe, 0x86, 0x28, 0x0e, 0x3e,
  0x3a, 0x23, 0x27, 0xbe, 0x19, 0x61, 0x23, 0xbe, 0x82, 0xe6, 0xba, 0xbe,
  0x1e, 0xb9, 0x06, 0xbf, 0xac, 0x62, 0xb6, 0x3d, 0x47, 0x6b, 0x67, 0xbe,
  0x9d, 0xfc, 0xdf, 0x3e, 0x10, 0x60, 0x96, 0x3e, 0xe7, 0xe9, 0xe9, 0x3d,
  0xa6, 0x87, 0xe5, 0x3d, 0xfb, 0x5e, 0xd3, 0x3d, 0x66, 0x5f, 0x0a, 0x3f,
  0xc6, 0x57, 0x78, 0x3e, 0x54, 0xfb, 0xbe, 0x3e, 0x06, 0x37, 0x33, 0xbb,
  0x80, 0xa1, 0x48, 0xbe, 0xd4, 0xbb, 0x93, 0xbe, 0x38, 0x2a, 0x19, 0x3e,
  0xf7, 0xf0, 0x75, 0x3e, 0xc9, 0xe6, 0x88, 0x3e, 0x82, 0xd4, 0x9c, 0xbd,
  0xae, 0x92, 0xeb, 0x3e, 0x28, 0x89, 0xc0, 0x3c, 0x28, 0x3f, 0x11, 0xbe,
  0xe3, 0xe8, 0x29, 0xbe, 0xba, 0x89, 0xec, 0xbe, 0x98, 0x7f, 0x5d, 0xbe,
  0xe6, 0x05, 0xe0, 0xbe, 0x2e, 0x00, 0xbf, 0x3d, 0xbc, 0xad, 0x3c, 0xbc,
  0x76, 0x53, 0xbb, 0xbe, 0xdd, 0xfb, 0xa5, 0xbe, 0xbd, 0x02, 0x07, 0xbf,
  0x59, 0x5b, 0x1f, 0xbe, 0x85, 0xb7, 0x9e, 0x3e, 0x44, 0x86, 0x43, 0xbe,
  0xbd, 0x4e, 0x98, 0xbe, 0xbe, 0xcc, 0xc4, 0xbe, 0x1f, 0x6d, 0x09, 0x3e,
  0xa4, 0x6a, 0xc0, 0xbe, 0x57, 0xa5, 0x89, 0xbe, 0x12, 0x2c, 0x04, 0xbf,
  0xd0, 0x50, 0xa8, 0xbe, 0xc0, 0x4a, 0x00, 0xbe, 0x70, 0x13, 0x7c, 0xbd,
  0x62, 0x0a, 0x23, 0x3e, 0x02, 0x7d, 0x59, 0xbe, 0xcf, 0x5f, 0x9b, 0x3b,
  0x59, 0x7b, 0xf8, 0xbe, 0x3f, 0x35, 0x07, 0xbf, 0xc3, 0xa9, 0xb2, 0xbe,
  0x46, 0xdd, 0xd0, 0x3d, 0x9c, 0x68, 0xb6, 0x3e, 0x7f, 0x44, 0xe7, 0x3c,
  0x8c, 0x90, 0x60, 0xbd, 0x7b, 0x6c, 0x66, 0x3e, 0xe8, 0x6a, 0x9b, 0x3e,
  0x95, 0x60, 0x93, 0x3d, 0x85, 0x56, 0x63, 0xbe, 0xff, 0xe1, 0x9f, 0xbe,
  0x57, 0x9b, 0xdc, 0xbd, 0xc2, 0x44, 0x6b, 0xbe, 0x6b, 0x0c, 0x94, 0x3d,
  0x2e, 0xaa, 0xd1, 0xbe, 0xa0, 0xbc, 0xac, 0x3e, 0x5c, 0x39, 0xbf, 0x3e,
  0x18, 0x27, 0xa8, 0xbe, 0x7d, 0x2b, 0xda, 0xbe, 0x22, 0x35, 0x9b, 0x3e,
  0xa5, 0x6c, 0x2e, 0xbd, 0x08, 0xb5, 0x99, 0x3e, 0x33, 0x06, 0x66, 0xbd,
  0x61, 0x9e, 0x90, 0x3c, 0xf2, 0x31, 0x0b, 0xbd, 0x5a, 0xc2, 0xb2, 0xbe,
  0x3a, 0xff, 0x9e, 0xbe, 0xca, 0x80, 0x52, 0xbc, 0xc5, 0xb5, 0x8f, 0x3e,
  0x2e, 0x43, 0x57, 0xbe, 0x4d, 0x59, 0xe3, 0xbe, 0x7d, 0x30, 0xaa, 0xbe,
  0xe9, 0x16, 0xcf, 0xbe, 0xf2, 0x05, 0x10, 0x3e, 0xd4, 0xe4, 0xd6, 0xbe,
  0xaf, 0x7d, 0xba, 0x3e, 0xf3, 0xce, 0xa9, 0x3e, 0x05, 0xab, 0x97, 0x3e,
  0x1f, 0x1a, 0x66, 0xbe, 0x70, 0x1b, 0xad, 0x3e, 0x1f, 0x74, 0xcc, 0xbe,
  0xb1, 0x6e, 0x4a, 0xbe, 0x50, 0xf7, 0xf4, 0x3d, 0x84, 0x8b, 0xd4, 0x3b,
  0x82, 0x65, 0x2b, 0xbe, 0x71, 0xf7, 0x5d, 0x3d, 0x9f, 0xa1, 0xf5, 0xbe,
  0xd5, 0x98, 0xf3, 0xbb, 0xc8, 0xec, 0x37, 0xbe, 0xd7, 0x74, 0xe3, 0xbd,
  0x80, 0x1f, 0x72, 0xbe, 0xb3, 0xa4, 0x78, 0xbc, 0xb6, 0x79, 0xf2, 0x3d,
  0xbd, 0x5f, 0x55, 0x3e, 0xc9, 0xcc, 0x17, 0x3d, 0x86, 0xf3, 0xff, 0xff,
  0x04, 0x00, 0x00, 0x00, 0x00, 0x05, 0x00, 0x00, 0x6c, 0x13, 0xd6, 0x3b,
  0xba, 0x97, 0x9d, 0xbe, 0x65, 0x53, 0xc2, 0xbe, 0x00, 0xce, 0x75, 0x3e,
  0x88, 0xba, 0x68, 0xbe, 0x86, 0x07, 0x37, 0xbe, 0x15, 0xf4, 0x61, 0xbe,
  0xf7, 0x8f, 0xaf, 0xbe, 0x69, 0x42, 0xd7, 0xbe, 0xc6, 0x26, 0xb1, 0xbd,
  0xe7, 0xa1, 0xc4, 0x3e, 0x7c, 0x4a, 0x9a, 0xbe, 0xc8, 0xa4, 0x48, 0x3d,
  0x75, 0xbb, 0x14, 0x3c, 0xf5, 0x81, 0x00, 0xbf, 0xc7, 0xce, 0xbc, 0x3e,
  0xa8, 0x3f, 0xe9, 0xbd, 0x0d, 0x96, 0xf2, 0xbe, 0x9d, 0x2e, 0x2a, 0x3c,
  0xba, 0xde, 0x1f, 0xbe, 0x6d, 0x99, 0x30, 0xbe, 0x66, 0x24, 0xde, 0xbc,
  0x3c, 0x56, 0xc6, 0xbd, 0x11, 0xcc, 0x04, 0xbf, 0xb3, 0x0c, 0x76, 0x3e,
  0x3f, 0x1e, 0xe1, 0xbe, 0xd3, 0x00, 0xd2, 0x3e, 0x94, 0xfb, 0x7b, 0xbd,
  0x2f, 0x4f, 0x74, 0x3e, 0xb7, 0xf1, 0x0e, 0x3d, 0x74, 0xd3, 0x90, 0xbe,
  0x12, 0xcb, 0xa2, 0x3d, 0xdf, 0x74, 0xc5, 0x3c, 0xf5, 0x60, 0x6e, 0x3e,
  0x64, 0xc0, 0xe7, 0x3e, 0xd6, 0x83, 0x8f, 0xbe, 0x74, 0x10, 0x71, 0x3e,
  0xd0, 0x4b, 0x84, 0x3e, 0xd6, 0x80, 0x81, 0x3e, 0x10, 0xb6, 0x2d, 0xbd,
  0x1e, 0x4c, 0x3d, 0xbe, 0x58, 0x3e, 0x2c, 0x3e, 0x17, 0xb3, 0xbe, 0xbe,
  0x8d, 0x00, 0xaf, 0x3e, 0x79, 0x57, 0xa4, 0x3e, 0x10, 0x35, 0xaf, 0x3e,
  0xf2, 0x02, 0x82, 0xbc, 0x60, 0x17, 0x9a, 0xbe, 0x24, 0x69, 0xa4, 0x3e,
  0x57, 0xa7, 0x82, 0xbe, 0x7f, 0x87, 0xad, 0xbd, 0xec, 0x10, 0xa2, 0x3e,
  0x7c, 0xf2, 0xa7, 0x3e, 0x15, 0x5a, 0x55, 0xbd, 0xa0, 0xa5, 0xa3, 0x3d,
  0xd4, 0xeb, 0x78, 0x3e, 0xaf, 0x3f, 0xbd, 0x3e, 0x50, 0xa2, 0x6e, 0x3e,
  0xab, 0x31, 0xbe, 0x3d, 0xdf, 0x05, 0x44, 0x3e, 0xdc, 0x54, 0xca, 0x3d,
  0xfa, 0xcb, 0x20, 0x3d, 0x5c, 0x0b, 0xe7, 0x3e, 0x54, 0xe6, 0x8c, 0x3d,
  0x5e, 0xb0, 0x00, 0x3e, 0x62, 0x09, 0x00, 0xbe, 0x8d, 0x9b, 0x89, 0x3e,
  0xa7, 0xac, 0x91, 0x3e, 0xbd, 0xcb, 0x99, 0x3e, 0x0b, 0x28, 0x15, 0x3e,
  0x1d, 0x54, 0x9c, 0x3c, 0x76, 0x6b, 0xfb, 0xbe, 0xf6, 0x0c, 0x96, 0x3d,
  0x8a, 0x2e, 0xf6, 0xbe, 0xe4, 0x30, 0xa3, 0x3e, 0x8d, 0x2d, 0xe6, 0xbd,
  0xcd, 0x3e, 0x18, 0x3e, 0xa9, 0x15, 0xdb, 0x3d, 0x23, 0x94, 0x54, 0x3d,
  0x4c, 0xce, 0x86, 0x3e, 0xda, 0x19, 0x69, 0xbe, 0x1a, 0xea, 0x05, 0xbe,
  0xc4, 0xe5, 0x91, 0xbe, 0xd7, 0x3f, 0xe7, 0x3e, 0x1d, 0x03, 0x13, 0x3e,
  0xd6, 0x60, 0x5e, 0xbc, 0xf0, 0x03, 0x48, 0xbe, 0x72, 0x61, 0x47, 0x3e,
  0x1f, 0x85, 0x96, 0x3e, 0xf6, 0x19, 0xc0, 0x3e, 0x3d, 0xfd, 0x9a, 0xbe,
  0xdb, 0x4e, 0xd7, 0x3e, 0x41, 0x8a, 0x7b, 0xbe, 0x49, 0x6c, 0x8b, 0x3e,
  0xca, 0x24, 0x93, 0x3e, 0x43, 0xee, 0xb4, 0x3d, 0xb6, 0x8e, 0xae, 0xbe,
  0x66, 0xf8, 0x74, 0x3e, 0x9b, 0x54, 0x84, 0x3d, 0x35, 0x61, 0xc5, 0xbe,
  0x32, 0xa8, 0x73, 0xbd, 0xa3, 0x26, 0xbe, 0x3d, 0x7c, 0x8c, 0xc2, 0xbe,
  0x70, 0x21, 0x78, 0x3d, 0xfb, 0xfe, 0x20, 0xbe, 0xe9, 0xae, 0x91, 0xbe,
  0x05, 0xf4, 0xf3, 0x3d, 0xbc, 0x8e, 0xee, 0xbe, 0xf2, 0xd8, 0xd2, 0x3e,
  0xb1, 0x8b, 0x85, 0x3d, 0x76, 0xa2, 0x92, 0x3e, 0x32, 0x32, 0x34, 0x3e,
  0x0f, 0x7a, 0xaa, 0x3e, 0x57, 0x39, 0x00, 0x3f, 0x86, 0xd3, 0x2f, 0x3d,
  0xe2, 0x2a, 0xca, 0x3e, 0x0e, 0x57, 0x11, 0xbe, 0xdb, 0xd3, 0xc6, 0xbe,
  0x90, 0x48, 0xe6, 0x3e, 0xf8, 0x70, 0xef, 0x3d, 0xf8, 0xec, 0x3b, 0x3e,
  0x86, 0xa7, 0xc0, 0x3e, 0xa6, 0x42, 0xcd, 0xbe, 0xb8, 0xf7, 0x54, 0x3e,
  0x25, 0xb3, 0xdf, 0xbe, 0x13, 0xa9, 0x8f, 0xbe, 0x8e, 0x45, 0xdc, 0xbd,
  0x3b, 0x4e, 0xa2, 0x3e, 0xff, 0x34, 0xb6, 0xbe, 0x97, 0xca, 0x8c, 0x3e,
  0x85, 0x94, 0xcb, 0x3c, 0x0f, 0xab, 0x22, 0xbe, 0x71, 0x39, 0x36, 0xbe,
  0x03, 0xe0, 0x8a, 0xbe, 0x5a, 0xa3, 0x06, 0x3e, 0x05, 0x82, 0x58, 0xbe,
  0xf8, 0x4f, 0xfd, 0xbc, 0x18, 0x5f, 0x8a, 0x3e, 0xa6, 0x22, 0x51, 0x3e,
  0xe0, 0xc9, 0x04, 0xbe, 0xbb, 0xa1, 0xbb, 0xbe, 0x71, 0x8d, 0xc2, 0xbe,
  0x0b, 0xca, 0xac, 0x3e, 0x72, 0x4f, 0xc3, 0x3e, 0x5d, 0x65, 0xe2, 0xbd,
  0x6c, 0xdb, 0xbb, 0x3d, 0x9d, 0x66, 0x66, 0xbe, 0xe2, 0x40, 0x4d, 0xbe,
  0x6a, 0xf3, 0x6e, 0xbc, 0x47, 0xe4, 0xaf, 0x3e, 0xa1, 0x90, 0x1c, 0x3d,
  0xb0, 0x40, 0x79, 0xbe, 0xe2, 0xc9, 0x7c, 0x3d, 0xb4, 0x31, 0x8e, 0xbe,
  0x97, 0xfa, 0x00, 0xbe, 0x4b, 0x57, 0x75, 0xbe, 0x08, 0xd7, 0x58, 0x3e,
  0x19, 0xef, 0x4e, 0xbd, 0xbf, 0xdd, 0xef, 0x3a, 0x19, 0xce, 0xa9, 0x3e,
  0xaa, 0xea, 0x35, 0x3e, 0xf5, 0x7d, 0xe6, 0xbe, 0xbe, 0xf7, 0x86, 0x3e,
  0x87, 0xdf, 0x76, 0xbe, 0x1e, 0xaa, 0x95, 0x3e, 0xe1, 0xf2, 0x62, 0xbe,
  0xe1, 0x43, 0x0e, 0x3e, 0x58, 0xb5, 0x47, 0x3e, 0x8b, 0x6e, 0x71, 0x3e,
  0x8e, 0x5c, 0xce, 0xbe, 0x94, 0x11, 0x8c, 0x3e, 0x9c, 0x1a, 0xb7, 0xbd,
  0x3c, 0x91, 0x26, 0x3e, 0xf0, 0x41, 0x33, 0x3d, 0x21, 0xc3, 0x89, 0xbc,
  0x92, 0x97, 0x85, 0x3e, 0xf8, 0xfb, 0x36, 0xbe, 0x39, 0xbf, 0x8b, 0x3e,
  0xf3, 0xe5, 0xcb, 0x3e, 0xcc, 0xaf, 0xa6, 0xbc, 0x51, 0xaa, 0xa9, 0xbc,
  0xbb, 0x15, 0x9b, 0xbd, 0x2c, 0xc2, 0x9e, 0xbe, 0xbc, 0xc6, 0xa3, 0x3e,
  0xfe, 0x11, 0xc3, 0xbe, 0xb7, 0xc3, 0x8b, 0x3e, 0xac, 0xe6, 0xbd, 0x3e,
  0x2c, 0xcb, 0xd9, 0x3d, 0x65, 0x47, 0xc6, 0xbe, 0x00, 0x8d, 0x17, 0x3e,
  0xd2, 0xd0, 0x81, 0x3e, 0xe0, 0x16, 0x79, 0x3d, 0x92, 0xa5, 0x43, 0xbe,
  0xdc, 0xa1, 0xce, 0xbe, 0x83, 0xbb, 0x93, 0xbe, 0xca, 0x74, 0xed, 0xbe,
  0x2d, 0x3d, 0x79, 0xbe, 0x24, 0xf1, 0xc7, 0xbe, 0x22, 0x07, 0x8a, 0x3e,
  0x81, 0xfe, 0xe8, 0xbd, 0xe1, 0xc2, 0x3f, 0xbd, 0x00, 0xea, 0x0f, 0xbe,
  0x2b, 0xdd, 0x77, 0xbe, 0xe3, 0xf7, 0xb9, 0xbd, 0x93, 0xea, 0x36, 0x3e,
  0x70, 0x39, 0x03, 0xbe, 0xa0, 0x51, 0xc7, 0xbe, 0xc7, 0x02, 0x99, 0x3e,
  0x0b, 0x05, 0xc5, 0x3d, 0x95, 0x65, 0xbf, 0xbe, 0xeb, 0xf7, 0x5a, 0x3e,
  0xd1, 0xd5, 0x83, 0xbe, 0xe9, 0x2b, 0xc0, 0xbe, 0x07, 0xbe, 0x15, 0x3e,
  0x97, 0x46, 0x14, 0xbe, 0xdd, 0x01, 0xb3, 0x3e, 0x40, 0x51, 0x29, 0xbe,
  0x97, 0xe3, 0xd7, 0xbe, 0x8d, 0x91, 0x88, 0xbe, 0x9b, 0x20, 0xcf, 0x3d,
  0x42, 0xa2, 0x3b, 0xbd, 0x74, 0x85, 0xcb, 0x3e, 0xb2, 0x5b, 0xa4, 0xbe,
  0xca, 0xc1, 0xcb, 0x3e, 0xad, 0x77, 0xa2, 0xbc, 0xc2, 0x25, 0x9b, 0x3e,
  0x83, 0x81, 0x8d, 0x3e, 0xf3, 0x5c, 0x99, 0xbe, 0x6e, 0x31, 0xe7, 0x3e,
  0xfb, 0x0e, 0xd7, 0xbe, 0x3d, 0x51, 0xed, 0xbd, 0xda, 0xf0, 0x8d, 0x3e,
  0xb7, 0x06, 0x73, 0xbe, 0xf5, 0xbc, 0xd4, 0x3e, 0xa4, 0xfd, 0xf4, 0x3c,
  0x0a, 0xa0, 0x98, 0x3d, 0x70, 0x27, 0xf9, 0x3d, 0x1f, 0x53, 0x80, 0x3e,
  0xdd, 0x66, 0x94, 0x3e, 0x27, 0xd3, 0x57, 0x3e, 0xfc, 0x0b, 0xfe, 0x3d,
  0x03, 0x88, 0x61, 0x3d, 0xf5, 0x96, 0x35, 0xbc, 0xd7, 0x68, 0xaa, 0x3e,
  0xf4, 0x96, 0xc5, 0x3d, 0x79, 0xb0, 0xd4, 0xbd, 0x1b, 0x4a, 0xc8, 0x3e,
  0xbd, 0x8b, 0x02, 0x3e, 0xde, 0x2e, 0x86, 0x3e, 0x80, 0x6e, 0x49, 0x3d,
  0xbd, 0x2d, 0x0e, 0xbe, 0x6f, 0xe8, 0x3b, 0x3e, 0xc4, 0x04, 0xba, 0x3e,
  0x62, 0xb2, 0xc3, 0x3e, 0x48, 0x63, 0x8f, 0x3e, 0x6d, 0x1c, 0x1b, 0x3e,
  0x29, 0x43, 0x9c, 0xbe, 0x85, 0x8f, 0x5a, 0x3e, 0x1a, 0x9e, 0xaa, 0xbe,
  0x4e, 0x5b, 0x74, 0x3e, 0xe3, 0x76, 0x92, 0xbd, 0xcb, 0xc9, 0x14, 0xbe,
  0x8d, 0x7f, 0xa7, 0x3c, 0x74, 0xbd, 0x65, 0x3d, 0x94, 0x2c, 0x2a, 0xbe,
  0x30, 0x52, 0x54, 0xbe, 0xc9, 0xec, 0x1c, 0xbe, 0x5a, 0xbd, 0x39, 0x3b,
  0xf4, 0x2b, 0x3e, 0x3e, 0x89, 0x2f, 0xe2, 0x3e, 0x7a, 0x8a, 0xe5, 0x3d,
  0x33, 0x6d, 0xca, 0x3e, 0x49, 0xa2, 0xa3, 0x3e, 0x3d, 0x7c, 0xa8, 0x3e,
  0x32, 0xb5, 0xd5, 0x3e, 0x47, 0xc9, 0x3e, 0xbd, 0x49, 0x95, 0xa4, 0xbd,
  0xc7, 0xb3, 0x59, 0xbe, 0x73, 0x17, 0xb5, 0x3e, 0x04, 0x08, 0x8f, 0x3d,
  0x38, 0x0f, 0x88, 0x3e, 0x25, 0xa7, 0x51, 0xbd, 0xe8, 0xca, 0x3b, 0x3e,
  0x56, 0xbf, 0x9f, 0x3e, 0x60, 0xe6, 0xb5, 0xbe, 0xdb, 0x13, 0xa3, 0x3d,
  0x36, 0xdf, 0x57, 0x3e, 0xc0, 0x50, 0xd4, 0x3e, 0x30, 0x55, 0x2d, 0xbd,
  0x58, 0x0e, 0x97, 0xbc, 0x5b, 0x49, 0x9b, 0x3e, 0xd4, 0x82, 0x45, 0x3d,
  0xda, 0x70, 0xa5, 0x3e, 0x23, 0x8d, 0x9a, 0xbe, 0xdf, 0xfc, 0x9e, 0xbd,
  0x17, 0x99, 0x85, 0x3e, 0xf9, 0x15, 0x7b, 0xbe, 0xeb, 0x58, 0x81, 0x3e,
  0xf1, 0x48, 0x8e, 0x3d, 0x7f, 0xfd, 0x0f, 0xbe, 0xe4, 0xd2, 0x70, 0xbd,
  0xea, 0xa4, 0xb1, 0x3e, 0xd5, 0x7f, 0x2f, 0xbe, 0x0d, 0x61, 0xc6, 0x3c,
  0x8f, 0x10, 0x8b, 0x3d, 0xcf, 0x52, 0x81, 0x3e, 0x3e, 0xe8, 0x97, 0x3d,
  0x4e, 0x3c, 0xdb, 0x3d, 0x01, 0x0d, 0xae, 0x3e, 0x7b, 0x76, 0xcf, 0xbe,
  0xee, 0xea, 0x4f, 0xbe, 0x8c, 0x47, 0xa5, 0xbe, 0xe0, 0xd0, 0xdc, 0x3e,
  0x52, 0x43, 0x7b, 0x3e, 0x09, 0xa2, 0xa0, 0x3e, 0x4b, 0xc1, 0x99, 0x3e,
  0x47, 0x85, 0xe9, 0x3c, 0x3d, 0x9f, 0x75, 0x3c, 0x50, 0x17, 0x86, 0x3d,
  0x4f, 0x72, 0xaf, 0xbe, 0x92, 0xf8, 0xff, 0xff, 0x04, 0x00, 0x00, 0x00,
  0xc0, 0x06, 0x00, 0x00, 0xb4, 0x9b, 0xb4, 0xbe, 0xcf, 0x92, 0xb8, 0x3d,
  0xc4, 0x05, 0xc3, 0x3d, 0xce, 0x8b, 0x6a, 0x3e, 0x9e, 0x11, 0xa2, 0x3e,
  0x32, 0x86, 0xd6, 0x3d, 0x03, 0x14, 0x64, 0x3e, 0xcb, 0xf1, 0xc4, 0x3e,
  0x55, 0xf7, 0x29, 0xbe, 0xe3, 0x9f, 0x89, 0x3e, 0x7e, 0x62, 0xd9, 0x3c,
  0x82, 0x68, 0xa4, 0xbe, 0x2c, 0xc5, 0x03, 0xbe, 0xdc, 0x8d, 0x69, 0x3e,
  0xe5, 0xab, 0x7a, 0xbe, 0xde, 0x2a, 0x8c, 0xbe, 0x54, 0xf3, 0x6d, 0x3b,
  0xf0, 0x45, 0xd8, 0xbe, 0x0d, 0x55, 0xa6, 0xbe, 0x1a, 0x2b, 0xbe, 0xbc,
  0xba, 0x2d, 0x07, 0x3d, 0xb4, 0x18, 0x33, 0xbe, 0x47, 0x5e, 0x4e, 0x3e,
  0x6f, 0xa7, 0x06, 0xbe, 0x81, 0xa1, 0x25, 0x3e, 0x31, 0x0e, 0x28, 0x3e,
  0xfc, 0x5a, 0x4c, 0x3e, 0x33, 0x8e, 0xd3, 0xbe, 0x96, 0xda, 0xae, 0x3d,
  0x39, 0x53, 0xe4, 0xbe, 0x04, 0xac, 0x82, 0x3e, 0x29, 0xc6, 0xb2, 0x3e,
  0xf5, 0xfa, 0x8a, 0x3e, 0xe5, 0xec, 0xe3, 0x3e, 0xa0, 0x21, 0x7d, 0x3e,
  0x93, 0xc8, 0x12, 0x3e, 0x87, 0x0e, 0x02, 0x3f, 0x33, 0x8b, 0x7c, 0xbe,
  0xf9, 0xb4, 0x69, 0xbe, 0xcb, 0x37, 0x6c, 0x3e, 0x1b, 0xe5, 0xae, 0xbe,
  0xb0, 0x08, 0x7a, 0xbe, 0x11, 0x4b, 0xc8, 0xbd, 0xab, 0xc6, 0x9d, 0xbd,
  0x38, 0x82, 0x60, 0x3c, 0x8b, 0x85, 0x5f, 0xbe, 0xc2, 0x15, 0x8d, 0xbe,
  0x33, 0x6d, 0x84, 0xbe, 0x66, 0x3e, 0xc1, 0xbd, 0xa6, 0xfc, 0x83, 0x3e,
  0x3a, 0x68, 0xf8, 0xbe, 0x62, 0xc4, 0x66, 0x3e, 0xbb, 0x17, 0xa5, 0xbe,
  0x50, 0xc0, 0xe2, 0x3e, 0x42, 0xe0, 0x95, 0xbd, 0x21, 0x4f, 0xc8, 0xbe,
  0x86, 0xcb, 0xd0, 0xbe, 0x46, 0x85, 0xf2, 0xbd, 0xb9, 0xe8, 0x52, 0xbe,
  0x0e, 0x47, 0xaf, 0x3e, 0x53, 0xeb, 0x55, 0xbe, 0xaa, 0x70, 0x95, 0xbe,
  0xcf, 0x77, 0xc2, 0xbd, 0x17, 0x5c, 0x83, 0x3e, 0xe7, 0xfd, 0x47, 0xbe,
  0x91, 0x60, 0xd9, 0x3c, 0x59, 0xf0, 0x45, 0x3e, 0x80, 0xb7, 0xb8, 0xbe,
  0x44, 0xac, 0x83, 0x3d, 0xfe, 0xb4, 0xf8, 0xbd, 0x4d, 0xf2, 0xc4, 0x3d,
  0x2e, 0xaf, 0x48, 0xbe, 0x35, 0x58, 0xd6, 0x3b, 0xa6, 0xef, 0x74, 0x3d,
  0xd9, 0x3a, 0xc0, 0xbd, 0x86, 0x5f, 0x8f, 0xbe, 0x10, 0x7b, 0xab, 0xbd,
  0xed, 0x66, 0xea, 0xbe, 0xcb, 0xbb, 0x56, 0x3e, 0x39, 0xea, 0x63, 0xbc,
  0x95, 0x0c, 0xbb, 0x3d, 0x4b, 0x3e, 0x23, 0xbe, 0x9b, 0x22, 0xae, 0xbe,
  0x97, 0xce, 0x1c, 0xbe, 0x7d, 0xc3, 0x3e, 0xbe, 0x0e, 0xa1, 0x07, 0x3e,
  0xcb, 0x3f, 0x84, 0x3e, 0xc6, 0xfd, 0x8e, 0x3e, 0x54, 0x8a, 0xe5, 0x3e,
  0x35, 0x72, 0x92, 0xbd, 0x82, 0xbd, 0x04, 0x3f, 0x73, 0x8e, 0x7d, 0x3e,
  0x62, 0x58, 0xa6, 0xbb, 0xe5, 0x65, 0x18, 0x3e, 0x6b, 0x62, 0xad, 0x3e,
  0x06, 0xd4, 0x2c, 0xbf, 0x10, 0x8f, 0xa2, 0x3e, 0xa8, 0x0d, 0xdd, 0xbe,
  0x56, 0x60, 0xb5, 0xbc, 0x40, 0x3f, 0x1d, 0xbf, 0x99, 0x65, 0x78, 0xbd,
  0xc3, 0x4d, 0xf6, 0xbe, 0x66, 0x8b, 0x60, 0xbe, 0xf2, 0x0e, 0x4e, 0x3e,
  0xc7, 0x0c, 0x33, 0xbe, 0xad, 0x30, 0x7c, 0x3e, 0x0b, 0x6b, 0x90, 0xbe,
  0x3d, 0x02, 0x8c, 0xbc, 0x01, 0xa7, 0xab, 0xbd, 0x5b, 0x11, 0xe4, 0x3c,
  0x10, 0x0f, 0x20, 0xbe, 0x82, 0x00, 0xa7, 0xbe, 0x0d, 0x8a, 0x40, 0x3e,
  0x5b, 0xd2, 0x99, 0x3e, 0x11, 0xf8, 0x82, 0x3e, 0x3a, 0x31, 0x8e, 0x3e,
  0x43, 0xb8, 0xf5, 0x3e, 0x74, 0x0e, 0x31, 0x3f, 0xbe, 0x62, 0xaf, 0xbe,
  0xc9, 0x2e, 0x9a, 0xbd, 0xb5, 0x0a, 0xec, 0x3c, 0x0d, 0x55, 0x9c, 0xbe,
  0xe8, 0x76, 0xcb, 0x3c, 0xa3, 0x6f, 0xe4, 0xbd, 0xba, 0x53, 0xcf, 0xbe,
  0x7c, 0x23, 0x94, 0xbe, 0x2b, 0x3b, 0x3f, 0xbd, 0xfa, 0x12, 0x7a, 0xbe,
  0x86, 0xce, 0x9c, 0xbe, 0xa3, 0x73, 0x94, 0xbe, 0x94, 0xd6, 0xb0, 0x3e,
  0x0e, 0xd4, 0x30, 0xbe, 0xab, 0xe2, 0x08, 0x3e, 0x40, 0x5a, 0xb0, 0xbe,
  0xca, 0x1e, 0x82, 0x3e, 0xce, 0x7b, 0x01, 0xbe, 0x41, 0x92, 0x15, 0xbe,
  0xc2, 0x3b, 0x66, 0xbe, 0xdb, 0x07, 0xd1, 0xbd, 0x86, 0x4f, 0xd1, 0xbd,
  0xf8, 0x7a, 0x9c, 0x3d, 0x0b, 0x98, 0x0e, 0xbe, 0x46, 0x1a, 0x89, 0xbe,
  0xad, 0xda, 0xc3, 0xbe, 0xbe, 0x63, 0xf3, 0xbe, 0xab, 0x11, 0x1b, 0x3e,
  0xb1, 0x0c, 0xc9, 0x3e, 0x36, 0xae, 0x93, 0xbd, 0x42, 0xc6, 0xb0, 0xbe,
  0x9e, 0xda, 0x1f, 0x3e, 0x6d, 0x21, 0x8f, 0xbe, 0x08, 0x4a, 0x9d, 0x3e,
  0xea, 0xed, 0x2b, 0x3d, 0x8b, 0x41, 0x5e, 0x3e, 0x73, 0x97, 0x80, 0xbe,
  0xd9, 0x7c, 0x86, 0x3e, 0x93, 0xf6, 0xb4, 0x3d, 0xaa, 0xc7, 0xea, 0x3d,
  0x04, 0xe3, 0xf4, 0x3d, 0x7b, 0xba, 0xf2, 0x3d, 0x97, 0xad, 0xca, 0xbb,
  0x34, 0x27, 0x85, 0xbe, 0x12, 0xfe, 0x56, 0x3d, 0x2a, 0xff, 0x3e, 0x3e,
  0x1d, 0xd3, 0x04, 0xbe, 0xe7, 0xcb, 0xe2, 0xbd, 0x85, 0x20, 0x80, 0xbe,
  0xed, 0xb6, 0xff, 0x3d, 0x6c, 0xd2, 0x77, 0x3e, 0x75, 0x89, 0x00, 0x3e,
  0x08, 0xe4, 0x01, 0x3f, 0x03, 0xdd, 0x2e, 0x3e, 0xde, 0x94, 0x34, 0x3e,
  0x97, 0x10, 0x1f, 0xbe, 0x2a, 0x17, 0xdc, 0xbe, 0x88, 0x77, 0x86, 0xbe,
  0x45, 0xd6, 0x9f, 0xbe, 0xda, 0xe2, 0x6a, 0xbd, 0x0c, 0x8b, 0xd6, 0xbd,
  0x92, 0x10, 0x93, 0xbe, 0xd8, 0xb0, 0x0c, 0xbe, 0xda, 0x26, 0xa9, 0x3e,
  0xcf, 0x6a, 0x96, 0x3e, 0xe0, 0x80, 0x3b, 0x3d, 0x2a, 0x99, 0xd2, 0xbe,
  0x75, 0x7d, 0x53, 0xbc, 0x13, 0x26, 0xea, 0x3e, 0x91, 0x37, 0xad, 0x3d,
  0x9c, 0x44, 0xa6, 0x3e, 0x31, 0xa3, 0x2b, 0xbe, 0xff, 0x40, 0x10, 0x3d,
  0x61, 0x9d, 0x0e, 0xbe, 0xea, 0xe6, 0xb4, 0xbc, 0xbe, 0x0a, 0xa2, 0xbe,
  0xc6, 0xbf, 0x89, 0xbe, 0x68, 0x95, 0x77, 0x3e, 0x4f, 0xde, 0x0c, 0x3e,
  0x5d, 0xdc, 0x78, 0x3e, 0x14, 0x2c, 0x12, 0x3e, 0x24, 0xfa, 0x7b, 0x3d,
  0x51, 0xd0, 0x9b, 0x3e, 0x53, 0x80, 0xb9, 0x3e, 0x40, 0x67, 0x9f, 0xbd,
  0x32, 0x07, 0x06, 0x3f, 0x3e, 0x98, 0x89, 0xbe, 0x9a, 0x39, 0xfb, 0xbb,
  0x53, 0xba, 0x5a, 0x3e, 0xc6, 0x86, 0xe1, 0x3e, 0xbf, 0xc1, 0x06, 0x3f,
  0x71, 0x5e, 0x1e, 0x3e, 0xce, 0xc7, 0xbe, 0xbc, 0x85, 0xac, 0xed, 0xbd,
  0x0b, 0x5d, 0x23, 0xbf, 0x87, 0xbd, 0x0d, 0x3f, 0xf6, 0xa5, 0x6a, 0xbc,
  0x3d, 0x70, 0x5c, 0x3e, 0xd0, 0xd3, 0xb3, 0xbe, 0x17, 0xf4, 0x2e, 0xbe,
  0x33, 0x0a, 0x60, 0x3e, 0x3a, 0x61, 0x8b, 0xbe, 0x2b, 0x2e, 0xe4, 0x3e,
  0x3f, 0x76, 0x7a, 0x3e, 0x76, 0x87, 0x42, 0x3e, 0x2f, 0xbe, 0xfd, 0xbd,
  0xe0, 0x14, 0x4e, 0xbe, 0x35, 0x5b, 0xd8, 0x3e, 0x51, 0x4d, 0x03, 0xbe,
  0x1a, 0x64, 0xdb, 0xbd, 0xf7, 0xcf, 0x21, 0xbe, 0x78, 0xd6, 0x6b, 0x3e,
  0x60, 0x5e, 0xbb, 0x3d, 0x2c, 0xa4, 0x7a, 0x3e, 0x36, 0x51, 0x8d, 0x3e,
  0xcc, 0x1a, 0xf9, 0xbe, 0xcd, 0x8e, 0x7c, 0xbd, 0x4e, 0x99, 0x93, 0xbd,
  0x5e, 0xc4, 0xa5, 0xbe, 0xdb, 0x71, 0x60, 0x3e, 0xfb, 0x9b, 0x54, 0x3d,
  0xba, 0x0e, 0x79, 0xbe, 0x5a, 0x3b, 0xa1, 0x3e, 0xff, 0xa0, 0x34, 0x3e,
  0x13, 0x39, 0x1f, 0x3e, 0x79, 0x03, 0xb0, 0xbd, 0xa9, 0xb8, 0xce, 0xbe,
  0xf7, 0x76, 0x0b, 0xbf, 0x09, 0xf7, 0xe3, 0x3d, 0x7b, 0x6b, 0xb5, 0x3d,
  0xa0, 0x8f, 0xad, 0x3e, 0xf7, 0x85, 0x89, 0x3e, 0x2f, 0x85, 0xca, 0xbc,
  0x14, 0x45, 0xe4, 0x3e, 0x4a, 0xcb, 0xc0, 0x3e, 0x84, 0xc7, 0x1c, 0xbd,
  0x28, 0xa3, 0x90, 0xbb, 0xcd, 0x50, 0xe4, 0x3d, 0x93, 0x12, 0xb1, 0xbd,
  0x50, 0x57, 0x7d, 0xbe, 0xdd, 0x67, 0x83, 0x3e, 0x5a, 0x7c, 0xbd, 0x3d,
  0xf6, 0x01, 0x30, 0xbe, 0xfe, 0xdf, 0x4d, 0xbe, 0x01, 0x89, 0x45, 0x3d,
  0xc1, 0xd3, 0xd4, 0xbd, 0x88, 0x3e, 0x27, 0xbe, 0xce, 0x26, 0xf8, 0xbc,
  0xe1, 0xca, 0x2e, 0xbf, 0xbb, 0x42, 0x2c, 0x3f, 0x18, 0x1b, 0xdc, 0xbe,
  0x20, 0x1d, 0x0c, 0x3f, 0x00, 0x29, 0x10, 0x3d, 0xb5, 0x33, 0x8a, 0x3d,
  0x5b, 0x6b, 0x83, 0x3e, 0xff, 0xed, 0x45, 0xbe, 0xbd, 0x54, 0x94, 0xbe,
  0x2a, 0xe8, 0x3b, 0x3e, 0xcf, 0xca, 0x59, 0x3e, 0x7e, 0xa3, 0x9a, 0xbd,
  0x72, 0x31, 0x60, 0x3d, 0x18, 0x32, 0x51, 0xbe, 0x5c, 0xba, 0xad, 0x3e,
  0x86, 0x1e, 0x40, 0x3e, 0xa4, 0x06, 0x40, 0xbe, 0x76, 0x83, 0x87, 0xbd,
  0x9c, 0xb6, 0x17, 0xbd, 0x86, 0x6d, 0x16, 0xbd, 0x0d, 0x38, 0x7a, 0x3d,
  0x01, 0xcd, 0x48, 0xbe, 0xb5, 0xe4, 0x52, 0xbe, 0x00, 0xda, 0x14, 0x39,
  0x49, 0xfa, 0x9c, 0xbe, 0x5f, 0x92, 0x90, 0x3e, 0x18, 0xf0, 0xc4, 0x3d,
  0xb7, 0x92, 0xc2, 0x3d, 0xd8, 0x83, 0xfd, 0xbe, 0x9d, 0x3f, 0x1a, 0x3e,
  0x04, 0xf5, 0xba, 0xbe, 0x02, 0x31, 0xcb, 0x3d, 0x92, 0x12, 0x7c, 0xbd,
  0x4c, 0x3b, 0xb0, 0xbe, 0xac, 0x0b, 0x85, 0x3e, 0x2f, 0xe9, 0x44, 0xbd,
  0x99, 0xb8, 0xb4, 0x3e, 0x5a, 0xe3, 0x01, 0x3e, 0xa5, 0x77, 0xcb, 0xbd,
  0xe9, 0x5e, 0x3f, 0x3e, 0xe9, 0xd4, 0x8d, 0xbd, 0xa1, 0x53, 0xd0, 0x3d,
  0x5e, 0xf8, 0xd0, 0xbe, 0xb9, 0x1d, 0x0e, 0x3e, 0x85, 0x16, 0xa1, 0xbe,
  0xa2, 0x27, 0xd6, 0x3d, 0x60, 0x10, 0x38, 0x3e, 0xef, 0x9b, 0x97, 0xbd,
  0x84, 0xc5, 0x8f, 0xbe, 0xcd, 0xff, 0x79, 0xbe, 0xce, 0xa7, 0x7a, 0x3e,
  0x9f, 0x14, 0x95, 0x3e, 0x22, 0xa7, 0xb0, 0xbd, 0xde, 0xdb, 0x2f, 0x3d,
  0xfb, 0x2f, 0xe3, 0xbe, 0x13, 0x8f, 0x78, 0x3e, 0xab, 0xe3, 0x39, 0x3e,
  0x8f, 0x6a, 0x59, 0x3e, 0xd6, 0xeb, 0xac, 0x3b, 0x33, 0xb2, 0x59, 0x3e,
  0xbb, 0x50, 0xc8, 0x3c, 0x63, 0xac, 0xb0, 0x3c, 0x08, 0x5b, 0x78, 0xbe,
  0x77, 0xb6, 0xbf, 0xbd, 0x76, 0x76, 0x7c, 0xbd, 0x05, 0x02, 0x19, 0xbe,
  0xd6, 0xd4, 0xe7, 0xbe, 0x9a, 0xa4, 0x58, 0xbe, 0x79, 0xad, 0x58, 0xbe,
  0xe6, 0x0f, 0x92, 0xbe, 0x0b, 0x08, 0x82, 0xbe, 0xbe, 0xd8, 0xd8, 0x3d,
  0xca, 0x91, 0xba, 0xbe, 0x6b, 0x47, 0x66, 0x3e, 0x75, 0xe9, 0x34, 0xbf,
  0x68, 0xf2, 0x2a, 0xbc, 0x5b, 0x38, 0xbf, 0xbe, 0x6e, 0x28, 0x18, 0xbf,
  0x77, 0x62, 0xfc, 0xbe, 0x81, 0x14, 0xcc, 0xbc, 0x32, 0xa4, 0x72, 0x3e,
  0x59, 0x0e, 0x2a, 0x3d, 0x32, 0x78, 0x6b, 0xbe, 0xc9, 0x87, 0x22, 0x3d,
  0x83, 0x87, 0xa1, 0xbd, 0xbe, 0xe2, 0xbf, 0xbd, 0xcc, 0xad, 0x9b, 0xbd,
  0xe3, 0xec, 0x33, 0x3e, 0x76, 0x3a, 0x82, 0xbc, 0x51, 0xb9, 0x8e, 0x3d,
  0x11, 0xc0, 0xcd, 0xbe, 0x7b, 0xb2, 0x76, 0x3e, 0xa2, 0x0d, 0x81, 0x3d,
  0x30, 0x15, 0x4a, 0x3e, 0x97, 0x77, 0x62, 0xbd, 0x1e, 0xc3, 0xad, 0xbe,
  0xa2, 0xc9, 0xca, 0xbd, 0xa7, 0x1f, 0x95, 0x3d, 0xc3, 0xea, 0x89, 0x3e,
  0x23, 0xc7, 0x3f, 0xbb, 0x86, 0xc5, 0x22, 0x3d, 0x12, 0xa4, 0x2e, 0xbe,
  0xcc, 0xaf, 0x2e, 0x3e, 0x33, 0xb4, 0xab, 0x3d, 0xe4, 0x15, 0xd7, 0x3d,
  0xa0, 0x74, 0x05, 0x3d, 0x89, 0xbb, 0x69, 0xbd, 0x86, 0xf4, 0xf7, 0x3d,
  0xce, 0x2a, 0xb7, 0x3d, 0xcf, 0x98, 0xa6, 0xbe, 0x9c, 0x1b, 0xb1, 0xbc,
  0x80, 0x1d, 0xb9, 0x3d, 0x88, 0xf8, 0xa6, 0xbd, 0x04, 0x05, 0xce, 0x3e,
  0x53, 0x43, 0xbe, 0xbe, 0x42, 0x38, 0x19, 0xbe, 0x5b, 0xdf, 0x19, 0xbe,
  0x03, 0x88, 0x83, 0xbe, 0x4b, 0xaf, 0x64, 0xbc, 0x7d, 0x80, 0xe6, 0x3c,
  0xa3, 0x59, 0x28, 0xbe, 0x91, 0xd0, 0xaa, 0x3e, 0x7b, 0x2e, 0x68, 0x3d,
  0x83, 0xeb, 0x45, 0x3d, 0x0f, 0x5c, 0x78, 0xbe, 0x3c, 0xfb, 0x62, 0x3d,
  0x51, 0x41, 0x9d, 0x3e, 0x34, 0xed, 0x80, 0xbe, 0x33, 0xf9, 0xb4, 0x3e,
  0x5c, 0x76, 0xad, 0x3d, 0x64, 0x33, 0x8d, 0x3e, 0xc4, 0x9c, 0xc5, 0x3d,
  0x31, 0x55, 0x85, 0x3e, 0xe7, 0x3d, 0x31, 0x3e, 0xea, 0x47, 0xb6, 0x3e,
  0x84, 0xa6, 0x1d, 0xbf, 0x84, 0x07, 0x1a, 0x3f, 0xc6, 0x52, 0x4a, 0x3e,
  0xf6, 0x5e, 0x1b, 0xbe, 0x0e, 0xfa, 0x38, 0x3e, 0x21, 0x49, 0xd2, 0x3d,
  0x01, 0xea, 0xef, 0xbd, 0x0b, 0x74, 0x71, 0xbe, 0x9d, 0x7f, 0x5d, 0xbe,
  0xcb, 0xe0, 0x9a, 0xbe, 0xec, 0x55, 0xcd, 0x3e, 0xf5, 0x51, 0xa1, 0x3d,
  0x23, 0xa6, 0x91, 0xbe, 0x0b, 0x41, 0x7f, 0xbe, 0xda, 0x8f, 0xd5, 0xbd,
  0x56, 0xfa, 0x5a, 0x3c, 0xb8, 0xf0, 0x6f, 0x3d, 0xd3, 0x9a, 0x22, 0xbd,
  0x32, 0x81, 0x66, 0x3e, 0x60, 0x7f, 0xd6, 0x3d, 0x9c, 0x5d, 0xd5, 0x3e,
  0xa0, 0x91, 0x3d, 0xbd, 0xac, 0xdd, 0x72, 0x3e, 0x7b, 0x78, 0xac, 0x3e,
  0x94, 0x84, 0xba, 0x3b, 0xf1, 0x54, 0x35, 0xbe, 0xab, 0x0c, 0xdd, 0x3c,
  0x2d, 0x26, 0xb6, 0x3e, 0x5f, 0x17, 0x8a, 0xbe, 0x5a, 0x1f, 0x07, 0xbd,
  0xae, 0xf0, 0x96, 0xbe, 0x5e, 0xff, 0xff, 0xff, 0x04, 0x00, 0x00, 0x00,
  0x40, 0x00, 0x00, 0x00, 0x43, 0x41, 0x85, 0xbc, 0x68, 0x70, 0x88, 0xbd,
  0x11, 0xb0, 0x84, 0xbd, 0xc0, 0x82, 0xc1, 0x3b, 0x91, 0x5a, 0xc7, 0xbc,
  0x8b, 0x75, 0xef, 0xbc, 0x5f, 0x97, 0xa2, 0xbd, 0x01, 0xe9, 0x64, 0x3a,
  0x6a, 0x2c, 0x7b, 0x3b, 0x22, 0x7b, 0xae, 0xbd, 0x2c, 0xb9, 0x87, 0xbd,
  0x63, 0x17, 0x45, 0x3c, 0x5a, 0xd8, 0xa1, 0xbd, 0x98, 0x76, 0x33, 0x3d,
  0x68, 0x08, 0x74, 0x3d, 0x87, 0x4c, 0x86, 0x3d, 0xaa, 0xff, 0xff, 0xff,
  0x04, 0x00, 0x00, 0x00, 0x14, 0x00, 0x00, 0x00, 0xd8, 0x8f, 0x99, 0xbc,
  0x55, 0xbc, 0xdb, 0x3c, 0xee, 0x49, 0xe1, 0x3d, 0x3f, 0xdf, 0x13, 0x3c,
  0x50, 0xdb, 0x27, 0x3d, 0xca, 0xff, 0xff, 0xff, 0x04, 0x00, 0x00, 0x00,
  0x28, 0x00, 0x00, 0x00, 0x0f, 0x12, 0x08, 0xbc, 0xd4, 0x71, 0x6a, 0x3c,
  0x45, 0xab, 0x37, 0x3d, 0x53, 0xa3, 0xb3, 0x3d, 0x13, 0xd4, 0x95, 0xbd,
  0x6d, 0xa8, 0x99, 0x3d, 0x4a, 0xc0, 0xd2, 0xbd, 0x51, 0xdc, 0x8e, 0xbd,
  0x2b, 0x9a, 0x63, 0xbc, 0x9a, 0x63, 0x9d, 0xbd, 0x00, 0x00, 0x06, 0x00,
  0x08, 0x00, 0x04, 0x00, 0x06, 0x00, 0x00, 0x00, 0x04, 0x00, 0x00, 0x00,
  0x50, 0x00, 0x00, 0x00, 0xb6, 0xe3, 0x48, 0x3c, 0xe2, 0x7f, 0x1c, 0xbd,
  0x5f, 0x51, 0x4e, 0x3c, 0x09, 0x98, 0x88, 0x3d, 0x6f, 0x1d, 0x59, 0xbd,
  0xdf, 0x02, 0xa4, 0x3d, 0x80, 0x84, 0xa4, 0xba, 0x5b, 0x86, 0xc3, 0x3c,
  0xc5, 0x12, 0x8c, 0xba, 0x04, 0xfd, 0x19, 0x3d, 0xab, 0x60, 0xb4, 0xbd,
  0x38, 0x4a, 0xd1, 0xbb, 0xc8, 0x9f, 0x0e, 0xbd, 0x90, 0xd9, 0x00, 0x3c,
  0xb8, 0x0b, 0x4d, 0x3d, 0x0b, 0x6d, 0x8c, 0x3d, 0x84, 0xd6, 0x67, 0x3d,
  0x57, 0x69, 0x53, 0x3d, 0xa4, 0xe9, 0x15, 0xba, 0x35, 0x17, 0xc8, 0x3c,
  0x80, 0xf8, 0xff, 0xff, 0x84, 0xf8, 0xff, 0xff, 0x0f, 0x00, 0x00, 0x00,
  0x4d, 0x4c, 0x49, 0x52, 0x20, 0x43, 0x6f, 0x6e, 0x76, 0x65, 0x72, 0x74,
  0x65, 0x64, 0x2e, 0x00, 0x01, 0x00, 0x00, 0x00, 0x14, 0x00, 0x00, 0x00,
  0x00, 0x00, 0x0e, 0x00, 0x18, 0x00, 0x14, 0x00, 0x10, 0x00, 0x0c, 0x00,
  0x08, 0x00, 0x04, 0x00, 0x0e, 0x00, 0x00, 0x00, 0x14, 0x00, 0x00, 0x00,
  0x1c, 0x00, 0x00, 0x00, 0x74, 0x01, 0x00, 0x00, 0x78, 0x01, 0x00, 0x00,
  0x7c, 0x01, 0x00, 0x00, 0x04, 0x00, 0x00, 0x00, 0x6d, 0x61, 0x69, 0x6e,
  0x00, 0x00, 0x00, 0x00, 0x07, 0x00, 0x00, 0x00, 0x28, 0x01, 0x00, 0x00,
  0xf4, 0x00, 0x00, 0x00, 0xb4, 0x00, 0x00, 0x00, 0x90, 0x00, 0x00, 0x00,
  0x5c, 0x00, 0x00, 0x00, 0x38, 0x00, 0x00, 0x00, 0x04, 0x00, 0x00, 0x00,
  0x02, 0xff, 0xff, 0xff, 0x10, 0x00, 0x00, 0x00, 0x00, 0x00, 0x00, 0x08,
  0x0c, 0x00, 0x00, 0x00, 0x10, 0x00, 0x00, 0x00, 0x0c, 0xf9, 0xff, 0xff,
  0x01, 0x00, 0x00, 0x00, 0x0f, 0x00, 0x00, 0x00, 0x03, 0x00, 0x00, 0x00,
  0x0e, 0x00, 0x00, 0x00, 0x08, 0x00, 0x00, 0x00, 0x03, 0x00, 0x00, 0x00,
  0x5e, 0xff, 0xff, 0xff, 0x0c, 0x00, 0x00, 0x00, 0x10, 0x00, 0x00, 0x00,
  0x01, 0x00, 0x00, 0x00, 0x01, 0x00, 0x00, 0x00, 0x0e, 0x00, 0x00, 0x00,
  0x01, 0x00, 0x00, 0x00, 0x0d, 0x00, 0x00, 0x00, 0x52, 0xff, 0xff, 0xff,
  0x10, 0x00, 0x00, 0x00, 0x00, 0x00, 0x00, 0x08, 0x0c, 0x00, 0x00, 0x00,
  0x10, 0x00, 0x00, 0x00, 0x5c, 0xf9, 0xff, 0xff, 0x01, 0x00, 0x00, 0x00,
  0x0d, 0x00, 0x00, 0x00, 0x03, 0x00, 0x00, 0x00, 0x0c, 0x00, 0x00, 0x00,
  0x07, 0x00, 0x00, 0x00, 0x02, 0x00, 0x00, 0x00, 0xae, 0xff, 0xff, 0xff,
  0x0c, 0x00, 0x00, 0x00, 0x10, 0x00, 0x00, 0x00, 0x01, 0x00, 0x00, 0x00,
  0x01, 0x00, 0x00, 0x00, 0x0c, 0x00, 0x00, 0x00, 0x01, 0x00, 0x00, 0x00,
  0x0b, 0x00, 0x00, 0x00, 0xa2, 0xff, 0xff, 0xff, 0x10, 0x00, 0x00, 0x00,
  0x00, 0x00, 0x00, 0x08, 0x0c, 0x00, 0x00, 0x00, 0x10, 0x00, 0x00, 0x00,
  0xac, 0xf9, 0xff, 0xff, 0x01, 0x00, 0x00, 0x00, 0x0b, 0x00, 0x00, 0x00,
  0x03, 0x00, 0x00, 0x00, 0x0a, 0x00, 0x00, 0x00, 0x06, 0x00, 0x00, 0x00,
  0x01, 0x00, 0x00, 0x00, 0x00, 0x00, 0x0a, 0x00, 0x10, 0x00, 0x0c, 0x00,
  0x08, 0x00, 0x04, 0x00, 0x0a, 0x00, 0x00, 0x00, 0x0c, 0x00, 0x00, 0x00,
  0x10, 0x00, 0x00, 0x00, 0x01, 0x00, 0x00, 0x00, 0x01, 0x00, 0x00, 0x00,
  0x0a, 0x00, 0x00, 0x00, 0x01, 0x00, 0x00, 0x00, 0x09, 0x00, 0x00, 0x00,
  0x00, 0x00, 0x0e, 0x00, 0x14, 0x00, 0x00, 0x00, 0x10, 0x00, 0x0c, 0x00,
  0x0b, 0x00, 0x04, 0x00, 0x0e, 0x00, 0x00, 0x00, 0x10, 0x00, 0x00, 0x00,
  0x00, 0x00, 0x00, 0x08, 0x0c, 0x00, 0x00, 0x00, 0x10, 0x00, 0x00, 0x00,
  0x18, 0xfa, 0xff, 0xff, 0x01, 0x00, 0x00, 0x00, 0x09, 0x00, 0x00, 0x00,
  0x03, 0x00, 0x00, 0x00, 0x00, 0x00, 0x00, 0x00, 0x05, 0x00, 0x00, 0x00,
  0x04, 0x00, 0x00, 0x00, 0x01, 0x00, 0x00, 0x00, 0x0f, 0x00, 0x00, 0x00,
  0x01, 0x00, 0x00, 0x00, 0x00, 0x00, 0x00, 0x00, 0x10, 0x00, 0x00, 0x00,
  0x90, 0x05, 0x00, 0x00, 0x20, 0x05, 0x00, 0x00, 0xb0, 0x04, 0x00, 0x00,
  0x58, 0x04, 0x00, 0x00, 0x04, 0x04, 0x00, 0x00, 0xbc, 0x03, 0x00, 0x00,
  0x70, 0x03, 0x00, 0x00, 0x24, 0x03, 0x00, 0x00, 0xd8, 0x02, 0x00, 0x00,
  0x64, 0x02, 0x00, 0x00, 0x08, 0x02, 0x00, 0x00, 0x90, 0x01, 0x00, 0x00,
  0x34, 0x01, 0x00, 0x00, 0xbc, 0x00, 0x00, 0x00, 0x60, 0x00, 0x00, 0x00,
  0x04, 0x00, 0x00, 0x00, 0xc6, 0xfa, 0xff, 0xff, 0x00, 0x00, 0x00, 0x01,
  0x14, 0x00, 0x00, 0x00, 0x1c, 0x00, 0x00, 0x00, 0x1c, 0x00, 0x00, 0x00,
  0x10, 0x00, 0x00, 0x00, 0x34, 0x00, 0x00, 0x00, 0x02, 0x00, 0x00, 0x00,
  0xff, 0xff, 0xff, 0xff, 0x05, 0x00, 0x00, 0x00, 0xb0, 0xfa, 0xff, 0xff,
  0x19, 0x00, 0x00, 0x00, 0x53, 0x74, 0x61, 0x74, 0x65, 0x66, 0x75, 0x6c,
  0x50, 0x61, 0x72, 0x74, 0x69, 0x74, 0x69, 0x6f, 0x6e, 0x65, 0x64, 0x43,
  0x61, 0x6c, 0x6c, 0x3a, 0x30, 0x00, 0x00, 0x00, 0x02, 0x00, 0x00, 0x00,
  0x01, 0x00, 0x00, 0x00, 0x05, 0x00, 0x00, 0x00, 0x1e, 0xfb, 0xff, 0xff,
  0x00, 0x00, 0x00, 0x01, 0x14, 0x00, 0x00, 0x00, 0x1c, 0x00, 0x00, 0x00,
  0x1c, 0x00, 0x00, 0x00, 0x0f, 0x00, 0x00, 0x00, 0x34, 0x00, 0x00, 0x00,
  0x02, 0x00, 0x00, 0x00, 0xff, 0xff, 0xff, 0xff, 0x0a, 0x00, 0x00, 0x00,
  0x08, 0xfb, 0xff, 0xff, 0x1a, 0x00, 0x00, 0x00, 0x73, 0x65, 0x71, 0x75,
  0x65, 0x6e, 0x74, 0x69, 0x61, 0x6c, 0x2f, 0x64, 0x65, 0x6e, 0x73, 0x65,
  0x5f, 0x32, 0x2f, 0x53, 0x69, 0x67, 0x6d, 0x6f, 0x69, 0x64, 0x00, 0x00,
  0x02, 0x00, 0x00, 0x00, 0x01, 0x00, 0x00, 0x00, 0x0a, 0x00, 0x00, 0x00,
  0x76, 0xfb, 0xff, 0xff, 0x00, 0x00, 0x00, 0x01, 0x14, 0x00, 0x00, 0x00,
  0x1c, 0x00, 0x00, 0x00, 0x1c, 0x00, 0x00, 0x00, 0x0e, 0x00, 0x00, 0x00,
  0x50, 0x00, 0x00, 0x00, 0x02, 0x00, 0x00, 0x00, 0xff, 0xff, 0xff, 0xff,
  0x0a, 0x00, 0x00, 0x00, 0x60, 0xfb, 0xff, 0xff, 0x34, 0x00, 0x00, 0x00,
  0x73, 0x65, 0x71, 0x75, 0x65, 0x6e, 0x74, 0x69, 0x61, 0x6c, 0x2f, 0x64,
  0x65, 0x6e, 0x73, 0x65, 0x5f, 0x32, 0x2f, 0x4d, 0x61, 0x74, 0x4d, 0x75,
  0x6c, 0x3b, 0x73, 0x65, 0x71, 0x75, 0x65, 0x6e, 0x74, 0x69, 0x61, 0x6c,
  0x2f, 0x64, 0x65, 0x6e, 0x73, 0x65, 0x5f, 0x32, 0x2f, 0x42, 0x69, 0x61,
  0x73, 0x41, 0x64, 0x64, 0x00, 0x00, 0x00, 0x00, 0x02, 0x00, 0x00, 0x00,
  0x01, 0x00, 0x00, 0x00, 0x0a, 0x00, 0x00, 0x00, 0xea, 0xfb, 0xff, 0xff,
  0x00, 0x00, 0x00, 0x01, 0x14, 0x00, 0x00, 0x00, 0x1c, 0x00, 0x00, 0x00,
  0x1c, 0x00, 0x00, 0x00, 0x0d, 0x00, 0x00, 0x00, 0x34, 0x00, 0x00, 0x00,
  0x02, 0x00, 0x00, 0x00, 0xff, 0xff, 0xff, 0xff, 0x14, 0x00, 0x00, 0x00,
  0xd4, 0xfb, 0xff, 0xff, 0x1a, 0x00, 0x00, 0x00, 0x73, 0x65, 0x71, 0x75,
  0x65, 0x6e, 0x74, 0x69, 0x61, 0x6c, 0x2f, 0x64, 0x65, 0x6e, 0x73, 0x65,
  0x5f, 0x31, 0x2f, 0x53, 0x69, 0x67, 0x6d, 0x6f, 0x69, 0x64, 0x00, 0x00,
  0x02, 0x00, 0x00, 0x00, 0x01, 0x00, 0x00, 0x00, 0x14, 0x00, 0x00, 0x00,
  0x42, 0xfc, 0xff, 0xff, 0x00, 0x00, 0x00, 0x01, 0x14, 0x00, 0x00, 0x00,
  0x1c, 0x00, 0x00, 0x00, 0x1c, 0x00, 0x00, 0x00, 0x0c, 0x00, 0x00, 0x00,
  0x50, 0x00, 0x00, 0x00, 0x02, 0x00, 0x00, 0x00, 0xff, 0xff, 0xff, 0xff,
  0x14, 0x00, 0x00, 0x00, 0x2c, 0xfc, 0xff, 0xff, 0x34, 0x00, 0x00, 0x00,
  0x73, 0x65, 0x71, 0x75, 0x65, 0x6e, 0x74, 0x69, 0x61, 0x6c, 0x2f, 0x64,
  0x65, 0x6e, 0x73, 0x65, 0x5f, 0x31, 0x2f, 0x4d, 0x61, 0x74, 0x4d, 0x75,
  0x6c, 0x3b, 0x73, 0x65, 0x71, 0x75, 0x65, 0x6e, 0x74, 0x69, 0x61, 0x6c,
  0x2f, 0x64, 0x65, 0x6e, 0x73, 0x65, 0x5f, 0x31, 0x2f, 0x42, 0x69, 0x61,
  0x73, 0x41, 0x64, 0x64, 0x00, 0x00, 0x00, 0x00, 0x02, 0x00, 0x00, 0x00,
  0x01, 0x00, 0x00, 0x00, 0x14, 0x00, 0x00, 0x00, 0xb6, 0xfc, 0xff, 0xff,
  0x00, 0x00, 0x00, 0x01, 0x14, 0x00, 0x00, 0x00, 0x1c, 0x00, 0x00, 0x00,
  0x1c, 0x00, 0x00, 0x00, 0x0b, 0x00, 0x00, 0x00, 0x34, 0x00, 0x00, 0x00,
  0x02, 0x00, 0x00, 0x00, 0xff, 0xff, 0xff, 0xff, 0x10, 0x00, 0x00, 0x00,
  0xa0, 0xfc, 0xff, 0xff, 0x18, 0x00, 0x00, 0x00, 0x73, 0x65, 0x71, 0x75,
  0x65, 0x6e, 0x74, 0x69, 0x61, 0x6c, 0x2f, 0x64, 0x65, 0x6e, 0x73, 0x65,
  0x2f, 0x53, 0x69, 0x67, 0x6d, 0x6f, 0x69, 0x64, 0x00, 0x00, 0x00, 0x00,
  0x02, 0x00, 0x00, 0x00, 0x01, 0x00, 0x00, 0x00, 0x10, 0x00, 0x00, 0x00,
  0x0e, 0xfd, 0xff, 0xff, 0x00, 0x00, 0x00, 0x01, 0x14, 0x00, 0x00, 0x00,
  0x1c, 0x00, 0x00, 0x00, 0x1c, 0x00, 0x00, 0x00, 0x0a, 0x00, 0x00, 0x00,
  0x4c, 0x00, 0x00, 0x00, 0x02, 0x00, 0x00, 0x00, 0xff, 0xff, 0xff, 0xff,
  0x10, 0x00, 0x00, 0x00, 0xf8, 0xfc, 0xff, 0xff, 0x30, 0x00, 0x00, 0x00,
  0x73, 0x65, 0x71, 0x75, 0x65, 0x6e, 0x74, 0x69, 0x61, 0x6c, 0x2f, 0x64,
  0x65, 0x6e, 0x73, 0x65, 0x2f, 0x4d, 0x61, 0x74, 0x4d, 0x75, 0x6c, 0x3b,
  0x73, 0x65, 0x71, 0x75, 0x65, 0x6e, 0x74, 0x69, 0x61, 0x6c, 0x2f, 0x64,
  0x65, 0x6e, 0x73, 0x65, 0x2f, 0x42, 0x69, 0x61, 0x73, 0x41, 0x64, 0x64,
  0x00, 0x00, 0x00, 0x00, 0x02, 0x00, 0x00, 0x00, 0x01, 0x00, 0x00, 0x00,
  0x10, 0x00, 0x00, 0x00, 0xea, 0xfd, 0xff, 0xff, 0x00, 0x00, 0x00, 0x01,
  0x10, 0x00, 0x00, 0x00, 0x10, 0x00, 0x00, 0x00, 0x09, 0x00, 0x00, 0x00,
  0x28, 0x00, 0x00, 0x00, 0x58, 0xfd, 0xff, 0xff, 0x19, 0x00, 0x00, 0x00,
  0x73, 0x65, 0x71, 0x75, 0x65, 0x6e, 0x74, 0x69, 0x61, 0x6c, 0x2f, 0x64,
  0x65, 0x6e, 0x73, 0x65, 0x5f, 0x33, 0x2f, 0x4d, 0x61, 0x74, 0x4d, 0x75,
  0x6c, 0x00, 0x00, 0x00, 0x02, 0x00, 0x00, 0x00, 0x05, 0x00, 0x00, 0x00,
  0x0a, 0x00, 0x00, 0x00, 0x32, 0xfe, 0xff, 0xff, 0x00, 0x00, 0x00, 0x01,
  0x10, 0x00, 0x00, 0x00, 0x10, 0x00, 0x00, 0x00, 0x08, 0x00, 0x00, 0x00,
  0x28, 0x00, 0x00, 0x00, 0xa0, 0xfd, 0xff, 0xff, 0x19, 0x00, 0x00, 0x00,
  0x73, 0x65, 0x71, 0x75, 0x65, 0x6e, 0x74, 0x69, 0x61, 0x6c, 0x2f, 0x64,
  0x65, 0x6e, 0x73, 0x65, 0x5f, 0x32, 0x2f, 0x4d, 0x61, 0x74, 0x4d, 0x75,
  0x6c, 0x00, 0x00, 0x00, 0x02, 0x00, 0x00, 0x00, 0x0a, 0x00, 0x00, 0x00,
  0x14, 0x00, 0x00, 0x00, 0x7a, 0xfe, 0xff, 0xff, 0x00, 0x00, 0x00, 0x01,
  0x10, 0x00, 0x00, 0x00, 0x10, 0x00, 0x00, 0x00, 0x07, 0x00, 0x00, 0x00,
  0x28, 0x00, 0x00, 0x00, 0xe8, 0xfd, 0xff, 0xff, 0x19, 0x00, 0x00, 0x00,
  0x73, 0x65, 0x71, 0x75, 0x65, 0x6e, 0x74, 0x69, 0x61, 0x6c, 0x2f, 0x64,
  0x65, 0x6e, 0x73, 0x65, 0x5f, 0x31, 0x2f, 0x4d, 0x61, 0x74, 0x4d, 0x75,
  0x6c, 0x00, 0x00, 0x00, 0x02, 0x00, 0x00, 0x00, 0x14, 0x00, 0x00, 0x00,
  0x10, 0x00, 0x00, 0x00, 0xc2, 0xfe, 0xff, 0xff, 0x00, 0x00, 0x00, 0x01,
  0x10, 0x00, 0x00, 0x00, 0x10, 0x00, 0x00, 0x00, 0x06, 0x00, 0x00, 0x00,
  0x24, 0x00, 0x00, 0x00, 0x30, 0xfe, 0xff, 0xff, 0x17, 0x00, 0x00, 0x00,
  0x73, 0x65, 0x71, 0x75, 0x65, 0x6e, 0x74, 0x69, 0x61, 0x6c, 0x2f, 0x64,
  0x65, 0x6e, 0x73, 0x65, 0x2f, 0x4d, 0x61, 0x74, 0x4d, 0x75, 0x6c, 0x00,
  0x02, 0x00, 0x00, 0x00, 0x10, 0x00, 0x00, 0x00, 0x1b, 0x00, 0x00, 0x00,
  0x06, 0xff, 0xff, 0xff, 0x00, 0x00, 0x00, 0x01, 0x10, 0x00, 0x00, 0x00,
  0x10, 0x00, 0x00, 0x00, 0x05, 0x00, 0x00, 0x00, 0x34, 0x00, 0x00, 0x00,
  0x74, 0xfe, 0xff, 0xff, 0x27, 0x00, 0x00, 0x00, 0x73, 0x65, 0x71, 0x75,
  0x65, 0x6e, 0x74, 0x69, 0x61, 0x6c, 0x2f, 0x64, 0x65, 0x6e, 0x73, 0x65,
  0x2f, 0x42, 0x69, 0x61, 0x73, 0x41, 0x64, 0x64, 0x2f, 0x52, 0x65, 0x61,
  0x64, 0x56, 0x61, 0x72, 0x69, 0x61, 0x62, 0x6c, 0x65, 0x4f, 0x70, 0x00,
  0x01, 0x00, 0x00, 0x00, 0x10, 0x00, 0x00, 0x00, 0x56, 0xff, 0xff, 0xff,
  0x00, 0x00, 0x00, 0x01, 0x10, 0x00, 0x00, 0x00, 0x10, 0x00, 0x00, 0x00,
  0x04, 0x00, 0x00, 0x00, 0x38, 0x00, 0x00, 0x00, 0xc4, 0xfe, 0xff, 0xff,
  0x29, 0x00, 0x00, 0x00, 0x73, 0x65, 0x71, 0x75, 0x65, 0x6e, 0x74, 0x69,
  0x61, 0x6c, 0x2f, 0x64, 0x65, 0x6e, 0x73, 0x65, 0x5f, 0x33, 0x2f, 0x42,
  0x69, 0x61, 0x73, 0x41, 0x64, 0x64, 0x2f, 0x52, 0x65, 0x61, 0x64, 0x56,
  0x61, 0x72, 0x69, 0x61, 0x62, 0x6c, 0x65, 0x4f, 0x70, 0x00, 0x00, 0x00,
  0x01, 0x00, 0x00, 0x00, 0x05, 0x00, 0x00, 0x00, 0xaa, 0xff, 0xff, 0xff,
  0x00, 0x00, 0x00, 0x01, 0x10, 0x00, 0x00, 0x00, 0x10, 0x00, 0x00, 0x00,
  0x03, 0x00, 0x00, 0x00, 0x38, 0x00, 0x00, 0x00, 0x18, 0xff, 0xff, 0xff,
  0x29, 0x00, 0x00, 0x00, 0x73, 0x65, 0x71, 0x75, 0x65, 0x6e, 0x74, 0x69,
  0x61, 0x6c, 0x2f, 0x64, 0x65, 0x6e, 0x73, 0x65, 0x5f, 0x32, 0x2f, 0x42,
  0x69, 0x61, 0x73, 0x41, 0x64, 0x64, 0x2f, 0x52, 0x65, 0x61, 0x64, 0x56,
  0x61, 0x72, 0x69, 0x61, 0x62, 0x6c, 0x65, 0x4f, 0x70, 0x00, 0x00, 0x00,
  0x01, 0x00, 0x00, 0x00, 0x0a, 0x00, 0x00, 0x00, 0x00, 0x00, 0x16, 0x00,
  0x18, 0x00, 0x14, 0x00, 0x00, 0x00, 0x10, 0x00, 0x0c, 0x00, 0x08, 0x00,
  0x00, 0x00, 0x00, 0x00, 0x00, 0x00, 0x07, 0x00, 0x16, 0x00, 0x00, 0x00,
  0x00, 0x00, 0x00, 0x01, 0x10, 0x00, 0x00, 0x00, 0x10, 0x00, 0x00, 0x00,
  0x02, 0x00, 0x00, 0x00, 0x38, 0x00, 0x00, 0x00, 0x84, 0xff, 0xff, 0xff,
  0x29, 0x00, 0x00, 0x00, 0x73, 0x65, 0x71, 0x75, 0x65, 0x6e, 0x74, 0x69,
  0x61, 0x6c, 0x2f, 0x64, 0x65, 0x6e, 0x73, 0x65, 0x5f, 0x31, 0x2f, 0x42,
  0x69, 0x61, 0x73, 0x41, 0x64, 0x64, 0x2f, 0x52, 0x65, 0x61, 0x64, 0x56,
  0x61, 0x72, 0x69, 0x61, 0x62, 0x6c, 0x65, 0x4f, 0x70, 0x00, 0x00, 0x00,
  0x01, 0x00, 0x00, 0x00, 0x14, 0x00, 0x00, 0x00, 0x00, 0x00, 0x16, 0x00,
  0x1c, 0x00, 0x18, 0x00, 0x00, 0x00, 0x14, 0x00, 0x10, 0x00, 0x0c, 0x00,
  0x00, 0x00, 0x00, 0x00, 0x08, 0x00, 0x07, 0x00, 0x16, 0x00, 0x00, 0x00,
  0x00, 0x00, 0x00, 0x01, 0x14, 0x00, 0x00, 0x00, 0x20, 0x00, 0x00, 0x00,
  0x20, 0x00, 0x00, 0x00, 0x01, 0x00, 0x00, 0x00, 0x3c, 0x00, 0x00, 0x00,
  0x02, 0x00, 0x00, 0x00, 0xff, 0xff, 0xff, 0xff, 0x1b, 0x00, 0x00, 0x00,
  0x04, 0x00, 0x04, 0x00, 0x04, 0x00, 0x00, 0x00, 0x1d, 0x00, 0x00, 0x00,
  0x73, 0x65, 0x72, 0x76, 0x69, 0x6e, 0x67, 0x5f, 0x64, 0x65, 0x66, 0x61,
  0x75, 0x6c, 0x74, 0x5f, 0x64, 0x65, 0x6e, 0x73, 0x65, 0x5f, 0x69, 0x6e,
  0x70, 0x75, 0x74, 0x3a, 0x30, 0x00, 0x00, 0x00, 0x02, 0x00, 0x00, 0x00,
  0x01, 0x00, 0x00, 0x00, 0x1b, 0x00, 0x00, 0x00, 0x02, 0x00, 0x00, 0x00,
  0x20, 0x00, 0x00, 0x00, 0x04, 0x00, 0x00, 0x00, 0xf4, 0xff, 0xff, 0xff,
  0x0e, 0x00, 0x00, 0x00, 0x00, 0x00, 0x00, 0x0e, 0x0c, 0x00, 0x0c, 0x00,
  0x0b, 0x00, 0x00, 0x00, 0x00, 0x00, 0x04, 0x00, 0x0c, 0x00, 0x00, 0x00,
  0x09, 0x00, 0x00, 0x00, 0x00, 0x00, 0x00, 0x09
};

