#define TENSORFLOW_LITE_EXPERIMENTAL_MICRO_EXAMPLES_HELLO_WORLD_SINE_MODEL_DATA_H_
#ifdef __has_attribute
#define HAVE_ATTRIBUTE(x) __has_attribute(x)
#else
#define HAVE_ATTRIBUTE(x) 0
#endif
#if HAVE_ATTRIBUTE(aligned) || (defined(__GNUC__) && !defined(__clang__))
#define DATA_ALIGN_ATTRIBUTE __attribute__((aligned(4)))
#else
#define DATA_ALIGN_ATTRIBUTE
#endif
const int g_second_model_data_len = 6836;
const unsigned char g_second_model_data[] DATA_ALIGN_ATTRIBUTE = {
 0x1c, 0x00, 0x00, 0x00, 0x54, 0x46, 0x4c, 0x33, 0x14, 0x00, 0x20, 0x00,
  0x1c, 0x00, 0x18, 0x00, 0x14, 0x00, 0x10, 0x00, 0x0c, 0x00, 0x00, 0x00,
  0x08, 0x00, 0x04, 0x00, 0x14, 0x00, 0x00, 0x00, 0x1c, 0x00, 0x00, 0x00,
  0x84, 0x00, 0x00, 0x00, 0xdc, 0x00, 0x00, 0x00, 0xa8, 0x12, 0x00, 0x00,
  0xb8, 0x12, 0x00, 0x00, 0x50, 0x1a, 0x00, 0x00, 0x03, 0x00, 0x00, 0x00,
  0x01, 0x00, 0x00, 0x00, 0x04, 0x00, 0x00, 0x00, 0x2e, 0xec, 0xff, 0xff,
  0x0c, 0x00, 0x00, 0x00, 0x1c, 0x00, 0x00, 0x00, 0x38, 0x00, 0x00, 0x00,
  0x0f, 0x00, 0x00, 0x00, 0x73, 0x65, 0x72, 0x76, 0x69, 0x6e, 0x67, 0x5f,
  0x64, 0x65, 0x66, 0x61, 0x75, 0x6c, 0x74, 0x00, 0x01, 0x00, 0x00, 0x00,
  0x04, 0x00, 0x00, 0x00, 0x98, 0xff, 0xff, 0xff, 0x0f, 0x00, 0x00, 0x00,
  0x04, 0x00, 0x00, 0x00, 0x07, 0x00, 0x00, 0x00, 0x64, 0x65, 0x6e, 0x73,
  0x65, 0x5f, 0x33, 0x00, 0x01, 0x00, 0x00, 0x00, 0x04, 0x00, 0x00, 0x00,
  0x26, 0xee, 0xff, 0xff, 0x04, 0x00, 0x00, 0x00, 0x0b, 0x00, 0x00, 0x00,
  0x64, 0x65, 0x6e, 0x73, 0x65, 0x5f, 0x69, 0x6e, 0x70, 0x75, 0x74, 0x00,
  0x02, 0x00, 0x00, 0x00, 0x34, 0x00, 0x00, 0x00, 0x04, 0x00, 0x00, 0x00,
  0xdc, 0xff, 0xff, 0xff, 0x12, 0x00, 0x00, 0x00, 0x04, 0x00, 0x00, 0x00,
  0x13, 0x00, 0x00, 0x00, 0x43, 0x4f, 0x4e, 0x56, 0x45, 0x52, 0x53, 0x49,
  0x4f, 0x4e, 0x5f, 0x4d, 0x45, 0x54, 0x41, 0x44, 0x41, 0x54, 0x41, 0x00,
  0x08, 0x00, 0x0c, 0x00, 0x08, 0x00, 0x04, 0x00, 0x08, 0x00, 0x00, 0x00,
  0x11, 0x00, 0x00, 0x00, 0x04, 0x00, 0x00, 0x00, 0x13, 0x00, 0x00, 0x00,
  0x6d, 0x69, 0x6e, 0x5f, 0x72, 0x75, 0x6e, 0x74, 0x69, 0x6d, 0x65, 0x5f,
  0x76, 0x65, 0x72, 0x73, 0x69, 0x6f, 0x6e, 0x00, 0x13, 0x00, 0x00, 0x00,
  0xc8, 0x11, 0x00, 0x00, 0xc0, 0x11, 0x00, 0x00, 0x60, 0x11, 0x00, 0x00,
  0x20, 0x11, 0x00, 0x00, 0xfc, 0x10, 0x00, 0x00, 0xac, 0x10, 0x00, 0x00,
  0xdc, 0x09, 0x00, 0x00, 0xcc, 0x04, 0x00, 0x00, 0x9c, 0x01, 0x00, 0x00,
  0xc4, 0x00, 0x00, 0x00, 0xbc, 0x00, 0x00, 0x00, 0xb4, 0x00, 0x00, 0x00,
  0xac, 0x00, 0x00, 0x00, 0xa4, 0x00, 0x00, 0x00, 0x9c, 0x00, 0x00, 0x00,
  0x94, 0x00, 0x00, 0x00, 0x8c, 0x00, 0x00, 0x00, 0x6c, 0x00, 0x00, 0x00,
  0x04, 0x00, 0x00, 0x00, 0xea, 0xee, 0xff, 0xff, 0x04, 0x00, 0x00, 0x00,
  0x58, 0x00, 0x00, 0x00, 0x0c, 0x00, 0x00, 0x00, 0x08, 0x00, 0x0e, 0x00,
  0x08, 0x00, 0x04, 0x00, 0x08, 0x00, 0x00, 0x00, 0x10, 0x00, 0x00, 0x00,
  0x28, 0x00, 0x00, 0x00, 0x00, 0x00, 0x06, 0x00, 0x08, 0x00, 0x04, 0x00,
  0x06, 0x00, 0x00, 0x00, 0x04, 0x00, 0x00, 0x00, 0x01, 0x00, 0x00, 0x00,
  0xea, 0x03, 0x00, 0x00, 0x00, 0x00, 0x0a, 0x00, 0x10, 0x00, 0x0c, 0x00,
  0x08, 0x00, 0x04, 0x00, 0x0a, 0x00, 0x00, 0x00, 0x02, 0x00, 0x00, 0x00,
  0x02, 0x00, 0x00, 0x00, 0x04, 0x00, 0x00, 0x00, 0x06, 0x00, 0x00, 0x00,
  0x32, 0x2e, 0x31, 0x30, 0x2e, 0x30, 0x00, 0x00, 0x4e, 0xef, 0xff, 0xff,
  0x04, 0x00, 0x00, 0x00, 0x10, 0x00, 0x00, 0x00, 0x31, 0x2e, 0x31, 0x34,
  0x2e, 0x30, 0x00, 0x00, 0x00, 0x00, 0x00, 0x00, 0x00, 0x00, 0x00, 0x00,
  0x88, 0xe7, 0xff, 0xff, 0x8c, 0xe7, 0xff, 0xff, 0x90, 0xe7, 0xff, 0xff,
  0x94, 0xe7, 0xff, 0xff, 0x98, 0xe7, 0xff, 0xff, 0x9c, 0xe7, 0xff, 0xff,
  0xa0, 0xe7, 0xff, 0xff, 0x86, 0xef, 0xff, 0xff, 0x04, 0x00, 0x00, 0x00,
  0xc8, 0x00, 0x00, 0x00, 0x07, 0x47, 0x0c, 0x3f, 0x30, 0x03, 0xae, 0xbd,
  0x30, 0xcf, 0xcb, 0xbe, 0xa9, 0x12, 0xd6, 0xbe, 0x0a, 0xd6, 0xce, 0x3d,
  0x2e, 0x3e, 0x9e, 0xbe, 0x6a, 0x1b, 0xd7, 0xbe, 0x93, 0x55, 0x25, 0x3f,
  0x9b, 0x4f, 0x06, 0x3f, 0x65, 0xd0, 0x12, 0x3f, 0xa2, 0xab, 0xbc, 0x3e,
  0x61, 0x4b, 0xf6, 0x3e, 0x40, 0x9b, 0xc6, 0x3e, 0x2c, 0x2f, 0x6f, 0x3e,
  0xf9, 0x70, 0xbe, 0x3e, 0x7d, 0x2a, 0x42, 0x3e, 0x7e, 0x40, 0x11, 0x3e,
  0xa2, 0xeb, 0x87, 0x3e, 0x1a, 0xb9, 0x10, 0xbf, 0x77, 0x3f, 0x14, 0xbf,
  0x90, 0x1c, 0xc0, 0xbe, 0x1f, 0x40, 0xc8, 0x3e, 0x3c, 0x26, 0x12, 0x3d,
  0xeb, 0x96, 0xe7, 0x3e, 0x2f, 0x37, 0x95, 0x3e, 0x36, 0x9b, 0x23, 0xbf,
  0x71, 0xc4, 0xa8, 0x3e, 0x6d, 0xf6, 0x05, 0x3f, 0x45, 0xe7, 0xa1, 0x3e,
  0x17, 0x0e, 0x25, 0x3d, 0xd1, 0x6f, 0xfd, 0xbe, 0x75, 0x99, 0xd4, 0xbe,
  0x38, 0xb6, 0x0f, 0x3d, 0x81, 0x3c, 0xc2, 0xbe, 0x2b, 0xef, 0xc2, 0x3e,
  0x65, 0xa1, 0x14, 0x3f, 0x9d, 0xc0, 0xeb, 0xbe, 0xf1, 0x4d, 0xc1, 0x3d,
  0x31, 0x10, 0xcf, 0x3e, 0x50, 0x3a, 0x57, 0x3e, 0xa6, 0xb8, 0x18, 0x3f,
  0xe0, 0x93, 0xc6, 0xbd, 0x09, 0xaa, 0x19, 0x3f, 0x28, 0x97, 0x4d, 0x3e,
  0x87, 0xca, 0x8f, 0xbe, 0x72, 0x3c, 0xf2, 0xbe, 0x33, 0xa3, 0xb8, 0x3e,
  0x15, 0x75, 0xac, 0xbe, 0x69, 0x62, 0x7e, 0xbe, 0x4c, 0xda, 0x13, 0x3e,
  0x5a, 0xf0, 0xff, 0xff, 0x04, 0x00, 0x00, 0x00, 0x20, 0x03, 0x00, 0x00,
  0x9a, 0x16, 0xa7, 0xbc, 0x7e, 0xf7, 0xa2, 0xbe, 0xe0, 0x2b, 0x11, 0xbe,
  0xf2, 0x9f, 0xc0, 0xbe, 0x8b, 0x0f, 0x68, 0x3e, 0xd2, 0x15, 0xe9, 0x3c,
  0x80, 0x7d, 0x8c, 0x3e, 0x33, 0xb6, 0x99, 0x3e, 0xa2, 0xd1, 0xfb, 0xbd,
  0x98, 0x05, 0xda, 0xbe, 0x6c, 0x66, 0x27, 0x3e, 0xac, 0x35, 0x12, 0x3d,
  0xe2, 0x8f, 0xa5, 0x3e, 0x76, 0xf7, 0x37, 0xbe, 0xd0, 0x6f, 0xe7, 0xbe,
  0xbf, 0xea, 0xaa, 0x3c, 0x6a, 0x56, 0xe5, 0xbe, 0xc7, 0x24, 0x83, 0x3e,
  0xa8, 0x0d, 0x08, 0x3e, 0x3f, 0x82, 0x36, 0xbe, 0xfa, 0x86, 0xba, 0x3d,
  0xc3, 0x38, 0x7a, 0xbc, 0xa8, 0x9b, 0xac, 0x3e, 0x72, 0xbd, 0x56, 0x3d,
  0xfe, 0x76, 0xe6, 0xbe, 0x77, 0x46, 0xca, 0x3d, 0xed, 0x5b, 0xd5, 0xbe,
  0xa8, 0x39, 0x36, 0xbd, 0xf0, 0x53, 0xca, 0x3e, 0x48, 0x54, 0x58, 0xbe,
  0x14, 0x35, 0xca, 0x3e, 0xda, 0x7b, 0x24, 0x3e, 0xe8, 0xc9, 0xef, 0xbe,
  0x81, 0x1b, 0xd5, 0x3d, 0x80, 0xf9, 0xf1, 0xbe, 0x5e, 0x6c, 0x64, 0x3e,
  0x2c, 0x1a, 0x87, 0x3d, 0x6e, 0xef, 0x95, 0x3d, 0x54, 0xfd, 0x09, 0xbd,
  0xaf, 0x0f, 0xbd, 0x3e, 0xa1, 0xfc, 0xa3, 0xbe, 0x15, 0xe2, 0x49, 0x3e,
  0x0d, 0x83, 0xdf, 0x3d, 0xbe, 0x66, 0xcb, 0x3d, 0x35, 0x6e, 0xd6, 0x3c,
  0x57, 0xde, 0x03, 0x3e, 0x41, 0xa8, 0x61, 0x3e, 0xdc, 0x1a, 0xff, 0x3d,
  0x32, 0x1b, 0x9e, 0x3d, 0x06, 0xbe, 0xd1, 0xbe, 0xe3, 0x4e, 0x04, 0x3e,
  0xe9, 0x38, 0xd5, 0x3e, 0x51, 0x35, 0x71, 0xbc, 0x19, 0xf8, 0x79, 0xbe,
  0xc1, 0xb8, 0x25, 0x3d, 0x91, 0x0f, 0x9b, 0xbe, 0x25, 0x7d, 0xc6, 0x3e,
  0xe4, 0x98, 0xd2, 0xbe, 0xf5, 0xe9, 0xdd, 0x3e, 0xe8, 0xec, 0xbc, 0xbe,
  0x91, 0xb2, 0xd4, 0xbe, 0xc5, 0x19, 0xcc, 0xbe, 0x76, 0xf7, 0xc9, 0xbd,
  0x22, 0x0c, 0x81, 0x3e, 0xc0, 0x51, 0x1a, 0xbd, 0xad, 0x9b, 0xd1, 0x3e,
  0x68, 0x5b, 0xb6, 0x3e, 0x57, 0xb2, 0x2e, 0xbe, 0x50, 0x41, 0xc7, 0x3e,
  0x45, 0x04, 0xdb, 0xbe, 0xbb, 0xc5, 0xf1, 0xbe, 0x11, 0x71, 0xa0, 0x3e,
  0x0d, 0x3e, 0x88, 0xbd, 0x50, 0x47, 0x41, 0x3e, 0x6c, 0x80, 0xc1, 0xbe,
  0xf7, 0x5b, 0xf5, 0xbe, 0xe3, 0x96, 0x31, 0xbe, 0xc3, 0x21, 0x93, 0x3c,
  0x88, 0xb3, 0xa7, 0xbd, 0x48, 0xfb, 0x87, 0x3e, 0xba, 0x26, 0xb3, 0xbe,
  0x61, 0x78, 0xb3, 0xbd, 0xc9, 0x81, 0x31, 0x3e, 0x32, 0xe0, 0x63, 0x3e,
  0x22, 0x8b, 0xcd, 0x3e, 0xec, 0x46, 0x3c, 0xbe, 0x48, 0x28, 0xc7, 0x3e,
  0xd3, 0x23, 0xc5, 0x3e, 0xd1, 0x06, 0x2f, 0x3d, 0x41, 0x39, 0xb7, 0xbe,
  0xa4, 0x2e, 0x3e, 0xbe, 0xb8, 0x40, 0xd4, 0x3e, 0xd5, 0xce, 0x6c, 0xbd,
  0xb7, 0xcd, 0xb9, 0x3b, 0x03, 0xc5, 0xa4, 0xbe, 0x7f, 0x9f, 0x38, 0xbe,
  0x93, 0xc8, 0x01, 0x3e, 0xf2, 0xfd, 0xee, 0x3d, 0xaf, 0x8b, 0xc3, 0x3e,
  0x53, 0xa6, 0xbd, 0x3e, 0x97, 0x2d, 0x3d, 0xbc, 0xf9, 0x11, 0x9d, 0x3e,
  0x00, 0x43, 0x75, 0x3e, 0xe3, 0x45, 0xd9, 0x3d, 0x49, 0xfc, 0xf6, 0x3e,
  0x61, 0x3c, 0x6f, 0x3d, 0xcc, 0x3a, 0x6a, 0xbe, 0x65, 0x0d, 0x9a, 0x3e,
  0x4c, 0xf0, 0xbe, 0x3e, 0xd7, 0xa7, 0xe0, 0xbc, 0x35, 0x7f, 0xc7, 0x3e,
  0x95, 0x8e, 0xed, 0x3e, 0xca, 0xc4, 0x9b, 0x3e, 0xc9, 0x87, 0xb1, 0xbe,
  0xa5, 0xb6, 0xfe, 0x3e, 0xcc, 0x9d, 0x1d, 0xbe, 0xd7, 0xd2, 0xc9, 0x3e,
  0xb5, 0x5e, 0x94, 0x3e, 0xa5, 0x7d, 0xb4, 0x3b, 0x81, 0x83, 0xc3, 0xbe,
  0xe6, 0x2c, 0x96, 0xbe, 0x63, 0x88, 0x10, 0x3e, 0x3f, 0x07, 0x24, 0x3e,
  0x30, 0x41, 0x98, 0x3e, 0x0e, 0x47, 0xae, 0xbe, 0x5f, 0x38, 0x3b, 0xbe,
  0x5c, 0x2f, 0x28, 0x3d, 0xaf, 0x96, 0xb5, 0x3e, 0x1c, 0x59, 0x42, 0xbd,
  0x6d, 0xa5, 0x33, 0xbd, 0x2a, 0x16, 0xa6, 0x3e, 0x31, 0x84, 0xd8, 0x3d,
  0x20, 0xe6, 0x9b, 0x3e, 0xb9, 0x5e, 0x19, 0xbd, 0xba, 0x54, 0xb1, 0x3e,
  0x9d, 0x4a, 0x3d, 0x3d, 0x62, 0x8b, 0xb8, 0xbe, 0xe7, 0x2d, 0xb1, 0xbe,
  0x24, 0x5f, 0x9e, 0x3e, 0x60, 0x90, 0x40, 0x3e, 0x56, 0x15, 0x2d, 0x3e,
  0x04, 0xd2, 0x6f, 0x3d, 0x78, 0xf2, 0x3f, 0x3e, 0x4d, 0x95, 0xbb, 0xbe,
  0x4f, 0x44, 0x24, 0xbe, 0xe4, 0xb0, 0x01, 0x3e, 0x11, 0xd7, 0xe7, 0x3d,
  0x4b, 0x20, 0xc0, 0xbe, 0xdb, 0xb9, 0xb7, 0xbc, 0x4e, 0xdc, 0xe1, 0x3d,
  0x75, 0x2f, 0xba, 0x3e, 0xff, 0x1e, 0x85, 0xbe, 0xd5, 0x0f, 0xe4, 0xbc,
  0xa1, 0x86, 0xa4, 0x3e, 0xc6, 0x14, 0xb1, 0x3e, 0x12, 0x60, 0x7e, 0xbe,
  0xd9, 0xc0, 0x0b, 0xbe, 0x4d, 0xa2, 0x07, 0xbd, 0xc4, 0x21, 0xdd, 0x3d,
  0xa1, 0xbc, 0xce, 0xbe, 0x9a, 0x4f, 0x6a, 0x3d, 0xad, 0x5d, 0xa5, 0x3c,
  0x3d, 0x31, 0xec, 0x3d, 0x63, 0x3b, 0x5e, 0x3e, 0x15, 0xfd, 0x98, 0xbe,
  0x27, 0x1f, 0x97, 0x3e, 0x17, 0x94, 0x02, 0x3e, 0x63, 0x50, 0xb3, 0x3e,
  0x14, 0x54, 0x0e, 0x3e, 0x3c, 0xc8, 0x57, 0x3e, 0x96, 0x41, 0x18, 0x3e,
  0xd6, 0xf9, 0x4d, 0x3e, 0x52, 0x9f, 0x76, 0x3d, 0x97, 0x6b, 0xeb, 0xbc,
  0xde, 0x07, 0xa2, 0xbe, 0x6c, 0x1d, 0xe5, 0xbd, 0x86, 0x4d, 0x9e, 0x3e,
  0xfe, 0xe6, 0x57, 0xbe, 0x9d, 0x30, 0xba, 0x3e, 0x4f, 0x75, 0x2e, 0x3e,
  0x4f, 0x46, 0xaa, 0xbe, 0x04, 0x6a, 0xb9, 0xbe, 0xee, 0x10, 0x98, 0xbe,
  0x79, 0xa7, 0xc9, 0x3e, 0x7d, 0x48, 0x36, 0x3e, 0x8b, 0xca, 0x40, 0xbe,
  0x97, 0x4f, 0x39, 0xbe, 0xe7, 0xa9, 0x21, 0xbd, 0xb8, 0x76, 0xd3, 0x3e,
  0x64, 0x0e, 0x84, 0xbe, 0x91, 0xe3, 0xcc, 0x3e, 0x6d, 0x62, 0xf9, 0x3c,
  0x37, 0xb2, 0x9c, 0x3e, 0x40, 0xa5, 0xa5, 0x3e, 0x24, 0x04, 0x09, 0x3e,
  0x83, 0xff, 0x2e, 0x3d, 0xe5, 0xb6, 0xe5, 0x3e, 0x7e, 0x56, 0xcf, 0x3e,
  0x0f, 0x57, 0x83, 0x3e, 0x8d, 0x84, 0x98, 0xbe, 0x86, 0xf3, 0xff, 0xff,
  0x04, 0x00, 0x00, 0x00, 0x00, 0x05, 0x00, 0x00, 0xe4, 0xc1, 0x9d, 0xbd,
  0xc8, 0xa6, 0x30, 0x3d, 0xa2, 0x72, 0x38, 0x3e, 0x3e, 0x04, 0x08, 0xbe,
  0x0c, 0xa3, 0xaf, 0x3e, 0x00, 0x3e, 0x2c, 0x3b, 0x50, 0xde, 0xd5, 0x3e,
  0x7c, 0x61, 0x90, 0x3e, 0x86, 0xb0, 0x7c, 0xbe, 0xaa, 0x4d, 0x10, 0x3e,
  0x90, 0x4e, 0x8e, 0xbe, 0x02, 0x4f, 0xc3, 0x3d, 0x62, 0xb8, 0x2a, 0x3e,
  0x08, 0x90, 0x46, 0xbd, 0x48, 0x0a, 0x43, 0xbe, 0x42, 0x3d, 0x6c, 0x3e,
  0xb1, 0xa9, 0x99, 0x3e, 0xf8, 0x38, 0xc1, 0x3e, 0xb1, 0x4d, 0x88, 0xbe,
  0x49, 0xa9, 0x46, 0x3e, 0x5a, 0xd1, 0x63, 0x3d, 0x72, 0x76, 0xad, 0xbe,
  0x1f, 0x90, 0xd8, 0xbd, 0x8d, 0xfd, 0x2d, 0xbd, 0x89, 0x5f, 0x8e, 0xbd,
  0x5d, 0xd5, 0xba, 0x3d, 0x70, 0xec, 0x9f, 0x3e, 0xa8, 0x91, 0x24, 0xbe,
  0x29, 0x83, 0x8a, 0x3e, 0x08, 0x6d, 0x0a, 0x3e, 0xd2, 0x15, 0x4b, 0xbe,
  0xe3, 0x35, 0xc1, 0x3d, 0x8d, 0x35, 0x99, 0x3e, 0x3c, 0x20, 0xfb, 0xbd,
  0xd9, 0xc4, 0xd0, 0x3d, 0xdd, 0x74, 0x88, 0x3d, 0x1d, 0xd5, 0xc6, 0x3e,
  0x98, 0xec, 0x5d, 0x3e, 0x87, 0xd1, 0x9a, 0xbd, 0x4c, 0xfb, 0xc8, 0xbe,
  0xf1, 0x10, 0x8d, 0xbe, 0x66, 0x29, 0x5f, 0x3e, 0x9e, 0xae, 0x83, 0x3e,
  0x6d, 0x5b, 0xd9, 0xbe, 0x4e, 0xa7, 0x34, 0xbe, 0xe0, 0xbf, 0x82, 0x3d,
  0xee, 0x58, 0xa4, 0xbc, 0x5d, 0x22, 0x33, 0x3c, 0x41, 0xac, 0xc8, 0xbe,
  0x34, 0x9c, 0xda, 0xbd, 0xea, 0xe2, 0x1c, 0xbe, 0x69, 0x4d, 0x27, 0xbd,
  0xcf, 0x6f, 0x30, 0x3d, 0xb8, 0x9f, 0x3f, 0xbd, 0x43, 0xe3, 0xad, 0xbe,
  0x35, 0x8f, 0x2b, 0xbd, 0x96, 0xf0, 0x07, 0x3e, 0x71, 0x25, 0xc3, 0x3e,
  0x8c, 0xc0, 0x21, 0xbe, 0x36, 0xd3, 0xb3, 0xbc, 0xfb, 0x71, 0x88, 0x3e,
  0x74, 0xe7, 0x07, 0x3e, 0x11, 0x99, 0x01, 0xbd, 0x0a, 0x5a, 0x20, 0xbe,
  0xc5, 0x52, 0x96, 0xbe, 0x48, 0x2d, 0xc2, 0x3d, 0x0c, 0x1b, 0x9d, 0x3e,
  0x67, 0x84, 0x5b, 0x3e, 0xd1, 0xf6, 0x4e, 0xbd, 0x38, 0xec, 0xaa, 0x3e,
  0xe3, 0x98, 0x79, 0x3e, 0xb9, 0x16, 0x26, 0x3e, 0x15, 0xc6, 0xef, 0xbd,
  0x23, 0xb1, 0xa3, 0xbd, 0xec, 0x60, 0x03, 0xbe, 0x25, 0xfa, 0xec, 0x3d,
  0x81, 0x7f, 0x4e, 0xbe, 0x98, 0x02, 0xa4, 0x3e, 0x82, 0x93, 0x81, 0xbe,
  0x1a, 0xa6, 0x26, 0x3d, 0xa0, 0x86, 0x07, 0xbe, 0x98, 0xaa, 0x7e, 0xbd,
  0x82, 0x09, 0x25, 0x3e, 0x12, 0x5e, 0xbc, 0x3e, 0xc8, 0x2a, 0xa0, 0x3a,
  0x80, 0x75, 0xa0, 0x3e, 0xba, 0x79, 0xab, 0x3e, 0xed, 0x10, 0xdd, 0xbe,
  0x4b, 0xa6, 0xe1, 0xbe, 0xb5, 0x3c, 0xb2, 0xbd, 0x48, 0xc3, 0x84, 0x3e,
  0x26, 0x37, 0x88, 0xbe, 0x71, 0xec, 0xe3, 0xbe, 0xf6, 0x8d, 0x82, 0x3e,
  0x48, 0xda, 0x8b, 0x3e, 0x9e, 0xcd, 0xc8, 0xbe, 0x01, 0x63, 0xcb, 0xbe,
  0x38, 0xbc, 0x81, 0x3d, 0x94, 0x77, 0xf5, 0x3d, 0xad, 0x56, 0xc9, 0x3d,
  0x27, 0x4e, 0x81, 0xbe, 0x36, 0x20, 0x93, 0xbe, 0xc6, 0x8b, 0x6d, 0xbc,
  0x37, 0xd1, 0x36, 0x3e, 0xe6, 0xa0, 0x65, 0xbe, 0x65, 0x79, 0xe3, 0x3d,
  0xd6, 0xbd, 0x7f, 0xbe, 0x3d, 0x1f, 0x2f, 0x3e, 0xb1, 0xd7, 0x97, 0xbe,
  0x78, 0xb7, 0x05, 0x3e, 0x31, 0x0e, 0xbe, 0xbe, 0x3b, 0x24, 0x56, 0x3d,
  0x76, 0x47, 0x0d, 0xbe, 0xa0, 0xaa, 0x20, 0x3c, 0xd8, 0x1f, 0x44, 0x3e,
  0x9f, 0xfc, 0xb2, 0x3e, 0x54, 0x00, 0x30, 0x3c, 0xb8, 0x8f, 0x5b, 0x3d,
  0xfe, 0x79, 0x4a, 0xbe, 0xdf, 0x11, 0x5c, 0xbe, 0x24, 0x31, 0x0a, 0x3e,
  0xf6, 0xb6, 0x17, 0x3e, 0xb4, 0xdf, 0xbc, 0x3e, 0xab, 0x16, 0x20, 0x3d,
  0xbf, 0xf3, 0xc7, 0x3e, 0x00, 0xb6, 0x24, 0x3e, 0x8e, 0x35, 0x67, 0x3d,
  0x71, 0xb7, 0xf7, 0x3d, 0x72, 0xa7, 0xad, 0x3e, 0x6e, 0xdb, 0xbd, 0xbe,
  0x40, 0x44, 0xb7, 0xbc, 0xef, 0x09, 0xc6, 0xbe, 0x6a, 0xf9, 0xb7, 0xbe,
  0xfd, 0x3f, 0x53, 0xbe, 0x50, 0xfb, 0xd5, 0xbc, 0xa7, 0x95, 0xcf, 0xbe,
  0x00, 0xb2, 0xb1, 0x3e, 0x17, 0xcd, 0x82, 0xba, 0x50, 0x6c, 0xf1, 0x3d,
  0xa8, 0x05, 0x04, 0xbe, 0xa0, 0x60, 0xdc, 0xbe, 0xca, 0xac, 0x01, 0xbe,
  0x1f, 0xec, 0x95, 0xbd, 0x5e, 0xd4, 0x40, 0xbe, 0x34, 0x02, 0x98, 0x3e,
  0x48, 0x73, 0xc9, 0x3e, 0xc0, 0xed, 0xb4, 0xbe, 0x5f, 0x49, 0x1e, 0x3e,
  0x58, 0x8c, 0x81, 0x3e, 0x6e, 0x49, 0xaf, 0x3e, 0x7d, 0x73, 0xb2, 0x3d,
  0xdc, 0x26, 0xb6, 0xbd, 0x00, 0x85, 0xc4, 0x3e, 0xf1, 0x86, 0xe4, 0xbd,
  0x5a, 0xf5, 0xca, 0xbe, 0x36, 0x9f, 0xa3, 0xbe, 0x15, 0xd9, 0xcc, 0x3d,
  0x78, 0x9c, 0xcb, 0xbe, 0xf2, 0x7e, 0xa7, 0xbe, 0x5b, 0x9a, 0x71, 0xbd,
  0xdb, 0xbd, 0x34, 0x3e, 0x5c, 0xde, 0x84, 0x3e, 0x75, 0xe3, 0x6d, 0xbe,
  0x83, 0xf0, 0x6b, 0x3e, 0x71, 0x90, 0x31, 0xbe, 0x0a, 0x23, 0x0f, 0xbe,
  0xd3, 0x91, 0x16, 0x3e, 0x11, 0x5c, 0x48, 0xbe, 0x16, 0xa6, 0xaf, 0xbd,
  0x28, 0x97, 0x7b, 0xbd, 0x34, 0x1f, 0xb7, 0xbe, 0x4a, 0x3b, 0x49, 0xbe,
  0x5f, 0x64, 0xb6, 0x3e, 0x2d, 0xe6, 0x49, 0xbe, 0x2e, 0x43, 0xca, 0x3d,
  0x77, 0xf5, 0xc5, 0xbe, 0x57, 0xf5, 0xac, 0x3e, 0x06, 0x34, 0xc0, 0xbe,
  0x1d, 0x16, 0x58, 0xbd, 0xef, 0x17, 0x8b, 0x3e, 0x87, 0xbd, 0x62, 0xbe,
  0xa0, 0x8d, 0x98, 0x3c, 0xb3, 0x22, 0x86, 0xbe, 0x5f, 0x26, 0x8b, 0x3e,
  0xf1, 0x43, 0xe1, 0x3d, 0x82, 0xe5, 0xb9, 0xbc, 0x12, 0x5c, 0x80, 0xbe,
  0xf2, 0x91, 0x36, 0x3e, 0x18, 0x10, 0xc3, 0x3b, 0x40, 0x5e, 0xf8, 0xbb,
  0x72, 0x9f, 0xbc, 0xbc, 0xaf, 0x91, 0x2e, 0xbe, 0x07, 0x79, 0x2f, 0x3c,
  0x60, 0x93, 0x59, 0xbc, 0xa1, 0xfa, 0xc1, 0xbe, 0x64, 0x99, 0x18, 0x3e,
  0x9f, 0xa4, 0x83, 0x3e, 0xc8, 0x87, 0xc0, 0x3d, 0xef, 0x11, 0xa7, 0x3e,
  0x07, 0xe5, 0x7f, 0x3e, 0x2f, 0xc1, 0xbb, 0xbe, 0x69, 0xad, 0xdb, 0x3e,
  0x38, 0xe8, 0xc5, 0x3d, 0xbc, 0x55, 0x6b, 0xbe, 0x4e, 0xd4, 0x02, 0x3d,
  0xe4, 0xc1, 0xef, 0xbd, 0xad, 0x0d, 0x99, 0x3e, 0x0f, 0x72, 0xc1, 0xbe,
  0xdb, 0x5a, 0x9d, 0x3e, 0x00, 0x20, 0x22, 0x3a, 0xdb, 0x8c, 0x5b, 0x3e,
  0x96, 0xed, 0xf8, 0x3d, 0xb5, 0x7b, 0xdf, 0xbe, 0x74, 0xbe, 0x9d, 0x3e,
  0x07, 0xea, 0x86, 0xbe, 0xe3, 0x37, 0x98, 0xbe, 0x87, 0x52, 0xa2, 0xbe,
  0xa8, 0x52, 0x0b, 0xbc, 0x38, 0x5c, 0x1a, 0xbe, 0x29, 0xb7, 0xc7, 0x3d,
  0x5a, 0x03, 0x13, 0x3a, 0xa0, 0xeb, 0x3d, 0xbd, 0x24, 0x96, 0x02, 0xbd,
  0x60, 0x33, 0xf8, 0x3d, 0xf7, 0x7b, 0x31, 0x3e, 0x18, 0x70, 0xb3, 0x3d,
  0x3a, 0x3d, 0xcb, 0x3e, 0x2b, 0x6f, 0x95, 0xbe, 0x36, 0xec, 0xaf, 0xbe,
  0x10, 0xd9, 0x44, 0x3d, 0xae, 0x08, 0x97, 0xbe, 0x42, 0x48, 0x7f, 0x3e,
  0xa9, 0xf0, 0x7a, 0xbe, 0x34, 0xb4, 0x74, 0xbd, 0x12, 0xb7, 0xa6, 0xbe,
  0x32, 0xd5, 0x11, 0x3e, 0x0f, 0xa6, 0xac, 0x3d, 0x12, 0x67, 0x20, 0xbe,
  0x8d, 0x9e, 0xe4, 0x3d, 0x17, 0xee, 0x73, 0x3e, 0xb2, 0x3b, 0xa8, 0xbe,
  0x70, 0xd6, 0xcc, 0x3e, 0x3f, 0x7f, 0x3c, 0xbe, 0x90, 0xbe, 0xad, 0x3e,
  0x1f, 0x27, 0xaf, 0x3d, 0x58, 0x5c, 0xd5, 0x3d, 0xde, 0x5c, 0xcb, 0xbe,
  0x99, 0x2a, 0xf3, 0xbd, 0x98, 0xb4, 0x47, 0xbe, 0x18, 0xf5, 0x65, 0xbc,
  0x50, 0x88, 0x97, 0x3d, 0x71, 0x6b, 0x9d, 0x3e, 0xbc, 0x47, 0x9f, 0xbe,
  0x3e, 0x8d, 0xc8, 0x3e, 0xab, 0xa1, 0x1e, 0x3e, 0x76, 0x68, 0x81, 0xbd,
  0xa1, 0x00, 0x18, 0xbe, 0x50, 0xf8, 0xe1, 0x3d, 0x95, 0x5b, 0xce, 0x3e,
  0xfd, 0xec, 0x03, 0xbe, 0x67, 0xf7, 0xab, 0xbe, 0x1b, 0x03, 0x5e, 0xbe,
  0x53, 0x1d, 0x42, 0xbe, 0x0e, 0xfa, 0x98, 0xbe, 0xec, 0xa7, 0xa7, 0x3d,
  0xc9, 0xa0, 0xb3, 0x3e, 0x74, 0x32, 0x61, 0xbe, 0xcc, 0xd3, 0x9d, 0xbe,
  0x94, 0x2c, 0xdc, 0xbc, 0x00, 0xc2, 0xd4, 0x3d, 0x9f, 0x9a, 0xa6, 0xbe,
  0x15, 0x73, 0x09, 0xbe, 0xdc, 0x34, 0x6b, 0x3d, 0x00, 0xaa, 0x91, 0x3c,
  0xa6, 0x75, 0xbd, 0xbe, 0x2c, 0x88, 0x18, 0x3e, 0x4e, 0x3c, 0x64, 0xbd,
  0x80, 0x63, 0xd6, 0x3c, 0x7f, 0xe7, 0x62, 0xbb, 0x67, 0x9e, 0xb4, 0x3d,
  0x83, 0x23, 0x7b, 0xbe, 0xcb, 0xcd, 0x55, 0xbe, 0xec, 0x9e, 0xc6, 0xbd,
  0xdd, 0x4b, 0x44, 0x3e, 0xa6, 0x07, 0x60, 0xbc, 0xd4, 0x83, 0x88, 0x3e,
  0xbe, 0x86, 0x3b, 0x3c, 0x53, 0x61, 0xa7, 0x3c, 0xb6, 0xd2, 0xb4, 0x3e,
  0x56, 0xb7, 0x94, 0xbe, 0x4d, 0x2a, 0xc5, 0xbd, 0xeb, 0x58, 0xc3, 0x3d,
  0x8f, 0xe6, 0x3d, 0xbd, 0x78, 0x6f, 0xbd, 0x3e, 0xeb, 0xba, 0x35, 0x3d,
  0x7d, 0x9d, 0x36, 0x3e, 0x11, 0x33, 0xa9, 0xbd, 0x4f, 0xe5, 0x33, 0xbd,
  0x50, 0x5c, 0x8a, 0xbe, 0xf0, 0x6d, 0xc3, 0x3e, 0x75, 0xf3, 0x4a, 0xbd,
  0x0c, 0x96, 0x2a, 0x3e, 0x1c, 0x0a, 0xbe, 0xbe, 0x98, 0x61, 0xd3, 0x3e,
  0x11, 0xaf, 0xaf, 0x3c, 0xf9, 0x0c, 0xc9, 0xbe, 0x89, 0x2c, 0x5e, 0x3e,
  0xe9, 0x7a, 0x53, 0x3e, 0x0e, 0x67, 0x9d, 0xbe, 0xa4, 0x94, 0x98, 0xbd,
  0xfa, 0x57, 0x35, 0xbd, 0x33, 0x92, 0x1c, 0x3e, 0xc1, 0x5e, 0x44, 0xbe,
  0x8f, 0x6b, 0x32, 0xbe, 0xb0, 0xc6, 0x60, 0xbd, 0x33, 0xea, 0xc2, 0xbd,
  0xcf, 0xc7, 0x2e, 0xbe, 0x78, 0x7d, 0x61, 0xbe, 0x1e, 0x37, 0x8d, 0xbe,
  0xe4, 0x8a, 0xa8, 0x3e, 0x92, 0xf8, 0xff, 0xff, 0x04, 0x00, 0x00, 0x00,
  0xc0, 0x06, 0x00, 0x00, 0xf0, 0x4e, 0x78, 0x3e, 0x3c, 0xd7, 0x48, 0x3e,
  0xb4, 0x13, 0xb8, 0xbd, 0x38, 0x53, 0x75, 0x3e, 0x00, 0xcd, 0x91, 0xbe,
  0xd4, 0x15, 0x9e, 0x3e, 0xdf, 0x0a, 0x91, 0xbe, 0x15, 0x4d, 0x0d, 0xbe,
  0xa4, 0xf8, 0xe8, 0xbd, 0x3f, 0xd1, 0x99, 0xbe, 0x14, 0x02, 0xdf, 0x3d,
  0x70, 0x2c, 0xa4, 0x3e, 0x08, 0x3a, 0x02, 0x3e, 0x3d, 0xf1, 0x04, 0xbe,
  0x2a, 0x89, 0x43, 0xbe, 0xcc, 0xbd, 0x71, 0xbe, 0x1c, 0x20, 0x2e, 0x3e,
  0xa4, 0x3a, 0x69, 0x3e, 0x1f, 0x63, 0x83, 0xbe, 0xca, 0x02, 0xbc, 0x3e,
  0xa4, 0x0f, 0xa6, 0x3e, 0x14, 0xe9, 0x4f, 0x3e, 0x6a, 0x69, 0xbb, 0xbe,
  0xd3, 0xf2, 0x64, 0xbe, 0x55, 0x63, 0x75, 0xbe, 0xf0, 0x34, 0x04, 0xbd,
  0xd8, 0x01, 0x9e, 0x3e, 0xa6, 0x20, 0x86, 0xbe, 0x1a, 0xdc, 0x99, 0x3e,
  0x32, 0x41, 0x06, 0xbe, 0x94, 0xe6, 0x47, 0x3e, 0xa2, 0x57, 0xa4, 0x3e,
  0xb0, 0x23, 0x05, 0x3e, 0x26, 0x1f, 0x87, 0x3e, 0x55, 0xa6, 0x2e, 0xbe,
  0x8e, 0x1d, 0x1c, 0xbe, 0x26, 0x2c, 0x8e, 0xbe, 0x1d, 0x83, 0x48, 0xbe,
  0x08, 0x46, 0x61, 0x3e, 0x53, 0x85, 0x9f, 0xbe, 0x50, 0xe7, 0x13, 0xbd,
  0x90, 0x6f, 0xdb, 0x3c, 0xb0, 0x9e, 0x9e, 0x3e, 0x8c, 0xdb, 0x58, 0xbe,
  0x30, 0xb9, 0xb1, 0x3e, 0xf4, 0x55, 0x42, 0x3e, 0xc8, 0xbb, 0xab, 0xbe,
  0x84, 0xfe, 0xb8, 0x3d, 0x73, 0x33, 0x09, 0xbe, 0x04, 0x87, 0xd2, 0xbd,
  0xbd, 0x46, 0xa2, 0xbe, 0xb4, 0xad, 0x8d, 0xbe, 0xd0, 0xd1, 0xdf, 0x3d,
  0x80, 0x26, 0x14, 0xbb, 0x04, 0x2b, 0x56, 0x3e, 0xb6, 0x22, 0x9e, 0x3e,
  0x0a, 0xca, 0x88, 0x3e, 0x70, 0x24, 0x40, 0x3e, 0x92, 0xe7, 0xb0, 0xbe,
  0xf4, 0x07, 0x5d, 0x3e, 0xf8, 0x20, 0xc3, 0xbd, 0xc5, 0xa9, 0x9d, 0xbe,
  0xcc, 0x8a, 0x56, 0x3e, 0xa0, 0x59, 0x34, 0xbc, 0xb0, 0x4d, 0xb1, 0x3c,
  0x88, 0xd3, 0xb1, 0x3d, 0xd8, 0xdc, 0x82, 0xbe, 0xc0, 0xd5, 0xb2, 0x3d,
  0x15, 0xa4, 0x99, 0xbe, 0xfe, 0x0c, 0x46, 0xbe, 0xc8, 0x02, 0x72, 0x3e,
  0x10, 0xa9, 0x68, 0xbd, 0xc4, 0x32, 0x4e, 0x3e, 0xe4, 0xac, 0x1f, 0x3e,
  0x48, 0x8a, 0xdf, 0xbd, 0x64, 0xd1, 0x3f, 0x3e, 0xd0, 0x8a, 0xad, 0xbe,
  0x3e, 0xf5, 0x84, 0xbe, 0x3c, 0x5b, 0xd0, 0xbd, 0x94, 0x6b, 0x08, 0x3e,
  0x9e, 0xe4, 0xaa, 0xbe, 0xa0, 0x22, 0xc4, 0x3d, 0x14, 0xc7, 0xac, 0x3d,
  0xb4, 0xe3, 0x20, 0x3e, 0x24, 0x10, 0x7f, 0x3e, 0x48, 0xa2, 0x5c, 0x3e,
  0x10, 0x8e, 0x42, 0xbd, 0x7a, 0xd1, 0x86, 0xbe, 0xf6, 0x62, 0xaf, 0x3e,
  0xc8, 0xa0, 0xa9, 0x3d, 0x08, 0x40, 0x7c, 0x3e, 0xb8, 0x60, 0x4a, 0xbd,
  0x1c, 0x66, 0x88, 0xbd, 0x74, 0x32, 0xf7, 0xbd, 0x04, 0xa4, 0x02, 0x3e,
  0xa8, 0xab, 0x7f, 0xbd, 0xe1, 0x96, 0x7d, 0xbe, 0xec, 0x3c, 0x53, 0x3e,
  0x5d, 0x26, 0xbb, 0xbe, 0xc0, 0xd1, 0xd0, 0xbb, 0xf4, 0xf0, 0x91, 0xbe,
  0x70, 0x26, 0x61, 0x3d, 0x2e, 0x41, 0xb4, 0x3e, 0x54, 0x2b, 0x53, 0x3e,
  0x20, 0x0e, 0x1f, 0x3d, 0x40, 0x5f, 0xf7, 0x3c, 0x34, 0x0b, 0x9a, 0x3e,
  0xea, 0x25, 0xaa, 0xbe, 0xa4, 0x9c, 0xc9, 0xbd, 0x1f, 0x95, 0x72, 0x3e,
  0x35, 0x4f, 0x00, 0x3d, 0xda, 0x56, 0x92, 0x3e, 0x04, 0xf5, 0xb1, 0x3d,
  0x41, 0xf0, 0x7c, 0xbe, 0x39, 0x8e, 0x84, 0x3e, 0x00, 0x14, 0x69, 0x3d,
  0xb0, 0x4c, 0x3c, 0x3e, 0x85, 0x64, 0xac, 0x3e, 0x40, 0x07, 0x59, 0x3e,
  0xbb, 0x40, 0xda, 0xbd, 0x73, 0x26, 0x32, 0xbe, 0x6a, 0xcc, 0x89, 0x3e,
  0x9c, 0xba, 0xb8, 0xbe, 0x2c, 0xc0, 0xae, 0x3d, 0x8f, 0x08, 0x95, 0x3e,
  0xd1, 0x63, 0xa2, 0x3d, 0xe7, 0xcb, 0xb5, 0x3e, 0x18, 0xfe, 0xe1, 0xbd,
  0x8c, 0x53, 0x7e, 0xbd, 0x5d, 0xf0, 0xd8, 0x3c, 0x85, 0x82, 0xbc, 0x3e,
  0xb4, 0xf6, 0x9b, 0xbe, 0xc3, 0xd7, 0xac, 0x3e, 0xb3, 0x1a, 0x7b, 0xbd,
  0xa2, 0xb0, 0xa2, 0x3d, 0xf4, 0x4c, 0x91, 0x3e, 0xc0, 0x54, 0x77, 0x3e,
  0x7c, 0xbc, 0xf5, 0xbd, 0x20, 0xa6, 0xa5, 0xbd, 0x47, 0xc1, 0x59, 0xbe,
  0x08, 0x09, 0xe9, 0x3d, 0xf4, 0x7b, 0xaf, 0x3e, 0xf8, 0x8d, 0xb4, 0xbd,
  0xa0, 0x65, 0x9e, 0xbe, 0xc8, 0x8d, 0x76, 0xbd, 0xfe, 0xa2, 0xa2, 0x3e,
  0xc2, 0xfc, 0x2e, 0xbe, 0x40, 0x13, 0x5c, 0xbd, 0x38, 0x75, 0x6d, 0x3e,
  0xd0, 0x3a, 0xa2, 0x3d, 0xa0, 0x26, 0x5a, 0x3e, 0x50, 0x7d, 0x07, 0x3d,
  0xa8, 0xf9, 0x90, 0x3e, 0x9c, 0x16, 0x98, 0xbe, 0xea, 0x16, 0xa0, 0xbe,
  0xec, 0xa1, 0x2e, 0x3e, 0x3f, 0x44, 0xad, 0xbe, 0x12, 0x1b, 0x96, 0x3e,
  0x78, 0xa7, 0x46, 0x3e, 0x1c, 0x88, 0x70, 0xbe, 0xd8, 0x21, 0xf8, 0x3d,
  0x00, 0x50, 0x48, 0xb9, 0x4c, 0xde, 0x4d, 0x3e, 0x83, 0xe2, 0xb3, 0xbe,
  0xd0, 0x7c, 0xc6, 0x3d, 0xa0, 0x98, 0x92, 0x3d, 0xe0, 0xee, 0x2d, 0x3e,
  0x7c, 0xab, 0x95, 0xbe, 0x08, 0xde, 0xa1, 0xbe, 0x4b, 0x9b, 0xb9, 0xbe,
  0x80, 0x4d, 0x9e, 0x3e, 0xef, 0xc6, 0xb4, 0xbe, 0x46, 0xdb, 0x37, 0xbe,
  0x24, 0x0a, 0x59, 0x3e, 0x24, 0x67, 0x69, 0x3e, 0x2c, 0x78, 0xb2, 0x3d,
  0x7a, 0xf0, 0xac, 0xbe, 0x0e, 0x1a, 0x9e, 0xbe, 0x30, 0x94, 0x93, 0xbc,
  0x10, 0x1c, 0x17, 0x3e, 0xce, 0xee, 0x85, 0xbe, 0x34, 0xef, 0x9e, 0x3e,
  0x51, 0x28, 0xb0, 0xbe, 0xa0, 0x12, 0xc8, 0x3d, 0xd0, 0xd8, 0xcb, 0x3c,
  0x60, 0x23, 0x50, 0xbc, 0x2c, 0x70, 0x38, 0x3e, 0x48, 0x8f, 0x3b, 0x3e,
  0x23, 0x73, 0xb7, 0xbe, 0xec, 0x4a, 0x47, 0xbe, 0x1a, 0x66, 0x09, 0x3e,
  0xf5, 0xe2, 0x4e, 0xbd, 0xd0, 0x58, 0x53, 0x3e, 0xb4, 0x24, 0x99, 0x3e,
  0x2a, 0xdc, 0x7f, 0xbe, 0x65, 0xa0, 0x7c, 0xbe, 0x4e, 0xfe, 0xb3, 0x3e,
  0x2c, 0x97, 0xc2, 0x3d, 0x44, 0xfe, 0x61, 0xb9, 0x57, 0x3f, 0x89, 0x3e,
  0x0d, 0xc0, 0x4d, 0x3d, 0x87, 0xe9, 0xc2, 0x3d, 0x3b, 0x13, 0x81, 0x3e,
  0xce, 0x34, 0x2c, 0xbe, 0x03, 0x9d, 0xb9, 0x3e, 0xb8, 0xff, 0xac, 0xbd,
  0x49, 0xef, 0xbe, 0xbc, 0xf1, 0x06, 0x8c, 0x3d, 0x6b, 0x24, 0x53, 0xbe,
  0xce, 0xcc, 0xaf, 0xbd, 0x4f, 0x3b, 0x8d, 0x3b, 0x14, 0x82, 0x76, 0x3e,
  0xdb, 0x92, 0x93, 0xbd, 0xcf, 0x03, 0x01, 0xbc, 0x3c, 0x13, 0x30, 0xbd,
  0xdc, 0xc7, 0x6b, 0x3e, 0x70, 0x79, 0x3f, 0xbd, 0x60, 0x06, 0x65, 0xbd,
  0x02, 0xc4, 0x93, 0xbe, 0x06, 0xe6, 0x9a, 0x3e, 0xf8, 0xff, 0xeb, 0x3d,
  0x48, 0x1d, 0xe6, 0xbd, 0xd4, 0x5f, 0x4a, 0x3e, 0x90, 0x3d, 0x62, 0x3d,
  0xb0, 0x8b, 0x61, 0x3d, 0xd0, 0xb0, 0x4f, 0xbd, 0x9e, 0xee, 0xb3, 0xbe,
  0x2e, 0x23, 0xaa, 0x3e, 0x80, 0x24, 0xca, 0xbb, 0xd8, 0x24, 0x87, 0xbe,
  0x9c, 0x37, 0xbd, 0xbd, 0x6c, 0x1c, 0x03, 0x3e, 0x76, 0x3e, 0x8c, 0x3e,
  0x90, 0xcc, 0xfb, 0xbd, 0xa3, 0x11, 0xa6, 0xbe, 0x7e, 0x61, 0x8c, 0x3e,
  0x08, 0x12, 0xf6, 0xbd, 0xb0, 0x5f, 0x5d, 0x3e, 0x07, 0x17, 0x6e, 0xbe,
  0xa0, 0xdc, 0xf3, 0xbd, 0x4c, 0xf6, 0x85, 0x3e, 0x00, 0x8c, 0x65, 0xbe,
  0xfb, 0xc3, 0x9c, 0xbe, 0xbc, 0x40, 0xfc, 0x3d, 0x60, 0xd0, 0x25, 0xbc,
  0x2c, 0x5a, 0x51, 0x3e, 0x26, 0x43, 0x1f, 0xbe, 0x00, 0x5c, 0x8b, 0x3e,
  0x50, 0xdc, 0xdc, 0xbd, 0x46, 0x5b, 0x84, 0xbe, 0xec, 0x7c, 0xbb, 0x3e,
  0xd6, 0xd7, 0xa2, 0x3e, 0x66, 0x60, 0xa8, 0x3e, 0x4a, 0x0f, 0x86, 0xbe,
  0x3c, 0x0c, 0x37, 0x3e, 0xfa, 0x3d, 0x65, 0xbe, 0x80, 0x45, 0x5f, 0x3d,
  0x18, 0xdd, 0x1f, 0x3e, 0x46, 0x2a, 0x87, 0xbe, 0x49, 0xe8, 0xbc, 0xbe,
  0x6c, 0x39, 0x96, 0x3e, 0x7c, 0xa7, 0xb0, 0x3d, 0x30, 0x4f, 0x85, 0x3d,
  0x70, 0xf7, 0xcb, 0xbd, 0x5e, 0xbd, 0x91, 0x3e, 0xd4, 0x6d, 0x8e, 0xbd,
  0xe0, 0xb7, 0x40, 0xbe, 0xd8, 0xf1, 0x09, 0x3e, 0x20, 0x6b, 0xac, 0x3e,
  0xfc, 0xe8, 0xbe, 0xbe, 0x60, 0x36, 0x19, 0x3d, 0xf9, 0x42, 0x81, 0xbe,
  0x94, 0xcc, 0x2c, 0x3e, 0xc4, 0x60, 0x93, 0x3e, 0x00, 0x1d, 0x8f, 0xbc,
  0x11, 0xde, 0x09, 0xbe, 0x4e, 0xdd, 0x9d, 0xbe, 0x78, 0x9b, 0x83, 0xbe,
  0x22, 0x2c, 0xb2, 0xbe, 0xb0, 0x4e, 0xef, 0xbc, 0xcc, 0x77, 0x8f, 0x3d,
  0x06, 0xfe, 0xa3, 0x3e, 0x76, 0x98, 0xb2, 0xbe, 0xad, 0xac, 0xbd, 0xbe,
  0xd8, 0xcb, 0x07, 0x3e, 0x58, 0x4c, 0x51, 0xbd, 0x70, 0x3e, 0xf3, 0xbd,
  0xfc, 0xa9, 0xb4, 0xbd, 0x90, 0xec, 0x02, 0x3e, 0x24, 0x36, 0x9e, 0xbe,
  0x18, 0x43, 0x20, 0x3e, 0xec, 0xb7, 0xe3, 0xbd, 0x10, 0x07, 0x93, 0xbd,
  0x6c, 0x88, 0x9a, 0x3d, 0x27, 0xd7, 0xaf, 0xbe, 0x36, 0x6f, 0xba, 0x3e,
  0x14, 0xec, 0xf5, 0xbd, 0x82, 0xa9, 0x94, 0x3e, 0x10, 0x0f, 0x06, 0xbe,
  0xd4, 0x8a, 0x7f, 0xbe, 0x4f, 0x97, 0xa2, 0x3e, 0x94, 0x75, 0x32, 0x3e,
  0xe4, 0x31, 0x59, 0xbe, 0x32, 0x81, 0x53, 0x3d, 0x7a, 0xbe, 0x9b, 0xbe,
  0x56, 0x08, 0x8e, 0xbe, 0x67, 0x6b, 0x1d, 0x3e, 0x51, 0xdf, 0x8c, 0xbe,
  0xd7, 0xba, 0x56, 0xbd, 0x82, 0x2d, 0x3e, 0xbe, 0x2b, 0x2a, 0xde, 0xbd,
  0x34, 0x06, 0xab, 0x3e, 0xad, 0x0f, 0x87, 0xbe, 0x28, 0x7a, 0xe0, 0xbd,
  0x30, 0x13, 0x46, 0xbb, 0xe4, 0x7c, 0x8f, 0xbe, 0xfd, 0x2e, 0x61, 0x3e,
  0x95, 0x7f, 0xda, 0xbd, 0xe0, 0x54, 0x94, 0x3c, 0x17, 0xfa, 0xa0, 0x3e,
  0xeb, 0xaa, 0x86, 0x3e, 0xd3, 0x98, 0x5f, 0x3e, 0x77, 0x97, 0x24, 0x3e,
  0x25, 0x29, 0x3e, 0xbe, 0xea, 0xad, 0x8f, 0xbe, 0x94, 0x52, 0x5a, 0x3e,
  0x10, 0xbe, 0xcf, 0x3d, 0x1d, 0xb0, 0x4a, 0xbe, 0x24, 0x19, 0xd9, 0x3d,
  0x90, 0x5c, 0xa4, 0xbd, 0x78, 0xe9, 0x36, 0x3d, 0x44, 0xa4, 0x93, 0x3d,
  0x2e, 0xe3, 0x94, 0x3e, 0x8c, 0x69, 0x5f, 0x3e, 0x00, 0x46, 0x9b, 0x3e,
  0x50, 0x98, 0x03, 0xbd, 0xe4, 0xd3, 0xaa, 0xbe, 0x12, 0x50, 0x97, 0x3e,
  0x70, 0xa8, 0x77, 0xbd, 0x2c, 0xbb, 0xca, 0xbd, 0x1e, 0x97, 0x88, 0x3e,
  0x40, 0x20, 0xb4, 0xbe, 0xc2, 0x3b, 0x49, 0xbe, 0xed, 0xfc, 0x71, 0xbe,
  0x0e, 0xb4, 0xa8, 0x3e, 0xe0, 0xa9, 0x67, 0x3e, 0x98, 0xd8, 0x4f, 0x3e,
  0x60, 0x3d, 0x64, 0x3c, 0x27, 0xf3, 0x94, 0xbe, 0xc8, 0xc1, 0xe3, 0xbd,
  0x42, 0x95, 0xa1, 0x3e, 0xe0, 0x28, 0x57, 0x3d, 0xf4, 0x40, 0x9f, 0xbe,
  0xbc, 0x24, 0x9c, 0x3e, 0x40, 0x81, 0x94, 0xbc, 0x49, 0xba, 0x37, 0xbe,
  0x39, 0xbd, 0x9e, 0xbe, 0xe2, 0xbc, 0x8e, 0x3e, 0x7d, 0x3d, 0xb3, 0xbe,
  0x08, 0xd9, 0x87, 0xbe, 0x46, 0x12, 0x8d, 0x3e, 0x96, 0x39, 0x97, 0x3e,
  0x8a, 0x57, 0x97, 0x3e, 0x60, 0x89, 0x0d, 0x3c, 0x78, 0x28, 0x92, 0x3d,
  0xc0, 0xd4, 0xab, 0x3e, 0xba, 0xcd, 0x2c, 0xbe, 0xb8, 0xc7, 0x35, 0x3e,
  0x98, 0x00, 0xbe, 0x3e, 0x9e, 0xd4, 0x87, 0x3e, 0x10, 0x36, 0xa1, 0x3c,
  0xea, 0x08, 0xbd, 0x3e, 0x77, 0x45, 0xb4, 0xbe, 0x4c, 0xd7, 0xc0, 0x3d,
  0xb8, 0x74, 0xb8, 0xbe, 0x98, 0xc4, 0xa5, 0x3e, 0x28, 0xbd, 0x71, 0xbd,
  0x35, 0x82, 0x53, 0xbe, 0x28, 0xb4, 0x23, 0xbd, 0xd0, 0x5a, 0x25, 0xbd,
  0x0a, 0x1d, 0x90, 0x3e, 0xc0, 0x31, 0xc6, 0x3b, 0x49, 0x57, 0x31, 0xbe,
  0x36, 0x97, 0x9f, 0x3e, 0x16, 0xaf, 0x9a, 0x3e, 0x18, 0xfa, 0x23, 0xbd,
  0xe0, 0x1b, 0x56, 0x3c, 0x48, 0x3d, 0x69, 0xbd, 0x0c, 0x8d, 0x56, 0xbe,
  0xb5, 0xd7, 0xae, 0xbe, 0x79, 0xb0, 0x24, 0xbe, 0x52, 0x80, 0x36, 0xbe,
  0x78, 0xcc, 0x94, 0xbe, 0xa4, 0xe3, 0xd9, 0xbd, 0xa2, 0x43, 0x86, 0x3e,
  0xec, 0x30, 0x5d, 0x3e, 0x0c, 0x04, 0x6f, 0x3e, 0x0e, 0x34, 0x01, 0x3e,
  0xa4, 0x1a, 0x85, 0x3e, 0x20, 0x54, 0x0e, 0x3e, 0xcb, 0xc9, 0x6a, 0xbe,
  0xc4, 0xa6, 0xc7, 0x3d, 0xc4, 0x16, 0xaf, 0xbe, 0x48, 0x06, 0x22, 0x3d,
  0xa8, 0x28, 0x62, 0xbe, 0x10, 0x36, 0xc7, 0x3c, 0x9c, 0xae, 0xdc, 0xbd,
  0x92, 0x5d, 0xb6, 0x3e, 0xb0, 0x0d, 0xc1, 0xbc, 0x64, 0x98, 0x83, 0x3e,
  0x07, 0xb7, 0xab, 0xbe, 0x40, 0x87, 0xbc, 0xbb, 0x84, 0xc6, 0x0b, 0x3e,
  0x7e, 0x37, 0xa2, 0xbe, 0x50, 0xac, 0x0c, 0xbd, 0x0c, 0xb1, 0x9d, 0x3d,
  0x50, 0x6a, 0x91, 0xbe, 0xc0, 0xfd, 0x5d, 0x3e, 0x66, 0x2e, 0xb6, 0xbe,
  0xfc, 0x9f, 0x1d, 0x3e, 0xa4, 0x2e, 0x8d, 0x3e, 0x30, 0xc5, 0xe5, 0x3c,
  0xe5, 0x01, 0x23, 0xbe, 0x40, 0x71, 0x38, 0xbe, 0x1d, 0xb9, 0x74, 0xbe,
  0x51, 0xa2, 0x8a, 0xbe, 0xb0, 0xec, 0x6b, 0x3e, 0x68, 0x36, 0x71, 0xbd,
  0x8c, 0x63, 0xb0, 0xbe, 0x68, 0xde, 0x52, 0x3e, 0xca, 0xfd, 0xb7, 0x3e,
  0x4c, 0x68, 0x4e, 0xbe, 0x5e, 0xff, 0xff, 0xff, 0x04, 0x00, 0x00, 0x00,
  0x40, 0x00, 0x00, 0x00, 0x00, 0x00, 0x00, 0x00, 0xbf, 0x00, 0xa2, 0x27,
  0x00, 0x00, 0x00, 0x00, 0x00, 0x00, 0x00, 0x00, 0x5f, 0x6c, 0x48, 0x38,
  0x00, 0x00, 0x00, 0x00, 0x00, 0x00, 0x00, 0x00, 0x7c, 0x94, 0x29, 0x3d,
  0x00, 0x00, 0x00, 0x00, 0x00, 0x00, 0x00, 0x00, 0xf4, 0x0e, 0xe0, 0xa6,
  0xd0, 0x4a, 0xc8, 0x3a, 0x00, 0x00, 0x00, 0x00, 0x00, 0x00, 0x00, 0x00,
  0x00, 0x00, 0x00, 0x00, 0x00, 0x00, 0x00, 0x00, 0xaa, 0xff, 0xff, 0xff,
  0x04, 0x00, 0x00, 0x00, 0x14, 0x00, 0x00, 0x00, 0x6a, 0x37, 0x74, 0x3c,
  0x46, 0xef, 0x78, 0x3c, 0x86, 0xf4, 0xd9, 0xbc, 0xba, 0xe1, 0x99, 0x3d,
  0x65, 0x0d, 0xce, 0x3c, 0xca, 0xff, 0xff, 0xff, 0x04, 0x00, 0x00, 0x00,
  0x28, 0x00, 0x00, 0x00, 0x06, 0xb1, 0xbc, 0xbb, 0xca, 0x08, 0x35, 0xbd,
  0x67, 0x0a, 0x48, 0x3c, 0x26, 0x00, 0x20, 0xbd, 0xfd, 0x47, 0xec, 0x3c,
  0xc6, 0x60, 0x4b, 0x3d, 0x5a, 0x56, 0x37, 0xbd, 0xe2, 0x47, 0x08, 0xbc,
  0x0d, 0x7f, 0x53, 0x3c, 0xce, 0xd8, 0x66, 0x3c, 0x00, 0x00, 0x06, 0x00,
  0x08, 0x00, 0x04, 0x00, 0x06, 0x00, 0x00, 0x00, 0x04, 0x00, 0x00, 0x00,
  0x50, 0x00, 0x00, 0x00, 0x48, 0x44, 0x4a, 0x3c, 0xb7, 0x47, 0xc9, 0x3c,
  0x48, 0xe9, 0x5a, 0xbc, 0xf4, 0x3d, 0x2e, 0xbc, 0xe8, 0x19, 0x57, 0x3d,
  0xf5, 0xab, 0x1a, 0xbd, 0x82, 0xfa, 0x13, 0xbc, 0x13, 0x2f, 0x28, 0x3d,
  0x22, 0x9c, 0xc2, 0xbc, 0xad, 0x64, 0x5a, 0x3c, 0x6d, 0xdd, 0x10, 0x3c,
  0x1e, 0x21, 0x8f, 0x3b, 0xd1, 0xa7, 0xcc, 0x3c, 0x8b, 0x33, 0x11, 0xbd,
  0x3e, 0x06, 0x3f, 0x3d, 0x7a, 0x68, 0x7c, 0xbc, 0xa5, 0xf5, 0x6b, 0x3d,
  0xd5, 0x50, 0xa6, 0x3c, 0x08, 0xb8, 0x29, 0x3c, 0xe2, 0x33, 0x34, 0xbd,
  0x80, 0xf8, 0xff, 0xff, 0x84, 0xf8, 0xff, 0xff, 0x0f, 0x00, 0x00, 0x00,
  0x4d, 0x4c, 0x49, 0x52, 0x20, 0x43, 0x6f, 0x6e, 0x76, 0x65, 0x72, 0x74,
  0x65, 0x64, 0x2e, 0x00, 0x01, 0x00, 0x00, 0x00, 0x14, 0x00, 0x00, 0x00,
  0x00, 0x00, 0x0e, 0x00, 0x18, 0x00, 0x14, 0x00, 0x10, 0x00, 0x0c, 0x00,
  0x08, 0x00, 0x04, 0x00, 0x0e, 0x00, 0x00, 0x00, 0x14, 0x00, 0x00, 0x00,
  0x1c, 0x00, 0x00, 0x00, 0x74, 0x01, 0x00, 0x00, 0x78, 0x01, 0x00, 0x00,
  0x7c, 0x01, 0x00, 0x00, 0x04, 0x00, 0x00, 0x00, 0x6d, 0x61, 0x69, 0x6e,
  0x00, 0x00, 0x00, 0x00, 0x07, 0x00, 0x00, 0x00, 0x28, 0x01, 0x00, 0x00,
  0xf4, 0x00, 0x00, 0x00, 0xb4, 0x00, 0x00, 0x00, 0x90, 0x00, 0x00, 0x00,
  0x5c, 0x00, 0x00, 0x00, 0x38, 0x00, 0x00, 0x00, 0x04, 0x00, 0x00, 0x00,
  0x02, 0xff, 0xff, 0xff, 0x10, 0x00, 0x00, 0x00, 0x00, 0x00, 0x00, 0x08,
  0x0c, 0x00, 0x00, 0x00, 0x10, 0x00, 0x00, 0x00, 0x0c, 0xf9, 0xff, 0xff,
  0x01, 0x00, 0x00, 0x00, 0x0f, 0x00, 0x00, 0x00, 0x03, 0x00, 0x00, 0x00,
  0x0e, 0x00, 0x00, 0x00, 0x08, 0x00, 0x00, 0x00, 0x03, 0x00, 0x00, 0x00,
  0x5e, 0xff, 0xff, 0xff, 0x0c, 0x00, 0x00, 0x00, 0x10, 0x00, 0x00, 0x00,
  0x01, 0x00, 0x00, 0x00, 0x01, 0x00, 0x00, 0x00, 0x0e, 0x00, 0x00, 0x00,
  0x01, 0x00, 0x00, 0x00, 0x0d, 0x00, 0x00, 0x00, 0x52, 0xff, 0xff, 0xff,
  0x10, 0x00, 0x00, 0x00, 0x00, 0x00, 0x00, 0x08, 0x0c, 0x00, 0x00, 0x00,
  0x10, 0x00, 0x00, 0x00, 0x5c, 0xf9, 0xff, 0xff, 0x01, 0x00, 0x00, 0x00,
  0x0d, 0x00, 0x00, 0x00, 0x03, 0x00, 0x00, 0x00, 0x0c, 0x00, 0x00, 0x00,
  0x07, 0x00, 0x00, 0x00, 0x02, 0x00, 0x00, 0x00, 0xae, 0xff, 0xff, 0xff,
  0x0c, 0x00, 0x00, 0x00, 0x10, 0x00, 0x00, 0x00, 0x01, 0x00, 0x00, 0x00,
  0x01, 0x00, 0x00, 0x00, 0x0c, 0x00, 0x00, 0x00, 0x01, 0x00, 0x00, 0x00,
  0x0b, 0x00, 0x00, 0x00, 0xa2, 0xff, 0xff, 0xff, 0x10, 0x00, 0x00, 0x00,
  0x00, 0x00, 0x00, 0x08, 0x0c, 0x00, 0x00, 0x00, 0x10, 0x00, 0x00, 0x00,
  0xac, 0xf9, 0xff, 0xff, 0x01, 0x00, 0x00, 0x00, 0x0b, 0x00, 0x00, 0x00,
  0x03, 0x00, 0x00, 0x00, 0x0a, 0x00, 0x00, 0x00, 0x06, 0x00, 0x00, 0x00,
  0x01, 0x00, 0x00, 0x00, 0x00, 0x00, 0x0a, 0x00, 0x10, 0x00, 0x0c, 0x00,
  0x08, 0x00, 0x04, 0x00, 0x0a, 0x00, 0x00, 0x00, 0x0c, 0x00, 0x00, 0x00,
  0x10, 0x00, 0x00, 0x00, 0x01, 0x00, 0x00, 0x00, 0x01, 0x00, 0x00, 0x00,
  0x0a, 0x00, 0x00, 0x00, 0x01, 0x00, 0x00, 0x00, 0x09, 0x00, 0x00, 0x00,
  0x00, 0x00, 0x0e, 0x00, 0x14, 0x00, 0x00, 0x00, 0x10, 0x00, 0x0c, 0x00,
  0x0b, 0x00, 0x04, 0x00, 0x0e, 0x00, 0x00, 0x00, 0x10, 0x00, 0x00, 0x00,
  0x00, 0x00, 0x00, 0x08, 0x0c, 0x00, 0x00, 0x00, 0x10, 0x00, 0x00, 0x00,
  0x18, 0xfa, 0xff, 0xff, 0x01, 0x00, 0x00, 0x00, 0x09, 0x00, 0x00, 0x00,
  0x03, 0x00, 0x00, 0x00, 0x00, 0x00, 0x00, 0x00, 0x05, 0x00, 0x00, 0x00,
  0x04, 0x00, 0x00, 0x00, 0x01, 0x00, 0x00, 0x00, 0x0f, 0x00, 0x00, 0x00,
  0x01, 0x00, 0x00, 0x00, 0x00, 0x00, 0x00, 0x00, 0x10, 0x00, 0x00, 0x00,
  0x90, 0x05, 0x00, 0x00, 0x20, 0x05, 0x00, 0x00, 0xb0, 0x04, 0x00, 0x00,
  0x58, 0x04, 0x00, 0x00, 0x04, 0x04, 0x00, 0x00, 0xbc, 0x03, 0x00, 0x00,
  0x70, 0x03, 0x00, 0x00, 0x24, 0x03, 0x00, 0x00, 0xd8, 0x02, 0x00, 0x00,
  0x64, 0x02, 0x00, 0x00, 0x08, 0x02, 0x00, 0x00, 0x90, 0x01, 0x00, 0x00,
  0x34, 0x01, 0x00, 0x00, 0xbc, 0x00, 0x00, 0x00, 0x60, 0x00, 0x00, 0x00,
  0x04, 0x00, 0x00, 0x00, 0xc6, 0xfa, 0xff, 0xff, 0x00, 0x00, 0x00, 0x01,
  0x14, 0x00, 0x00, 0x00, 0x1c, 0x00, 0x00, 0x00, 0x1c, 0x00, 0x00, 0x00,
  0x10, 0x00, 0x00, 0x00, 0x34, 0x00, 0x00, 0x00, 0x02, 0x00, 0x00, 0x00,
  0xff, 0xff, 0xff, 0xff, 0x05, 0x00, 0x00, 0x00, 0xb0, 0xfa, 0xff, 0xff,
  0x19, 0x00, 0x00, 0x00, 0x53, 0x74, 0x61, 0x74, 0x65, 0x66, 0x75, 0x6c,
  0x50, 0x61, 0x72, 0x74, 0x69, 0x74, 0x69, 0x6f, 0x6e, 0x65, 0x64, 0x43,
  0x61, 0x6c, 0x6c, 0x3a, 0x30, 0x00, 0x00, 0x00, 0x02, 0x00, 0x00, 0x00,
  0x01, 0x00, 0x00, 0x00, 0x05, 0x00, 0x00, 0x00, 0x1e, 0xfb, 0xff, 0xff,
  0x00, 0x00, 0x00, 0x01, 0x14, 0x00, 0x00, 0x00, 0x1c, 0x00, 0x00, 0x00,
  0x1c, 0x00, 0x00, 0x00, 0x0f, 0x00, 0x00, 0x00, 0x34, 0x00, 0x00, 0x00,
  0x02, 0x00, 0x00, 0x00, 0xff, 0xff, 0xff, 0xff, 0x0a, 0x00, 0x00, 0x00,
  0x08, 0xfb, 0xff, 0xff, 0x1a, 0x00, 0x00, 0x00, 0x73, 0x65, 0x71, 0x75,
  0x65, 0x6e, 0x74, 0x69, 0x61, 0x6c, 0x2f, 0x64, 0x65, 0x6e, 0x73, 0x65,
  0x5f, 0x32, 0x2f, 0x53, 0x69, 0x67, 0x6d, 0x6f, 0x69, 0x64, 0x00, 0x00,
  0x02, 0x00, 0x00, 0x00, 0x01, 0x00, 0x00, 0x00, 0x0a, 0x00, 0x00, 0x00,
  0x76, 0xfb, 0xff, 0xff, 0x00, 0x00, 0x00, 0x01, 0x14, 0x00, 0x00, 0x00,
  0x1c, 0x00, 0x00, 0x00, 0x1c, 0x00, 0x00, 0x00, 0x0e, 0x00, 0x00, 0x00,
  0x50, 0x00, 0x00, 0x00, 0x02, 0x00, 0x00, 0x00, 0xff, 0xff, 0xff, 0xff,
  0x0a, 0x00, 0x00, 0x00, 0x60, 0xfb, 0xff, 0xff, 0x34, 0x00, 0x00, 0x00,
  0x73, 0x65, 0x71, 0x75, 0x65, 0x6e, 0x74, 0x69, 0x61, 0x6c, 0x2f, 0x64,
  0x65, 0x6e, 0x73, 0x65, 0x5f, 0x32, 0x2f, 0x4d, 0x61, 0x74, 0x4d, 0x75,
  0x6c, 0x3b, 0x73, 0x65, 0x71, 0x75, 0x65, 0x6e, 0x74, 0x69, 0x61, 0x6c,
  0x2f, 0x64, 0x65, 0x6e, 0x73, 0x65, 0x5f, 0x32, 0x2f, 0x42, 0x69, 0x61,
  0x73, 0x41, 0x64, 0x64, 0x00, 0x00, 0x00, 0x00, 0x02, 0x00, 0x00, 0x00,
  0x01, 0x00, 0x00, 0x00, 0x0a, 0x00, 0x00, 0x00, 0xea, 0xfb, 0xff, 0xff,
  0x00, 0x00, 0x00, 0x01, 0x14, 0x00, 0x00, 0x00, 0x1c, 0x00, 0x00, 0x00,
  0x1c, 0x00, 0x00, 0x00, 0x0d, 0x00, 0x00, 0x00, 0x34, 0x00, 0x00, 0x00,
  0x02, 0x00, 0x00, 0x00, 0xff, 0xff, 0xff, 0xff, 0x14, 0x00, 0x00, 0x00,
  0xd4, 0xfb, 0xff, 0xff, 0x1a, 0x00, 0x00, 0x00, 0x73, 0x65, 0x71, 0x75,
  0x65, 0x6e, 0x74, 0x69, 0x61, 0x6c, 0x2f, 0x64, 0x65, 0x6e, 0x73, 0x65,
  0x5f, 0x31, 0x2f, 0x53, 0x69, 0x67, 0x6d, 0x6f, 0x69, 0x64, 0x00, 0x00,
  0x02, 0x00, 0x00, 0x00, 0x01, 0x00, 0x00, 0x00, 0x14, 0x00, 0x00, 0x00,
  0x42, 0xfc, 0xff, 0xff, 0x00, 0x00, 0x00, 0x01, 0x14, 0x00, 0x00, 0x00,
  0x1c, 0x00, 0x00, 0x00, 0x1c, 0x00, 0x00, 0x00, 0x0c, 0x00, 0x00, 0x00,
  0x50, 0x00, 0x00, 0x00, 0x02, 0x00, 0x00, 0x00, 0xff, 0xff, 0xff, 0xff,
  0x14, 0x00, 0x00, 0x00, 0x2c, 0xfc, 0xff, 0xff, 0x34, 0x00, 0x00, 0x00,
  0x73, 0x65, 0x71, 0x75, 0x65, 0x6e, 0x74, 0x69, 0x61, 0x6c, 0x2f, 0x64,
  0x65, 0x6e, 0x73, 0x65, 0x5f, 0x31, 0x2f, 0x4d, 0x61, 0x74, 0x4d, 0x75,
  0x6c, 0x3b, 0x73, 0x65, 0x71, 0x75, 0x65, 0x6e, 0x74, 0x69, 0x61, 0x6c,
  0x2f, 0x64, 0x65, 0x6e, 0x73, 0x65, 0x5f, 0x31, 0x2f, 0x42, 0x69, 0x61,
  0x73, 0x41, 0x64, 0x64, 0x00, 0x00, 0x00, 0x00, 0x02, 0x00, 0x00, 0x00,
  0x01, 0x00, 0x00, 0x00, 0x14, 0x00, 0x00, 0x00, 0xb6, 0xfc, 0xff, 0xff,
  0x00, 0x00, 0x00, 0x01, 0x14, 0x00, 0x00, 0x00, 0x1c, 0x00, 0x00, 0x00,
  0x1c, 0x00, 0x00, 0x00, 0x0b, 0x00, 0x00, 0x00, 0x34, 0x00, 0x00, 0x00,
  0x02, 0x00, 0x00, 0x00, 0xff, 0xff, 0xff, 0xff, 0x10, 0x00, 0x00, 0x00,
  0xa0, 0xfc, 0xff, 0xff, 0x18, 0x00, 0x00, 0x00, 0x73, 0x65, 0x71, 0x75,
  0x65, 0x6e, 0x74, 0x69, 0x61, 0x6c, 0x2f, 0x64, 0x65, 0x6e, 0x73, 0x65,
  0x2f, 0x53, 0x69, 0x67, 0x6d, 0x6f, 0x69, 0x64, 0x00, 0x00, 0x00, 0x00,
  0x02, 0x00, 0x00, 0x00, 0x01, 0x00, 0x00, 0x00, 0x10, 0x00, 0x00, 0x00,
  0x0e, 0xfd, 0xff, 0xff, 0x00, 0x00, 0x00, 0x01, 0x14, 0x00, 0x00, 0x00,
  0x1c, 0x00, 0x00, 0x00, 0x1c, 0x00, 0x00, 0x00, 0x0a, 0x00, 0x00, 0x00,
  0x4c, 0x00, 0x00, 0x00, 0x02, 0x00, 0x00, 0x00, 0xff, 0xff, 0xff, 0xff,
  0x10, 0x00, 0x00, 0x00, 0xf8, 0xfc, 0xff, 0xff, 0x30, 0x00, 0x00, 0x00,
  0x73, 0x65, 0x71, 0x75, 0x65, 0x6e, 0x74, 0x69, 0x61, 0x6c, 0x2f, 0x64,
  0x65, 0x6e, 0x73, 0x65, 0x2f, 0x4d, 0x61, 0x74, 0x4d, 0x75, 0x6c, 0x3b,
  0x73, 0x65, 0x71, 0x75, 0x65, 0x6e, 0x74, 0x69, 0x61, 0x6c, 0x2f, 0x64,
  0x65, 0x6e, 0x73, 0x65, 0x2f, 0x42, 0x69, 0x61, 0x73, 0x41, 0x64, 0x64,
  0x00, 0x00, 0x00, 0x00, 0x02, 0x00, 0x00, 0x00, 0x01, 0x00, 0x00, 0x00,
  0x10, 0x00, 0x00, 0x00, 0xea, 0xfd, 0xff, 0xff, 0x00, 0x00, 0x00, 0x01,
  0x10, 0x00, 0x00, 0x00, 0x10, 0x00, 0x00, 0x00, 0x09, 0x00, 0x00, 0x00,
  0x28, 0x00, 0x00, 0x00, 0x58, 0xfd, 0xff, 0xff, 0x19, 0x00, 0x00, 0x00,
  0x73, 0x65, 0x71, 0x75, 0x65, 0x6e, 0x74, 0x69, 0x61, 0x6c, 0x2f, 0x64,
  0x65, 0x6e, 0x73, 0x65, 0x5f, 0x33, 0x2f, 0x4d, 0x61, 0x74, 0x4d, 0x75,
  0x6c, 0x00, 0x00, 0x00, 0x02, 0x00, 0x00, 0x00, 0x05, 0x00, 0x00, 0x00,
  0x0a, 0x00, 0x00, 0x00, 0x32, 0xfe, 0xff, 0xff, 0x00, 0x00, 0x00, 0x01,
  0x10, 0x00, 0x00, 0x00, 0x10, 0x00, 0x00, 0x00, 0x08, 0x00, 0x00, 0x00,
  0x28, 0x00, 0x00, 0x00, 0xa0, 0xfd, 0xff, 0xff, 0x19, 0x00, 0x00, 0x00,
  0x73, 0x65, 0x71, 0x75, 0x65, 0x6e, 0x74, 0x69, 0x61, 0x6c, 0x2f, 0x64,
  0x65, 0x6e, 0x73, 0x65, 0x5f, 0x32, 0x2f, 0x4d, 0x61, 0x74, 0x4d, 0x75,
  0x6c, 0x00, 0x00, 0x00, 0x02, 0x00, 0x00, 0x00, 0x0a, 0x00, 0x00, 0x00,
  0x14, 0x00, 0x00, 0x00, 0x7a, 0xfe, 0xff, 0xff, 0x00, 0x00, 0x00, 0x01,
  0x10, 0x00, 0x00, 0x00, 0x10, 0x00, 0x00, 0x00, 0x07, 0x00, 0x00, 0x00,
  0x28, 0x00, 0x00, 0x00, 0xe8, 0xfd, 0xff, 0xff, 0x19, 0x00, 0x00, 0x00,
  0x73, 0x65, 0x71, 0x75, 0x65, 0x6e, 0x74, 0x69, 0x61, 0x6c, 0x2f, 0x64,
  0x65, 0x6e, 0x73, 0x65, 0x5f, 0x31, 0x2f, 0x4d, 0x61, 0x74, 0x4d, 0x75,
  0x6c, 0x00, 0x00, 0x00, 0x02, 0x00, 0x00, 0x00, 0x14, 0x00, 0x00, 0x00,
  0x10, 0x00, 0x00, 0x00, 0xc2, 0xfe, 0xff, 0xff, 0x00, 0x00, 0x00, 0x01,
  0x10, 0x00, 0x00, 0x00, 0x10, 0x00, 0x00, 0x00, 0x06, 0x00, 0x00, 0x00,
  0x24, 0x00, 0x00, 0x00, 0x30, 0xfe, 0xff, 0xff, 0x17, 0x00, 0x00, 0x00,
  0x73, 0x65, 0x71, 0x75, 0x65, 0x6e, 0x74, 0x69, 0x61, 0x6c, 0x2f, 0x64,
  0x65, 0x6e, 0x73, 0x65, 0x2f, 0x4d, 0x61, 0x74, 0x4d, 0x75, 0x6c, 0x00,
  0x02, 0x00, 0x00, 0x00, 0x10, 0x00, 0x00, 0x00, 0x1b, 0x00, 0x00, 0x00,
  0x06, 0xff, 0xff, 0xff, 0x00, 0x00, 0x00, 0x01, 0x10, 0x00, 0x00, 0x00,
  0x10, 0x00, 0x00, 0x00, 0x05, 0x00, 0x00, 0x00, 0x34, 0x00, 0x00, 0x00,
  0x74, 0xfe, 0xff, 0xff, 0x27, 0x00, 0x00, 0x00, 0x73, 0x65, 0x71, 0x75,
  0x65, 0x6e, 0x74, 0x69, 0x61, 0x6c, 0x2f, 0x64, 0x65, 0x6e, 0x73, 0x65,
  0x2f, 0x42, 0x69, 0x61, 0x73, 0x41, 0x64, 0x64, 0x2f, 0x52, 0x65, 0x61,
  0x64, 0x56, 0x61, 0x72, 0x69, 0x61, 0x62, 0x6c, 0x65, 0x4f, 0x70, 0x00,
  0x01, 0x00, 0x00, 0x00, 0x10, 0x00, 0x00, 0x00, 0x56, 0xff, 0xff, 0xff,
  0x00, 0x00, 0x00, 0x01, 0x10, 0x00, 0x00, 0x00, 0x10, 0x00, 0x00, 0x00,
  0x04, 0x00, 0x00, 0x00, 0x38, 0x00, 0x00, 0x00, 0xc4, 0xfe, 0xff, 0xff,
  0x29, 0x00, 0x00, 0x00, 0x73, 0x65, 0x71, 0x75, 0x65, 0x6e, 0x74, 0x69,
  0x61, 0x6c, 0x2f, 0x64, 0x65, 0x6e, 0x73, 0x65, 0x5f, 0x33, 0x2f, 0x42,
  0x69, 0x61, 0x73, 0x41, 0x64, 0x64, 0x2f, 0x52, 0x65, 0x61, 0x64, 0x56,
  0x61, 0x72, 0x69, 0x61, 0x62, 0x6c, 0x65, 0x4f, 0x70, 0x00, 0x00, 0x00,
  0x01, 0x00, 0x00, 0x00, 0x05, 0x00, 0x00, 0x00, 0xaa, 0xff, 0xff, 0xff,
  0x00, 0x00, 0x00, 0x01, 0x10, 0x00, 0x00, 0x00, 0x10, 0x00, 0x00, 0x00,
  0x03, 0x00, 0x00, 0x00, 0x38, 0x00, 0x00, 0x00, 0x18, 0xff, 0xff, 0xff,
  0x29, 0x00, 0x00, 0x00, 0x73, 0x65, 0x71, 0x75, 0x65, 0x6e, 0x74, 0x69,
  0x61, 0x6c, 0x2f, 0x64, 0x65, 0x6e, 0x73, 0x65, 0x5f, 0x32, 0x2f, 0x42,
  0x69, 0x61, 0x73, 0x41, 0x64, 0x64, 0x2f, 0x52, 0x65, 0x61, 0x64, 0x56,
  0x61, 0x72, 0x69, 0x61, 0x62, 0x6c, 0x65, 0x4f, 0x70, 0x00, 0x00, 0x00,
  0x01, 0x00, 0x00, 0x00, 0x0a, 0x00, 0x00, 0x00, 0x00, 0x00, 0x16, 0x00,
  0x18, 0x00, 0x14, 0x00, 0x00, 0x00, 0x10, 0x00, 0x0c, 0x00, 0x08, 0x00,
  0x00, 0x00, 0x00, 0x00, 0x00, 0x00, 0x07, 0x00, 0x16, 0x00, 0x00, 0x00,
  0x00, 0x00, 0x00, 0x01, 0x10, 0x00, 0x00, 0x00, 0x10, 0x00, 0x00, 0x00,
  0x02, 0x00, 0x00, 0x00, 0x38, 0x00, 0x00, 0x00, 0x84, 0xff, 0xff, 0xff,
  0x29, 0x00, 0x00, 0x00, 0x73, 0x65, 0x71, 0x75, 0x65, 0x6e, 0x74, 0x69,
  0x61, 0x6c, 0x2f, 0x64, 0x65, 0x6e, 0x73, 0x65, 0x5f, 0x31, 0x2f, 0x42,
  0x69, 0x61, 0x73, 0x41, 0x64, 0x64, 0x2f, 0x52, 0x65, 0x61, 0x64, 0x56,
  0x61, 0x72, 0x69, 0x61, 0x62, 0x6c, 0x65, 0x4f, 0x70, 0x00, 0x00, 0x00,
  0x01, 0x00, 0x00, 0x00, 0x14, 0x00, 0x00, 0x00, 0x00, 0x00, 0x16, 0x00,
  0x1c, 0x00, 0x18, 0x00, 0x00, 0x00, 0x14, 0x00, 0x10, 0x00, 0x0c, 0x00,
  0x00, 0x00, 0x00, 0x00, 0x08, 0x00, 0x07, 0x00, 0x16, 0x00, 0x00, 0x00,
  0x00, 0x00, 0x00, 0x01, 0x14, 0x00, 0x00, 0x00, 0x20, 0x00, 0x00, 0x00,
  0x20, 0x00, 0x00, 0x00, 0x01, 0x00, 0x00, 0x00, 0x3c, 0x00, 0x00, 0x00,
  0x02, 0x00, 0x00, 0x00, 0xff, 0xff, 0xff, 0xff, 0x1b, 0x00, 0x00, 0x00,
  0x04, 0x00, 0x04, 0x00, 0x04, 0x00, 0x00, 0x00, 0x1d, 0x00, 0x00, 0x00,
  0x73, 0x65, 0x72, 0x76, 0x69, 0x6e, 0x67, 0x5f, 0x64, 0x65, 0x66, 0x61,
  0x75, 0x6c, 0x74, 0x5f, 0x64, 0x65, 0x6e, 0x73, 0x65, 0x5f, 0x69, 0x6e,
  0x70, 0x75, 0x74, 0x3a, 0x30, 0x00, 0x00, 0x00, 0x02, 0x00, 0x00, 0x00,
  0x01, 0x00, 0x00, 0x00, 0x1b, 0x00, 0x00, 0x00, 0x02, 0x00, 0x00, 0x00,
  0x20, 0x00, 0x00, 0x00, 0x04, 0x00, 0x00, 0x00, 0xf4, 0xff, 0xff, 0xff,
  0x0e, 0x00, 0x00, 0x00, 0x00, 0x00, 0x00, 0x0e, 0x0c, 0x00, 0x0c, 0x00,
  0x0b, 0x00, 0x00, 0x00, 0x00, 0x00, 0x04, 0x00, 0x0c, 0x00, 0x00, 0x00,
  0x09, 0x00, 0x00, 0x00, 0x00, 0x00, 0x00, 0x09
};

