
#define TENSORFLOW_LITE_EXPERIMENTAL_MICRO_EXAMPLES_HELLO_WORLD_SINE_MODEL_DATA_H_
#ifdef __has_attribute
#define HAVE_ATTRIBUTE(x) __has_attribute(x)
#else
#define HAVE_ATTRIBUTE(x) 0
#endif
#if HAVE_ATTRIBUTE(aligned) || (defined(__GNUC__) && !defined(__clang__))
#define DATA_ALIGN_ATTRIBUTE __attribute__((aligned(4)))
#else
#define DATA_ALIGN_ATTRIBUTE
#endif

const int flight_model_len = 9152;
const unsigned char flight_model[] DATA_ALIGN_ATTRIBUTE = {
 0x20, 0x00, 0x00, 0x00, 0x54, 0x46, 0x4c, 0x33, 0x00, 0x00, 0x00, 0x00,
  0x00, 0x00, 0x12, 0x00, 0x1c, 0x00, 0x04, 0x00, 0x08, 0x00, 0x0c, 0x00,
  0x10, 0x00, 0x14, 0x00, 0x00, 0x00, 0x18, 0x00, 0x12, 0x00, 0x00, 0x00,
  0x03, 0x00, 0x00, 0x00, 0x78, 0x23, 0x00, 0x00, 0x2c, 0x20, 0x00, 0x00,
  0x14, 0x20, 0x00, 0x00, 0x34, 0x00, 0x00, 0x00, 0x04, 0x00, 0x00, 0x00,
  0x01, 0x00, 0x00, 0x00, 0x04, 0x00, 0x00, 0x00, 0x2c, 0xdd, 0xff, 0xff,
  0x08, 0x00, 0x00, 0x00, 0x08, 0x00, 0x00, 0x00, 0x13, 0x00, 0x00, 0x00,
  0x6d, 0x69, 0x6e, 0x5f, 0x72, 0x75, 0x6e, 0x74, 0x69, 0x6d, 0x65, 0x5f,
  0x76, 0x65, 0x72, 0x73, 0x69, 0x6f, 0x6e, 0x00, 0x09, 0x00, 0x00, 0x00,
  0xd4, 0x1f, 0x00, 0x00, 0xcc, 0x1f, 0x00, 0x00, 0x1c, 0x10, 0x00, 0x00,
  0x0c, 0x10, 0x00, 0x00, 0x00, 0x10, 0x00, 0x00, 0x70, 0x03, 0x00, 0x00,
  0x40, 0x00, 0x00, 0x00, 0x1c, 0x00, 0x00, 0x00, 0x04, 0x00, 0x00, 0x00,
  0x06, 0xf0, 0xff, 0xff, 0x04, 0x00, 0x00, 0x00, 0x05, 0x00, 0x00, 0x00,
  0x31, 0x2e, 0x35, 0x2e, 0x30, 0x00, 0x00, 0x00, 0x1a, 0xf0, 0xff, 0xff,
  0x04, 0x00, 0x00, 0x00, 0x14, 0x00, 0x00, 0x00, 0xec, 0xca, 0xa3, 0x3d,
  0x80, 0x4d, 0x7f, 0x3d, 0x23, 0x94, 0x89, 0x3d, 0x77, 0x33, 0x42, 0x3d,
  0x27, 0x7c, 0x55, 0x3d, 0x3a, 0xf0, 0xff, 0xff, 0x04, 0x00, 0x00, 0x00,
  0x20, 0x03, 0x00, 0x00, 0xab, 0xd8, 0x54, 0x3e, 0xc4, 0xfa, 0xda, 0xbb,
  0xb7, 0xa4, 0x2e, 0x3d, 0x95, 0x4c, 0x53, 0x3e, 0x00, 0x00, 0x00, 0x00,
  0x22, 0x12, 0x13, 0xbd, 0x00, 0x00, 0x00, 0x00, 0x07, 0x6b, 0xe5, 0xbc,
  0x05, 0xd7, 0x75, 0xbc, 0x52, 0x78, 0x83, 0xbb, 0x00, 0x00, 0x00, 0x00,
  0x09, 0x5e, 0xfb, 0xbb, 0x00, 0x00, 0x00, 0x00, 0x5f, 0x34, 0x2d, 0xbb,
  0x34, 0x25, 0x91, 0xbc, 0xb3, 0xfb, 0xa9, 0xbb, 0x33, 0x2f, 0xd6, 0xbb,
  0x19, 0x75, 0xa6, 0xbc, 0xb5, 0xec, 0x55, 0x3d, 0xf6, 0x17, 0xca, 0x3d,
  0x55, 0x1b, 0x71, 0xbd, 0x43, 0x71, 0xc4, 0x3c, 0x5e, 0x5a, 0x93, 0x3d,
  0x00, 0x00, 0x00, 0x00, 0x00, 0x00, 0x00, 0x00, 0x6a, 0x99, 0x5d, 0x3d,
  0x87, 0x08, 0x46, 0xbd, 0xc6, 0x66, 0x86, 0x3b, 0x78, 0x65, 0x97, 0x3d,
  0x90, 0xe3, 0x21, 0x3d, 0x0d, 0x7d, 0x91, 0xbc, 0x27, 0xca, 0x9f, 0x3d,
  0x43, 0x5a, 0x33, 0xbc, 0xf5, 0x98, 0x81, 0xbd, 0x00, 0x00, 0x00, 0x00,
  0xcd, 0xae, 0x52, 0x3d, 0x32, 0x50, 0x3f, 0x3d, 0x9e, 0x3b, 0xde, 0x3c,
  0x00, 0x00, 0x00, 0x00, 0x00, 0x00, 0x00, 0x00, 0x00, 0x00, 0x00, 0x00,
  0xde, 0xae, 0x2a, 0xbd, 0x00, 0x00, 0x00, 0x00, 0x27, 0xb7, 0x5c, 0xbd,
  0x00, 0x00, 0x00, 0x00, 0x91, 0x5e, 0xa8, 0xba, 0x4f, 0x18, 0x58, 0xbc,
  0x67, 0xf0, 0x93, 0xbd, 0x00, 0x00, 0x00, 0x00, 0xd9, 0x79, 0x8a, 0x3d,
  0x4a, 0x88, 0x0c, 0xbc, 0xba, 0x9d, 0x53, 0xbc, 0xc3, 0x11, 0x8a, 0x3d,
  0x00, 0x00, 0x00, 0x00, 0xa2, 0x42, 0x3f, 0x3c, 0x00, 0x00, 0x00, 0x00,
  0x0c, 0x4f, 0xd6, 0x3d, 0x64, 0xcd, 0x67, 0x3d, 0x00, 0x00, 0x00, 0x00,
  0xcc, 0xec, 0x3a, 0x3d, 0x00, 0x00, 0x00, 0x00, 0x05, 0xed, 0x59, 0x3d,
  0x00, 0x00, 0x00, 0x00, 0x9d, 0x2c, 0x57, 0x3d, 0xab, 0xf7, 0x8f, 0xbb,
  0x00, 0x00, 0x00, 0x00, 0x38, 0x09, 0x90, 0x3d, 0x32, 0x49, 0xef, 0x3d,
  0x00, 0x00, 0x00, 0x00, 0x00, 0x00, 0x00, 0x00, 0x53, 0x50, 0x17, 0x3d,
  0x08, 0xe2, 0xf8, 0x3c, 0x04, 0x21, 0x9b, 0xbd, 0xd2, 0x63, 0x88, 0x3d,
  0x00, 0x00, 0x00, 0x00, 0x00, 0x00, 0x00, 0x00, 0x97, 0x4e, 0xb1, 0x3d,
  0x00, 0x00, 0x00, 0x00, 0x00, 0x00, 0x00, 0x00, 0xe6, 0x69, 0xb9, 0x3c,
  0x71, 0x59, 0x0e, 0x3d, 0x6b, 0xe2, 0x82, 0x3d, 0x51, 0x94, 0xca, 0x3d,
  0x5f, 0x8d, 0xc8, 0xbb, 0x00, 0x00, 0x00, 0x00, 0x10, 0xd4, 0x9b, 0x3d,
  0x86, 0x83, 0x89, 0xbd, 0x97, 0xf0, 0x82, 0xbb, 0x00, 0x00, 0x00, 0x00,
  0xb4, 0x52, 0x39, 0x3c, 0x00, 0x00, 0x00, 0x00, 0xc9, 0x93, 0x72, 0x3d,
  0x9d, 0x0b, 0x04, 0xbd, 0x00, 0x00, 0x00, 0x00, 0x3d, 0xec, 0xc0, 0x3b,
  0xb8, 0x6c, 0x53, 0xbd, 0xb3, 0xe9, 0x28, 0xbc, 0x00, 0x00, 0x00, 0x00,
  0x0e, 0x94, 0xb3, 0x3b, 0xf9, 0x13, 0x29, 0xbc, 0x80, 0xd6, 0xb3, 0xbb,
  0x65, 0x6d, 0xc2, 0xbb, 0x1c, 0x03, 0xd7, 0x3c, 0xbf, 0x83, 0x4e, 0x3d,
  0x8f, 0x37, 0x96, 0xbb, 0x00, 0x00, 0x00, 0x00, 0xce, 0xfb, 0x1e, 0xbd,
  0x20, 0x6a, 0x93, 0x3d, 0x5e, 0x95, 0x04, 0xbd, 0xce, 0xd8, 0x07, 0x3e,
  0x75, 0x93, 0x29, 0xbc, 0x00, 0x00, 0x00, 0x00, 0x00, 0x00, 0x00, 0x00,
  0x5d, 0x4b, 0x5e, 0xbc, 0x5d, 0x0e, 0x29, 0xbc, 0xbc, 0x2b, 0x88, 0xbd,
  0x00, 0x00, 0x00, 0x00, 0x5b, 0x9a, 0x23, 0xbc, 0x9d, 0xc8, 0x09, 0x3c,
  0x0d, 0xde, 0x94, 0x3d, 0x11, 0x76, 0xb2, 0x3c, 0x14, 0xc4, 0x15, 0xbc,
  0xc0, 0xb3, 0xbd, 0xbd, 0x00, 0x00, 0x00, 0x00, 0xc6, 0x16, 0x19, 0x3c,
  0xa0, 0xb9, 0x9a, 0x3d, 0x63, 0x61, 0x3c, 0x3d, 0x00, 0x00, 0x00, 0x00,
  0xf8, 0x30, 0x1f, 0x3d, 0xd5, 0x64, 0x80, 0xbd, 0x8f, 0xbb, 0x8e, 0xbb,
  0xe5, 0xfe, 0x9b, 0xbd, 0xd7, 0x5b, 0x81, 0x3d, 0x00, 0x00, 0x00, 0x00,
  0x50, 0xf3, 0x9c, 0xbd, 0x66, 0x08, 0x9c, 0x3d, 0x4c, 0x25, 0xfd, 0xbb,
  0x09, 0x59, 0xfe, 0xbb, 0x00, 0x00, 0x00, 0x00, 0x70, 0x09, 0xa3, 0x3d,
  0x00, 0x00, 0x00, 0x00, 0x00, 0x00, 0x00, 0x00, 0x00, 0x00, 0x00, 0x00,
  0x00, 0x00, 0x00, 0x00, 0x37, 0x09, 0x4f, 0xbd, 0xe2, 0x4b, 0x86, 0x3d,
  0x3a, 0x25, 0x4a, 0x3c, 0x00, 0x00, 0x00, 0x00, 0x00, 0x00, 0x00, 0x00,
  0x00, 0x00, 0x00, 0x00, 0xf5, 0x20, 0x82, 0xbc, 0xd4, 0x45, 0x19, 0xbd,
  0x00, 0x00, 0x00, 0x00, 0x57, 0x8e, 0x8e, 0xbd, 0xf8, 0x95, 0xa4, 0xbb,
  0x68, 0x02, 0x99, 0x3d, 0x1b, 0x75, 0xab, 0x3c, 0x00, 0x00, 0x00, 0x00,
  0x4f, 0x0f, 0x0d, 0xbe, 0x00, 0x00, 0x00, 0x00, 0x00, 0x00, 0x00, 0x00,
  0xf8, 0x54, 0x18, 0x3d, 0x43, 0x2d, 0x52, 0xbc, 0xa1, 0x56, 0x43, 0x3d,
  0x2b, 0x9f, 0xa1, 0x3d, 0x00, 0x00, 0x00, 0x00, 0x00, 0x00, 0x00, 0x00,
  0x53, 0xd7, 0x36, 0xbd, 0x58, 0x26, 0x07, 0xbc, 0xfa, 0x3a, 0xd8, 0x3c,
  0xe7, 0x1f, 0xee, 0xbc, 0xe0, 0xb5, 0xd8, 0x3c, 0xd5, 0x1f, 0x8c, 0xbd,
  0x7d, 0x01, 0x40, 0x3d, 0xf1, 0x68, 0x2e, 0xbc, 0x00, 0x00, 0x00, 0x00,
  0x00, 0x00, 0x00, 0x00, 0x0a, 0x90, 0x02, 0xbc, 0x1d, 0x48, 0x90, 0x3d,
  0x00, 0x00, 0x00, 0x00, 0x00, 0x00, 0x00, 0x00, 0x26, 0xf5, 0x76, 0x3d,
  0x27, 0x62, 0x27, 0x3d, 0x00, 0x00, 0x00, 0x00, 0x00, 0x00, 0x00, 0x00,
  0x00, 0x00, 0x00, 0x00, 0x99, 0x28, 0x71, 0x3d, 0x00, 0x00, 0x00, 0x00,
  0xd8, 0x6d, 0x6f, 0x3d, 0x00, 0x00, 0x00, 0x00, 0x6e, 0x52, 0xef, 0x3d,
  0xed, 0xd2, 0x2b, 0xbd, 0x59, 0x38, 0xc0, 0xbb, 0x45, 0xb7, 0x9b, 0x3c,
  0x00, 0x00, 0x00, 0x00, 0x53, 0x4b, 0x3f, 0xbc, 0x00, 0x00, 0x00, 0x00,
  0xa2, 0x4e, 0x95, 0x3c, 0xbe, 0x98, 0x67, 0xbd, 0xc8, 0xfe, 0x74, 0xbd,
  0x66, 0xf3, 0xff, 0xff, 0x04, 0x00, 0x00, 0x00, 0x80, 0x0c, 0x00, 0x00,
  0xcf, 0xdf, 0x29, 0x36, 0x14, 0x29, 0x2a, 0xbb, 0x1a, 0x0d, 0xe0, 0xea,
  0xea, 0xef, 0xc7, 0xcb, 0x2e, 0xfa, 0xd8, 0xf6, 0x0b, 0x1b, 0x17, 0xcd,
  0x0e, 0xf2, 0xd2, 0x0b, 0xdb, 0xf2, 0x12, 0xdc, 0x08, 0x15, 0x37, 0xf2,
  0x36, 0xc7, 0xe4, 0xf6, 0x23, 0x0b, 0x0a, 0xc5, 0xe7, 0x07, 0x23, 0x13,
  0xb9, 0x09, 0x18, 0x07, 0xf8, 0xf4, 0x13, 0x32, 0xf3, 0x4b, 0xe1, 0xd2,
  0xcd, 0xf0, 0xe4, 0xf7, 0x10, 0xd8, 0x1d, 0xf3, 0xd1, 0x07, 0x0c, 0xfb,
  0xd8, 0xdd, 0x02, 0xd1, 0xe4, 0x2f, 0x16, 0x1e, 0x18, 0xfb, 0xb7, 0x1e,
  0x14, 0x07, 0x09, 0x1b, 0xea, 0x16, 0x4b, 0x21, 0x07, 0xd7, 0x09, 0xd0,
  0xcf, 0x28, 0x02, 0xe7, 0x0f, 0xe4, 0x0d, 0x03, 0xdf, 0x12, 0xf8, 0x2a,
  0xd3, 0xd2, 0x00, 0x03, 0x25, 0x28, 0xb4, 0x1f, 0xe0, 0x2d, 0xe7, 0x1b,
  0xe2, 0x1d, 0x28, 0x23, 0xfc, 0xf8, 0xdf, 0xe2, 0x0d, 0x04, 0x20, 0x18,
  0x13, 0xfd, 0xd7, 0xe2, 0xdf, 0xf2, 0xcb, 0x12, 0x29, 0x05, 0xe7, 0x01,
  0xc2, 0x0f, 0xd3, 0x1a, 0x20, 0xf8, 0xbf, 0x87, 0xff, 0x04, 0x20, 0xf5,
  0x2e, 0x18, 0x15, 0x3a, 0x2f, 0x2c, 0xe3, 0xeb, 0xfb, 0xf2, 0xdc, 0x00,
  0xd9, 0xf9, 0x0c, 0xe9, 0x0c, 0x0e, 0xd1, 0xf6, 0x0c, 0x0c, 0xee, 0xce,
  0xe5, 0x18, 0x1e, 0xf7, 0xd1, 0xf4, 0xdb, 0x29, 0xd9, 0xe7, 0x25, 0x26,
  0xec, 0x17, 0xd1, 0xf4, 0x26, 0xd6, 0x2d, 0xfe, 0xdf, 0x11, 0xd4, 0xf4,
  0x26, 0xee, 0x06, 0xfe, 0x18, 0xda, 0xd3, 0x02, 0x1d, 0xd5, 0x33, 0x22,
  0x30, 0xf3, 0xde, 0x14, 0xe3, 0xd0, 0x32, 0x30, 0x0d, 0xcb, 0xf0, 0x11,
  0xff, 0x1b, 0xeb, 0x17, 0x16, 0x13, 0xeb, 0x1a, 0xd4, 0x27, 0xe7, 0x06,
  0x2b, 0xfe, 0xe2, 0xec, 0x28, 0x2c, 0xd5, 0x20, 0x0d, 0xe7, 0x2e, 0x21,
  0xf2, 0xf6, 0x15, 0xcb, 0xe2, 0x0d, 0xfa, 0xfb, 0xcd, 0xf0, 0xe5, 0x20,
  0x09, 0x11, 0x2d, 0x07, 0x02, 0xd5, 0x09, 0xe2, 0x0d, 0x1e, 0xfc, 0x1a,
  0xe3, 0x1b, 0xf0, 0x01, 0x1a, 0xf8, 0xe8, 0x16, 0x06, 0x28, 0xe0, 0xfe,
  0x28, 0xee, 0x05, 0x0a, 0xf5, 0x1a, 0x27, 0x0f, 0xe5, 0x21, 0x3f, 0xf5,
  0xd0, 0xe5, 0xc7, 0x15, 0xf9, 0x08, 0x16, 0x1e, 0xe9, 0xe7, 0x3b, 0x1c,
  0x07, 0x23, 0xe4, 0xe6, 0xeb, 0xe3, 0xc0, 0x16, 0x0f, 0xed, 0x2a, 0xfe,
  0xd9, 0x0a, 0xe9, 0xd7, 0x0f, 0xf9, 0xd3, 0x29, 0x11, 0x2e, 0x22, 0xfb,
  0xe2, 0x21, 0xf9, 0x0f, 0xe0, 0x05, 0x1d, 0x2e, 0x04, 0x2b, 0x30, 0x1b,
  0xed, 0xf3, 0x19, 0xdf, 0xf5, 0xe3, 0x2d, 0xf1, 0x12, 0x2d, 0xd7, 0x25,
  0x0c, 0x08, 0x25, 0xf6, 0x0c, 0x05, 0x0f, 0x0e, 0xd6, 0xf0, 0xfc, 0xdc,
  0xd5, 0xe7, 0x13, 0xf3, 0x17, 0x30, 0xed, 0x06, 0x0c, 0xfe, 0x15, 0xd2,
  0x0b, 0xd2, 0xf2, 0x15, 0xfe, 0x04, 0x12, 0xe6, 0xf2, 0xe3, 0xdb, 0xf3,
  0x2f, 0x02, 0xd3, 0xe2, 0x20, 0xf3, 0x0e, 0x2e, 0x2e, 0xe5, 0x39, 0xe1,
  0xef, 0x1c, 0xce, 0xd5, 0xfa, 0x01, 0xff, 0x2f, 0x1e, 0x0f, 0xf9, 0xfc,
  0x0a, 0x20, 0x12, 0x2d, 0x1f, 0x05, 0x1e, 0x01, 0xec, 0xd2, 0xce, 0xcf,
  0x23, 0x23, 0xd8, 0xd8, 0x13, 0x2a, 0x43, 0xd0, 0xfe, 0xdc, 0x09, 0xfe,
  0x0c, 0xd6, 0x0f, 0x20, 0xd6, 0xe5, 0x12, 0xf1, 0x2c, 0x06, 0x05, 0xe4,
  0xe2, 0x3f, 0xdf, 0xe3, 0x15, 0x18, 0x05, 0xed, 0xe4, 0xd5, 0x31, 0xff,
  0x07, 0x2b, 0xfa, 0x22, 0x0d, 0x23, 0x22, 0x11, 0x12, 0xec, 0x29, 0xfa,
  0xc5, 0xf1, 0xcb, 0xd5, 0x0f, 0x28, 0x43, 0xc3, 0xe7, 0x00, 0xf0, 0x2a,
  0x24, 0x29, 0x16, 0x0c, 0xfd, 0xf0, 0xdb, 0xaf, 0x06, 0x32, 0xed, 0x11,
  0xf0, 0x27, 0x0a, 0x2a, 0x12, 0xf7, 0xff, 0xe1, 0xed, 0x1b, 0xf5, 0x10,
  0x1b, 0xf0, 0x20, 0xfb, 0xe7, 0x07, 0xd2, 0xf1, 0xe4, 0xeb, 0xe9, 0x2a,
  0x35, 0x1f, 0xe2, 0xf1, 0xda, 0xff, 0x22, 0x0b, 0x05, 0xff, 0x0f, 0x27,
  0xef, 0x0e, 0xfe, 0xea, 0xd1, 0xd3, 0xef, 0x29, 0xef, 0x19, 0xd1, 0x05,
  0xd8, 0xf4, 0xd9, 0x0c, 0xef, 0x1e, 0xe4, 0x29, 0xf5, 0xcf, 0xe9, 0x10,
  0xf4, 0x15, 0x10, 0xd2, 0x23, 0xfe, 0x18, 0x39, 0xd7, 0xd9, 0x25, 0xe8,
  0xe9, 0xfc, 0x25, 0x17, 0xf8, 0x0d, 0x24, 0xd6, 0xea, 0x0c, 0x03, 0x15,
  0x19, 0xf7, 0xd2, 0x27, 0x25, 0x11, 0xe5, 0x06, 0xcf, 0xe7, 0x20, 0xf6,
  0x1a, 0x25, 0xeb, 0xdc, 0x0a, 0x33, 0x2b, 0xe3, 0xe2, 0x0d, 0x14, 0xe0,
  0xe7, 0xfb, 0xff, 0x12, 0xff, 0xe6, 0xea, 0xf5, 0xdf, 0x21, 0x18, 0x06,
  0xea, 0x0c, 0x20, 0xd7, 0xd1, 0xfe, 0x12, 0x04, 0xf9, 0xe8, 0x06, 0xdc,
  0x1b, 0xd1, 0x19, 0xd8, 0xd1, 0xf9, 0xd7, 0xde, 0xe1, 0x23, 0x21, 0xf3,
  0x1f, 0x20, 0x19, 0xe1, 0xfb, 0xdc, 0x01, 0xf7, 0x2e, 0xe1, 0x6c, 0x2f,
  0xde, 0xba, 0x19, 0x01, 0xe1, 0x21, 0x21, 0x06, 0xcf, 0xda, 0x14, 0x02,
  0xed, 0x2b, 0xf2, 0xd5, 0x2b, 0x0d, 0xfb, 0x0f, 0xf8, 0x0c, 0xd8, 0x13,
  0xd1, 0xd4, 0xfa, 0x01, 0xeb, 0x21, 0x04, 0x1e, 0x03, 0x1f, 0xda, 0x27,
  0xe1, 0xe6, 0x28, 0x06, 0xda, 0xf6, 0xde, 0x26, 0xee, 0x0a, 0x26, 0x04,
  0xd6, 0xe7, 0x22, 0xef, 0xe8, 0x26, 0xea, 0x07, 0xd0, 0xf0, 0xf0, 0x02,
  0xda, 0x26, 0xcd, 0x02, 0x1c, 0x1c, 0xfd, 0x0f, 0x2d, 0x05, 0xea, 0xfe,
  0x2c, 0xff, 0xd5, 0xc9, 0xe2, 0x1b, 0xdc, 0xf3, 0xd7, 0x3d, 0x06, 0x10,
  0x0c, 0x28, 0x0c, 0xd3, 0x11, 0xea, 0xf3, 0x32, 0x2f, 0xeb, 0x1b, 0xf0,
  0xe1, 0x17, 0x30, 0x00, 0x0c, 0x0c, 0x29, 0xd1, 0x2a, 0xfe, 0x07, 0xaf,
  0xfd, 0xd0, 0x1e, 0x08, 0x0b, 0xdf, 0xdf, 0xd2, 0xde, 0xd3, 0xd9, 0x12,
  0x27, 0x1e, 0x0f, 0x14, 0xc6, 0x07, 0x3a, 0x28, 0xfc, 0x01, 0x24, 0x1d,
  0x0e, 0xdd, 0xdf, 0xeb, 0x13, 0xd3, 0x24, 0x28, 0x18, 0x29, 0xc6, 0x1d,
  0xe3, 0xdb, 0xf6, 0x2e, 0x18, 0xf9, 0x3f, 0x32, 0x12, 0xf3, 0x0f, 0x1c,
  0x30, 0x19, 0xff, 0xfd, 0xda, 0x0f, 0xf4, 0x09, 0xef, 0x17, 0xf1, 0xe6,
  0x12, 0x1a, 0xcc, 0xd1, 0xdc, 0xd5, 0x2b, 0xcc, 0x1f, 0x1c, 0xd9, 0x02,
  0x27, 0x2b, 0x15, 0x13, 0x07, 0x10, 0x24, 0xe4, 0xe9, 0xd5, 0x15, 0xf0,
  0xfc, 0xed, 0xd2, 0xf2, 0xcf, 0x06, 0xd1, 0xf1, 0xec, 0x17, 0x29, 0x21,
  0x0d, 0x1f, 0x25, 0x31, 0xd8, 0xee, 0x00, 0x1d, 0xce, 0x22, 0x13, 0xcd,
  0xd2, 0x24, 0x2b, 0x19, 0x0e, 0x16, 0xf6, 0xd2, 0xf0, 0x0e, 0x00, 0xfb,
  0xd3, 0xd6, 0x14, 0x0c, 0xd4, 0x28, 0x14, 0x0e, 0xe2, 0x23, 0x02, 0x13,
  0xf7, 0x19, 0x08, 0xe0, 0xc5, 0x04, 0xc7, 0x10, 0x17, 0xe3, 0x26, 0x37,
  0xf0, 0x0a, 0xdd, 0x0b, 0xe2, 0x0d, 0xdc, 0x20, 0x22, 0x22, 0x33, 0x33,
  0xec, 0x17, 0xf1, 0x0c, 0xec, 0x21, 0xe9, 0xd3, 0x03, 0x08, 0x0a, 0xfc,
  0xe4, 0xde, 0x0d, 0x18, 0x09, 0xe8, 0xfb, 0x0d, 0x0f, 0xe1, 0x41, 0xe9,
  0x21, 0x1a, 0xee, 0xfa, 0xd9, 0x27, 0xdb, 0xe7, 0xe0, 0x2d, 0xea, 0x1d,
  0xe7, 0xdf, 0xdb, 0x1d, 0xd2, 0x08, 0xe9, 0x02, 0x24, 0xd2, 0xef, 0x08,
  0x23, 0x04, 0x05, 0x23, 0xd5, 0x08, 0xff, 0xe4, 0xed, 0xf2, 0x09, 0xf3,
  0x09, 0x07, 0x32, 0x2c, 0x18, 0x0a, 0x0f, 0xf0, 0xf7, 0xee, 0x2a, 0x06,
  0xd1, 0x18, 0xe2, 0xd5, 0x0e, 0xf5, 0x0f, 0xe2, 0xe4, 0xe4, 0x01, 0x2a,
  0xee, 0xe8, 0x27, 0xf7, 0xfd, 0x1d, 0x01, 0xf8, 0xdc, 0x20, 0xf0, 0x06,
  0xd2, 0x1c, 0x12, 0xf1, 0x20, 0x04, 0xbd, 0xda, 0xfe, 0xcf, 0x51, 0x0d,
  0x0c, 0xd7, 0x45, 0xea, 0x00, 0x10, 0x2b, 0x28, 0xf2, 0xe9, 0xe8, 0xe6,
  0xda, 0xe8, 0xff, 0xec, 0xd8, 0xdd, 0xf9, 0xfd, 0xfc, 0xe5, 0xfc, 0x23,
  0xe7, 0x0d, 0x0a, 0x17, 0xf2, 0x02, 0x2d, 0xf2, 0xeb, 0xff, 0x15, 0xe9,
  0x04, 0x17, 0x0c, 0xdf, 0xe5, 0x22, 0x24, 0x34, 0xdc, 0xdb, 0xdc, 0xcf,
  0xfe, 0x33, 0xc8, 0xe6, 0x23, 0x17, 0x1f, 0x06, 0xf4, 0xef, 0xd9, 0xde,
  0xef, 0xe4, 0x2c, 0xf6, 0xd7, 0xe9, 0xed, 0x29, 0x28, 0x2b, 0x20, 0xe7,
  0x02, 0xf1, 0x08, 0xe1, 0xfe, 0xf0, 0xdb, 0xe9, 0xd4, 0x1a, 0xd3, 0x13,
  0xeb, 0xf1, 0xd5, 0xf7, 0xba, 0x39, 0x98, 0x27, 0x05, 0x0c, 0xff, 0x14,
  0xea, 0xdf, 0xca, 0x13, 0x16, 0xff, 0x1a, 0x20, 0x81, 0xfd, 0xb8, 0x38,
  0x28, 0x29, 0xb4, 0xe2, 0xfc, 0x16, 0xc5, 0x04, 0x23, 0x3e, 0x20, 0xfb,
  0x2a, 0x1e, 0xf2, 0x24, 0x0f, 0x27, 0xe5, 0xe3, 0x0c, 0xff, 0xd7, 0x03,
  0xcf, 0x1e, 0x2d, 0xdc, 0xc4, 0xef, 0x27, 0x0a, 0x1b, 0xf6, 0x0b, 0x1d,
  0xd0, 0x2f, 0xe6, 0x27, 0x24, 0xe5, 0x0e, 0xee, 0xf9, 0xfa, 0x0d, 0xfa,
  0xd7, 0x1d, 0xdd, 0xdd, 0xf5, 0x0b, 0xe7, 0x19, 0xf6, 0xef, 0x0a, 0xee,
  0xd5, 0xf1, 0x19, 0xf0, 0xd1, 0xfa, 0xfa, 0xfd, 0x17, 0x17, 0xd0, 0x27,
  0x14, 0x0c, 0xdb, 0xe2, 0x06, 0xed, 0x10, 0xd7, 0x13, 0x03, 0x34, 0x09,
  0xd0, 0x2d, 0x13, 0xe2, 0xde, 0xf4, 0x03, 0xd7, 0xe9, 0xe7, 0x06, 0xd2,
  0xda, 0xf4, 0x13, 0xe6, 0xf3, 0xcf, 0xd6, 0x2b, 0x2a, 0x09, 0x14, 0x00,
  0x13, 0xef, 0xd8, 0x1a, 0x25, 0xeb, 0xdc, 0x1c, 0x09, 0xd7, 0xf0, 0xdb,
  0xee, 0x09, 0x1e, 0x15, 0x08, 0x32, 0x24, 0x33, 0x0a, 0x1a, 0xd4, 0x20,
  0xc9, 0xfd, 0xe1, 0xef, 0x15, 0x01, 0xfd, 0xf3, 0x03, 0x1c, 0x9c, 0xff,
  0x2e, 0xfc, 0xe2, 0x42, 0x1c, 0xe1, 0xc1, 0xd6, 0x05, 0xe4, 0x2d, 0x21,
  0xc4, 0xdc, 0x02, 0x11, 0x29, 0x0e, 0x1b, 0x12, 0x12, 0xfb, 0xcf, 0x0e,
  0x1f, 0x1f, 0x10, 0xe3, 0x12, 0x29, 0x19, 0x00, 0xc4, 0xf7, 0xcd, 0x27,
  0xef, 0xfa, 0xf7, 0x33, 0xf1, 0xd1, 0x07, 0xdb, 0xed, 0xf1, 0x27, 0xe3,
  0x0e, 0xf2, 0xd8, 0x20, 0xd2, 0x0b, 0xf1, 0x2c, 0xcf, 0x24, 0xdd, 0xfc,
  0xfd, 0x16, 0xd9, 0x23, 0x04, 0x18, 0xf7, 0xd1, 0xd7, 0x1c, 0xe9, 0x10,
  0xf6, 0xfb, 0xd1, 0xfc, 0x16, 0xe1, 0x22, 0xf8, 0xfd, 0x14, 0x1d, 0xe9,
  0x29, 0x0e, 0x1d, 0xff, 0x21, 0x03, 0xd6, 0x2c, 0x10, 0x34, 0xe9, 0xd8,
  0x0d, 0x10, 0x1e, 0x10, 0x1f, 0x13, 0xf4, 0xd5, 0x02, 0xf9, 0xf0, 0x1f,
  0x2c, 0x15, 0x10, 0xda, 0xd9, 0x0a, 0xf7, 0xe9, 0xfa, 0x07, 0xe5, 0xf2,
  0x24, 0x0f, 0xf2, 0xe3, 0x2b, 0xe5, 0x2b, 0xd9, 0xd6, 0x2a, 0x26, 0xf4,
  0x1e, 0xdf, 0xd7, 0xd9, 0xea, 0xd4, 0xf2, 0xea, 0xf6, 0xe5, 0xc2, 0xee,
  0xfa, 0xd6, 0x26, 0x31, 0x2f, 0x2b, 0x2f, 0x0e, 0x04, 0xde, 0xf9, 0x0c,
  0xda, 0x09, 0xfe, 0x10, 0xf3, 0xd8, 0x1a, 0xfc, 0x10, 0x0b, 0xf4, 0xda,
  0x0e, 0xef, 0xe0, 0x25, 0xf4, 0xea, 0x35, 0xdf, 0x24, 0xd9, 0x25, 0xe5,
  0x1d, 0x2a, 0xc5, 0x2d, 0x28, 0xeb, 0x2f, 0xfb, 0x08, 0x26, 0xd6, 0xf9,
  0xff, 0x02, 0x08, 0xf8, 0x2a, 0xf0, 0xda, 0x12, 0x12, 0x0b, 0xec, 0x1d,
  0xe8, 0xd3, 0xf4, 0xdb, 0xeb, 0xd3, 0x29, 0xd3, 0xe3, 0xec, 0x09, 0x22,
  0x25, 0xe2, 0xf6, 0x1b, 0xec, 0x07, 0x08, 0x19, 0x3f, 0xd4, 0xee, 0xd8,
  0x0b, 0x1c, 0xcf, 0x16, 0x00, 0x16, 0x29, 0xf3, 0x23, 0x11, 0xfe, 0xd7,
  0x2f, 0x25, 0x12, 0x39, 0xea, 0xd5, 0xe4, 0xc3, 0xfb, 0xde, 0x1d, 0x30,
  0x02, 0xf9, 0xe4, 0xd9, 0x18, 0x0b, 0x0d, 0x36, 0xea, 0xf2, 0xd3, 0x06,
  0x0f, 0x29, 0xe5, 0xe5, 0x19, 0xf3, 0x0c, 0xdf, 0x11, 0xe9, 0xe4, 0xd5,
  0xdc, 0xf8, 0x15, 0xe3, 0xf5, 0x1e, 0xef, 0xeb, 0x07, 0x36, 0xd0, 0x35,
  0xfd, 0x0f, 0xe6, 0xde, 0x2d, 0xf1, 0x20, 0x0f, 0xfb, 0xca, 0xba, 0x13,
  0x1c, 0xef, 0xef, 0x1e, 0x1a, 0xce, 0x0c, 0x06, 0x22, 0xdd, 0x11, 0xdb,
  0xfe, 0xe1, 0x02, 0xf7, 0xc6, 0xe2, 0x07, 0x2a, 0x2b, 0xec, 0x45, 0x36,
  0xe5, 0xcf, 0x24, 0xe3, 0xf7, 0x04, 0x0f, 0xf0, 0x2f, 0x0f, 0xfd, 0xe0,
  0x27, 0xec, 0xef, 0xf7, 0xcd, 0xd7, 0xe7, 0xf0, 0xfd, 0x00, 0x20, 0x13,
  0xc2, 0x30, 0x97, 0xfa, 0x1b, 0xe6, 0xf3, 0x2c, 0x24, 0xd5, 0xea, 0x39,
  0x07, 0x2d, 0xde, 0x14, 0xd7, 0x1b, 0xf8, 0xcf, 0x0d, 0x28, 0xee, 0xdd,
  0x2c, 0xd9, 0x2e, 0x1b, 0x15, 0x18, 0x29, 0x16, 0xe1, 0x0f, 0xdc, 0xd1,
  0xec, 0xfc, 0x22, 0xf8, 0xeb, 0x13, 0xfd, 0x05, 0x25, 0x1f, 0xfc, 0xfc,
  0x21, 0x04, 0xfc, 0x1b, 0xcf, 0x10, 0x09, 0x02, 0xe2, 0xdf, 0x08, 0x03,
  0xd2, 0xe9, 0x1e, 0x09, 0x24, 0xc5, 0x46, 0x1b, 0xfc, 0xcb, 0xce, 0xe3,
  0x1c, 0xe5, 0x1d, 0x0a, 0xe8, 0x2c, 0xf0, 0x5a, 0x1c, 0xe9, 0x34, 0x10,
  0x11, 0x2e, 0xd0, 0xe3, 0x1c, 0x24, 0xdb, 0xf4, 0xeb, 0x2c, 0x08, 0xf0,
  0x43, 0xeb, 0xd3, 0x2b, 0x08, 0x07, 0x12, 0xe3, 0x2a, 0x0e, 0x32, 0xd9,
  0xf4, 0xfb, 0xc9, 0x20, 0x26, 0xfa, 0x42, 0x0c, 0xdb, 0x0c, 0xc8, 0xc7,
  0xf3, 0x32, 0x11, 0x0c, 0xd5, 0xd6, 0xd5, 0x06, 0xf0, 0x15, 0xd7, 0xe5,
  0xeb, 0x17, 0xfe, 0x17, 0xe5, 0x1f, 0xf6, 0xec, 0xec, 0x0b, 0xe1, 0x28,
  0xf4, 0x0a, 0xf7, 0x1c, 0xfd, 0xcf, 0xcf, 0x1b, 0xef, 0xcf, 0xf8, 0x24,
  0x20, 0xdd, 0xd4, 0xd4, 0x04, 0x01, 0x01, 0xdd, 0x09, 0xd5, 0xd6, 0x0f,
  0x01, 0xe0, 0xe6, 0xef, 0xfb, 0xd4, 0xe7, 0xf7, 0x19, 0xf6, 0xcc, 0xdc,
  0x0e, 0xde, 0x2a, 0x12, 0x11, 0xe0, 0x11, 0xcd, 0x28, 0x19, 0xec, 0x05,
  0xe9, 0xd9, 0x22, 0x16, 0x0e, 0xed, 0xce, 0xd1, 0x0c, 0x11, 0x05, 0xe0,
  0x02, 0x22, 0xfc, 0xe5, 0xd7, 0xf5, 0xc4, 0x07, 0xf9, 0xca, 0x0c, 0x1f,
  0x1b, 0x2e, 0xf3, 0x2b, 0x2e, 0x0d, 0x36, 0xee, 0xf8, 0x0f, 0x13, 0xd7,
  0xe0, 0x18, 0x1c, 0xf4, 0xeb, 0xe2, 0x0a, 0xf3, 0xd8, 0xe2, 0x17, 0xd5,
  0xe5, 0xd3, 0xfe, 0x2d, 0xed, 0xeb, 0xd7, 0xed, 0x2c, 0xe8, 0xef, 0xd3,
  0x26, 0xf9, 0x24, 0x19, 0x3d, 0xf0, 0xc1, 0xe0, 0xcd, 0x2b, 0x30, 0x17,
  0x20, 0xff, 0x3c, 0x2b, 0xeb, 0x03, 0xd4, 0xf2, 0x26, 0x05, 0x2e, 0x29,
  0xeb, 0x03, 0xfb, 0xee, 0x28, 0x03, 0xe4, 0x17, 0x1c, 0xe9, 0xe0, 0x13,
  0xe6, 0x18, 0x2f, 0x00, 0xe9, 0xfe, 0x10, 0x06, 0xd4, 0x09, 0xdd, 0x2b,
  0x15, 0x23, 0xe4, 0x28, 0xf4, 0xfd, 0x25, 0xd1, 0xd5, 0x02, 0x04, 0x0a,
  0x2d, 0xed, 0x1b, 0xe5, 0xf9, 0xd8, 0x07, 0x18, 0x3e, 0x14, 0x33, 0xe2,
  0xde, 0xe1, 0x29, 0xf0, 0xce, 0x00, 0xfc, 0x28, 0x17, 0xe4, 0x12, 0x16,
  0x07, 0xea, 0xe5, 0xf6, 0x0e, 0xf4, 0x1d, 0xf2, 0xf8, 0xdf, 0xfc, 0x0c,
  0xd7, 0xd5, 0x23, 0xdc, 0x00, 0x20, 0xb6, 0xdb, 0xe7, 0x11, 0xb7, 0x00,
  0xee, 0x16, 0x19, 0x16, 0x26, 0x2f, 0x10, 0xeb, 0xf4, 0xec, 0x47, 0xea,
  0x2d, 0xdc, 0x1b, 0xe0, 0xd8, 0x0f, 0x18, 0xd3, 0x07, 0x1e, 0x03, 0x0a,
  0xe9, 0xd3, 0x27, 0x20, 0x11, 0xdf, 0xf9, 0x08, 0x0f, 0x0e, 0x2e, 0xd0,
  0x02, 0x02, 0xfb, 0xfe, 0xeb, 0xdd, 0x14, 0x11, 0x05, 0xd0, 0xe9, 0xe4,
  0xd0, 0xeb, 0x09, 0x10, 0xd1, 0xd9, 0xf8, 0xe9, 0xed, 0xd8, 0x2b, 0x0a,
  0xf6, 0xfc, 0x2d, 0x28, 0xf6, 0xff, 0x03, 0x29, 0x1a, 0xf8, 0xe6, 0x24,
  0x0a, 0x22, 0xc3, 0xdd, 0xe8, 0xd0, 0x03, 0x20, 0x1e, 0x17, 0x2e, 0x05,
  0x20, 0x2b, 0x06, 0x1c, 0xd5, 0x13, 0xda, 0x2d, 0x02, 0xe2, 0xf6, 0xd2,
  0xd2, 0x23, 0x0d, 0x30, 0x1f, 0xf6, 0xf7, 0xda, 0xd3, 0x2a, 0xe2, 0xfa,
  0x1d, 0x1b, 0x03, 0x28, 0x25, 0xd3, 0xe5, 0x1f, 0xfc, 0x31, 0x28, 0xd2,
  0x16, 0xdc, 0x34, 0xce, 0x10, 0x05, 0x08, 0x10, 0x28, 0x28, 0xf6, 0xff,
  0x2c, 0x11, 0xcf, 0xdf, 0x0d, 0x0f, 0xe3, 0xf8, 0xdd, 0xec, 0x1a, 0xf4,
  0x1b, 0x12, 0x11, 0xf0, 0x0c, 0xd0, 0xec, 0xe6, 0xfa, 0xee, 0x22, 0x2f,
  0x22, 0xe9, 0xd4, 0xf1, 0xda, 0x16, 0x0f, 0x0b, 0x0a, 0xee, 0x2a, 0x0e,
  0xf0, 0x14, 0x08, 0x19, 0x0d, 0xe7, 0xe9, 0xe1, 0xef, 0x1c, 0xf7, 0xe3,
  0x05, 0x1f, 0xef, 0x0b, 0x17, 0x16, 0xde, 0xde, 0xff, 0xcd, 0x14, 0xf1,
  0xf6, 0x12, 0xff, 0xd5, 0xec, 0x2d, 0x26, 0x10, 0x08, 0xf4, 0xd1, 0xee,
  0x0f, 0xf8, 0xd5, 0x05, 0xed, 0xd5, 0x1f, 0x27, 0x15, 0xfe, 0xfe, 0xea,
  0x23, 0xe5, 0x12, 0xe6, 0x15, 0xf7, 0xd0, 0xf2, 0xf6, 0xf4, 0x1e, 0xd7,
  0x09, 0x24, 0xd1, 0xe5, 0xf2, 0xc8, 0x2b, 0xc5, 0x13, 0x29, 0xfb, 0x08,
  0x2c, 0x01, 0xf1, 0x2d, 0xcf, 0xd4, 0x13, 0xf4, 0x31, 0xdf, 0xdc, 0xd1,
  0xf0, 0xd4, 0xdb, 0xf8, 0xe4, 0xf9, 0x27, 0xfe, 0xd7, 0xcf, 0x11, 0xdc,
  0x02, 0xea, 0xd6, 0xee, 0xd9, 0x07, 0x15, 0x2d, 0x2d, 0xdd, 0xdc, 0xe6,
  0x16, 0x29, 0xf5, 0xd6, 0xe9, 0xef, 0xe9, 0xd7, 0xed, 0xfa, 0xdf, 0xd0,
  0x14, 0xde, 0xdd, 0xe2, 0x2b, 0xef, 0xe4, 0x08, 0xef, 0x07, 0xf8, 0xef,
  0xfb, 0x0d, 0x14, 0xf2, 0xd6, 0x09, 0xef, 0x0f, 0xe2, 0x2d, 0xec, 0xd3,
  0xed, 0x0b, 0xf3, 0x0c, 0xd8, 0x2c, 0xe2, 0x00, 0x1d, 0x02, 0xff, 0x1d,
  0x10, 0x16, 0x1b, 0xf9, 0x33, 0x1a, 0x23, 0xe0, 0xdb, 0x08, 0x35, 0xe4,
  0x08, 0x27, 0x1a, 0xf1, 0xfb, 0x1a, 0x0a, 0xe5, 0xff, 0x30, 0x3f, 0xe7,
  0x29, 0x0d, 0x1d, 0x12, 0x1c, 0xdc, 0xc1, 0x28, 0x05, 0xc6, 0x08, 0x22,
  0xef, 0x13, 0x17, 0x0b, 0xe4, 0x06, 0xf8, 0xe4, 0xe0, 0x14, 0xde, 0x11,
  0xe4, 0x18, 0x07, 0xd9, 0xd8, 0xdb, 0x15, 0xe5, 0x02, 0xf1, 0xd2, 0x1f,
  0x0b, 0x1e, 0xd2, 0x00, 0xe3, 0xeb, 0x00, 0x1f, 0xf5, 0xeb, 0xe0, 0x0c,
  0x1d, 0x1e, 0xd3, 0x1b, 0xec, 0xdc, 0xd8, 0x2c, 0xfb, 0xd0, 0x08, 0x15,
  0x1d, 0x02, 0x20, 0xe0, 0xcc, 0xd8, 0xcf, 0x14, 0xd8, 0x12, 0x0b, 0xcd,
  0x05, 0x26, 0x17, 0x0b, 0x04, 0xe1, 0x34, 0x0a, 0xee, 0x1d, 0xed, 0x21,
  0xe1, 0x1d, 0xc4, 0xf4, 0x15, 0x18, 0x1e, 0xf2, 0xd3, 0x03, 0xd5, 0xd0,
  0xed, 0x07, 0xd7, 0xf4, 0xfe, 0x18, 0xfe, 0xef, 0xe7, 0xff, 0xed, 0xf3,
  0xf2, 0xdd, 0xd6, 0x11, 0x23, 0xdc, 0xcf, 0xfd, 0x32, 0x13, 0x16, 0x26,
  0xff, 0xfe, 0x2f, 0x1b, 0xe0, 0x2f, 0xdc, 0xfd, 0x08, 0x19, 0xd7, 0x0e,
  0xcf, 0xe6, 0x26, 0x1d, 0xe7, 0xd4, 0xd9, 0x24, 0xea, 0xfa, 0x21, 0xe5,
  0x0c, 0x32, 0x14, 0xe4, 0x26, 0x25, 0x0f, 0x19, 0x1e, 0x0a, 0x2a, 0xfa,
  0x16, 0x18, 0xe7, 0x0d, 0xee, 0xd1, 0x1b, 0x0b, 0x2a, 0x34, 0xf4, 0xe8,
  0x14, 0x2a, 0xf5, 0xf8, 0x2e, 0x30, 0xe8, 0xff, 0xd7, 0xee, 0xdf, 0x15,
  0x2c, 0xd4, 0xd5, 0x1f, 0xcf, 0xeb, 0xe3, 0x0f, 0x1e, 0xf9, 0x10, 0xf3,
  0x12, 0xd2, 0x04, 0xee, 0x49, 0xeb, 0x3f, 0x1b, 0x10, 0x07, 0xf0, 0x0a,
  0x19, 0x07, 0x08, 0x2a, 0x26, 0x0e, 0xf0, 0xd0, 0xec, 0xd6, 0xd3, 0xd4,
  0xdc, 0x0c, 0xfa, 0xee, 0x0f, 0xff, 0x24, 0xd7, 0x0c, 0x0b, 0xe7, 0xd3,
  0x12, 0xda, 0xd4, 0xf6, 0xe1, 0x24, 0xdd, 0x08, 0x33, 0x45, 0xc3, 0x02,
  0x11, 0x30, 0xd0, 0xe2, 0xf3, 0x10, 0xed, 0x10, 0xce, 0xf6, 0xc5, 0x43,
  0xf2, 0xe0, 0xf9, 0x0f, 0xd4, 0xe3, 0x23, 0xd3, 0x1e, 0x15, 0xed, 0xe6,
  0x2c, 0x14, 0x1e, 0xe4, 0x15, 0x2b, 0xd7, 0xf0, 0xdf, 0xf4, 0x3b, 0x29,
  0xe1, 0xec, 0x2d, 0x39, 0x15, 0xca, 0xd8, 0x28, 0xc9, 0x26, 0x1e, 0xc7,
  0x11, 0xe6, 0x07, 0xe2, 0x12, 0x34, 0xde, 0x32, 0x0c, 0xda, 0x26, 0xfe,
  0xe0, 0xea, 0xef, 0xf0, 0x10, 0x2a, 0xf6, 0xdf, 0xff, 0xd0, 0xe4, 0xd4,
  0xcf, 0xe5, 0xd3, 0x1a, 0xf8, 0xde, 0xe3, 0xe9, 0xd0, 0xd8, 0x0c, 0x28,
  0xe6, 0xd3, 0xd0, 0x10, 0x0a, 0xef, 0xf7, 0xcf, 0x18, 0xfd, 0x04, 0x20,
  0xf9, 0xef, 0x0b, 0x07, 0xcb, 0xf5, 0xdb, 0x2b, 0xd2, 0x02, 0x14, 0x3a,
  0xf1, 0x29, 0xdc, 0xeb, 0xde, 0x2e, 0x07, 0xd9, 0xef, 0xf9, 0xe5, 0xea,
  0xe4, 0xfd, 0xf8, 0x29, 0x0d, 0xf1, 0x2b, 0xf7, 0x2d, 0x0d, 0x08, 0xc5,
  0xf8, 0x31, 0xff, 0x09, 0xee, 0x1a, 0xf6, 0xd4, 0xe5, 0x17, 0x10, 0x16,
  0x05, 0x05, 0xdc, 0xdc, 0x0b, 0xec, 0x0d, 0x00, 0x17, 0xc9, 0xf0, 0x18,
  0xe7, 0xde, 0x0d, 0x25, 0x2a, 0xf1, 0xce, 0xda, 0xef, 0xef, 0x0c, 0x18,
  0x26, 0xe5, 0x18, 0x17, 0x37, 0x25, 0xfc, 0x14, 0x02, 0x27, 0x1b, 0x13,
  0xd9, 0xc2, 0xed, 0x18, 0xd2, 0xfd, 0x22, 0x14, 0xfc, 0x27, 0x34, 0x1e,
  0x2f, 0xd5, 0x13, 0xf6, 0x27, 0x16, 0xd7, 0xea, 0x16, 0x28, 0xd8, 0x20,
  0x28, 0xed, 0xee, 0xd1, 0x0d, 0x0e, 0xdb, 0xf0, 0xd2, 0xe1, 0x04, 0x1e,
  0x29, 0xef, 0xd4, 0x27, 0xd1, 0x03, 0xe6, 0xef, 0xdb, 0x31, 0xd1, 0x1c,
  0xda, 0xfc, 0x13, 0x0d, 0x2e, 0xea, 0xe7, 0xfa, 0xed, 0xde, 0xe5, 0xde,
  0x19, 0xeb, 0xd8, 0xfa, 0xe5, 0xd8, 0x12, 0xfb, 0x1c, 0x01, 0x15, 0xed,
  0x1c, 0xd3, 0xd5, 0xe6, 0x20, 0xcf, 0x20, 0xe3, 0x2e, 0x11, 0x0b, 0x10,
  0xe3, 0xe3, 0x01, 0xf0, 0x02, 0x28, 0x0e, 0xf1, 0xd9, 0x03, 0xe9, 0xd1,
  0xcb, 0x29, 0x13, 0x27, 0x01, 0x1d, 0xff, 0x27, 0x00, 0xfe, 0xd2, 0x2e,
  0xe7, 0xda, 0xf7, 0x1f, 0xff, 0x0b, 0xfc, 0xfd, 0xdc, 0x18, 0x10, 0xd2,
  0xe9, 0xf0, 0x15, 0xf0, 0x28, 0xd8, 0xd9, 0x11, 0x09, 0xe2, 0xe1, 0xef,
  0xe7, 0x03, 0xf6, 0xea, 0x30, 0xfc, 0x2e, 0xdb, 0xc7, 0xfa, 0xaa, 0x11,
  0x17, 0xd6, 0x18, 0x29, 0x15, 0xef, 0x01, 0xb3, 0x29, 0xf7, 0xf3, 0x0d,
  0xea, 0x14, 0xe9, 0xcd, 0xce, 0xf7, 0xf7, 0x11, 0x15, 0x0b, 0x17, 0xf8,
  0x0a, 0xf3, 0xf1, 0xe9, 0xe8, 0x19, 0x28, 0xd5, 0x06, 0xf0, 0xf3, 0xdd,
  0xd0, 0x2d, 0x0c, 0xed, 0x06, 0xdd, 0xed, 0x04, 0x02, 0xd5, 0x11, 0x03,
  0x1b, 0x15, 0xf1, 0xef, 0x08, 0xe2, 0x00, 0xeb, 0xe4, 0x14, 0xe8, 0xf5,
  0xcf, 0x13, 0x1f, 0xe1, 0x04, 0x29, 0xdf, 0x0a, 0xda, 0x02, 0x25, 0xd2,
  0xef, 0x17, 0x0a, 0x30, 0x23, 0x2e, 0xd5, 0x22, 0xe3, 0xef, 0xde, 0xd4,
  0xdb, 0x20, 0xfc, 0x10, 0x07, 0x2c, 0xf9, 0x11, 0xef, 0x17, 0x15, 0xe2,
  0xdc, 0x1d, 0xd8, 0xdf, 0xec, 0xd4, 0x0b, 0xe0, 0xd8, 0xf6, 0x3a, 0x03,
  0x1b, 0x1c, 0x25, 0xcf, 0x13, 0x3d, 0x19, 0xf3, 0xd0, 0x34, 0xf8, 0x32,
  0xdc, 0x11, 0x16, 0x30, 0xdb, 0xe9, 0xe8, 0xe5, 0x1f, 0x07, 0xfd, 0xd5,
  0xee, 0x2e, 0xd1, 0xe7, 0x04, 0x29, 0x07, 0x38, 0xc3, 0x00, 0xd6, 0x24,
  0xc0, 0x13, 0xe5, 0x0b, 0xfe, 0x0c, 0xe8, 0xc5, 0xd2, 0x22, 0x4e, 0x03,
  0x35, 0xfa, 0xed, 0x2b, 0xe5, 0xf4, 0x1e, 0xd5, 0xf0, 0x1f, 0xc7, 0xee,
  0xda, 0xd4, 0xf5, 0xcd, 0x1e, 0xe4, 0x10, 0xd5, 0x14, 0x16, 0xea, 0x12,
  0x2e, 0x21, 0xe4, 0xf0, 0x21, 0x21, 0x15, 0x03, 0x19, 0xf6, 0x18, 0x30,
  0x0d, 0x3a, 0x36, 0x20, 0x1a, 0xd5, 0x0f, 0xf9, 0x2d, 0xef, 0x0f, 0x25,
  0x08, 0xd2, 0xfe, 0xd0, 0xf0, 0xfc, 0xd9, 0x2c, 0xe8, 0xd4, 0xf4, 0x08,
  0x06, 0xea, 0x0d, 0xd3, 0xe3, 0xfd, 0xf5, 0xe0, 0x29, 0xdb, 0x0f, 0x09,
  0x2b, 0xdb, 0x2e, 0xd2, 0xe2, 0xe7, 0x10, 0xda, 0xee, 0xd9, 0x28, 0x16,
  0xee, 0xf5, 0xed, 0x0d, 0xd7, 0x1a, 0xe2, 0xf9, 0x14, 0x0e, 0xef, 0xf2,
  0x20, 0xed, 0xdd, 0x0c, 0x07, 0xfe, 0x1b, 0xf9, 0xfd, 0x17, 0x17, 0xda,
  0xf8, 0x24, 0xee, 0x24, 0x06, 0x19, 0xd8, 0x2d, 0x08, 0xff, 0x20, 0xe6,
  0xda, 0xe0, 0x1e, 0xf7, 0x2a, 0x03, 0x0b, 0x12, 0x10, 0xf8, 0x09, 0xd5,
  0xdf, 0x1e, 0x05, 0x17, 0xd1, 0xe9, 0x1f, 0x22, 0x00, 0xed, 0xff, 0xff,
  0x04, 0x00, 0x06, 0x00, 0x04, 0x00, 0x00, 0x00, 0x00, 0x00, 0x06, 0x00,
  0x08, 0x00, 0x04, 0x00, 0x06, 0x00, 0x00, 0x00, 0x04, 0x00, 0x00, 0x00,
  0xa0, 0x0f, 0x00, 0x00, 0x24, 0x84, 0x64, 0xbd, 0x5d, 0xe1, 0xc7, 0xbb,
  0x9f, 0x2a, 0xc3, 0xbd, 0x21, 0x2d, 0x00, 0x3f, 0x60, 0x3b, 0x9c, 0x3b,
  0x62, 0x44, 0x9f, 0x3d, 0x2c, 0x1f, 0x16, 0xbe, 0x20, 0x5f, 0x0c, 0x3e,
  0xac, 0x1e, 0x40, 0x3d, 0x12, 0xfc, 0xa4, 0xbe, 0xdc, 0x91, 0xf5, 0x3d,
  0xe1, 0x33, 0xca, 0xbd, 0x35, 0xfb, 0x08, 0xbe, 0xb8, 0xf4, 0xac, 0xbd,
  0x47, 0xe1, 0xfb, 0x3c, 0xaf, 0x5d, 0xe5, 0xbd, 0xce, 0x36, 0xc3, 0x3d,
  0x5f, 0x77, 0x8b, 0xbd, 0x07, 0x01, 0x09, 0x3e, 0x15, 0x07, 0xa2, 0x3d,
  0xad, 0x10, 0x9d, 0xbd, 0x09, 0x78, 0x33, 0x3e, 0xa0, 0xbc, 0xc0, 0x3d,
  0x20, 0x04, 0xef, 0xbc, 0x20, 0xf9, 0x93, 0xbb, 0x23, 0xa9, 0x6b, 0xbd,
  0xcf, 0xbf, 0x28, 0x3c, 0xa7, 0x16, 0x7e, 0x3c, 0xb3, 0x30, 0x2e, 0x3e,
  0xea, 0x49, 0xcd, 0xbd, 0x8a, 0x37, 0x19, 0xbd, 0xa3, 0xaa, 0x4e, 0x3e,
  0x1d, 0x7a, 0x9d, 0x3d, 0x48, 0xc2, 0x3e, 0x3d, 0x08, 0x6e, 0xc2, 0xbc,
  0x19, 0xb4, 0xba, 0xbd, 0x42, 0x4e, 0xaf, 0x3d, 0xce, 0x40, 0x14, 0x3e,
  0x1c, 0x87, 0x32, 0xbd, 0x99, 0xa5, 0xbd, 0xbd, 0xa2, 0x0e, 0x9f, 0x3d,
  0x96, 0x64, 0x05, 0xbf, 0x93, 0x35, 0xd1, 0xbd, 0x12, 0xc9, 0x74, 0xbe,
  0x16, 0x3f, 0x5b, 0xbd, 0x47, 0x8d, 0xe5, 0xbd, 0x21, 0x93, 0x73, 0x3d,
  0x4f, 0x9e, 0x97, 0xbb, 0xa8, 0xf4, 0x62, 0x3d, 0x48, 0x53, 0x1a, 0x3d,
  0x79, 0x8f, 0x1a, 0xbd, 0x6e, 0xbc, 0x30, 0xbe, 0xbd, 0x88, 0x2b, 0x3e,
  0xb4, 0x84, 0x9d, 0xbd, 0xf6, 0xaf, 0x1b, 0xbe, 0x34, 0x3f, 0x65, 0x3d,
  0x58, 0xc4, 0x2d, 0x3e, 0x3e, 0x76, 0x0e, 0x3e, 0x30, 0xe8, 0x77, 0x3d,
  0x96, 0xc8, 0xce, 0x3c, 0x50, 0xc5, 0x28, 0x3e, 0x1c, 0xb4, 0xf0, 0x3d,
  0xe4, 0xbc, 0x16, 0x3d, 0xc9, 0xec, 0x57, 0x3d, 0x3e, 0xf3, 0x86, 0x3e,
  0x00, 0xd9, 0x9f, 0xbd, 0x61, 0xf9, 0x88, 0x3d, 0xc8, 0x37, 0x09, 0x3d,
  0xe3, 0x97, 0x03, 0xbe, 0xcc, 0x25, 0x20, 0x3e, 0x2f, 0xe4, 0xfa, 0xbd,
  0xdc, 0xff, 0x14, 0xbf, 0x36, 0x8e, 0xa2, 0xbd, 0xfe, 0x8a, 0xfb, 0x3d,
  0x80, 0xd2, 0xa3, 0xbb, 0xee, 0xd8, 0x85, 0x3d, 0xe2, 0x97, 0xe4, 0x3d,
  0xdc, 0x01, 0x27, 0x3d, 0x1a, 0x9a, 0x2d, 0xbe, 0xf5, 0xdb, 0x17, 0xbe,
  0xb6, 0x48, 0x62, 0x3e, 0x71, 0x99, 0x8d, 0x3d, 0xb9, 0x12, 0x2c, 0x3e,
  0x79, 0x86, 0xa9, 0x3d, 0x30, 0x89, 0xfd, 0xbc, 0xc8, 0xbf, 0x34, 0x3e,
  0x8f, 0xee, 0xa9, 0xbd, 0xb5, 0x5d, 0xdf, 0x3d, 0x28, 0xa0, 0xdb, 0x3d,
  0xed, 0x88, 0xc8, 0x3e, 0x3c, 0xe5, 0x1f, 0x3e, 0xf6, 0x88, 0x47, 0x3d,
  0xc4, 0xdc, 0x88, 0x3d, 0xe5, 0xa8, 0x0a, 0xbe, 0x43, 0xde, 0x40, 0xbe,
  0x38, 0x04, 0xc2, 0xbd, 0xe3, 0x18, 0xb3, 0x3b, 0x30, 0x63, 0x0f, 0x3e,
  0x9c, 0x61, 0xe3, 0xbd, 0x16, 0x35, 0xd6, 0xbd, 0x0c, 0x94, 0xfe, 0xbd,
  0x20, 0xf0, 0x0d, 0xbe, 0x44, 0x34, 0xae, 0xbd, 0x2c, 0x37, 0x25, 0x3e,
  0x2e, 0xf3, 0x60, 0x3d, 0x40, 0xa6, 0x94, 0x3b, 0x5f, 0xc7, 0x69, 0xbe,
  0x06, 0xc5, 0xa8, 0x3d, 0x3d, 0xf9, 0x66, 0xbc, 0xe2, 0xec, 0x51, 0x3d,
  0xfc, 0x2d, 0x17, 0xbe, 0x06, 0x98, 0x8c, 0xbd, 0x78, 0x2f, 0x27, 0x3e,
  0x66, 0xe1, 0x1a, 0x3e, 0x29, 0xeb, 0xe0, 0xbd, 0x35, 0x78, 0x35, 0xbd,
  0x18, 0x1f, 0x5b, 0x3d, 0xcf, 0x96, 0x76, 0x3d, 0xdb, 0x5d, 0x6a, 0x3e,
  0xcf, 0x23, 0x1e, 0x3e, 0xe2, 0xe6, 0x02, 0xbd, 0xf6, 0x27, 0xb4, 0xbb,
  0xca, 0x54, 0xfb, 0xbd, 0xc0, 0x3b, 0x21, 0xbc, 0x3b, 0x2c, 0x8b, 0x3d,
  0xea, 0xbe, 0x4e, 0x3d, 0x1b, 0x98, 0x2e, 0x3d, 0x8c, 0x6f, 0xa8, 0x3d,
  0x37, 0xc6, 0x94, 0x3c, 0x5e, 0x41, 0x45, 0x3d, 0xbf, 0xe8, 0x5d, 0x3c,
  0xdb, 0x7c, 0xa9, 0xbd, 0x1a, 0x60, 0x61, 0x3d, 0x6e, 0x6e, 0x81, 0x3d,
  0x4f, 0x8e, 0xe1, 0xbd, 0x9e, 0xdd, 0x94, 0xbc, 0xc6, 0xf2, 0x40, 0xbd,
  0x84, 0x72, 0x14, 0x3e, 0x97, 0xba, 0x25, 0xbe, 0x0e, 0x84, 0x6c, 0x3e,
  0x18, 0x77, 0x56, 0x3d, 0x74, 0x70, 0xca, 0x3d, 0x78, 0x6f, 0x87, 0xbc,
  0x37, 0x23, 0x2a, 0xbe, 0xe7, 0x1a, 0x5f, 0xbd, 0xa7, 0x07, 0x0a, 0x3e,
  0x0d, 0x4e, 0x03, 0xbe, 0xb6, 0x6a, 0x04, 0xbe, 0xac, 0x10, 0x13, 0x3d,
  0xe8, 0x46, 0x15, 0x3d, 0x89, 0xe0, 0x34, 0xbd, 0xa0, 0xbe, 0xbc, 0xbd,
  0x18, 0x36, 0x16, 0xbe, 0xc2, 0xee, 0xf3, 0xbd, 0xd8, 0x3b, 0xea, 0xbb,
  0x04, 0x3e, 0xfe, 0x3d, 0x5c, 0x3f, 0xad, 0x3d, 0x4c, 0x36, 0x21, 0x3d,
  0x33, 0x8f, 0x5a, 0xbe, 0xa0, 0x6f, 0x1e, 0x3c, 0x9a, 0x42, 0x49, 0xbd,
  0x8c, 0x9a, 0x96, 0xbd, 0xd8, 0x1b, 0x3a, 0x3e, 0xe9, 0xe4, 0x0e, 0x3e,
  0xcc, 0x1a, 0x14, 0x3e, 0x18, 0x1f, 0xdc, 0xbd, 0x9c, 0x2e, 0x95, 0xbd,
  0x5d, 0xb6, 0x35, 0xbe, 0xd8, 0x92, 0xd0, 0x3d, 0x30, 0xa2, 0xac, 0x3c,
  0x21, 0x94, 0x9c, 0x3d, 0x88, 0x8e, 0xe2, 0xbd, 0xd2, 0x2b, 0xb1, 0xbd,
  0x33, 0x6a, 0xbd, 0x3d, 0x83, 0x1b, 0xe4, 0xbd, 0x17, 0x67, 0xc1, 0xbd,
  0x38, 0x1a, 0x84, 0x3d, 0x53, 0x0f, 0x91, 0x3d, 0x5b, 0xc6, 0x1d, 0x3e,
  0xc8, 0xc2, 0xce, 0x3d, 0x00, 0x4d, 0xd6, 0x3c, 0xec, 0x37, 0x16, 0xbe,
  0x8b, 0xc7, 0x3f, 0x3e, 0xae, 0x0a, 0xf9, 0xbd, 0xa9, 0x98, 0xc2, 0xbd,
  0x86, 0xfb, 0x03, 0x3e, 0x26, 0x03, 0x6c, 0xbc, 0x80, 0x65, 0x9f, 0x3d,
  0xd8, 0x96, 0xc4, 0x3d, 0x98, 0x63, 0x0d, 0xbe, 0x71, 0xc8, 0xd6, 0x3d,
  0xa3, 0x86, 0x88, 0xbe, 0xaf, 0x97, 0x29, 0xbe, 0x9d, 0xb5, 0xfc, 0x3d,
  0x3c, 0x14, 0xa9, 0x3d, 0x49, 0x92, 0x19, 0xbe, 0x38, 0x38, 0x82, 0x3d,
  0xaa, 0x56, 0x9f, 0xbb, 0x22, 0xb7, 0x8f, 0xbd, 0x1e, 0xed, 0x3b, 0x3c,
  0xdf, 0xbb, 0x93, 0x3e, 0xce, 0x4e, 0x1c, 0x3d, 0xb2, 0x42, 0x34, 0x3e,
  0x8c, 0x3d, 0xf1, 0x3e, 0xda, 0x14, 0x89, 0x3d, 0xab, 0xc3, 0x1c, 0xbe,
  0x95, 0xee, 0x2b, 0xbe, 0x7f, 0x71, 0x80, 0xbe, 0xe0, 0x32, 0x62, 0x3d,
  0x65, 0x4f, 0x7b, 0x3e, 0xbc, 0x77, 0xe1, 0xbd, 0x67, 0xe1, 0x74, 0xbd,
  0xeb, 0x48, 0xe4, 0xbd, 0xfb, 0x38, 0x2e, 0xbe, 0xe1, 0x8d, 0x80, 0xbd,
  0x36, 0xd5, 0x04, 0xbe, 0x62, 0x8c, 0xe4, 0xbc, 0x45, 0x38, 0x1b, 0x3d,
  0xd3, 0x8b, 0x91, 0x3d, 0xa3, 0xee, 0xfa, 0x3d, 0x70, 0x47, 0x24, 0x3d,
  0x11, 0x13, 0x51, 0x3b, 0x29, 0x23, 0xc2, 0x3d, 0xb0, 0xbf, 0x4b, 0xbc,
  0xe0, 0xd7, 0xcf, 0xbc, 0x82, 0xee, 0xc6, 0xbc, 0x91, 0xd5, 0x60, 0xbe,
  0x1e, 0x8c, 0xc4, 0xbd, 0x6f, 0x0e, 0x70, 0x3e, 0x3a, 0xe2, 0x1a, 0x3d,
  0x57, 0x96, 0x23, 0x3e, 0x28, 0x32, 0xcd, 0x3d, 0x90, 0x60, 0x6c, 0xbd,
  0x0a, 0x34, 0xad, 0xbd, 0x80, 0xda, 0x3c, 0xbb, 0x28, 0x52, 0xd1, 0x3d,
  0xbb, 0xcb, 0x33, 0x3d, 0x29, 0xd4, 0x68, 0x3d, 0xa0, 0x56, 0xad, 0x3b,
  0x94, 0x9b, 0x15, 0xbe, 0x90, 0xd5, 0xc2, 0x3d, 0x45, 0x13, 0x88, 0x3e,
  0xb5, 0x1a, 0xe0, 0xbd, 0xee, 0x6a, 0xb6, 0xbc, 0x9a, 0x0b, 0xeb, 0xbd,
  0x35, 0xf7, 0x33, 0xbb, 0x20, 0x7d, 0x86, 0xbe, 0xc5, 0x26, 0xa5, 0xbd,
  0x44, 0xbe, 0x0f, 0x3e, 0x6a, 0xf3, 0x53, 0x3e, 0x4e, 0xb3, 0xd4, 0xbd,
  0x8d, 0x77, 0x84, 0xbd, 0x7d, 0x2e, 0x52, 0x3d, 0xac, 0x35, 0x08, 0x3e,
  0x3c, 0x3e, 0x7a, 0xbb, 0x59, 0x28, 0x22, 0xbe, 0xb6, 0x3a, 0xf4, 0x3d,
  0x01, 0xa2, 0x2d, 0xbe, 0xc6, 0xb7, 0x4a, 0xbd, 0xe4, 0x91, 0x86, 0x3c,
  0xe4, 0xef, 0xf5, 0x3d, 0xce, 0x21, 0x13, 0xbe, 0xa8, 0x37, 0x74, 0xbd,
  0x67, 0x8c, 0x5f, 0x3e, 0xa2, 0xf6, 0x8d, 0xbe, 0x10, 0x3e, 0xae, 0x3d,
  0x14, 0xda, 0x84, 0x3c, 0x08, 0xf3, 0x96, 0x3e, 0x10, 0xc8, 0x60, 0x3c,
  0x18, 0x01, 0xdb, 0x3d, 0xbe, 0x39, 0xe2, 0xbe, 0xc2, 0x67, 0x4c, 0x3e,
  0x20, 0xad, 0x2b, 0xbd, 0x8c, 0xa7, 0xe5, 0x3d, 0x90, 0xa9, 0x76, 0x3c,
  0x7e, 0x3a, 0xa5, 0xbd, 0xa5, 0x81, 0x88, 0x3d, 0x2c, 0x79, 0x20, 0x3e,
  0xd8, 0x12, 0x2b, 0xbe, 0x4b, 0x66, 0xe6, 0x3d, 0x0c, 0xb4, 0xb6, 0xbe,
  0x60, 0x73, 0x7b, 0x3d, 0xce, 0xb0, 0x3c, 0x3e, 0xe9, 0x6a, 0x84, 0xbd,
  0xec, 0x56, 0x8e, 0x3d, 0xc8, 0x04, 0x17, 0x3e, 0x71, 0xd0, 0x02, 0xbe,
  0x8a, 0x11, 0xeb, 0xbd, 0xc0, 0xa9, 0x0c, 0xbe, 0x8f, 0xc1, 0xa4, 0xbe,
  0x14, 0x51, 0xcb, 0x3d, 0x1c, 0x14, 0xb0, 0x3d, 0x58, 0x6e, 0x8d, 0x3c,
  0x86, 0xf8, 0x03, 0xbe, 0x7d, 0xe6, 0x2b, 0x3e, 0x58, 0x82, 0x26, 0x3e,
  0x47, 0x90, 0xaf, 0xbd, 0x90, 0x90, 0x05, 0x3d, 0xec, 0xd1, 0x7e, 0xbe,
  0x0e, 0x3f, 0x7c, 0xbd, 0x0c, 0x2c, 0xd8, 0x3d, 0x63, 0x35, 0x61, 0x3d,
  0x6e, 0x23, 0xaa, 0xbe, 0x73, 0xef, 0x96, 0x3c, 0xfb, 0x69, 0xee, 0x3d,
  0xec, 0x0b, 0x54, 0x3d, 0x76, 0x5d, 0xe1, 0x3e, 0xe3, 0xb2, 0x2e, 0x3e,
  0xe0, 0x7a, 0x8b, 0xbe, 0x0a, 0x20, 0x79, 0x3e, 0x33, 0xe8, 0x15, 0xbe,
  0x50, 0x4b, 0x93, 0x3d, 0x3c, 0x68, 0x51, 0x3d, 0x54, 0xb9, 0x98, 0x3d,
  0x35, 0x9b, 0x91, 0x3d, 0x46, 0xea, 0xb7, 0xbd, 0x39, 0x28, 0xb1, 0xbd,
  0x61, 0xf3, 0x8f, 0x3d, 0xa3, 0xf5, 0xd9, 0xbd, 0x27, 0x6b, 0x22, 0x3e,
  0x7a, 0xe5, 0x36, 0x3e, 0x69, 0x2a, 0xef, 0xbc, 0x06, 0x7c, 0x8e, 0xbe,
  0x48, 0x09, 0x9a, 0x3c, 0x8c, 0xdf, 0x0a, 0xbd, 0x14, 0xf5, 0xfd, 0x3d,
  0x60, 0x5d, 0xba, 0x3c, 0x30, 0x3d, 0x1d, 0x3d, 0x32, 0x20, 0x51, 0x3d,
  0x7b, 0x5a, 0x0a, 0xbe, 0x58, 0x13, 0x12, 0xbe, 0x5f, 0xbb, 0x1b, 0x3d,
  0x3c, 0xb7, 0xe5, 0xbc, 0x00, 0xef, 0xac, 0xbb, 0x76, 0x8e, 0x4d, 0x3d,
  0xec, 0x5f, 0x09, 0x3e, 0x91, 0x09, 0xbc, 0xbd, 0xb5, 0xee, 0x1d, 0xbe,
  0xa8, 0x5b, 0xb6, 0x3c, 0x22, 0xa7, 0x4b, 0x3e, 0x64, 0xb5, 0x7a, 0x3d,
  0x98, 0x24, 0x12, 0x3e, 0xb8, 0xba, 0xd2, 0xbd, 0x53, 0x22, 0x2b, 0xbe,
  0xd7, 0x9a, 0xad, 0xbd, 0x93, 0xee, 0x2b, 0xbe, 0xbc, 0x95, 0x51, 0xbc,
  0x08, 0xfa, 0xd9, 0x3d, 0xee, 0x46, 0x0c, 0x3e, 0x40, 0x08, 0x7f, 0x3b,
  0x5d, 0x2b, 0x9f, 0xbd, 0x8a, 0x4e, 0xb5, 0x3d, 0x20, 0x36, 0x9e, 0xbb,
  0xfd, 0xfb, 0xb7, 0x3c, 0x2c, 0xcb, 0xa2, 0x3b, 0xa6, 0xcb, 0x1b, 0x3e,
  0xb3, 0xf8, 0xf0, 0x3d, 0x40, 0x7e, 0x06, 0x3b, 0x59, 0xd6, 0x21, 0xbe,
  0x41, 0x40, 0x2a, 0xbe, 0xe2, 0x67, 0xb7, 0xbd, 0xef, 0xb6, 0xdd, 0xbe,
  0x50, 0xbf, 0xd4, 0xbd, 0xce, 0x28, 0xf1, 0xbd, 0xb4, 0x37, 0x27, 0x3d,
  0x82, 0xf3, 0x03, 0x3e, 0xec, 0x33, 0x65, 0x3d, 0x10, 0x10, 0x1f, 0xbe,
  0x01, 0x48, 0x7d, 0x3d, 0xd6, 0xe3, 0x30, 0x3e, 0x36, 0x60, 0xb5, 0xbd,
  0x24, 0x9f, 0x3c, 0x3e, 0xf9, 0x6c, 0x7c, 0x3d, 0xae, 0x9e, 0x3f, 0x3e,
  0xf2, 0x3a, 0xee, 0x3c, 0x80, 0x2b, 0xc9, 0x3b, 0xab, 0xff, 0xc4, 0xbd,
  0xe7, 0x08, 0x25, 0xbe, 0x51, 0x03, 0x1d, 0x3e, 0x90, 0x5b, 0xaa, 0x3c,
  0x44, 0x98, 0xd1, 0xbd, 0xd9, 0x84, 0x8d, 0x3e, 0xd9, 0x68, 0x0a, 0x3e,
  0x88, 0xa0, 0x12, 0xbe, 0xe0, 0x01, 0xec, 0x3d, 0x7a, 0xba, 0xae, 0xbd,
  0x49, 0x35, 0xf3, 0x3d, 0x34, 0x92, 0xe4, 0x3d, 0x2d, 0x1e, 0x25, 0x3e,
  0xc0, 0x49, 0xff, 0x3c, 0x0a, 0x0d, 0x58, 0x3e, 0xf1, 0x68, 0x76, 0x3e,
  0x82, 0x4b, 0x8f, 0x3d, 0xa4, 0x91, 0x79, 0xbc, 0x0c, 0x9d, 0x30, 0xbd,
  0xbd, 0x2f, 0x0a, 0xbe, 0x3c, 0x30, 0x05, 0x3e, 0xc6, 0xc8, 0x00, 0xbe,
  0x87, 0xa4, 0x26, 0xbe, 0xd9, 0x75, 0xed, 0xbd, 0x1f, 0xe0, 0xa6, 0x3e,
  0x96, 0xdf, 0x8d, 0x3c, 0x6e, 0x6c, 0xf8, 0x3d, 0xa5, 0xe1, 0x41, 0x3e,
  0x00, 0x80, 0x07, 0xb7, 0xe1, 0x40, 0x56, 0xbe, 0x37, 0x13, 0x2e, 0xbe,
  0x1f, 0x81, 0x1b, 0xbe, 0x4a, 0x98, 0x68, 0xbd, 0x80, 0x18, 0x29, 0x3e,
  0x04, 0x84, 0xa0, 0xbd, 0x72, 0xa9, 0xf8, 0x3d, 0x16, 0x90, 0x3e, 0xbd,
  0xf0, 0x87, 0x9b, 0xbd, 0x4e, 0xe3, 0xbb, 0x3d, 0x29, 0x46, 0x08, 0x3c,
  0xdd, 0x6e, 0x2d, 0xbb, 0xce, 0x57, 0xf6, 0x3d, 0x80, 0xcc, 0x3b, 0xbe,
  0x23, 0x16, 0x09, 0x3e, 0xc5, 0xad, 0x2f, 0x3e, 0xcf, 0x69, 0x10, 0xbe,
  0x1a, 0x8e, 0x10, 0x3e, 0x20, 0xef, 0x32, 0xbc, 0x34, 0x54, 0x02, 0xbe,
  0x6d, 0x4f, 0x37, 0x3e, 0x69, 0x32, 0x30, 0x3d, 0x95, 0xb7, 0x51, 0xbd,
  0x3b, 0x0b, 0x2a, 0x3e, 0x19, 0xf1, 0x0b, 0x3e, 0xd5, 0xe4, 0xcb, 0x3e,
  0xe7, 0xa6, 0xc2, 0xbd, 0x1b, 0xa8, 0x09, 0xbe, 0x71, 0x59, 0x48, 0xbe,
  0xd8, 0xa8, 0xc0, 0xbc, 0xa8, 0x6c, 0x39, 0xbc, 0xc2, 0x58, 0xb6, 0xbb,
  0x77, 0x1b, 0xe1, 0xbd, 0x3f, 0x93, 0x9a, 0xbd, 0x2b, 0xc9, 0x1d, 0xbe,
  0x52, 0x6e, 0x8f, 0xbd, 0xac, 0x59, 0x5f, 0x3e, 0xd7, 0x18, 0x9a, 0xbd,
  0x3c, 0x9e, 0x9b, 0x3d, 0x22, 0x3a, 0x0c, 0x3e, 0xed, 0x57, 0x2e, 0xbe,
  0x50, 0xdd, 0x73, 0xbe, 0xa4, 0x81, 0x2c, 0xbe, 0xb6, 0xc5, 0xf8, 0xbd,
  0xab, 0x50, 0xe3, 0x3d, 0xb2, 0xb7, 0x0c, 0xbe, 0xcf, 0x88, 0x1f, 0x3e,
  0x8c, 0xfe, 0xb2, 0x3c, 0x28, 0x39, 0x14, 0x3e, 0xa2, 0x87, 0x44, 0x3d,
  0xd6, 0x73, 0x23, 0x3e, 0x63, 0x08, 0x95, 0x3e, 0x29, 0x7c, 0xfb, 0x3d,
  0xbc, 0x41, 0xe4, 0x3d, 0xd0, 0x39, 0x8b, 0x3e, 0x74, 0xb9, 0x51, 0x3d,
  0x68, 0x3f, 0x1b, 0x3e, 0x78, 0x59, 0xb6, 0x3d, 0xdb, 0x8a, 0x68, 0xbd,
  0x29, 0x10, 0xbd, 0xbe, 0xe0, 0x62, 0xc5, 0x3d, 0xd0, 0x13, 0xf6, 0x3d,
  0x4c, 0x36, 0xd0, 0x3e, 0xa6, 0x5f, 0x27, 0xbe, 0x20, 0xb3, 0x8c, 0x3b,
  0xee, 0x75, 0xfb, 0xbe, 0x23, 0xb7, 0x62, 0x3e, 0x67, 0x77, 0x84, 0xbd,
  0x6c, 0x47, 0xfe, 0x3d, 0xd8, 0xc4, 0x27, 0x3e, 0x7a, 0x2d, 0x00, 0x3e,
  0xa3, 0xda, 0x53, 0x3e, 0x74, 0xbc, 0x2a, 0xbd, 0xbc, 0xdf, 0xa3, 0x3d,
  0x9f, 0xe2, 0xe0, 0x3c, 0x78, 0x20, 0xbd, 0xbe, 0xbd, 0xd7, 0x92, 0x3d,
  0xf9, 0x13, 0x6f, 0xbd, 0xe3, 0x93, 0xbc, 0x3d, 0xf0, 0xfd, 0x92, 0xbc,
  0x97, 0x26, 0x84, 0xba, 0xea, 0x7b, 0x36, 0xbd, 0xfe, 0x91, 0x4b, 0xbd,
  0x5e, 0x44, 0x19, 0x3e, 0xd3, 0xe9, 0x2e, 0xbe, 0x48, 0x25, 0xa3, 0x3d,
  0x49, 0x5d, 0xff, 0x3d, 0xbf, 0x84, 0xd7, 0xbd, 0x38, 0xfa, 0x14, 0x3d,
  0xcf, 0xdf, 0x2a, 0x3d, 0x90, 0x8c, 0x1e, 0x3e, 0xa3, 0x8d, 0xba, 0x3d,
  0xa8, 0xe6, 0x42, 0x3d, 0xb7, 0x02, 0x72, 0xbe, 0x4d, 0xc2, 0x10, 0xbe,
  0x5a, 0x8b, 0x4b, 0x3e, 0xe6, 0x63, 0xd5, 0x3d, 0xe6, 0xca, 0xc4, 0xbe,
  0xc2, 0xf9, 0x3c, 0xbc, 0x64, 0x82, 0xab, 0x3d, 0x2c, 0x1b, 0xd0, 0x3d,
  0xe4, 0x26, 0xe1, 0x3e, 0x99, 0x6d, 0xb4, 0x3d, 0xdf, 0xb2, 0x57, 0xbe,
  0x4c, 0x49, 0xe2, 0x3d, 0xa2, 0x31, 0x08, 0x3e, 0xd2, 0x6f, 0x01, 0x3e,
  0x8c, 0xb2, 0x28, 0x3e, 0x56, 0x8c, 0x83, 0x3c, 0xc1, 0x06, 0x3c, 0xbd,
  0x90, 0xcf, 0x0d, 0xbe, 0x04, 0x1a, 0xef, 0xbd, 0x58, 0xfb, 0xd7, 0x3d,
  0xde, 0x3e, 0x91, 0xbe, 0x75, 0xce, 0x22, 0x3e, 0xb3, 0x34, 0x92, 0xbd,
  0x1a, 0x51, 0x0c, 0x3c, 0x71, 0x27, 0x7a, 0xbe, 0xe0, 0xf0, 0xc1, 0x3d,
  0x5c, 0xc6, 0xdb, 0xbd, 0x7a, 0xaf, 0x5a, 0x3e, 0x9b, 0x4c, 0x50, 0x3d,
  0x84, 0x58, 0xd7, 0x3d, 0xc2, 0x83, 0x8d, 0xbd, 0xcd, 0x6d, 0xf2, 0xbd,
  0x7c, 0xc7, 0xca, 0xbd, 0x31, 0x15, 0x84, 0xbc, 0x27, 0xf3, 0xd9, 0x3d,
  0x98, 0x35, 0xef, 0x3c, 0x13, 0xb3, 0x6e, 0xbd, 0xc2, 0x16, 0x59, 0x3e,
  0xd3, 0xad, 0x04, 0xbd, 0xa1, 0xf8, 0x77, 0xbb, 0xa4, 0x04, 0x2b, 0x3d,
  0x8b, 0x40, 0xad, 0xbc, 0x30, 0x21, 0x1a, 0x3e, 0xd6, 0xcf, 0x25, 0xbe,
  0xf9, 0x96, 0xbc, 0xbd, 0x60, 0xb7, 0x37, 0x3c, 0x24, 0x4b, 0xa2, 0xbd,
  0x70, 0xdb, 0x1f, 0x3e, 0x9c, 0x18, 0x35, 0x3e, 0x08, 0x63, 0x1c, 0x3e,
  0x24, 0x30, 0xa6, 0xbd, 0x3a, 0xbb, 0x27, 0x3e, 0xff, 0x58, 0x44, 0x3e,
  0x9b, 0x2c, 0x50, 0x3d, 0x68, 0xb8, 0x15, 0x3e, 0xc2, 0x53, 0x33, 0xbd,
  0xb0, 0x88, 0x3d, 0x3d, 0xe2, 0xdf, 0xa7, 0x3d, 0x75, 0xc8, 0x27, 0xbe,
  0x03, 0x59, 0x1f, 0xbe, 0x03, 0xba, 0x4d, 0xbd, 0xc0, 0x86, 0x62, 0x3d,
  0xd2, 0x1f, 0x2d, 0x3e, 0x6f, 0x5a, 0xf4, 0xbe, 0x7b, 0x5f, 0xaf, 0x3d,
  0xd2, 0x14, 0x99, 0xbd, 0xac, 0xec, 0x2a, 0x3e, 0xb8, 0x69, 0x63, 0x3d,
  0xb8, 0xba, 0x10, 0x3e, 0x49, 0x44, 0x18, 0xbe, 0xa7, 0x39, 0xb9, 0xbd,
  0xbf, 0x31, 0x86, 0x3d, 0x93, 0x0c, 0x0c, 0xbe, 0x6d, 0x10, 0xdd, 0xbc,
  0x54, 0x80, 0xe7, 0xbd, 0xaf, 0xe8, 0x90, 0xbd, 0xd0, 0x32, 0x5b, 0x3d,
  0x5c, 0xba, 0x06, 0x3e, 0x2a, 0x79, 0x91, 0x3d, 0x07, 0x86, 0xd5, 0xbd,
  0x30, 0x0c, 0x05, 0x3e, 0x54, 0x74, 0x38, 0xbd, 0xa6, 0xe7, 0x26, 0x3e,
  0x1d, 0x9c, 0x68, 0x3e, 0x0d, 0xe9, 0x70, 0x3d, 0xa8, 0x90, 0xa0, 0x3c,
  0xcf, 0xe1, 0xd3, 0xbd, 0xa4, 0x99, 0xf3, 0x3d, 0x70, 0x82, 0x44, 0x3e,
  0x96, 0xe7, 0x0c, 0xbe, 0x3e, 0x33, 0xd6, 0x3c, 0xf4, 0xad, 0x23, 0xbe,
  0x9b, 0x5e, 0xab, 0x3e, 0xbb, 0xa6, 0x03, 0x3e, 0x03, 0x7b, 0x61, 0xbd,
  0x49, 0x7e, 0x8b, 0xbd, 0xe4, 0x43, 0x41, 0x3d, 0xf5, 0x28, 0x97, 0xbc,
  0x88, 0x02, 0x91, 0xbc, 0xbe, 0x81, 0xc8, 0x3d, 0x91, 0xcd, 0x82, 0xbc,
  0x90, 0x5f, 0x8f, 0x3d, 0x86, 0xdd, 0xa1, 0x3d, 0x9e, 0x3b, 0x8e, 0x3d,
  0xb1, 0x1e, 0x8f, 0x3d, 0x1b, 0xc6, 0xcf, 0x3e, 0xd5, 0x30, 0x19, 0xbe,
  0x94, 0x27, 0xc8, 0xbd, 0x40, 0x3f, 0xbf, 0x3b, 0x1c, 0xc4, 0x25, 0x3d,
  0xbb, 0x1b, 0x1b, 0xbe, 0x59, 0xfb, 0x89, 0xbd, 0x78, 0x6a, 0xb7, 0xbc,
  0xc8, 0x6f, 0x08, 0x3e, 0xf5, 0x1e, 0x2c, 0xbe, 0xfa, 0x95, 0x02, 0x3e,
  0x13, 0x8b, 0xa3, 0x3b, 0x6a, 0xcc, 0x30, 0x3e, 0x57, 0x9c, 0x34, 0xbd,
  0xb7, 0x2d, 0x9f, 0xbd, 0xb4, 0x67, 0x11, 0xbd, 0xfe, 0xb7, 0x98, 0xbd,
  0xc2, 0x15, 0x21, 0xbd, 0x52, 0x56, 0x95, 0x3d, 0x19, 0x2d, 0x10, 0xbd,
  0x5a, 0xa0, 0x0c, 0x3e, 0x48, 0xcd, 0xc0, 0xbc, 0x44, 0xc4, 0x90, 0xbd,
  0x8b, 0x9f, 0x01, 0xbe, 0x83, 0x34, 0x6a, 0x3c, 0x19, 0x47, 0x3d, 0xbd,
  0xa1, 0xd6, 0x16, 0x3e, 0x87, 0x4f, 0xca, 0xbe, 0x94, 0x9f, 0x09, 0xbe,
  0x84, 0x1f, 0xee, 0xbd, 0x0f, 0x62, 0xbf, 0xbd, 0xe8, 0xfe, 0xd4, 0xbc,
  0x5a, 0x00, 0xc3, 0x3c, 0xba, 0x2a, 0x0c, 0x3e, 0x12, 0xb7, 0x17, 0x3d,
  0xfe, 0x39, 0x24, 0xbe, 0xf0, 0x2c, 0x18, 0x3e, 0x90, 0xef, 0xd9, 0x3d,
  0x07, 0xc7, 0x9d, 0xbd, 0x04, 0xb7, 0x4b, 0x3d, 0xc6, 0x04, 0xaf, 0xbd,
  0xec, 0x83, 0xb1, 0x3d, 0x76, 0xd8, 0xa8, 0x3d, 0x29, 0xd5, 0x46, 0xbd,
  0x68, 0x4c, 0x45, 0xbd, 0x28, 0x19, 0xe1, 0xbc, 0x51, 0x41, 0x02, 0xbd,
  0xe7, 0x22, 0xe1, 0x3d, 0x82, 0xf8, 0xc9, 0xbd, 0x5b, 0x40, 0x69, 0x3c,
  0x3c, 0xd6, 0xe1, 0x3d, 0xf5, 0x74, 0x11, 0x3e, 0x78, 0x7c, 0x14, 0xbd,
  0xab, 0xd3, 0x5b, 0x3e, 0x58, 0xb9, 0xb3, 0x3d, 0xa0, 0x88, 0x80, 0xbc,
  0x32, 0x03, 0x9b, 0x3d, 0xae, 0x32, 0x87, 0xbd, 0xc4, 0x1e, 0xd3, 0xbc,
  0x90, 0xc3, 0x8c, 0x3d, 0x40, 0xf0, 0xe0, 0xbc, 0x0d, 0xc5, 0x5c, 0xbd,
  0xe4, 0x0f, 0x25, 0x3e, 0x85, 0xeb, 0xa8, 0xbd, 0x6f, 0xaa, 0x08, 0x3e,
  0x00, 0x77, 0x95, 0xbb, 0x84, 0xd9, 0x23, 0xbd, 0xcd, 0xdb, 0x49, 0x3c,
  0x37, 0x98, 0x02, 0x3e, 0x9b, 0x90, 0x1a, 0xbc, 0xbf, 0x1f, 0x23, 0x3e,
  0xae, 0x4c, 0xbb, 0xbd, 0x5a, 0x3a, 0x17, 0x3e, 0x46, 0x2a, 0x32, 0x3e,
  0xf8, 0xe3, 0x76, 0xbd, 0x4c, 0xff, 0x61, 0x3d, 0x95, 0xa6, 0x1f, 0x3d,
  0x51, 0x95, 0x8e, 0x3d, 0xac, 0x07, 0xf0, 0xbc, 0x22, 0x1f, 0x65, 0x3d,
  0x20, 0xe4, 0x28, 0xba, 0x50, 0x49, 0xd0, 0x3d, 0x82, 0xeb, 0xb7, 0x3b,
  0x5b, 0x48, 0xbc, 0xbd, 0xd4, 0xbe, 0xcf, 0x3c, 0x94, 0x92, 0x30, 0x3d,
  0xfb, 0xf1, 0xbd, 0x3d, 0xc0, 0x0f, 0xb6, 0x3d, 0xc7, 0x5d, 0x19, 0x3e,
  0x58, 0x9d, 0x7a, 0x3c, 0x9a, 0xc3, 0xef, 0xbd, 0x65, 0xe8, 0x95, 0xbc,
  0x79, 0xaa, 0x64, 0xbe, 0xb5, 0x62, 0xc4, 0x3d, 0xea, 0x19, 0x91, 0x3d,
  0xbd, 0x95, 0x90, 0x3d, 0x8b, 0x9a, 0xed, 0xbd, 0x2b, 0x12, 0x0b, 0x3d,
  0xd2, 0x9e, 0x0b, 0x3e, 0xdb, 0x31, 0x9e, 0x3d, 0x4e, 0x06, 0x29, 0x3e,
  0xbf, 0x7f, 0xf3, 0x3d, 0x18, 0xf2, 0x84, 0x3c, 0x9b, 0x3d, 0xb9, 0xbc,
  0xc3, 0xd5, 0x9a, 0xbd, 0x0a, 0xd7, 0xcf, 0x3d, 0x52, 0xe4, 0x0f, 0xbe,
  0x6a, 0xea, 0xd3, 0xbd, 0x9a, 0x2f, 0xaf, 0xbd, 0x64, 0x3f, 0xa7, 0x3d,
  0x45, 0x30, 0x96, 0xbd, 0xae, 0x95, 0xe5, 0xbd, 0x0d, 0xa5, 0x0d, 0xbe,
  0xa0, 0x91, 0x5e, 0x3c, 0x2c, 0xf1, 0xf1, 0xbd, 0x75, 0xa0, 0x0f, 0x3e,
  0x66, 0xd5, 0xfd, 0x3d, 0x93, 0xaa, 0xc7, 0xbd, 0xb2, 0xc8, 0x94, 0x3c,
  0x40, 0xec, 0xb0, 0xbd, 0x1c, 0x78, 0x1a, 0xbd, 0x48, 0xd3, 0x25, 0xbe,
  0x8c, 0x13, 0xda, 0xbd, 0x29, 0xb7, 0x10, 0x3e, 0x06, 0x3f, 0x2e, 0x3e,
  0x3f, 0x1c, 0xdd, 0x3d, 0x74, 0xac, 0x19, 0xbe, 0xa0, 0xed, 0xb3, 0xbd,
  0x33, 0x98, 0x89, 0xbb, 0x87, 0xbd, 0x3f, 0xbd, 0x24, 0xe7, 0xc8, 0x3d,
  0x21, 0x80, 0xea, 0xbd, 0x43, 0x99, 0x3d, 0xbc, 0xca, 0x62, 0x9d, 0xbd,
  0xbb, 0x99, 0x35, 0x3b, 0xdd, 0x23, 0x17, 0xbe, 0x79, 0x67, 0x5c, 0xbd,
  0x28, 0xd7, 0x7f, 0xbd, 0x16, 0x6b, 0x1a, 0xbe, 0x5c, 0xaa, 0xa4, 0xbd,
  0xc0, 0xd7, 0xc0, 0xbb, 0xc9, 0xee, 0x45, 0x3d, 0xae, 0x91, 0xa3, 0x3d,
  0x7a, 0x51, 0x13, 0xbd, 0x30, 0xe3, 0x0c, 0x3e, 0xae, 0x22, 0x2c, 0x3e,
  0xfc, 0xbb, 0x41, 0x3d, 0xb1, 0xfd, 0x0d, 0xbe, 0xb0, 0xbd, 0xa2, 0x3c,
  0xa0, 0x04, 0x2f, 0x3c, 0x60, 0x55, 0x11, 0xbd, 0x0d, 0xe2, 0x18, 0xbe,
  0x78, 0xb6, 0xfe, 0xbd, 0x1a, 0xd0, 0x08, 0x3e, 0x24, 0xa7, 0x21, 0x3e,
  0xf9, 0x1f, 0x8e, 0xbc, 0xa8, 0x55, 0x80, 0x3c, 0xd8, 0xc7, 0xb9, 0x3c,
  0x88, 0x3f, 0xfd, 0xbd, 0x7d, 0x2b, 0xae, 0xbd, 0x83, 0xc2, 0x9d, 0xbd,
  0x0a, 0xe8, 0xaa, 0x3d, 0x56, 0x22, 0x11, 0xbe, 0x58, 0xfd, 0x8e, 0xbd,
  0x77, 0x43, 0x9a, 0xbd, 0xd2, 0x32, 0x65, 0x3d, 0x31, 0x4f, 0x46, 0xbd,
  0xba, 0x34, 0xf3, 0x3d, 0x29, 0x05, 0x9a, 0x3d, 0xc7, 0x5d, 0x02, 0x3c,
  0xe8, 0xcd, 0x17, 0x3e, 0xea, 0xa9, 0xb7, 0x3d, 0x68, 0x0b, 0xa5, 0xbc,
  0x96, 0xfb, 0x11, 0xbe, 0x2c, 0x2e, 0xf8, 0x3d, 0xde, 0xae, 0x1e, 0x3e,
  0x54, 0x11, 0x47, 0x3d, 0x90, 0x70, 0x30, 0x3d, 0x46, 0x7f, 0x1a, 0x3e,
  0x3e, 0x25, 0x3a, 0x3e, 0xa4, 0x65, 0xa9, 0x3d, 0x78, 0x28, 0xca, 0xbd,
  0xc0, 0xf1, 0xe7, 0xbd, 0xfa, 0x0d, 0x3b, 0x3e, 0x86, 0xc7, 0x7c, 0xbd,
  0xff, 0x0b, 0x18, 0x3e, 0xc4, 0x3b, 0x3f, 0xbd, 0x70, 0x1a, 0x49, 0xbc,
  0xef, 0x72, 0x92, 0x3c, 0x8d, 0x62, 0x69, 0xbc, 0x5c, 0x17, 0x08, 0x3e,
  0x38, 0x47, 0xbe, 0x3d, 0x2f, 0x28, 0x96, 0x3d, 0x30, 0x43, 0xbb, 0xbd,
  0x2e, 0xf1, 0x8f, 0x3d, 0x92, 0x12, 0xb8, 0xbd, 0xb6, 0xb7, 0x07, 0xbe,
  0xee, 0x3f, 0x89, 0x3e, 0xa1, 0x67, 0x00, 0xbe, 0xb8, 0x21, 0xae, 0xbd,
  0xbc, 0xc3, 0xc7, 0x3d, 0x31, 0x43, 0x1a, 0xbe, 0x03, 0x7a, 0xe8, 0x3d,
  0x8b, 0x4c, 0xa3, 0xbd, 0x03, 0x7b, 0x02, 0xbe, 0x41, 0xed, 0x71, 0x3d,
  0xd2, 0xce, 0xc6, 0x3c, 0x90, 0x2b, 0x2b, 0x3e, 0x05, 0x04, 0xad, 0xbd,
  0x12, 0x29, 0x2d, 0xbe, 0x4a, 0x1a, 0x22, 0x3e, 0xcb, 0x82, 0x7e, 0xbd,
  0xff, 0x07, 0x16, 0x3e, 0x80, 0x52, 0x9b, 0x3d, 0xda, 0x8d, 0xaa, 0xbd,
  0x35, 0x3a, 0x33, 0x3e, 0x58, 0xcf, 0x4a, 0x3e, 0x88, 0xb3, 0xab, 0xbc,
  0xd4, 0xd2, 0x64, 0xbd, 0x85, 0x79, 0xf7, 0x3d, 0x0c, 0xa0, 0x27, 0x3e,
  0x08, 0x64, 0x80, 0xbc, 0x0f, 0xb9, 0x09, 0x3e, 0xba, 0x78, 0x82, 0x3d,
  0xc3, 0xd7, 0x1f, 0x3e, 0x1f, 0x5a, 0x3c, 0xbe, 0x7a, 0x35, 0xcd, 0x3d,
  0xf4, 0x82, 0x10, 0x3f, 0x6f, 0xb9, 0x07, 0x3d, 0x50, 0xfd, 0xb0, 0x3d,
  0xa5, 0xd1, 0xa0, 0x3d, 0x22, 0xaa, 0x3e, 0xbd, 0xe4, 0xfa, 0xa6, 0x3d,
  0xc9, 0x10, 0xe0, 0xbc, 0xdc, 0x54, 0x32, 0xbe, 0x2f, 0x7b, 0xa4, 0xbd,
  0x24, 0x31, 0xbd, 0x3d, 0xa6, 0xa3, 0x05, 0xbe, 0x4f, 0x08, 0xa4, 0xbe,
  0x9a, 0x30, 0x24, 0xbe, 0xe6, 0x06, 0x34, 0xbe, 0xa0, 0x0c, 0x79, 0x3c,
  0xc9, 0xd6, 0xd0, 0x3d, 0x7b, 0x00, 0x88, 0xbe, 0xfe, 0x61, 0xae, 0x3d,
  0xf0, 0x62, 0x19, 0x3e, 0xa2, 0x48, 0x0f, 0x3e, 0xa1, 0x21, 0x1e, 0x3e,
  0xb2, 0x81, 0x26, 0x3c, 0x9e, 0xb3, 0x19, 0x3e, 0xc8, 0xe0, 0x96, 0x3c,
  0x30, 0x09, 0x8d, 0x3d, 0x88, 0x5f, 0xe9, 0xbc, 0x4f, 0x8d, 0x9b, 0xbd,
  0x1f, 0x30, 0xdd, 0x3d, 0x60, 0x98, 0xfa, 0xbd, 0x12, 0x25, 0xd2, 0xbd,
  0x0c, 0x33, 0x10, 0x3d, 0x5b, 0x97, 0x21, 0x3e, 0xf5, 0x61, 0xec, 0xbd,
  0xdf, 0x92, 0x36, 0xbd, 0xac, 0x3f, 0xc4, 0x3e, 0xe3, 0xe4, 0x12, 0xbe,
  0x38, 0xb6, 0x1a, 0x3e, 0x50, 0xa6, 0x03, 0xbe, 0x7b, 0x10, 0x91, 0xbd,
  0xf0, 0x78, 0xf0, 0x3d, 0xfd, 0xd2, 0xaa, 0x3e, 0xab, 0xb3, 0xd6, 0xbe,
  0x04, 0xbc, 0x05, 0xbe, 0xfc, 0xf9, 0x0c, 0xbe, 0xf7, 0xe2, 0xcf, 0xbd,
  0x46, 0x0d, 0x3f, 0xbd, 0xda, 0x4d, 0x37, 0x3e, 0xe0, 0xa4, 0x57, 0xbc,
  0x1c, 0x09, 0x57, 0x3d, 0x89, 0x84, 0x96, 0x3d, 0x13, 0x2d, 0x90, 0x3e,
  0x52, 0xeb, 0xb4, 0x3d, 0xf4, 0x27, 0x34, 0xbc, 0x48, 0x67, 0xce, 0x3c,
  0x6e, 0x34, 0x20, 0x3e, 0xd8, 0x26, 0xf3, 0x3d, 0x79, 0xa4, 0x36, 0xbd,
  0x75, 0x00, 0x83, 0x3d, 0xe3, 0xdf, 0xf9, 0xbd, 0x49, 0x28, 0xf1, 0xbd,
  0xac, 0x8b, 0x25, 0xbe, 0x34, 0x6d, 0xcc, 0x3b, 0x9b, 0x6f, 0xf8, 0xbd,
  0xad, 0x43, 0x96, 0xbd, 0x3f, 0x45, 0x8b, 0x3d, 0x17, 0xe5, 0xba, 0xbd,
  0xcf, 0xa2, 0x37, 0xbe, 0xec, 0xd4, 0xfc, 0x3d, 0x83, 0xcd, 0xa0, 0x3d,
  0x55, 0xaf, 0x9e, 0x3d, 0xa7, 0xe4, 0xfa, 0x3e, 0xfb, 0x4b, 0x09, 0x3d,
  0xd2, 0x94, 0x8b, 0x3e, 0x24, 0xcd, 0x24, 0xbd, 0xc3, 0x0f, 0x26, 0x3e,
  0xa0, 0x33, 0xdf, 0xbb, 0xcd, 0x41, 0x24, 0xbe, 0x99, 0x39, 0xe2, 0x3d,
  0x97, 0xb0, 0x2a, 0x3e, 0x77, 0xe6, 0x35, 0x3f, 0x88, 0x26, 0xf4, 0xbd,
  0x3a, 0xc8, 0x22, 0x3e, 0xf4, 0xe3, 0x1b, 0xbd, 0xd2, 0x31, 0xc3, 0xbd,
  0x94, 0x55, 0xab, 0x3c, 0xbb, 0x8d, 0xbd, 0xbe, 0xe2, 0xf8, 0x12, 0x3e,
  0x4b, 0x45, 0x9c, 0xbd, 0xaa, 0xdb, 0x4c, 0xbd, 0xc3, 0x7b, 0x0d, 0x3e,
  0x7a, 0xf7, 0x19, 0x3e, 0x61, 0x39, 0x97, 0xbd, 0xf9, 0x8f, 0x44, 0xbe,
  0x1c, 0x98, 0xe1, 0xbd, 0x58, 0x15, 0xa2, 0xbe, 0xa6, 0xe1, 0xb7, 0x3d,
  0x54, 0x0f, 0x84, 0xbd, 0x60, 0x49, 0xb4, 0x3d, 0x39, 0x52, 0x39, 0x3e,
  0x65, 0x14, 0xda, 0xbd, 0x2f, 0x4d, 0xf5, 0x3d, 0x10, 0x40, 0x18, 0xbe,
  0xda, 0x9a, 0xaf, 0x3d, 0x72, 0x51, 0x78, 0xbd, 0xf7, 0x71, 0x8c, 0x39,
  0xd2, 0x3b, 0x94, 0x3d, 0x71, 0x34, 0xbf, 0x3d, 0xc9, 0x72, 0x26, 0xbe,
  0x3a, 0xb6, 0x1e, 0x3e, 0xfc, 0x39, 0x9d, 0x3d, 0x7f, 0x0d, 0xae, 0xbd,
  0x2c, 0xab, 0xbf, 0x3d, 0xe3, 0x0c, 0x94, 0xbd, 0xe8, 0x64, 0xf3, 0xbd,
  0x9c, 0x1e, 0xac, 0x3d, 0x0b, 0x00, 0x3b, 0x3d, 0xf1, 0x47, 0x1a, 0x3e,
  0x00, 0xc9, 0xa2, 0x3b, 0xce, 0xbb, 0x2c, 0xbe, 0x51, 0x0c, 0xb1, 0xbd,
  0xfe, 0x60, 0x9e, 0xbd, 0x4d, 0x71, 0x08, 0xbe, 0x94, 0xcd, 0x2b, 0x3e,
  0x1b, 0xa5, 0xda, 0xbc, 0x92, 0xab, 0x1d, 0xbd, 0xf4, 0xe7, 0x2e, 0x3e,
  0xc1, 0xd6, 0x22, 0xbe, 0xcd, 0x87, 0x20, 0xbe, 0x2d, 0x7f, 0x08, 0x3c,
  0x9e, 0xda, 0x8d, 0x3d, 0x60, 0x99, 0x53, 0xbd, 0xb3, 0x12, 0xab, 0x3d,
  0x82, 0x02, 0xd6, 0xbd, 0x87, 0x93, 0x4f, 0x3e, 0xd0, 0xae, 0x3c, 0xbc,
  0xc0, 0x28, 0x4a, 0x3d, 0x04, 0x8e, 0x0c, 0xbe, 0x87, 0x49, 0xed, 0x3d,
  0xf5, 0x7f, 0x7e, 0x3d, 0x1e, 0xbc, 0xca, 0xbd, 0xf4, 0x01, 0x00, 0xbe,
  0x4c, 0x79, 0x0e, 0x3e, 0xc9, 0xfe, 0x67, 0x3d, 0x39, 0xdc, 0x1a, 0xbe,
  0x96, 0x43, 0x1d, 0xbe, 0xc0, 0x62, 0x82, 0xbb, 0x1a, 0x66, 0x6c, 0xbd,
  0x32, 0x52, 0x03, 0xbe, 0x49, 0xb5, 0xc8, 0xbd, 0xac, 0xbc, 0xc8, 0x3d,
  0x6a, 0x68, 0x2d, 0xbe, 0x39, 0x9a, 0x59, 0x3e, 0xde, 0x01, 0x11, 0x3d,
  0xb6, 0x3b, 0x25, 0x3e, 0x1e, 0xc2, 0x0f, 0x3e, 0x65, 0x44, 0x0d, 0xbe,
  0xf9, 0xa8, 0xe1, 0x3c, 0x0c, 0x80, 0x1f, 0x3d, 0x5a, 0x8d, 0x1e, 0xbe,
  0xe2, 0x6b, 0x8e, 0x3d, 0xe7, 0x8a, 0xeb, 0x3d, 0x4d, 0xef, 0x53, 0xbd,
  0x7b, 0x6f, 0x1e, 0x3d, 0xc3, 0x34, 0x00, 0xbe, 0x82, 0x90, 0x04, 0xbe,
  0xad, 0xf9, 0xf4, 0xbd, 0x80, 0xd9, 0xe0, 0x3d, 0x35, 0x44, 0x23, 0x3d,
  0xdb, 0xb3, 0x07, 0xbe, 0x8d, 0x51, 0x02, 0xbe, 0xc0, 0xfc, 0xff, 0xff,
  0xc4, 0xfc, 0xff, 0xff, 0x0f, 0x00, 0x00, 0x00, 0x54, 0x4f, 0x43, 0x4f,
  0x20, 0x43, 0x6f, 0x6e, 0x76, 0x65, 0x72, 0x74, 0x65, 0x64, 0x2e, 0x00,
  0x01, 0x00, 0x00, 0x00, 0x10, 0x00, 0x00, 0x00, 0x0c, 0x00, 0x14, 0x00,
  0x04, 0x00, 0x08, 0x00, 0x0c, 0x00, 0x10, 0x00, 0x0c, 0x00, 0x00, 0x00,
  0xb8, 0x00, 0x00, 0x00, 0xac, 0x00, 0x00, 0x00, 0xa0, 0x00, 0x00, 0x00,
  0x04, 0x00, 0x00, 0x00, 0x02, 0x00, 0x00, 0x00, 0x58, 0x00, 0x00, 0x00,
  0x14, 0x00, 0x00, 0x00, 0x00, 0x00, 0x0e, 0x00, 0x14, 0x00, 0x00, 0x00,
  0x08, 0x00, 0x0c, 0x00, 0x07, 0x00, 0x10, 0x00, 0x0e, 0x00, 0x00, 0x00,
  0x00, 0x00, 0x00, 0x08, 0x18, 0x00, 0x00, 0x00, 0x0c, 0x00, 0x00, 0x00,
  0x04, 0x00, 0x00, 0x00, 0x34, 0xfd, 0xff, 0xff, 0x01, 0x00, 0x00, 0x00,
  0x00, 0x00, 0x00, 0x00, 0x03, 0x00, 0x00, 0x00, 0x04, 0x00, 0x00, 0x00,
  0x05, 0x00, 0x00, 0x00, 0x06, 0x00, 0x00, 0x00, 0x00, 0x00, 0x0e, 0x00,
  0x16, 0x00, 0x00, 0x00, 0x08, 0x00, 0x0c, 0x00, 0x07, 0x00, 0x10, 0x00,
  0x0e, 0x00, 0x00, 0x00, 0x00, 0x00, 0x00, 0x08, 0x24, 0x00, 0x00, 0x00,
  0x18, 0x00, 0x00, 0x00, 0x0c, 0x00, 0x00, 0x00, 0x00, 0x00, 0x06, 0x00,
  0x08, 0x00, 0x07, 0x00, 0x06, 0x00, 0x00, 0x00, 0x00, 0x00, 0x00, 0x01,
  0x01, 0x00, 0x00, 0x00, 0x04, 0x00, 0x00, 0x00, 0x03, 0x00, 0x00, 0x00,
  0x01, 0x00, 0x00, 0x00, 0x02, 0x00, 0x00, 0x00, 0x03, 0x00, 0x00, 0x00,
  0x01, 0x00, 0x00, 0x00, 0x00, 0x00, 0x00, 0x00, 0x01, 0x00, 0x00, 0x00,
  0x01, 0x00, 0x00, 0x00, 0x07, 0x00, 0x00, 0x00, 0x3c, 0x02, 0x00, 0x00,
  0xd4, 0x01, 0x00, 0x00, 0x48, 0x01, 0x00, 0x00, 0xf0, 0x00, 0x00, 0x00,
  0xac, 0x00, 0x00, 0x00, 0x4c, 0x00, 0x00, 0x00, 0x04, 0x00, 0x00, 0x00,
  0xee, 0xfd, 0xff, 0xff, 0x38, 0x00, 0x00, 0x00, 0x07, 0x00, 0x00, 0x00,
  0x0c, 0x00, 0x00, 0x00, 0x04, 0x00, 0x00, 0x00, 0xe0, 0xfd, 0xff, 0xff,
  0x1e, 0x00, 0x00, 0x00, 0x73, 0x65, 0x71, 0x75, 0x65, 0x6e, 0x74, 0x69,
  0x61, 0x6c, 0x2f, 0x64, 0x65, 0x6e, 0x73, 0x65, 0x5f, 0x31, 0x2f, 0x4d,
  0x61, 0x74, 0x4d, 0x75, 0x6c, 0x5f, 0x62, 0x69, 0x61, 0x73, 0x00, 0x00,
  0x01, 0x00, 0x00, 0x00, 0x05, 0x00, 0x00, 0x00, 0x32, 0xfe, 0xff, 0xff,
  0x4c, 0x00, 0x00, 0x00, 0x02, 0x00, 0x00, 0x00, 0x0c, 0x00, 0x00, 0x00,
  0x04, 0x00, 0x00, 0x00, 0x24, 0xfe, 0xff, 0xff, 0x32, 0x00, 0x00, 0x00,
  0x73, 0x65, 0x71, 0x75, 0x65, 0x6e, 0x74, 0x69, 0x61, 0x6c, 0x2f, 0x64,
  0x65, 0x6e, 0x73, 0x65, 0x5f, 0x31, 0x2f, 0x4d, 0x61, 0x74, 0x4d, 0x75,
  0x6c, 0x2f, 0x52, 0x65, 0x61, 0x64, 0x56, 0x61, 0x72, 0x69, 0x61, 0x62,
  0x6c, 0x65, 0x4f, 0x70, 0x2f, 0x74, 0x72, 0x61, 0x6e, 0x73, 0x70, 0x6f,
  0x73, 0x65, 0x00, 0x00, 0x02, 0x00, 0x00, 0x00, 0x05, 0x00, 0x00, 0x00,
  0xc8, 0x00, 0x00, 0x00, 0x8e, 0xfe, 0xff, 0xff, 0x30, 0x00, 0x00, 0x00,
  0x03, 0x00, 0x00, 0x00, 0x0c, 0x00, 0x00, 0x00, 0x04, 0x00, 0x00, 0x00,
  0x80, 0xfe, 0xff, 0xff, 0x15, 0x00, 0x00, 0x00, 0x73, 0x65, 0x71, 0x75,
  0x65, 0x6e, 0x74, 0x69, 0x61, 0x6c, 0x2f, 0x64, 0x65, 0x6e, 0x73, 0x65,
  0x2f, 0x52, 0x65, 0x6c, 0x75, 0x00, 0x00, 0x00, 0x02, 0x00, 0x00, 0x00,
  0x01, 0x00, 0x00, 0x00, 0xc8, 0x00, 0x00, 0x00, 0xce, 0xfe, 0xff, 0xff,
  0x38, 0x00, 0x00, 0x00, 0x06, 0x00, 0x00, 0x00, 0x0c, 0x00, 0x00, 0x00,
  0x04, 0x00, 0x00, 0x00, 0xc0, 0xfe, 0xff, 0xff, 0x1c, 0x00, 0x00, 0x00,
  0x73, 0x65, 0x71, 0x75, 0x65, 0x6e, 0x74, 0x69, 0x61, 0x6c, 0x2f, 0x64,
  0x65, 0x6e, 0x73, 0x65, 0x2f, 0x4d, 0x61, 0x74, 0x4d, 0x75, 0x6c, 0x5f,
  0x62, 0x69, 0x61, 0x73, 0x00, 0x00, 0x00, 0x00, 0x01, 0x00, 0x00, 0x00,
  0xc8, 0x00, 0x00, 0x00, 0x00, 0x00, 0x0e, 0x00, 0x18, 0x00, 0x08, 0x00,
  0x07, 0x00, 0x0c, 0x00, 0x10, 0x00, 0x14, 0x00, 0x0e, 0x00, 0x00, 0x00,
  0x00, 0x00, 0x00, 0x09, 0x74, 0x00, 0x00, 0x00, 0x05, 0x00, 0x00, 0x00,
  0x34, 0x00, 0x00, 0x00, 0x10, 0x00, 0x00, 0x00, 0x0c, 0x00, 0x0c, 0x00,
  0x00, 0x00, 0x00, 0x00, 0x04, 0x00, 0x08, 0x00, 0x0c, 0x00, 0x00, 0x00,
  0x14, 0x00, 0x00, 0x00, 0x04, 0x00, 0x00, 0x00, 0x01, 0x00, 0x00, 0x00,
  0x00, 0x00, 0x00, 0x00, 0x00, 0x00, 0x00, 0x00, 0x01, 0x00, 0x00, 0x00,
  0x64, 0x5d, 0x5d, 0x3b, 0x30, 0x00, 0x00, 0x00, 0x73, 0x65, 0x71, 0x75,
  0x65, 0x6e, 0x74, 0x69, 0x61, 0x6c, 0x2f, 0x64, 0x65, 0x6e, 0x73, 0x65,
  0x2f, 0x4d, 0x61, 0x74, 0x4d, 0x75, 0x6c, 0x2f, 0x52, 0x65, 0x61, 0x64,
  0x56, 0x61, 0x72, 0x69, 0x61, 0x62, 0x6c, 0x65, 0x4f, 0x70, 0x2f, 0x74,
  0x72, 0x61, 0x6e, 0x73, 0x70, 0x6f, 0x73, 0x65, 0x00, 0x00, 0x00, 0x00,
  0x02, 0x00, 0x00, 0x00, 0xc8, 0x00, 0x00, 0x00, 0x10, 0x00, 0x00, 0x00,
  0xaa, 0xff, 0xff, 0xff, 0x44, 0x00, 0x00, 0x00, 0x01, 0x00, 0x00, 0x00,
  0x2c, 0x00, 0x00, 0x00, 0x0c, 0x00, 0x00, 0x00, 0x08, 0x00, 0x0c, 0x00,
  0x04, 0x00, 0x08, 0x00, 0x08, 0x00, 0x00, 0x00, 0x10, 0x00, 0x00, 0x00,
  0x04, 0x00, 0x00, 0x00, 0x01, 0x00, 0x00, 0x00, 0x00, 0x00, 0x7f, 0x43,
  0x01, 0x00, 0x00, 0x00, 0x00, 0x00, 0x00, 0x00, 0x0b, 0x00, 0x00, 0x00,
  0x64, 0x65, 0x6e, 0x73, 0x65, 0x5f, 0x69, 0x6e, 0x70, 0x75, 0x74, 0x00,
  0x02, 0x00, 0x00, 0x00, 0x01, 0x00, 0x00, 0x00, 0x10, 0x00, 0x00, 0x00,
  0x00, 0x00, 0x0e, 0x00, 0x14, 0x00, 0x04, 0x00, 0x00, 0x00, 0x08, 0x00,
  0x0c, 0x00, 0x10, 0x00, 0x0e, 0x00, 0x00, 0x00, 0x28, 0x00, 0x00, 0x00,
  0x04, 0x00, 0x00, 0x00, 0x10, 0x00, 0x00, 0x00, 0x08, 0x00, 0x00, 0x00,
  0x04, 0x00, 0x04, 0x00, 0x04, 0x00, 0x00, 0x00, 0x08, 0x00, 0x00, 0x00,
  0x49, 0x64, 0x65, 0x6e, 0x74, 0x69, 0x74, 0x79, 0x00, 0x00, 0x00, 0x00,
  0x02, 0x00, 0x00, 0x00, 0x01, 0x00, 0x00, 0x00, 0x05, 0x00, 0x00, 0x00,
  0x01, 0x00, 0x00, 0x00, 0x10, 0x00, 0x00, 0x00, 0x00, 0x00, 0x0a, 0x00,
  0x0c, 0x00, 0x07, 0x00, 0x00, 0x00, 0x08, 0x00, 0x0a, 0x00, 0x00, 0x00,
  0x00, 0x00, 0x00, 0x09, 0x03, 0x00, 0x00, 0x00
};

