
#define TENSORFLOW_LITE_EXPERIMENTAL_MICRO_EXAMPLES_HELLO_WORLD_SINE_MODEL_DATA_H_
#ifdef __has_attribute
#define HAVE_ATTRIBUTE(x) __has_attribute(x)
#else
#define HAVE_ATTRIBUTE(x) 0
#endif
#if HAVE_ATTRIBUTE(aligned) || (defined(__GNUC__) && !defined(__clang__))
#define DATA_ALIGN_ATTRIBUTE __attribute__((aligned(4)))
#else
#define DATA_ALIGN_ATTRIBUTE
#endif

const int flight_model_len = 17848;
const unsigned char flight_model[] DATA_ALIGN_ATTRIBUTE = {
 0x1c, 0x00, 0x00, 0x00, 0x54, 0x46, 0x4c, 0x33, 0x00, 0x00, 0x12, 0x00,
  0x1c, 0x00, 0x04, 0x00, 0x08, 0x00, 0x0c, 0x00, 0x10, 0x00, 0x14, 0x00,
  0x00, 0x00, 0x18, 0x00, 0x12, 0x00, 0x00, 0x00, 0x03, 0x00, 0x00, 0x00,
  0x74, 0x45, 0x00, 0x00, 0x50, 0x3c, 0x00, 0x00, 0x38, 0x3c, 0x00, 0x00,
  0x34, 0x00, 0x00, 0x00, 0x04, 0x00, 0x00, 0x00, 0x01, 0x00, 0x00, 0x00,
  0x04, 0x00, 0x00, 0x00, 0x30, 0xbb, 0xff, 0xff, 0x08, 0x00, 0x00, 0x00,
  0x17, 0x00, 0x00, 0x00, 0x13, 0x00, 0x00, 0x00, 0x6d, 0x69, 0x6e, 0x5f,
  0x72, 0x75, 0x6e, 0x74, 0x69, 0x6d, 0x65, 0x5f, 0x76, 0x65, 0x72, 0x73,
  0x69, 0x6f, 0x6e, 0x00, 0x18, 0x00, 0x00, 0x00, 0xf8, 0x3b, 0x00, 0x00,
  0xf0, 0x3b, 0x00, 0x00, 0x60, 0x2f, 0x00, 0x00, 0xa8, 0x1f, 0x00, 0x00,
  0xa0, 0x1f, 0x00, 0x00, 0xc8, 0x1e, 0x00, 0x00, 0xc0, 0x1e, 0x00, 0x00,
  0x60, 0x1e, 0x00, 0x00, 0x58, 0x1e, 0x00, 0x00, 0x50, 0x1e, 0x00, 0x00,
  0x48, 0x1e, 0x00, 0x00, 0x40, 0x1e, 0x00, 0x00, 0x38, 0x1e, 0x00, 0x00,
  0x28, 0x1a, 0x00, 0x00, 0xd8, 0x19, 0x00, 0x00, 0x00, 0x19, 0x00, 0x00,
  0x2c, 0x0f, 0x00, 0x00, 0xf4, 0x0e, 0x00, 0x00, 0x20, 0x05, 0x00, 0x00,
  0x48, 0x04, 0x00, 0x00, 0x18, 0x01, 0x00, 0x00, 0x40, 0x00, 0x00, 0x00,
  0x1c, 0x00, 0x00, 0x00, 0x04, 0x00, 0x00, 0x00, 0xfe, 0xd0, 0xff, 0xff,
  0x04, 0x00, 0x00, 0x00, 0x05, 0x00, 0x00, 0x00, 0x31, 0x2e, 0x35, 0x2e,
  0x30, 0x00, 0x00, 0x00, 0x12, 0xd1, 0xff, 0xff, 0x04, 0x00, 0x00, 0x00,
  0x14, 0x00, 0x00, 0x00, 0xd4, 0x32, 0x28, 0x3d, 0x2d, 0x9f, 0xa4, 0x3d,
  0x16, 0x79, 0x9d, 0x3c, 0x5c, 0x1a, 0xc8, 0x3e, 0x5e, 0x94, 0x40, 0x3d,
  0x32, 0xd1, 0xff, 0xff, 0x04, 0x00, 0x00, 0x00, 0xc8, 0x00, 0x00, 0x00,
  0xc4, 0x2c, 0x21, 0x3f, 0x9c, 0x5e, 0xe9, 0xbe, 0x68, 0xc1, 0x83, 0xbe,
  0x15, 0xa8, 0x41, 0x3e, 0xf0, 0xf2, 0x2f, 0x3f, 0x40, 0x08, 0x0f, 0x3f,
  0x1b, 0x1a, 0xfb, 0x3e, 0x7c, 0xfc, 0x49, 0xbe, 0x56, 0x5d, 0x5c, 0x3e,
  0xbd, 0xa9, 0x19, 0x3f, 0x33, 0x5d, 0x82, 0xbe, 0xb3, 0x67, 0xbd, 0xbd,
  0xa0, 0x6b, 0xc8, 0x3d, 0x23, 0x03, 0xca, 0xbe, 0x23, 0xa2, 0x0b, 0x3f,
  0xc0, 0x2a, 0x17, 0xbf, 0x85, 0x15, 0x42, 0x3d, 0x2c, 0x69, 0x29, 0x3f,
  0x65, 0xb7, 0x4c, 0xbd, 0x69, 0xca, 0x05, 0xbe, 0xee, 0xdc, 0x43, 0xbf,
  0xc4, 0x85, 0xa7, 0x3e, 0x28, 0x0f, 0xe4, 0x3d, 0x28, 0xfb, 0x86, 0x3e,
  0xaf, 0x5e, 0xd2, 0xbc, 0xda, 0x1d, 0x01, 0xbf, 0x59, 0xfe, 0x71, 0xbe,
  0x56, 0xf6, 0x08, 0x3f, 0x07, 0x05, 0x94, 0x3e, 0x68, 0x89, 0xa7, 0x3d,
  0x40, 0xd4, 0xb9, 0x3d, 0x60, 0x1c, 0xcf, 0x3e, 0xc5, 0x9d, 0xa6, 0xbe,
  0x63, 0xb7, 0xd9, 0x3e, 0x69, 0x30, 0x1f, 0xbe, 0x78, 0x76, 0xca, 0xbe,
  0xb3, 0xcb, 0xf2, 0x3e, 0x3d, 0x1b, 0x63, 0xbd, 0xc5, 0x2d, 0x50, 0x3e,
  0x40, 0x05, 0xb8, 0xbd, 0x19, 0xf8, 0x10, 0x3e, 0x2c, 0xad, 0x0f, 0xbf,
  0xd4, 0x7b, 0x0b, 0xbf, 0xdb, 0x2c, 0x6a, 0x3e, 0xcf, 0x8e, 0x10, 0xbf,
  0x69, 0xbd, 0x29, 0x3e, 0x1f, 0x39, 0x7d, 0x3e, 0x6d, 0xbe, 0xf7, 0xbd,
  0x0d, 0xd8, 0x5a, 0x3f, 0x49, 0xae, 0x0b, 0xbd, 0x06, 0xd2, 0xff, 0xff,
  0x04, 0x00, 0x00, 0x00, 0x20, 0x03, 0x00, 0x00, 0xcc, 0x3f, 0xa5, 0xbe,
  0x7f, 0xe9, 0xa9, 0xbe, 0x06, 0x73, 0x9e, 0xbe, 0x08, 0xec, 0xf6, 0x3d,
  0x9d, 0xe7, 0xa2, 0xbb, 0x30, 0x53, 0x92, 0x3e, 0x7c, 0x49, 0xd3, 0xbc,
  0xd0, 0x02, 0x4e, 0xbc, 0x24, 0x7e, 0x47, 0x3e, 0xae, 0x0d, 0x75, 0x3e,
  0x05, 0x62, 0x9e, 0xbe, 0x10, 0xc3, 0xe9, 0x3d, 0x2b, 0xb7, 0x78, 0xbe,
  0xe8, 0x29, 0x8e, 0xbd, 0x0f, 0x3a, 0x40, 0x3e, 0xb0, 0x3e, 0xb8, 0x3e,
  0x57, 0x58, 0xd3, 0xbe, 0x30, 0xb3, 0x63, 0x3e, 0x9d, 0x81, 0x22, 0x3e,
  0xbc, 0xc6, 0xcc, 0x3e, 0xe1, 0x62, 0x6c, 0x3e, 0x46, 0xba, 0xed, 0xbe,
  0x08, 0x86, 0x97, 0x3e, 0x58, 0x19, 0x82, 0x3d, 0xd0, 0x04, 0x22, 0xbe,
  0xa4, 0xc1, 0x8b, 0x3e, 0x99, 0x12, 0xc6, 0xbd, 0x2f, 0xba, 0x1b, 0x3e,
  0xc0, 0xec, 0x31, 0x3c, 0x44, 0x02, 0x26, 0x3e, 0xb5, 0x92, 0xe7, 0xbd,
  0xe8, 0xc2, 0xe0, 0x3d, 0x08, 0xc3, 0xdf, 0x3e, 0x40, 0xd1, 0x2f, 0xbe,
  0x13, 0x16, 0x42, 0x3e, 0x12, 0xc0, 0x7c, 0x3e, 0x29, 0xd0, 0x02, 0x3e,
  0xbf, 0x5b, 0x98, 0x3e, 0x68, 0x7a, 0xcb, 0xbe, 0x69, 0xc3, 0x9a, 0xbe,
  0x80, 0x68, 0x64, 0x3e, 0x24, 0xe4, 0xd8, 0xbd, 0xca, 0xca, 0x85, 0xbe,
  0x18, 0x72, 0x32, 0xbd, 0x9e, 0xc0, 0x3d, 0xbe, 0xe0, 0x5a, 0xa0, 0x3c,
  0x78, 0x55, 0x9e, 0xbe, 0x0d, 0xf8, 0xa1, 0xbe, 0x20, 0x30, 0x27, 0x3e,
  0x80, 0x27, 0x14, 0x3d, 0x80, 0x3e, 0xd7, 0xbe, 0xa4, 0xd3, 0x63, 0x3e,
  0x6c, 0x8d, 0x02, 0x3e, 0x7c, 0xc9, 0xeb, 0xbd, 0x01, 0xb7, 0xe3, 0xbe,
  0x04, 0x05, 0x42, 0x3e, 0x90, 0x29, 0x8b, 0x3e, 0xe4, 0x1c, 0xfb, 0xbd,
  0xf4, 0x36, 0x8c, 0xbe, 0x78, 0x4a, 0x49, 0xbe, 0x22, 0xac, 0xdb, 0xbe,
  0x1f, 0x45, 0x79, 0x3e, 0x54, 0x6b, 0x7f, 0xbb, 0x58, 0x79, 0xe8, 0x3d,
  0x4b, 0xe8, 0x3b, 0xbd, 0x79, 0x80, 0xae, 0xbe, 0x62, 0x26, 0x2e, 0x3d,
  0xac, 0x18, 0x99, 0xbe, 0x88, 0xf4, 0x4f, 0xbe, 0xbf, 0x71, 0x27, 0xbe,
  0xfb, 0x6a, 0xde, 0xbc, 0xd4, 0xb0, 0xcd, 0xbd, 0x25, 0x9f, 0x8a, 0xbd,
  0xcb, 0x6d, 0xd2, 0xbd, 0x66, 0xbf, 0x9f, 0xbe, 0xf6, 0xd0, 0x91, 0x3e,
  0x84, 0xe3, 0x62, 0xbd, 0x31, 0x97, 0x3d, 0x3e, 0x03, 0x1e, 0xf2, 0x3e,
  0x77, 0x71, 0x76, 0x3d, 0xce, 0x4a, 0xb8, 0xbc, 0x64, 0x50, 0x53, 0x3e,
  0x36, 0x9e, 0xa0, 0x3e, 0xb0, 0xf5, 0xdc, 0x3e, 0x2d, 0xab, 0xec, 0x3e,
  0xb5, 0x44, 0xcd, 0xbd, 0xdb, 0x52, 0xd5, 0x3e, 0x63, 0x08, 0x29, 0xbe,
  0x4a, 0x39, 0xca, 0x3e, 0x43, 0x28, 0x9f, 0x3e, 0xf2, 0x41, 0xc4, 0xbc,
  0xc5, 0xf9, 0x99, 0x3e, 0xa7, 0xe9, 0xf8, 0x3d, 0xae, 0xf7, 0x87, 0x3e,
  0xe9, 0x73, 0x1c, 0x3e, 0x0d, 0x27, 0x9c, 0x3e, 0xf5, 0x4e, 0xdb, 0xbd,
  0x5a, 0x35, 0xa6, 0x3e, 0xb0, 0xd1, 0x25, 0xbd, 0xe8, 0x8b, 0x3b, 0xbb,
  0x30, 0x72, 0x81, 0xbe, 0xe4, 0x16, 0x8c, 0x3d, 0xa9, 0xb3, 0x08, 0xbd,
  0x26, 0x0d, 0xcb, 0x3e, 0x47, 0x96, 0x2d, 0xbe, 0x62, 0xd9, 0x2d, 0xbe,
  0xf1, 0x51, 0x27, 0xbe, 0xbb, 0x6b, 0x9f, 0xbd, 0x84, 0xc7, 0xb2, 0xbe,
  0x1c, 0xf4, 0xe0, 0x3e, 0x67, 0x03, 0x86, 0xbe, 0xf0, 0x45, 0x00, 0x3e,
  0x63, 0x14, 0xb6, 0xbe, 0x54, 0x9f, 0x68, 0x3e, 0x89, 0x91, 0xd3, 0x3e,
  0x33, 0x2b, 0xab, 0xbe, 0xf0, 0x96, 0x72, 0x3e, 0x2c, 0xde, 0xed, 0xbd,
  0x5b, 0x87, 0xc1, 0xbe, 0xc5, 0xb0, 0x2e, 0x3e, 0xec, 0x82, 0x83, 0xbe,
  0x02, 0xe8, 0xbf, 0xbe, 0xe5, 0xbc, 0x05, 0x3e, 0xa4, 0x63, 0x7f, 0x3e,
  0xf9, 0xd8, 0x93, 0x3b, 0x9b, 0xc9, 0x9e, 0xbe, 0x46, 0xe7, 0x67, 0x3e,
  0x8c, 0x7a, 0xf7, 0x3d, 0x00, 0x3f, 0x77, 0x3e, 0xe4, 0x53, 0xad, 0xbe,
  0xc3, 0xbc, 0xb3, 0xbd, 0x83, 0x20, 0x78, 0xbe, 0x6c, 0xa5, 0x01, 0xbe,
  0x05, 0x78, 0x5a, 0xbd, 0x68, 0x9b, 0x2f, 0x3e, 0xf7, 0x2f, 0x8f, 0x3e,
  0xfb, 0x2b, 0xe3, 0xbd, 0xec, 0xc9, 0xad, 0xbe, 0x65, 0x48, 0x92, 0xbe,
  0xa7, 0x11, 0xaf, 0xbd, 0x71, 0xc0, 0x8e, 0xbd, 0x59, 0x5a, 0xd5, 0x3d,
  0x6e, 0xe4, 0xad, 0xbe, 0x74, 0xf8, 0x06, 0x3e, 0xd0, 0x4b, 0x4a, 0xbe,
  0xe8, 0x21, 0x94, 0x3e, 0xe1, 0xc4, 0xd9, 0x3e, 0xbe, 0x78, 0xb5, 0x3d,
  0x7d, 0xe4, 0xa7, 0xbd, 0xc2, 0xa7, 0xa9, 0xbe, 0x3c, 0xbf, 0xe7, 0xbe,
  0xe9, 0xf7, 0x2f, 0xbe, 0xd4, 0x21, 0x2e, 0x3c, 0xce, 0x6d, 0xc4, 0xbe,
  0xb5, 0x9f, 0x92, 0xbe, 0xda, 0x64, 0x78, 0xbd, 0x1f, 0x0c, 0x07, 0x3f,
  0x3b, 0xa4, 0xe1, 0xbd, 0xa6, 0xa7, 0x51, 0xbf, 0x8d, 0xd0, 0xe4, 0x3e,
  0x03, 0xb4, 0x58, 0x3e, 0x06, 0xe6, 0xe8, 0x3e, 0xe9, 0xa0, 0x05, 0x3f,
  0x8a, 0x87, 0xa5, 0x3e, 0x03, 0x5a, 0x9b, 0x3e, 0xb3, 0x86, 0x91, 0xbe,
  0xaf, 0xc0, 0x5a, 0xbe, 0xb3, 0x2e, 0x93, 0x3e, 0x01, 0xfe, 0xaf, 0x3e,
  0x5d, 0x25, 0x2d, 0xbe, 0xd0, 0x2b, 0xa0, 0xbe, 0x09, 0xb0, 0x28, 0x3b,
  0x67, 0x70, 0x1e, 0x3e, 0xf4, 0xae, 0xc4, 0xbe, 0x2c, 0xa5, 0x8b, 0x3e,
  0xe1, 0x47, 0xa6, 0x3e, 0x06, 0x8b, 0x1d, 0x3e, 0xa6, 0x8c, 0x4d, 0xbd,
  0x91, 0xd0, 0x87, 0xbe, 0x71, 0x82, 0x16, 0x3e, 0xed, 0x8c, 0x07, 0x3e,
  0x15, 0x75, 0x7b, 0xbe, 0x33, 0x39, 0xab, 0x3e, 0x20, 0xbc, 0xe6, 0x3d,
  0xd6, 0xf3, 0x4f, 0xbe, 0xc0, 0x9a, 0x37, 0x3e, 0x0a, 0x79, 0x4f, 0x3e,
  0xe9, 0x6f, 0x0e, 0x3d, 0x38, 0x4e, 0xd6, 0xbe, 0x74, 0xe1, 0x5f, 0xbe,
  0xd2, 0x7e, 0x33, 0x3e, 0x6c, 0xd1, 0xde, 0xbe, 0x3c, 0x50, 0x04, 0x3d,
  0x20, 0x34, 0xf4, 0x3d, 0x88, 0x25, 0x3a, 0xbe, 0xb1, 0x3d, 0x85, 0x3d,
  0x44, 0x3c, 0xb0, 0x3e, 0xd7, 0xf2, 0xde, 0xbe, 0xb8, 0xfc, 0xe8, 0x3d,
  0x3b, 0x54, 0x02, 0x3e, 0x32, 0xd5, 0xff, 0xff, 0x04, 0x00, 0x00, 0x00,
  0xc8, 0x00, 0x00, 0x00, 0xcf, 0xf6, 0xac, 0x3c, 0x47, 0xb9, 0x4b, 0xbd,
  0xd1, 0x72, 0x8c, 0xbc, 0xf5, 0xe2, 0x27, 0xbd, 0x25, 0x1b, 0x18, 0xba,
  0xb5, 0x79, 0x21, 0xbd, 0xe6, 0xd2, 0x6d, 0xbd, 0x13, 0xdd, 0x5e, 0x3d,
  0x44, 0xa5, 0x1f, 0x3d, 0x8e, 0x4b, 0x0f, 0xbd, 0xec, 0x2a, 0xee, 0xbc,
  0x6f, 0x1e, 0xc1, 0xbb, 0xb1, 0x5b, 0xce, 0x3c, 0xc1, 0xfb, 0x80, 0xbd,
  0xf1, 0xaf, 0xeb, 0xbc, 0x0b, 0xc2, 0x35, 0xbd, 0x30, 0x5f, 0xc4, 0x3c,
  0x48, 0x30, 0xc6, 0xbc, 0x83, 0x45, 0x39, 0xbd, 0xcb, 0xd4, 0x16, 0x3d,
  0x66, 0xb0, 0x73, 0xbc, 0x15, 0x02, 0xfa, 0xbc, 0x4f, 0x11, 0x81, 0x3d,
  0x1d, 0xa9, 0xfa, 0xbc, 0x78, 0x6b, 0xc2, 0x3c, 0xba, 0x07, 0x33, 0x3d,
  0xad, 0x81, 0x96, 0xbd, 0x3d, 0x50, 0x3a, 0xbd, 0x9d, 0xfc, 0x39, 0x3d,
  0xfe, 0x58, 0xb6, 0x3a, 0xea, 0x31, 0xb2, 0x3d, 0x79, 0x1d, 0xf5, 0xbc,
  0x44, 0x9a, 0x37, 0xbd, 0xf4, 0x6f, 0xf3, 0xbc, 0x45, 0xc6, 0xa8, 0xbc,
  0x75, 0x74, 0xb4, 0x3d, 0x00, 0x00, 0x00, 0x00, 0xa7, 0x32, 0x14, 0x3d,
  0xd6, 0x12, 0x57, 0x3d, 0x7b, 0x0d, 0xa8, 0x3d, 0x00, 0x00, 0x00, 0x00,
  0x00, 0x00, 0x00, 0x00, 0x26, 0xe3, 0xb4, 0x3d, 0x13, 0x53, 0xab, 0xbc,
  0xbe, 0xf9, 0xca, 0xbc, 0x00, 0x00, 0x00, 0x00, 0x3c, 0x31, 0x3c, 0x3c,
  0x8d, 0x8f, 0xad, 0xbc, 0x00, 0x00, 0x00, 0x00, 0x00, 0x00, 0x00, 0x00,
  0x06, 0xd6, 0xff, 0xff, 0x04, 0x00, 0x00, 0x00, 0xc4, 0x09, 0x00, 0x00,
  0x35, 0x09, 0xe7, 0x14, 0xff, 0x0a, 0xed, 0x1c, 0xed, 0x10, 0x05, 0x0f,
  0x14, 0xf8, 0xf1, 0x0a, 0xde, 0xed, 0xf9, 0xf4, 0xf9, 0xf1, 0xf6, 0xf0,
  0x00, 0x1a, 0xe9, 0x17, 0x12, 0x0d, 0x06, 0xd5, 0xc8, 0x06, 0x15, 0x16,
  0x0e, 0x10, 0x10, 0xff, 0xf4, 0xf7, 0xff, 0x0e, 0xfc, 0x1a, 0xef, 0xe5,
  0xf9, 0xd8, 0xfb, 0xf6, 0xf6, 0xfb, 0xf0, 0xe5, 0x05, 0x0c, 0x13, 0xf9,
  0x16, 0x08, 0xfa, 0x15, 0xf5, 0x13, 0xe7, 0xf0, 0x17, 0xf1, 0x0d, 0xe1,
  0xfb, 0xf9, 0x0a, 0xeb, 0xff, 0x16, 0x17, 0xfc, 0xf4, 0x04, 0xec, 0xf8,
  0x17, 0xef, 0xf6, 0x12, 0xdd, 0xfd, 0xff, 0xf7, 0xe7, 0xe9, 0xf6, 0xfd,
  0x18, 0xab, 0x0e, 0x32, 0x0c, 0xe5, 0xe7, 0x14, 0xe7, 0xed, 0xfc, 0x09,
  0xf6, 0x0e, 0x15, 0x01, 0xef, 0x15, 0x03, 0xed, 0x0a, 0x10, 0xef, 0x06,
  0xe5, 0xee, 0x00, 0xfd, 0x09, 0x08, 0x04, 0x02, 0x02, 0xe9, 0xeb, 0x04,
  0xf0, 0x0e, 0xf4, 0xfb, 0xea, 0xed, 0x12, 0x08, 0x18, 0x0e, 0x0e, 0x05,
  0xff, 0xe8, 0x15, 0x0e, 0x17, 0x0e, 0x1d, 0xdd, 0xe8, 0xd5, 0x1c, 0x0b,
  0xf2, 0xf4, 0x0f, 0xdd, 0x04, 0xee, 0x9f, 0xef, 0x21, 0xee, 0xfd, 0x01,
  0xfe, 0x04, 0x1a, 0x16, 0x07, 0xe7, 0x0a, 0x02, 0x00, 0xf9, 0x01, 0xf9,
  0x1a, 0xe6, 0xa2, 0xef, 0xe8, 0xff, 0xdc, 0xfe, 0x19, 0x13, 0x01, 0x13,
  0xf2, 0xf9, 0xe7, 0xf7, 0x09, 0x23, 0x07, 0x01, 0x33, 0x12, 0x00, 0x1c,
  0xed, 0xfe, 0xf8, 0xf2, 0x0a, 0xfc, 0xec, 0xd6, 0x17, 0x16, 0xfd, 0xf0,
  0x0f, 0xf8, 0xc8, 0xf4, 0xed, 0x00, 0x0c, 0x0c, 0xf8, 0x18, 0xf2, 0xff,
  0xec, 0xe8, 0xee, 0xe6, 0xd5, 0x13, 0x17, 0x0b, 0x05, 0x17, 0x06, 0x00,
  0x01, 0xfa, 0xfc, 0x01, 0x13, 0x12, 0x07, 0xf1, 0x15, 0xef, 0x28, 0x13,
  0xee, 0xe7, 0x0f, 0x15, 0xeb, 0xf9, 0xf2, 0xfc, 0xfd, 0xa6, 0xa0, 0xeb,
  0xd9, 0x04, 0x0c, 0x05, 0xdb, 0x1a, 0xfa, 0x07, 0xe7, 0x10, 0x14, 0x0f,
  0x0e, 0x17, 0x05, 0xf3, 0xf8, 0xea, 0xeb, 0xf2, 0x12, 0xfc, 0xee, 0x2e,
  0x16, 0x05, 0x01, 0x05, 0xf1, 0x03, 0x0d, 0x01, 0xe8, 0x1a, 0x0c, 0x00,
  0xf5, 0xee, 0xeb, 0x05, 0xf5, 0x16, 0xfc, 0x08, 0x05, 0xe7, 0xe8, 0x0f,
  0xf6, 0xfb, 0x16, 0x17, 0xec, 0xfa, 0xeb, 0xef, 0xfe, 0x0c, 0xe6, 0xf1,
  0x15, 0x05, 0x03, 0xe5, 0x01, 0xf9, 0x19, 0x14, 0xfe, 0xeb, 0xf9, 0xf9,
  0x05, 0x0c, 0x13, 0x0d, 0x0a, 0xf7, 0xe9, 0xee, 0x00, 0xe7, 0xfb, 0x16,
  0x19, 0x0b, 0xf5, 0x17, 0x11, 0x18, 0x06, 0xf6, 0xeb, 0x05, 0xfe, 0x12,
  0x1a, 0xef, 0x03, 0x15, 0x06, 0xed, 0x0a, 0xfb, 0xdc, 0xed, 0x1a, 0x17,
  0xe9, 0xea, 0xf1, 0xfd, 0xf6, 0x0e, 0xe9, 0x06, 0x08, 0xdb, 0xe4, 0xec,
  0x18, 0xff, 0x17, 0xfc, 0xf3, 0x12, 0xf2, 0xe7, 0x19, 0xfc, 0x05, 0x1a,
  0x07, 0xf3, 0x09, 0xfa, 0x06, 0xfe, 0xf2, 0x02, 0xf4, 0xec, 0x05, 0x01,
  0x1a, 0x14, 0xf5, 0xf5, 0xea, 0x06, 0xdd, 0x02, 0xff, 0x0c, 0xe8, 0x01,
  0x13, 0xea, 0xf8, 0xe9, 0x13, 0x03, 0x15, 0xfe, 0xfb, 0xfc, 0x06, 0xfe,
  0xd0, 0xea, 0x0c, 0xed, 0x0c, 0x19, 0xfa, 0x18, 0xfe, 0x17, 0x0d, 0x0b,
  0xed, 0xf6, 0x03, 0x1d, 0xf5, 0x02, 0xed, 0xe9, 0x11, 0x05, 0xf3, 0x11,
  0xeb, 0x11, 0xec, 0x14, 0xe5, 0x0e, 0xec, 0xfa, 0x19, 0xeb, 0xf9, 0xff,
  0xed, 0x13, 0xf6, 0xf2, 0x0f, 0x0f, 0x05, 0x12, 0xe9, 0xf1, 0x13, 0x0c,
  0x00, 0x0e, 0xf3, 0x14, 0xe6, 0xf4, 0x14, 0xfc, 0x08, 0xfa, 0xee, 0x15,
  0xff, 0xe9, 0x0d, 0xef, 0xfb, 0x10, 0xf2, 0xf0, 0x12, 0x09, 0xf6, 0xe6,
  0xea, 0xf6, 0x0f, 0x1b, 0x12, 0xeb, 0xf7, 0xf4, 0x12, 0xfc, 0x13, 0xfd,
  0x02, 0xe6, 0x0c, 0x04, 0x0d, 0xfc, 0xec, 0x01, 0xe5, 0x10, 0x15, 0x18,
  0xf0, 0x15, 0xfd, 0x02, 0x0f, 0x19, 0xec, 0x09, 0xfd, 0xed, 0xfb, 0x08,
  0x01, 0xf5, 0xf0, 0xfd, 0x11, 0x11, 0x19, 0xf8, 0xec, 0x06, 0x13, 0x09,
  0x06, 0x1a, 0xe1, 0x10, 0x11, 0x0c, 0xf0, 0x19, 0x14, 0xe6, 0x0e, 0x01,
  0xe9, 0xee, 0xfc, 0xf6, 0x0d, 0xe5, 0x04, 0xfa, 0x03, 0xf8, 0xfc, 0xf4,
  0x09, 0xf6, 0x03, 0xe0, 0x09, 0xf4, 0xc5, 0xe6, 0x0a, 0xed, 0x01, 0x17,
  0xfe, 0xfe, 0x17, 0xf7, 0xfc, 0x08, 0xe6, 0x05, 0xf5, 0x03, 0x07, 0xf8,
  0xe2, 0x0a, 0xfa, 0x19, 0xfc, 0xf2, 0x15, 0xea, 0xff, 0xef, 0x09, 0x22,
  0x04, 0x20, 0x25, 0x0b, 0xe4, 0x16, 0x3f, 0xea, 0x18, 0x1a, 0xf8, 0xe7,
  0xee, 0x0f, 0x19, 0xfe, 0x1d, 0xec, 0x08, 0x42, 0x2b, 0xfb, 0x0e, 0x02,
  0xbe, 0xf3, 0xed, 0x16, 0x0c, 0x15, 0x07, 0xfc, 0x07, 0xeb, 0xf9, 0x24,
  0x08, 0x07, 0xce, 0xea, 0x10, 0xfe, 0x09, 0xfa, 0x08, 0xef, 0x01, 0x06,
  0xea, 0x1c, 0x10, 0x21, 0x2a, 0x02, 0xb7, 0x19, 0x57, 0x0d, 0xf6, 0xfe,
  0xfd, 0x11, 0x20, 0xe8, 0xee, 0x22, 0x0e, 0x04, 0x14, 0x08, 0x29, 0xf2,
  0xf6, 0xf0, 0xda, 0xe9, 0x03, 0xf9, 0x03, 0xed, 0x15, 0x1a, 0xf7, 0x08,
  0xed, 0x10, 0x11, 0xab, 0xf7, 0xe6, 0xed, 0x05, 0x1b, 0x13, 0xfd, 0xe7,
  0x07, 0xea, 0x04, 0xe5, 0xe5, 0xef, 0x14, 0x19, 0xe7, 0xe7, 0xe7, 0x0d,
  0xfb, 0xe5, 0xfe, 0xfd, 0x04, 0xee, 0xfa, 0xf1, 0x0f, 0xf4, 0xfc, 0x02,
  0x11, 0xf9, 0x0d, 0x1a, 0xf9, 0x02, 0xe9, 0xfa, 0xf9, 0x12, 0xee, 0xf1,
  0x10, 0x19, 0x0a, 0xe8, 0xee, 0x19, 0xfe, 0x0f, 0x07, 0x0b, 0xf7, 0x18,
  0xfe, 0x0f, 0x08, 0x10, 0xeb, 0xd3, 0xf4, 0xe3, 0x16, 0x13, 0xf0, 0xf7,
  0x16, 0x0f, 0xf2, 0xe1, 0xfc, 0x0a, 0x02, 0x0b, 0xe6, 0x09, 0xfb, 0x16,
  0x12, 0x11, 0xec, 0x13, 0x09, 0xeb, 0x46, 0xfd, 0xe9, 0x0b, 0x16, 0x12,
  0xf7, 0xf9, 0x02, 0xeb, 0xff, 0x06, 0x19, 0xe3, 0xf7, 0xf6, 0xfd, 0xea,
  0x12, 0xf2, 0xf2, 0x04, 0xfb, 0x06, 0x18, 0x0c, 0x24, 0x30, 0xe8, 0x0c,
  0x06, 0x1a, 0x14, 0xfa, 0xe6, 0x13, 0x0b, 0xea, 0xec, 0xff, 0xee, 0x0c,
  0x0c, 0xed, 0xed, 0x02, 0xe6, 0xfa, 0x17, 0x17, 0xc7, 0xec, 0x14, 0xfa,
  0xe7, 0x20, 0x05, 0xee, 0xec, 0x13, 0xe6, 0x24, 0x0c, 0x2a, 0x0e, 0xea,
  0xeb, 0x0d, 0x06, 0x02, 0xf2, 0xe9, 0x1e, 0x19, 0x14, 0xf7, 0xf5, 0xe0,
  0xfc, 0xf4, 0xeb, 0xfc, 0x2f, 0x14, 0x0b, 0x01, 0xe6, 0x18, 0xf8, 0xf7,
  0xfa, 0x04, 0xf6, 0xf7, 0xf4, 0x1e, 0x1d, 0xe2, 0x1b, 0xed, 0x26, 0xe9,
  0xfa, 0xef, 0x08, 0x0e, 0xe6, 0xff, 0x09, 0xe8, 0x16, 0xf9, 0xff, 0xff,
  0xdc, 0x0c, 0x10, 0xe9, 0x04, 0xeb, 0xf4, 0x0d, 0xe8, 0x0a, 0x0c, 0x23,
  0xe9, 0xf6, 0x03, 0xf8, 0xe2, 0x02, 0x0a, 0xfd, 0x08, 0xd8, 0xf3, 0xeb,
  0x3a, 0xf0, 0x0f, 0xdb, 0x11, 0xf5, 0xfa, 0xec, 0xe3, 0x12, 0xf3, 0xf2,
  0x21, 0x19, 0x0c, 0x06, 0xf9, 0x1c, 0xff, 0x11, 0x18, 0xf5, 0x17, 0x03,
  0x19, 0x24, 0xf9, 0x18, 0xfc, 0x0b, 0x13, 0x0f, 0xfc, 0x06, 0xf1, 0x18,
  0x17, 0x10, 0xfc, 0x03, 0xfd, 0x15, 0xe7, 0xfa, 0xc8, 0xfd, 0xf9, 0x12,
  0xfd, 0xf9, 0x13, 0x03, 0xe9, 0x14, 0x0c, 0x0e, 0x15, 0xcd, 0xd5, 0x0b,
  0x05, 0x12, 0x05, 0x13, 0xf9, 0x1b, 0x14, 0x08, 0xea, 0xe9, 0x0a, 0xfc,
  0x11, 0x0a, 0xe7, 0xda, 0x0d, 0x19, 0x06, 0xf8, 0x0f, 0x18, 0x0a, 0xe5,
  0x08, 0xe4, 0x11, 0x03, 0x09, 0xf8, 0x05, 0x06, 0x04, 0x0f, 0x12, 0x15,
  0x0b, 0xf8, 0x04, 0xec, 0xeb, 0xfa, 0x11, 0xff, 0x06, 0xf2, 0xff, 0x15,
  0xfc, 0x16, 0x07, 0x11, 0xf5, 0xfb, 0xf6, 0xef, 0xfd, 0xfe, 0xf1, 0xe6,
  0x06, 0xe7, 0x05, 0xe8, 0x19, 0x17, 0xf3, 0xe3, 0x18, 0xe5, 0x07, 0x02,
  0xef, 0x1a, 0xfc, 0xfe, 0xe7, 0x0f, 0x03, 0x14, 0xe9, 0xef, 0x15, 0xe8,
  0xfa, 0x0a, 0x0e, 0xfc, 0xea, 0xf9, 0xe6, 0xed, 0x0a, 0xe5, 0x16, 0x09,
  0xe9, 0x0d, 0x0b, 0xe8, 0xf1, 0xe8, 0xe9, 0xee, 0xe9, 0xf8, 0x08, 0x0d,
  0x10, 0x17, 0x10, 0xe4, 0x00, 0x03, 0xed, 0x00, 0x07, 0x14, 0xf0, 0x08,
  0x0b, 0x0b, 0xe5, 0x1a, 0x0f, 0x11, 0xff, 0x14, 0x0b, 0x05, 0x1c, 0xf4,
  0xf4, 0xff, 0xfe, 0xf8, 0x07, 0x15, 0x0c, 0x0f, 0xe1, 0x17, 0xf0, 0xee,
  0x14, 0x1d, 0x0c, 0x07, 0xf4, 0xea, 0x0a, 0xfb, 0xee, 0x0e, 0xf3, 0x1c,
  0xff, 0xf8, 0x0d, 0x0b, 0x07, 0xf8, 0x0c, 0x1f, 0x09, 0xf6, 0x12, 0x0a,
  0xe6, 0xfb, 0x05, 0x10, 0x10, 0xeb, 0xf0, 0xe4, 0xe9, 0x0e, 0xe9, 0xf2,
  0x0a, 0xea, 0x17, 0x15, 0xe9, 0x0d, 0xf3, 0xef, 0xec, 0x09, 0x09, 0x05,
  0x01, 0xfa, 0x03, 0xf9, 0x09, 0xf6, 0xf6, 0x0b, 0xef, 0x1a, 0xea, 0x10,
  0x05, 0xfa, 0x1b, 0x05, 0x17, 0x07, 0xf4, 0x14, 0xec, 0xf4, 0xfe, 0x12,
  0xfc, 0x05, 0x08, 0x19, 0xfc, 0xf1, 0x0e, 0x0e, 0xf0, 0xe4, 0xe9, 0xff,
  0x4c, 0xea, 0xfd, 0x06, 0x3a, 0x11, 0x4a, 0xf6, 0xf6, 0xff, 0x14, 0xec,
  0x81, 0xed, 0xf2, 0xc3, 0x1b, 0x0d, 0x14, 0xf4, 0x0e, 0x0d, 0x0d, 0xe8,
  0xf3, 0x2c, 0xf6, 0xeb, 0x0a, 0xfb, 0xe9, 0xdb, 0x12, 0xdd, 0xff, 0x14,
  0x0b, 0xef, 0x18, 0x1a, 0xfd, 0xe9, 0xe1, 0x04, 0xf2, 0x14, 0xe1, 0x0f,
  0xff, 0xfd, 0x1d, 0x0e, 0xd8, 0x14, 0x17, 0xe9, 0xda, 0x10, 0xf8, 0x09,
  0x16, 0x0e, 0xf7, 0xea, 0xf6, 0xef, 0x0f, 0xe7, 0xf9, 0xd7, 0xf1, 0x0c,
  0x07, 0xf1, 0x06, 0x28, 0x17, 0xf5, 0x00, 0x18, 0x13, 0x01, 0x19, 0xf9,
  0xe6, 0x17, 0xf1, 0xf1, 0x1d, 0x10, 0x0f, 0x10, 0x11, 0xf7, 0x0c, 0xe3,
  0xd0, 0xf1, 0x17, 0xe2, 0x24, 0xda, 0xdc, 0xf9, 0xd8, 0x10, 0xa3, 0xf1,
  0x10, 0xe2, 0xfd, 0xf8, 0x9a, 0xf7, 0x15, 0x0a, 0x09, 0xf9, 0xe8, 0xfd,
  0xc2, 0xed, 0x01, 0x05, 0x04, 0xf7, 0x11, 0xf8, 0x11, 0xf7, 0xe7, 0x09,
  0xea, 0x01, 0x08, 0x24, 0xef, 0x0f, 0x1e, 0x06, 0x02, 0xe7, 0xe7, 0x10,
  0x18, 0xe5, 0x10, 0x10, 0x11, 0x23, 0x11, 0xf3, 0xb8, 0x0d, 0x0b, 0xe8,
  0xd3, 0xec, 0xfb, 0xe9, 0x11, 0xf0, 0x10, 0x01, 0x13, 0x1b, 0xe3, 0x15,
  0xee, 0x1c, 0x1c, 0x0e, 0x1a, 0x02, 0x22, 0xf6, 0xfa, 0x0c, 0xec, 0xd5,
  0x15, 0xeb, 0x04, 0xe1, 0xfb, 0xe1, 0x1c, 0x39, 0x25, 0xf5, 0xf2, 0x15,
  0x06, 0x03, 0xf0, 0x19, 0x15, 0x04, 0x17, 0xf7, 0xef, 0xfc, 0x1d, 0xeb,
  0xd8, 0x0f, 0x02, 0x12, 0x08, 0xeb, 0xfe, 0xe7, 0xd3, 0x09, 0x09, 0x04,
  0x18, 0x0e, 0xed, 0xa4, 0xdb, 0xd7, 0x13, 0xf9, 0x3f, 0x09, 0x03, 0x14,
  0xf4, 0xfe, 0xef, 0xfb, 0x1a, 0xef, 0xf5, 0x10, 0x13, 0xf0, 0xe9, 0xdb,
  0x1b, 0x0d, 0x04, 0x11, 0xf2, 0xe9, 0x19, 0x12, 0xff, 0x05, 0x14, 0x02,
  0xde, 0x04, 0xf8, 0xe9, 0x36, 0x12, 0xef, 0x19, 0xe5, 0x14, 0x02, 0xf1,
  0x0f, 0xfc, 0x16, 0x11, 0x16, 0x06, 0xdd, 0x09, 0x08, 0xee, 0xe3, 0x03,
  0x10, 0x0d, 0xfa, 0x0c, 0xf9, 0x1e, 0xf5, 0x15, 0x08, 0xf8, 0x09, 0xf0,
  0x07, 0x01, 0xec, 0xf6, 0xf8, 0x0f, 0x0d, 0xf7, 0x07, 0x1a, 0x18, 0x22,
  0xfd, 0x20, 0x15, 0x14, 0xe8, 0xf4, 0xfc, 0x18, 0x16, 0xff, 0xf3, 0xfb,
  0xe3, 0xf6, 0x0f, 0x19, 0x0e, 0xfe, 0x04, 0xc0, 0xf9, 0x0d, 0x0d, 0xe7,
  0x0a, 0x12, 0xf4, 0x12, 0xf4, 0x0a, 0x02, 0xf0, 0x14, 0x18, 0xf0, 0x09,
  0xf1, 0xe9, 0xf0, 0x02, 0xf3, 0xfb, 0xf0, 0x0c, 0x07, 0xf2, 0xe7, 0xea,
  0x04, 0xec, 0x02, 0xe8, 0x0e, 0xe6, 0xee, 0x13, 0xfe, 0x15, 0x0b, 0x15,
  0xe3, 0x00, 0xe6, 0xf1, 0xf4, 0xe6, 0x04, 0x1a, 0xef, 0x0e, 0xf2, 0xe6,
  0xea, 0xef, 0x09, 0xf3, 0x0b, 0xf5, 0x18, 0x03, 0x0c, 0x01, 0xfa, 0x0d,
  0xed, 0x0f, 0x18, 0x09, 0x0f, 0xed, 0x06, 0x09, 0xe9, 0xf3, 0xf4, 0xf9,
  0x00, 0xf1, 0x1b, 0x06, 0xf7, 0xec, 0xe7, 0xee, 0x0b, 0x13, 0x19, 0xe8,
  0xef, 0xef, 0xe7, 0x0e, 0xf8, 0x0a, 0xf9, 0xf4, 0x12, 0x10, 0xee, 0x05,
  0xe2, 0xea, 0xf5, 0x17, 0xf7, 0x0c, 0x13, 0xfd, 0x05, 0xe3, 0xf0, 0xeb,
  0x0a, 0x1a, 0xe8, 0xf5, 0xe7, 0x10, 0x13, 0xf0, 0xeb, 0xf8, 0xe3, 0xf6,
  0x09, 0x0b, 0xec, 0xff, 0xf1, 0xe6, 0x0a, 0x06, 0xfe, 0x04, 0xf4, 0xf4,
  0x00, 0xf9, 0x0d, 0xfe, 0xe5, 0x07, 0xe5, 0x0d, 0x0e, 0x10, 0x0c, 0x0e,
  0x1b, 0x09, 0xeb, 0xe9, 0x0d, 0x01, 0x00, 0xed, 0xeb, 0xf9, 0x09, 0xe6,
  0x18, 0x0c, 0x0d, 0x18, 0x10, 0xe2, 0x19, 0x04, 0x05, 0x18, 0xfa, 0x09,
  0x09, 0x16, 0x14, 0xfc, 0x16, 0xe6, 0x0d, 0x15, 0xec, 0x18, 0xf9, 0x00,
  0xf7, 0xe8, 0xf8, 0xff, 0xf9, 0xe6, 0xff, 0x0d, 0x02, 0x17, 0xfa, 0xff,
  0xed, 0xfa, 0x02, 0x15, 0xf8, 0x10, 0x06, 0xe9, 0x04, 0x11, 0xfa, 0xed,
  0x0f, 0xfc, 0xfc, 0x0b, 0xec, 0xf9, 0x11, 0xe4, 0xf2, 0xe3, 0x05, 0xf8,
  0xf2, 0x01, 0x03, 0x0f, 0xe9, 0xf8, 0x19, 0x0b, 0xf0, 0x17, 0xe5, 0x0d,
  0x10, 0x18, 0x0b, 0x18, 0x01, 0x0d, 0xef, 0x16, 0x0e, 0x13, 0xe8, 0x0e,
  0xf3, 0xfe, 0xf2, 0xeb, 0x02, 0xeb, 0xf4, 0x15, 0x14, 0xfa, 0xf6, 0xf7,
  0xf6, 0xf5, 0xf4, 0xee, 0xee, 0xe7, 0xf9, 0xe8, 0xed, 0x0a, 0x07, 0xf8,
  0xf5, 0x00, 0x15, 0x14, 0x0d, 0x1a, 0x0b, 0x1b, 0xfc, 0x12, 0x07, 0x18,
  0xee, 0xe7, 0xfe, 0xfe, 0xe7, 0xff, 0xec, 0xf6, 0xfb, 0x05, 0x0a, 0xfc,
  0xf1, 0x0d, 0xec, 0xf2, 0xf7, 0xe9, 0x0c, 0xef, 0xef, 0xf1, 0xe6, 0xe8,
  0xe6, 0xfe, 0xe8, 0x15, 0xec, 0xf1, 0xe9, 0xe8, 0x06, 0xf2, 0x08, 0xeb,
  0x02, 0xf0, 0xed, 0x01, 0xf0, 0xf7, 0xff, 0x17, 0x14, 0x1c, 0x1b, 0x16,
  0xf7, 0x12, 0xc4, 0xe1, 0x33, 0x13, 0x0f, 0xec, 0xf7, 0xed, 0xee, 0x1a,
  0x06, 0x0c, 0x26, 0x1a, 0xe7, 0x23, 0xf5, 0x0d, 0x1a, 0xd8, 0xf9, 0x14,
  0x19, 0xf9, 0x30, 0x16, 0xf6, 0xf7, 0x00, 0xec, 0xe9, 0x02, 0xec, 0xf4,
  0xf7, 0xf9, 0x08, 0xe7, 0xf2, 0x07, 0xf4, 0xe9, 0x08, 0xe8, 0xe8, 0x14,
  0x11, 0xe3, 0x04, 0x0f, 0xff, 0xfd, 0xf5, 0x0c, 0xef, 0xf4, 0x29, 0xef,
  0xe1, 0x14, 0x0b, 0xee, 0x02, 0xfc, 0xec, 0xec, 0x13, 0x12, 0x02, 0xf1,
  0x0f, 0x17, 0x10, 0xee, 0x05, 0xe2, 0x07, 0x1b, 0xf7, 0x10, 0x03, 0xf7,
  0xed, 0xe7, 0xf3, 0x08, 0xf9, 0x13, 0xf6, 0x12, 0x12, 0xf8, 0x0e, 0xf3,
  0xfa, 0x05, 0xf9, 0x17, 0x03, 0xf7, 0xfa, 0xf5, 0xfd, 0x0c, 0xec, 0x0a,
  0xe9, 0xed, 0xfd, 0x0b, 0xf9, 0xfe, 0xeb, 0xe7, 0xec, 0x0c, 0xff, 0x1c,
  0xfc, 0xc3, 0xeb, 0xe4, 0x1d, 0xea, 0x19, 0x06, 0x17, 0xf1, 0x19, 0x14,
  0x0f, 0xff, 0x0c, 0x10, 0x0e, 0x0d, 0x0d, 0xfa, 0xf8, 0x03, 0xfc, 0xfd,
  0xf7, 0x0a, 0xfa, 0x18, 0x01, 0xf2, 0xf1, 0x07, 0x16, 0xf4, 0xfa, 0xe9,
  0xe7, 0xf4, 0xf2, 0xfb, 0xe8, 0xec, 0xf8, 0x0b, 0xf6, 0x04, 0xeb, 0xf8,
  0x1a, 0x10, 0xe7, 0x0b, 0x0a, 0x01, 0xe7, 0xf9, 0x01, 0x10, 0x19, 0x0b,
  0xe6, 0x00, 0xf0, 0x09, 0xf1, 0xee, 0x0d, 0xf9, 0x0e, 0x0a, 0xf2, 0xe9,
  0x08, 0xed, 0x0c, 0xea, 0x19, 0x17, 0xeb, 0x15, 0xe6, 0xf6, 0xf7, 0x15,
  0x09, 0x19, 0x0e, 0x19, 0xf4, 0xec, 0x10, 0xf5, 0xfe, 0x0e, 0x07, 0x13,
  0xfb, 0xff, 0xf6, 0xfb, 0xf3, 0x01, 0x02, 0x06, 0xe7, 0x17, 0xf1, 0x0c,
  0x02, 0xe8, 0xec, 0xee, 0xff, 0xeb, 0x08, 0x03, 0x0a, 0x13, 0x18, 0xea,
  0x10, 0xf1, 0x0d, 0xff, 0x03, 0x1a, 0xe9, 0xed, 0x1c, 0xf5, 0x07, 0x19,
  0xcd, 0xe6, 0x42, 0xe8, 0xd7, 0x11, 0xdd, 0x03, 0x1b, 0x0d, 0x19, 0x06,
  0xe9, 0xee, 0x09, 0x11, 0x11, 0x20, 0x0e, 0xe2, 0xfc, 0xfe, 0xfb, 0x0f,
  0x23, 0xfb, 0x1d, 0x00, 0x0d, 0xf9, 0xf6, 0x20, 0xf6, 0x04, 0x17, 0xf0,
  0x01, 0xfe, 0x01, 0x13, 0x02, 0x09, 0x13, 0x16, 0xfd, 0x08, 0xfd, 0xfe,
  0x03, 0x02, 0x14, 0x06, 0xf8, 0xf7, 0xf6, 0x0c, 0x19, 0xfd, 0xf1, 0xe6,
  0x03, 0xf6, 0xe7, 0x01, 0xf8, 0xf8, 0xe4, 0x07, 0x0c, 0x13, 0xfa, 0xee,
  0xef, 0x06, 0xef, 0xff, 0xfb, 0x15, 0xf0, 0x13, 0xf6, 0x11, 0x02, 0x17,
  0xeb, 0xde, 0x00, 0xfe, 0xfd, 0x11, 0xe6, 0xe9, 0xf2, 0xeb, 0x0f, 0x19,
  0xf9, 0x01, 0x0c, 0x00, 0x12, 0xff, 0xe6, 0x0a, 0x0e, 0x11, 0x0e, 0x0d,
  0xfd, 0x0c, 0x15, 0x11, 0xf8, 0x08, 0xed, 0xe7, 0x08, 0xf1, 0xf1, 0xfc,
  0x15, 0xf8, 0xe4, 0x00, 0x09, 0xfc, 0xe4, 0xfa, 0xff, 0xf9, 0x15, 0xfe,
  0x12, 0xe8, 0xe8, 0xec, 0x04, 0x00, 0xfc, 0xfa, 0xf5, 0x09, 0x00, 0x11,
  0x18, 0xee, 0xfd, 0x15, 0xfe, 0xec, 0xf3, 0xee, 0x13, 0xec, 0x02, 0x0e,
  0x14, 0x11, 0xee, 0xff, 0xee, 0xe6, 0xeb, 0x10, 0xf8, 0xfa, 0xee, 0x1a,
  0xeb, 0xff, 0xe8, 0xef, 0xe8, 0x1a, 0xe7, 0xfa, 0x00, 0x03, 0xee, 0x1a,
  0xeb, 0x0f, 0x03, 0xf6, 0xf3, 0xf2, 0xea, 0xf4, 0xdc, 0xe9, 0x10, 0xf1,
  0x0a, 0x0a, 0xe6, 0xe8, 0x10, 0xf3, 0x08, 0x2a, 0x0e, 0xff, 0x1e, 0x09,
  0x01, 0x0d, 0x12, 0xfd, 0xf5, 0x15, 0x1e, 0x11, 0x06, 0xed, 0xf1, 0x12,
  0x04, 0x1d, 0xe8, 0x0b, 0x13, 0x15, 0x0d, 0x06, 0xde, 0x00, 0x00, 0xfc,
  0x11, 0x12, 0xe6, 0xf0, 0x15, 0x15, 0x14, 0x0e, 0x01, 0x17, 0x00, 0x04,
  0x0b, 0xec, 0x0a, 0xf4, 0x18, 0x01, 0x11, 0xee, 0xe7, 0xeb, 0x0e, 0xf2,
  0x0f, 0xec, 0x02, 0x15, 0xea, 0x11, 0x0b, 0xf6, 0x07, 0x06, 0xf2, 0xe7,
  0xeb, 0x09, 0xfc, 0x0b, 0xf1, 0x09, 0x0c, 0xf7, 0xee, 0x03, 0xe3, 0xe8,
  0xf6, 0xf5, 0xf8, 0xfb, 0x1a, 0x01, 0x0b, 0xf4, 0x17, 0x0b, 0x02, 0x0e,
  0xfc, 0xf4, 0xf6, 0x00, 0xf0, 0x0e, 0xf6, 0xed, 0xf0, 0xf3, 0xfe, 0xf1,
  0xfd, 0x15, 0xe8, 0x19, 0xe6, 0x02, 0x07, 0xf1, 0x16, 0x13, 0xec, 0xf8,
  0xfe, 0x0b, 0x10, 0xfb, 0xf8, 0x09, 0x12, 0x0f, 0x16, 0xf7, 0xed, 0x0f,
  0xed, 0xef, 0x12, 0x13, 0x0e, 0xed, 0x13, 0xed, 0xf4, 0x09, 0xf5, 0xf8,
  0x15, 0x03, 0x0f, 0xee, 0x06, 0xf5, 0xf5, 0x0e, 0x19, 0x07, 0xeb, 0x08,
  0xe9, 0xf1, 0x0c, 0x03, 0xe7, 0xfc, 0xf9, 0xe9, 0xf7, 0x07, 0xf3, 0xfc,
  0xfb, 0x0f, 0x06, 0xf3, 0x08, 0xe9, 0x08, 0xec, 0xef, 0x11, 0x02, 0x13,
  0xfb, 0x0e, 0x0b, 0xf9, 0x04, 0x07, 0xff, 0xec, 0x10, 0x05, 0x0e, 0x01,
  0xef, 0xf5, 0xf3, 0x07, 0xd6, 0xdf, 0xff, 0xff, 0x04, 0x00, 0x00, 0x00,
  0x28, 0x00, 0x00, 0x00, 0x20, 0x90, 0xa6, 0x3c, 0xc5, 0x8d, 0xa0, 0xbc,
  0x00, 0x00, 0x00, 0x00, 0x57, 0xa7, 0x63, 0x3d, 0xd9, 0x8c, 0xb6, 0x3d,
  0xb3, 0x6b, 0x7d, 0xbc, 0xb8, 0xf2, 0x82, 0xbc, 0xa2, 0xeb, 0x4e, 0x3d,
  0x43, 0x20, 0xc3, 0x3d, 0x07, 0x13, 0xca, 0xbd, 0x0a, 0xe0, 0xff, 0xff,
  0x04, 0x00, 0x00, 0x00, 0xc4, 0x09, 0x00, 0x00, 0xea, 0x12, 0x0b, 0x1e,
  0xe5, 0xfd, 0xe6, 0x0e, 0x02, 0x01, 0x17, 0x0a, 0x07, 0xf9, 0x14, 0x0f,
  0x0f, 0x03, 0xff, 0x09, 0xe5, 0x0a, 0x04, 0xb3, 0xe9, 0xe5, 0xee, 0xfb,
  0x1c, 0x08, 0x1a, 0x09, 0xe4, 0x17, 0xea, 0x02, 0x18, 0xe2, 0x18, 0x0a,
  0xf6, 0xee, 0x1f, 0xff, 0xed, 0xf9, 0x1e, 0x17, 0xfe, 0xf8, 0x1a, 0x19,
  0xfb, 0x18, 0x01, 0x03, 0xf9, 0x0f, 0x19, 0x0f, 0x1c, 0x0f, 0x1b, 0xf0,
  0x27, 0xf9, 0x26, 0x11, 0x09, 0x1c, 0xf5, 0x19, 0xeb, 0xe4, 0x13, 0x15,
  0xeb, 0x15, 0xe4, 0xf6, 0xe6, 0xff, 0xec, 0xf5, 0x0e, 0x02, 0x1d, 0x15,
  0xea, 0xf2, 0x11, 0x23, 0x06, 0xf0, 0x0d, 0x17, 0xdf, 0x04, 0xfe, 0xcd,
  0xf0, 0x18, 0x0f, 0xfe, 0xfd, 0xfb, 0x03, 0x0d, 0x17, 0x10, 0xee, 0x03,
  0x0c, 0xf0, 0x15, 0xe8, 0xff, 0x08, 0xeb, 0x06, 0x0b, 0xf0, 0xe4, 0xf3,
  0xf5, 0x18, 0xf7, 0x0f, 0x01, 0x00, 0xe4, 0x16, 0x03, 0x06, 0x02, 0x10,
  0xf4, 0xf9, 0xf3, 0xec, 0x12, 0x13, 0xee, 0x18, 0xf4, 0xe9, 0xe1, 0xe5,
  0xfd, 0x10, 0x10, 0x11, 0xe9, 0xf5, 0x15, 0x03, 0x0a, 0xd6, 0xe5, 0x1d,
  0x0a, 0x1b, 0xef, 0xf4, 0x1f, 0x0d, 0x24, 0xe9, 0x10, 0xea, 0xfe, 0xfa,
  0xe6, 0xe1, 0xf9, 0x02, 0x18, 0x14, 0x09, 0xe5, 0x07, 0x0c, 0x2f, 0x0e,
  0xec, 0x0f, 0x1f, 0x05, 0x18, 0x19, 0xf3, 0x32, 0xf5, 0xf8, 0x10, 0xfd,
  0xea, 0x05, 0x05, 0xd3, 0x1e, 0x08, 0x0f, 0xe3, 0xf1, 0xde, 0xe1, 0x09,
  0x0f, 0x01, 0xf5, 0x12, 0xeb, 0x19, 0xe7, 0xde, 0xe9, 0xf2, 0x21, 0xe7,
  0x11, 0x07, 0x0d, 0xea, 0x05, 0x0a, 0xf8, 0xea, 0x11, 0xf9, 0xf7, 0xe8,
  0x15, 0xcf, 0x07, 0xfc, 0xee, 0x18, 0x11, 0xdb, 0x12, 0xf8, 0xe6, 0xff,
  0xe8, 0x0c, 0x01, 0x1b, 0x05, 0x20, 0xe8, 0x1b, 0xfe, 0xf2, 0x0a, 0xe9,
  0x0d, 0x10, 0xe5, 0x05, 0x12, 0x02, 0xe6, 0x16, 0xe6, 0xe6, 0xfb, 0xe8,
  0xeb, 0x00, 0x1a, 0xf5, 0x14, 0x0a, 0xed, 0x00, 0xef, 0x0a, 0x07, 0x17,
  0xf6, 0xf5, 0x1e, 0xf1, 0xff, 0x01, 0x1d, 0xf9, 0x05, 0xe1, 0xf1, 0x19,
  0xec, 0xfe, 0xe9, 0xf3, 0x1e, 0x0c, 0x19, 0xed, 0xe9, 0x0e, 0xe7, 0xf7,
  0xfd, 0x0f, 0x11, 0xfd, 0xfb, 0xee, 0x10, 0xfe, 0xe0, 0xff, 0xf7, 0x14,
  0x06, 0xef, 0x10, 0xf0, 0x04, 0xde, 0x05, 0x0e, 0xea, 0xf5, 0xef, 0xe9,
  0x09, 0xf3, 0x14, 0xe5, 0x0b, 0xfd, 0x00, 0x09, 0xe3, 0xdf, 0x06, 0x17,
  0x0a, 0x16, 0x1f, 0x12, 0x17, 0x08, 0x14, 0xec, 0xf3, 0xef, 0xea, 0x1e,
  0xf0, 0xe7, 0x10, 0x15, 0xf3, 0xf4, 0xe9, 0xeb, 0xfc, 0x0e, 0x05, 0x1e,
  0x0d, 0xed, 0xf3, 0x1f, 0xe9, 0x09, 0xfc, 0x1d, 0x1c, 0xdc, 0x1b, 0x0a,
  0x04, 0x10, 0xe0, 0xef, 0xef, 0x1c, 0xea, 0x02, 0xe7, 0xfd, 0x16, 0x02,
  0xf4, 0xe6, 0xef, 0x09, 0x09, 0x02, 0x1f, 0x05, 0x17, 0x13, 0x0a, 0xeb,
  0x0b, 0xfa, 0x0f, 0xf3, 0xff, 0x0a, 0x0d, 0xf7, 0x08, 0xfe, 0xc8, 0xfb,
  0x09, 0xf8, 0xce, 0x48, 0xe8, 0x11, 0xf3, 0x0a, 0x1a, 0x16, 0x25, 0xf1,
  0x13, 0xe9, 0x1e, 0xfe, 0x39, 0x04, 0x0a, 0x03, 0xff, 0x10, 0x19, 0xf0,
  0x0d, 0x0e, 0x15, 0x0a, 0x02, 0x0e, 0x08, 0x05, 0x0a, 0x1a, 0x2d, 0xe1,
  0x09, 0xf7, 0x0c, 0x09, 0x0c, 0xea, 0x0f, 0xf3, 0x22, 0xfd, 0xe3, 0xf0,
  0xf6, 0x04, 0x16, 0x00, 0x0b, 0x06, 0x02, 0x19, 0x0e, 0x1f, 0x20, 0xfb,
  0x16, 0x04, 0xe8, 0x12, 0x13, 0xfe, 0x1e, 0xf8, 0xe1, 0x17, 0x0d, 0x2c,
  0xf5, 0xed, 0x03, 0x21, 0x16, 0x28, 0x1b, 0x23, 0xf0, 0xe9, 0xea, 0x0b,
  0x16, 0x1d, 0xec, 0xd8, 0x14, 0xef, 0x0b, 0xf5, 0xe7, 0xef, 0xe3, 0x03,
  0xf7, 0x10, 0x0b, 0x05, 0xf7, 0x0d, 0x0d, 0x00, 0x07, 0xf3, 0xfa, 0x18,
  0xe2, 0xfd, 0x1c, 0xf5, 0x06, 0x18, 0xf8, 0x17, 0xe9, 0x10, 0xfc, 0x1a,
  0x0d, 0xf5, 0x10, 0x02, 0xfa, 0xef, 0xf2, 0xed, 0xe3, 0xec, 0xf3, 0x0a,
  0x15, 0xe6, 0xeb, 0x10, 0xe2, 0xe8, 0x1b, 0x09, 0x0c, 0x11, 0xe3, 0xf2,
  0x03, 0x05, 0xee, 0xe1, 0xd2, 0x11, 0xeb, 0xf3, 0x39, 0xf1, 0x2c, 0xf7,
  0x17, 0xed, 0x1c, 0xf8, 0x14, 0x08, 0x1b, 0x10, 0xe7, 0x14, 0x17, 0x11,
  0x05, 0x05, 0x29, 0x04, 0x0b, 0x0d, 0x20, 0xf1, 0xfe, 0x1e, 0x13, 0x0b,
  0x04, 0x19, 0xea, 0x07, 0xc2, 0x0a, 0xec, 0xc9, 0xfe, 0xef, 0x1f, 0xfa,
  0xe8, 0xf1, 0xdd, 0x01, 0x0a, 0x07, 0x50, 0xd2, 0xe3, 0xfe, 0x28, 0xdd,
  0xf6, 0xf8, 0xdd, 0x06, 0xe6, 0x17, 0xfb, 0x2b, 0x05, 0xf6, 0xfe, 0xfc,
  0xe5, 0xe5, 0x06, 0x1f, 0x0d, 0x15, 0x07, 0xf9, 0x02, 0x1c, 0xea, 0x36,
  0x0b, 0xb2, 0xf4, 0xec, 0x0c, 0xe5, 0x13, 0x21, 0xe3, 0x09, 0xfa, 0xf9,
  0xd4, 0xef, 0x16, 0x0c, 0x16, 0xdf, 0x12, 0x1d, 0x1f, 0xef, 0x05, 0xe5,
  0x1d, 0xf8, 0xd2, 0xef, 0xf4, 0xfc, 0x01, 0x14, 0xeb, 0xba, 0xec, 0xf6,
  0xfc, 0x0f, 0x12, 0x14, 0x1b, 0x0a, 0x05, 0xb6, 0xe5, 0xf1, 0x0c, 0xe5,
  0xc3, 0xe4, 0x0b, 0x9d, 0xe8, 0x10, 0x1c, 0xe8, 0x06, 0x18, 0xfd, 0x0b,
  0xf2, 0x1c, 0xdf, 0x14, 0x08, 0xfc, 0xf7, 0xdc, 0x26, 0x0d, 0x1a, 0xe8,
  0x07, 0x08, 0xb7, 0xef, 0xb0, 0x07, 0xdc, 0xe5, 0x1d, 0x1f, 0x00, 0xf9,
  0xec, 0xf2, 0xf3, 0x19, 0x08, 0x16, 0x18, 0x13, 0x07, 0xa3, 0x03, 0xed,
  0x07, 0x1e, 0xe6, 0xc3, 0xe7, 0xf9, 0xea, 0x08, 0xef, 0x1f, 0x26, 0x00,
  0x18, 0x0f, 0xe9, 0x0e, 0xef, 0xe8, 0xf5, 0xef, 0xe2, 0x0c, 0x15, 0x0c,
  0xe5, 0xe8, 0xf4, 0x07, 0xfe, 0x1a, 0x00, 0xe8, 0xe8, 0x0e, 0xe6, 0xe4,
  0xf9, 0x00, 0x15, 0xfb, 0xf8, 0xf8, 0x1e, 0xf8, 0x0a, 0xec, 0x06, 0x19,
  0x0b, 0xe8, 0xe9, 0xfa, 0xfc, 0xf7, 0x1f, 0xff, 0x14, 0x1c, 0x19, 0xee,
  0x0b, 0x03, 0xe5, 0xe3, 0x21, 0xe4, 0x07, 0xed, 0xfe, 0xf1, 0x15, 0x12,
  0x1f, 0xfe, 0xca, 0x0b, 0xea, 0xf5, 0x30, 0xe6, 0x00, 0x04, 0xfa, 0xf1,
  0xe8, 0x11, 0xf4, 0x9d, 0xe5, 0x0e, 0x04, 0x02, 0xd8, 0xeb, 0xf8, 0xec,
  0xd5, 0xe2, 0xf7, 0xf7, 0x05, 0xf0, 0xff, 0x0c, 0xed, 0x1c, 0x1b, 0x1a,
  0xe4, 0x03, 0x2b, 0x18, 0x00, 0xea, 0xfc, 0x15, 0xe8, 0x11, 0xe9, 0x0d,
  0x09, 0x1b, 0xe6, 0x07, 0xf0, 0xf4, 0xef, 0xf5, 0x10, 0xf4, 0xe9, 0xf2,
  0xf9, 0x15, 0x18, 0xe0, 0x03, 0x08, 0x03, 0x0e, 0xe9, 0x16, 0xf2, 0x05,
  0xed, 0x09, 0x10, 0x00, 0x18, 0xfe, 0x0b, 0xe4, 0x0b, 0x17, 0x17, 0x19,
  0x16, 0xe7, 0x10, 0xf2, 0x0e, 0x06, 0xee, 0xf6, 0x22, 0xea, 0x10, 0x1a,
  0x06, 0x0c, 0xe8, 0x06, 0xf5, 0xe7, 0xf9, 0x02, 0x0c, 0x06, 0x25, 0x2a,
  0xce, 0xfd, 0xfc, 0x1d, 0xe7, 0x0d, 0xaa, 0xf9, 0xf8, 0x14, 0xf5, 0xf9,
  0x0f, 0xe9, 0xee, 0x07, 0xf7, 0xc1, 0xe8, 0x14, 0x11, 0xf3, 0x06, 0x30,
  0x18, 0xf4, 0x13, 0x02, 0x16, 0xee, 0x16, 0xdf, 0x07, 0xfb, 0xf9, 0x14,
  0x0e, 0xfd, 0xf9, 0xf5, 0x0f, 0xea, 0xf7, 0x12, 0xf9, 0xf3, 0xe6, 0xf3,
  0x06, 0xfb, 0xfd, 0xf0, 0x01, 0x04, 0x0a, 0xf7, 0x11, 0x1f, 0xfe, 0xfc,
  0xf8, 0x03, 0xe9, 0x03, 0xf6, 0x0e, 0x02, 0xe5, 0xfc, 0xfe, 0x1e, 0x02,
  0x01, 0x01, 0xee, 0x04, 0xf6, 0x05, 0xea, 0x03, 0xf4, 0xfa, 0xe5, 0xfa,
  0xf6, 0xf9, 0x1d, 0x13, 0xe6, 0xf2, 0x07, 0xe5, 0x03, 0x1e, 0xf2, 0x0b,
  0x07, 0x05, 0x20, 0x06, 0x15, 0x11, 0xe8, 0xe8, 0x12, 0x14, 0x1f, 0xdb,
  0x08, 0x08, 0x15, 0xdf, 0x0f, 0x00, 0xfa, 0xe1, 0x14, 0x30, 0x06, 0x0f,
  0xff, 0xfc, 0x01, 0x1e, 0x10, 0x28, 0x1d, 0x12, 0xe1, 0xe8, 0xfc, 0xea,
  0xea, 0xf1, 0x15, 0xfe, 0xf8, 0xee, 0xf9, 0xf7, 0xf5, 0xe1, 0x16, 0x11,
  0xdf, 0xfe, 0x16, 0x07, 0xed, 0xff, 0x13, 0x1f, 0x0d, 0xe3, 0xfe, 0x0e,
  0xff, 0xae, 0xff, 0x0e, 0x22, 0xfa, 0xec, 0xf3, 0xf7, 0x05, 0xf5, 0xfb,
  0x0c, 0x21, 0xfe, 0x0f, 0x14, 0xef, 0xf3, 0xfd, 0x1f, 0x03, 0x05, 0x0b,
  0x08, 0x10, 0xef, 0x1d, 0x1a, 0x1c, 0xee, 0x06, 0x19, 0xf1, 0x00, 0x08,
  0xf8, 0x01, 0xdf, 0xf5, 0x15, 0x18, 0x10, 0xf4, 0xe6, 0xed, 0xe2, 0x10,
  0x18, 0x1c, 0x07, 0xe0, 0xff, 0xf3, 0x1a, 0xf2, 0xee, 0xf0, 0xe9, 0xf0,
  0x19, 0xed, 0x00, 0x1a, 0x09, 0x0d, 0xfa, 0xe7, 0x1c, 0xe9, 0xe2, 0xe2,
  0x0a, 0xfe, 0xfb, 0x1e, 0x0f, 0x13, 0xea, 0xf9, 0x06, 0xe2, 0xf8, 0x1a,
  0xf8, 0xe7, 0xe0, 0x02, 0xf5, 0xfa, 0x08, 0x1c, 0xeb, 0x0e, 0xf6, 0x0f,
  0x1a, 0x08, 0x1d, 0x0f, 0x0d, 0xe1, 0xfc, 0x09, 0xf3, 0x06, 0xee, 0xe3,
  0xe5, 0x05, 0xfe, 0x1c, 0x1b, 0x1f, 0xec, 0xfa, 0xff, 0xf7, 0x19, 0xe0,
  0xe2, 0x06, 0xfa, 0x12, 0x03, 0x06, 0xf7, 0xf1, 0x04, 0xed, 0xb9, 0xf7,
  0xf8, 0x00, 0xff, 0x0a, 0x12, 0xfa, 0x09, 0x1a, 0xf8, 0xfc, 0xf0, 0x01,
  0xc7, 0x17, 0x1e, 0xf8, 0x0e, 0x18, 0xd3, 0x91, 0x0e, 0x06, 0x00, 0x20,
  0xda, 0x17, 0xf2, 0x09, 0xe5, 0xc7, 0x04, 0xf5, 0xe7, 0x0d, 0x05, 0xbb,
  0x03, 0xf6, 0x1e, 0x13, 0x1d, 0xe2, 0x2d, 0x1c, 0x1d, 0x09, 0xff, 0x13,
  0x02, 0xf0, 0xee, 0x18, 0xe4, 0x0b, 0xe9, 0xf5, 0x05, 0x1c, 0xea, 0xe4,
  0xed, 0xf2, 0x02, 0x12, 0xf3, 0xed, 0x10, 0x16, 0xf5, 0xea, 0xf7, 0x11,
  0x04, 0xff, 0xe2, 0x0b, 0x04, 0xfc, 0x07, 0x07, 0x1b, 0xf9, 0xe8, 0xe2,
  0x09, 0xe6, 0x00, 0xf0, 0xfc, 0xeb, 0x04, 0x0d, 0x1e, 0xe7, 0xe6, 0xfe,
  0xe1, 0x12, 0xe0, 0x1d, 0x1a, 0xfc, 0xf1, 0xea, 0xfe, 0x10, 0xe8, 0xfb,
  0x15, 0xf9, 0xfe, 0xe2, 0x02, 0xf1, 0xea, 0x03, 0xe9, 0x02, 0xf5, 0xff,
  0xf3, 0x01, 0xfc, 0x00, 0x0e, 0xf8, 0x0a, 0x00, 0x04, 0xec, 0x07, 0xe1,
  0x0e, 0xf4, 0xeb, 0x1e, 0xed, 0x10, 0xf2, 0xf1, 0x13, 0x09, 0x07, 0xf3,
  0xee, 0x05, 0x0f, 0x16, 0xcd, 0x06, 0x13, 0x15, 0x24, 0x06, 0x28, 0xf9,
  0xdd, 0xfe, 0x23, 0xfa, 0xd8, 0x27, 0x08, 0x1b, 0x0e, 0xf3, 0xea, 0x10,
  0x14, 0x2c, 0x16, 0x20, 0x0d, 0xe3, 0x1f, 0xef, 0xf5, 0x0e, 0x1b, 0xf9,
  0x0c, 0xe6, 0xe0, 0xf0, 0xf6, 0xf2, 0x01, 0xe3, 0xec, 0xe5, 0x07, 0x16,
  0x18, 0xf2, 0x15, 0xfd, 0x1e, 0xf0, 0xf6, 0xe8, 0xe9, 0x19, 0xfe, 0xf1,
  0x11, 0xf3, 0x1c, 0x1a, 0xea, 0xf1, 0xf8, 0x24, 0xf8, 0x18, 0x15, 0xf3,
  0x02, 0xe8, 0xf9, 0xee, 0xe9, 0x0b, 0x1f, 0x0f, 0xe2, 0x0b, 0xf5, 0x00,
  0xf5, 0x08, 0x16, 0x1d, 0xee, 0xe3, 0x1d, 0xfb, 0x1f, 0x02, 0xe5, 0x02,
  0x1d, 0x0e, 0xe9, 0x06, 0xe4, 0xff, 0x02, 0x1a, 0xed, 0xf5, 0xe2, 0x00,
  0x1a, 0x06, 0xe6, 0x11, 0xdf, 0x17, 0x0d, 0x0a, 0xfc, 0x4d, 0xf1, 0x1a,
  0xff, 0xe3, 0x1c, 0x1a, 0xf5, 0xdc, 0xf7, 0x0f, 0x09, 0xe6, 0x1b, 0x15,
  0xf9, 0xe3, 0x01, 0xe7, 0xe3, 0x22, 0x0e, 0xf8, 0xe3, 0x12, 0x08, 0x19,
  0x01, 0x03, 0xeb, 0xfe, 0x0f, 0x0b, 0xec, 0xd8, 0x13, 0x18, 0x0f, 0x1b,
  0x09, 0x0c, 0xfa, 0xe4, 0xed, 0x18, 0x0c, 0xe8, 0x17, 0x1b, 0x08, 0xf6,
  0xe2, 0xe5, 0x0c, 0x13, 0xf2, 0xf7, 0x0e, 0x19, 0x0b, 0xe9, 0xe1, 0xf8,
  0xe6, 0xea, 0xe2, 0x0d, 0xf0, 0x08, 0xed, 0x0b, 0xe2, 0x01, 0x01, 0xfa,
  0xfe, 0xea, 0x08, 0xe1, 0xf7, 0x19, 0x0a, 0xf6, 0x08, 0x12, 0x02, 0xed,
  0xee, 0xec, 0x17, 0xee, 0x15, 0x13, 0x15, 0x0b, 0x81, 0xfa, 0xf5, 0x0c,
  0xeb, 0x31, 0x22, 0xe6, 0xfc, 0xe7, 0xfd, 0xec, 0x04, 0x02, 0x04, 0xea,
  0x1c, 0x05, 0xd4, 0x09, 0xf7, 0x0b, 0xfa, 0x08, 0xfe, 0xf3, 0xe7, 0x12,
  0xdb, 0x07, 0x15, 0x2b, 0xf3, 0x01, 0xf8, 0xef, 0x0d, 0xf0, 0xf6, 0xf1,
  0xf1, 0x1f, 0xfc, 0xe2, 0x02, 0x1b, 0x1b, 0xce, 0xeb, 0x08, 0x1e, 0x0d,
  0x08, 0x03, 0x19, 0x90, 0xfb, 0xff, 0x24, 0xf6, 0x00, 0xf0, 0xf3, 0x2e,
  0x11, 0x0e, 0xfb, 0x0c, 0x22, 0x03, 0x04, 0x08, 0xf0, 0x16, 0xe5, 0xf1,
  0x17, 0x00, 0x0b, 0x16, 0x15, 0x08, 0x0f, 0x0a, 0x14, 0x0c, 0x06, 0x10,
  0xe8, 0x03, 0x02, 0xf6, 0xf0, 0xf1, 0xe3, 0x06, 0x02, 0x14, 0xf8, 0xe5,
  0x02, 0xe5, 0xe9, 0xea, 0x0c, 0x0c, 0x16, 0x0e, 0xe2, 0xe8, 0x0a, 0x17,
  0x05, 0xfc, 0xfa, 0x07, 0xf5, 0x19, 0xe1, 0x05, 0x0c, 0x19, 0x08, 0xfe,
  0x05, 0x00, 0xfb, 0x06, 0xe3, 0x02, 0xf6, 0xbd, 0x04, 0xea, 0x19, 0x0b,
  0x1a, 0xec, 0x05, 0x0a, 0xf5, 0xf0, 0x29, 0xff, 0x0c, 0xf0, 0xed, 0xfb,
  0x16, 0xe3, 0x14, 0x1b, 0x1a, 0x1b, 0x0f, 0x30, 0x10, 0xe1, 0x0f, 0x02,
  0x01, 0xed, 0x1a, 0xd5, 0xe9, 0xf6, 0x19, 0x0c, 0x1b, 0xfe, 0x06, 0xfc,
  0x0c, 0x23, 0xee, 0x0f, 0x1f, 0x1f, 0x12, 0x1c, 0x09, 0x10, 0x1f, 0xfb,
  0x18, 0x06, 0x20, 0x1a, 0x18, 0xda, 0x11, 0x1e, 0xea, 0x00, 0xfb, 0x12,
  0xe0, 0xe7, 0xfd, 0x0d, 0xe2, 0xfd, 0xf6, 0x06, 0x18, 0xe1, 0xe1, 0x0a,
  0xf1, 0xee, 0x05, 0xfa, 0x05, 0xf5, 0x0d, 0xeb, 0xe3, 0x04, 0x14, 0xe3,
  0xf5, 0x02, 0xea, 0xf0, 0x0b, 0xf5, 0x16, 0x01, 0xf3, 0x15, 0x0f, 0xe5,
  0xf1, 0x16, 0xe7, 0xeb, 0x06, 0xfb, 0xe2, 0x15, 0xee, 0x15, 0x0a, 0xe2,
  0xe5, 0x20, 0x09, 0x41, 0xdb, 0xff, 0x36, 0xff, 0x12, 0x1c, 0x05, 0xd7,
  0x13, 0xee, 0xe4, 0xe3, 0xff, 0x0d, 0xc2, 0x42, 0x06, 0xed, 0xf8, 0x04,
  0xf5, 0x1d, 0xf6, 0xec, 0x0c, 0xdb, 0xe6, 0xe7, 0x0b, 0x14, 0xef, 0xfa,
  0x14, 0xdf, 0xe6, 0x1e, 0xe9, 0xfe, 0xe6, 0x07, 0x01, 0x23, 0x15, 0xf2,
  0x29, 0xeb, 0x11, 0x0f, 0x0d, 0x06, 0xee, 0xed, 0x18, 0x1c, 0xf1, 0x0c,
  0x3c, 0x01, 0x27, 0xfd, 0x0c, 0xea, 0xe9, 0x11, 0x07, 0xde, 0xf1, 0xfb,
  0xe7, 0xf3, 0xe0, 0x16, 0x07, 0x0c, 0xf0, 0x1c, 0xe6, 0x16, 0x10, 0xe8,
  0x1f, 0xfc, 0x1d, 0x13, 0xee, 0x00, 0x17, 0x12, 0x1c, 0xe4, 0x09, 0x06,
  0xea, 0xe8, 0x23, 0xeb, 0xf7, 0xe3, 0x13, 0xf6, 0x05, 0xe9, 0x36, 0xfe,
  0xe2, 0xee, 0x1e, 0xf9, 0x15, 0x0d, 0x18, 0xed, 0xe7, 0x0a, 0x12, 0xe7,
  0x0f, 0x06, 0xfe, 0xe8, 0x0a, 0xe4, 0xe2, 0x1b, 0xf9, 0x00, 0xe7, 0x0f,
  0xf9, 0x05, 0x12, 0x09, 0xf7, 0x0a, 0xf8, 0x02, 0xff, 0xff, 0xf0, 0x05,
  0x00, 0x05, 0xe8, 0x0d, 0xfa, 0xfb, 0x0e, 0xfd, 0x04, 0xe3, 0x18, 0xe3,
  0xdb, 0x00, 0xdf, 0xf6, 0x1d, 0xe4, 0x10, 0xf9, 0xee, 0x06, 0x07, 0xf4,
  0x01, 0xfd, 0xef, 0xe8, 0xf9, 0x05, 0x10, 0x05, 0x0d, 0x00, 0x04, 0xeb,
  0xfd, 0x16, 0xf5, 0xf9, 0xfa, 0x0e, 0x06, 0xf1, 0x14, 0x16, 0xf6, 0x1d,
  0xf4, 0x1b, 0x10, 0x0e, 0xfc, 0x0c, 0xe8, 0xe4, 0xec, 0xfb, 0x01, 0xfb,
  0xf4, 0xe4, 0xf2, 0x1a, 0xf1, 0x1f, 0x0c, 0x0f, 0xdf, 0x19, 0xe3, 0xf9,
  0xfe, 0xe7, 0x19, 0x03, 0x0a, 0xe5, 0xfa, 0xec, 0xe2, 0xfb, 0x00, 0x05,
  0x05, 0x19, 0xfa, 0x02, 0x13, 0x0e, 0xfa, 0x12, 0x00, 0xe4, 0xf7, 0xfc,
  0xe2, 0x0c, 0xe3, 0xf4, 0xec, 0xe6, 0x01, 0x09, 0x04, 0xee, 0xf3, 0x04,
  0x0e, 0x09, 0xee, 0xfc, 0x09, 0x10, 0xe4, 0xf1, 0xd5, 0xc0, 0xe6, 0x0b,
  0xfd, 0x09, 0xed, 0x23, 0x15, 0xfe, 0x0f, 0x09, 0x06, 0xf8, 0xe8, 0xfb,
  0x1e, 0xf6, 0xf9, 0xf4, 0xf1, 0x0b, 0xf2, 0x12, 0x1e, 0xfa, 0x07, 0x02,
  0xfa, 0x17, 0x1b, 0xe9, 0xdd, 0x05, 0x06, 0x15, 0x10, 0x13, 0xe7, 0xe8,
  0x0c, 0x05, 0x0a, 0x0e, 0x0f, 0xeb, 0x10, 0xf5, 0x0c, 0xe2, 0xe4, 0xf7,
  0xe6, 0x17, 0xec, 0xff, 0xe1, 0xe5, 0x08, 0xfb, 0xf5, 0x1e, 0xf0, 0xff,
  0x1a, 0xe8, 0x05, 0x02, 0xe0, 0xea, 0x15, 0x00, 0x07, 0xe4, 0xfe, 0x14,
  0x19, 0xe8, 0x1f, 0xf5, 0x11, 0xe2, 0xf2, 0x02, 0xee, 0xee, 0x02, 0xfc,
  0xee, 0xee, 0x00, 0xd4, 0x0c, 0x22, 0x15, 0x16, 0x61, 0xe3, 0x03, 0x08,
  0x1a, 0xc5, 0xfd, 0xe5, 0x1d, 0xeb, 0xf3, 0x1c, 0xf7, 0x26, 0xf8, 0xed,
  0x10, 0xfa, 0x16, 0xe9, 0x1e, 0x1c, 0x0d, 0xda, 0x07, 0x19, 0x09, 0x07,
  0x24, 0x02, 0xf2, 0x18, 0xe3, 0x02, 0x0b, 0x0a, 0xf4, 0xf9, 0x05, 0xea,
  0xef, 0x18, 0x19, 0x1d, 0x11, 0xe6, 0xe9, 0x0e, 0xe5, 0x08, 0xe2, 0x19,
  0xe2, 0xe1, 0x03, 0x07, 0x05, 0x1f, 0xfa, 0xea, 0x14, 0x00, 0xed, 0x15,
  0xf0, 0x04, 0xfd, 0xf2, 0xfa, 0x02, 0xe9, 0x13, 0xee, 0xf5, 0x17, 0x00,
  0x1a, 0xf6, 0xf2, 0xe7, 0x16, 0x14, 0x14, 0xe5, 0x12, 0x0a, 0xe7, 0x00,
  0xf7, 0xe9, 0xe7, 0x02, 0xca, 0xea, 0xf9, 0xf8, 0x0c, 0xed, 0x10, 0x19,
  0xfb, 0x0e, 0x08, 0xef, 0xd8, 0xdf, 0x12, 0xe9, 0x0e, 0x07, 0x05, 0x01,
  0xe7, 0x12, 0xfb, 0xfe, 0x0b, 0xf1, 0x04, 0x1e, 0xe3, 0xe2, 0xed, 0xdc,
  0xf5, 0x05, 0x17, 0x1d, 0x2d, 0xdd, 0x11, 0x14, 0x11, 0x00, 0x05, 0x0b,
  0x0e, 0x15, 0x08, 0xf1, 0xf3, 0x05, 0x00, 0xf0, 0xf5, 0xf1, 0xf3, 0xeb,
  0x03, 0xf4, 0xee, 0x07, 0x07, 0x03, 0xec, 0xf0, 0xf5, 0xf4, 0x0c, 0xef,
  0x09, 0x02, 0x0d, 0xe1, 0xfd, 0x11, 0xea, 0xe2, 0xea, 0xe5, 0x19, 0xe2,
  0xee, 0x15, 0x1b, 0x05, 0xde, 0x1a, 0xe1, 0xf8, 0x04, 0x07, 0x14, 0x17,
  0xf9, 0xec, 0xf3, 0xef, 0xfd, 0x18, 0x08, 0xe5, 0x03, 0xef, 0x04, 0xe5,
  0xef, 0xf8, 0x15, 0xee, 0x5b, 0xf8, 0x1b, 0xff, 0x27, 0xcb, 0xdf, 0xf6,
  0x14, 0x00, 0x1b, 0x09, 0xff, 0xcd, 0x04, 0x15, 0xf5, 0xf2, 0xf5, 0x1c,
  0x16, 0x0b, 0x11, 0xe5, 0x0d, 0x06, 0x09, 0xe6, 0xfe, 0xeb, 0xfc, 0x09,
  0xfc, 0x0f, 0x0d, 0x06, 0xe3, 0x07, 0xf4, 0x19, 0x06, 0x19, 0x00, 0x07,
  0x06, 0x0f, 0xdb, 0xf5, 0x0f, 0x19, 0xdf, 0xfd, 0x02, 0x11, 0x0a, 0xe1,
  0x04, 0x0d, 0x16, 0x0e, 0xfb, 0x05, 0x02, 0x09, 0xfb, 0x06, 0xda, 0xf3,
  0xe7, 0xf4, 0xf9, 0x1c, 0x03, 0x04, 0x07, 0x1c, 0xf8, 0xef, 0xdd, 0x10,
  0x1d, 0x0e, 0x09, 0xe5, 0x1f, 0x0c, 0x0b, 0xee, 0x10, 0x19, 0x1f, 0x03,
  0xf4, 0x06, 0xfe, 0x14, 0xff, 0xdf, 0xd9, 0x12, 0x95, 0x03, 0xe4, 0x22,
  0x1e, 0xf4, 0x16, 0x16, 0x13, 0x13, 0x03, 0xe0, 0xd4, 0xfd, 0xfd, 0xf0,
  0xe6, 0xfa, 0x03, 0xed, 0xf4, 0x0a, 0xda, 0x14, 0x08, 0x08, 0x0d, 0xfa,
  0x1a, 0x30, 0x00, 0x2d, 0xed, 0xfe, 0x1f, 0xf2, 0xbf, 0xf1, 0xe1, 0x0f,
  0xda, 0xe9, 0xff, 0xff, 0x04, 0x00, 0x00, 0x00, 0xc8, 0x00, 0x00, 0x00,
  0x3d, 0xd2, 0x4a, 0x3d, 0x00, 0x00, 0x00, 0x00, 0x22, 0xe9, 0xa4, 0x3d,
  0xcc, 0xe6, 0x85, 0xbc, 0x00, 0x00, 0x00, 0x00, 0xf8, 0x6d, 0xb8, 0xbd,
  0x11, 0x91, 0xe6, 0xbd, 0x02, 0x07, 0x0a, 0xbc, 0xaa, 0xa7, 0xbf, 0x3d,
  0x00, 0x00, 0x00, 0x00, 0x33, 0x69, 0x5a, 0xbd, 0x73, 0x33, 0x08, 0x3d,
  0x7c, 0xaf, 0x0e, 0x3c, 0xcb, 0x55, 0xde, 0xbc, 0xf5, 0xc6, 0x00, 0x3e,
  0x41, 0xfb, 0x2f, 0xbd, 0x60, 0xe9, 0x79, 0x3d, 0x00, 0x00, 0x00, 0x00,
  0x4d, 0xab, 0xca, 0x3c, 0x00, 0x00, 0x00, 0x00, 0x4c, 0x7e, 0x8a, 0xbd,
  0x78, 0xc2, 0xf8, 0x3c, 0xeb, 0x08, 0xcb, 0x3d, 0x83, 0x3e, 0x6d, 0xbe,
  0x00, 0x00, 0x00, 0x00, 0x61, 0x4c, 0x3a, 0xbd, 0xf3, 0x18, 0x06, 0xbc,
  0xa4, 0x9d, 0x0a, 0xbc, 0x4a, 0xb1, 0x79, 0xbd, 0x15, 0x17, 0x5d, 0xbc,
  0x58, 0x92, 0xf8, 0xbc, 0x00, 0x00, 0x00, 0x00, 0x8f, 0xae, 0x5e, 0xbd,
  0x22, 0x8d, 0x82, 0x3d, 0x42, 0x98, 0xe3, 0xbc, 0x23, 0x66, 0x4c, 0xbd,
  0xdb, 0x7c, 0xab, 0x3c, 0x87, 0x3b, 0x67, 0xbd, 0xbe, 0x41, 0xbc, 0x3d,
  0xbe, 0x46, 0xb1, 0x3d, 0x00, 0x00, 0x00, 0x00, 0x92, 0x84, 0x16, 0x3e,
  0x00, 0x00, 0x00, 0x00, 0x00, 0x00, 0x00, 0x00, 0x00, 0x00, 0x00, 0x00,
  0xb4, 0xb3, 0x57, 0xbd, 0x81, 0xc9, 0xab, 0x3d, 0xf5, 0x84, 0x80, 0x3d,
  0x00, 0x00, 0x00, 0x00, 0x06, 0x33, 0x95, 0xbd, 0xae, 0xea, 0xff, 0xff,
  0x04, 0x00, 0x00, 0x00, 0x40, 0x00, 0x00, 0x00, 0x3a, 0xfe, 0x11, 0x3d,
  0xb2, 0xf9, 0xc7, 0xbd, 0x00, 0x00, 0x00, 0x00, 0xc8, 0x24, 0x27, 0xbe,
  0x00, 0x00, 0x00, 0x00, 0xb5, 0xf5, 0x26, 0xbd, 0xe1, 0x79, 0x8a, 0x3d,
  0x7a, 0x3a, 0x1f, 0x3c, 0x00, 0x00, 0x00, 0x00, 0x42, 0x56, 0x32, 0xbd,
  0x5b, 0x38, 0xf4, 0xbb, 0xcf, 0x92, 0x85, 0x3d, 0x4b, 0x12, 0xa8, 0x3c,
  0x0b, 0x30, 0x41, 0xbd, 0xb8, 0xa2, 0x9e, 0xbd, 0x29, 0xf9, 0x80, 0x3d,
  0xfa, 0xea, 0xff, 0xff, 0x04, 0x00, 0x00, 0x00, 0x00, 0x04, 0x00, 0x00,
  0x1f, 0xb9, 0xc4, 0xbe, 0x8b, 0xa6, 0x81, 0x3e, 0x48, 0x6b, 0x0b, 0xbe,
  0x05, 0xb3, 0x8d, 0xbd, 0xf5, 0x12, 0xa0, 0x3e, 0x22, 0x47, 0x4c, 0xbe,
  0xf5, 0xb8, 0x36, 0x3e, 0x1e, 0x10, 0xec, 0xbe, 0xf5, 0x99, 0xda, 0xbd,
  0xf9, 0x32, 0x0a, 0xbe, 0xe1, 0x2e, 0xb2, 0xbe, 0x29, 0x89, 0xba, 0x3e,
  0x17, 0x04, 0x63, 0xbe, 0xe3, 0xb4, 0xc7, 0x3e, 0xe9, 0x51, 0xe1, 0x3e,
  0x21, 0xb2, 0x95, 0x3e, 0x98, 0xdc, 0x1d, 0xbe, 0x19, 0x14, 0xaa, 0x3e,
  0x37, 0xa2, 0xcf, 0xbe, 0x0e, 0x48, 0x8c, 0xbe, 0x37, 0x3a, 0x1a, 0x3e,
  0x13, 0xaf, 0xa8, 0x3e, 0x83, 0x54, 0x87, 0xbe, 0x99, 0x33, 0x70, 0xbd,
  0xc0, 0xd3, 0x10, 0x3e, 0x32, 0x82, 0xd7, 0x3e, 0x1b, 0xff, 0x55, 0x3e,
  0x74, 0x56, 0xb9, 0x3d, 0xfd, 0x3a, 0xa6, 0x3e, 0x1b, 0xb1, 0x4e, 0x3e,
  0xd7, 0x98, 0xbe, 0x3e, 0x24, 0x65, 0xe3, 0x3b, 0x40, 0x95, 0x21, 0xbc,
  0x50, 0xa3, 0x7c, 0xbd, 0xee, 0x92, 0x87, 0xbe, 0x71, 0x3e, 0xb2, 0x3e,
  0x63, 0xa5, 0xbb, 0xbe, 0xd8, 0xd0, 0x20, 0xbe, 0xf5, 0xb7, 0xdb, 0x3e,
  0x97, 0x4b, 0x67, 0xbe, 0x98, 0x3f, 0xb3, 0xbd, 0x2c, 0xaf, 0x48, 0xbe,
  0xd6, 0x37, 0x54, 0x3e, 0xa4, 0xfb, 0x6a, 0xbe, 0xf4, 0x5c, 0x80, 0xbd,
  0x1d, 0x2f, 0x78, 0xbe, 0xb2, 0xc4, 0x3d, 0xbe, 0x9d, 0x35, 0x89, 0x3e,
  0xc0, 0x77, 0x0b, 0x3f, 0xc7, 0x61, 0xd7, 0x3e, 0xb6, 0x46, 0xcb, 0xbe,
  0x02, 0x51, 0x60, 0x3e, 0xdc, 0xf2, 0xd0, 0xbd, 0x65, 0x06, 0xc0, 0xbe,
  0x37, 0xb3, 0x88, 0xbe, 0x27, 0x4e, 0xb0, 0x3e, 0x7a, 0xf8, 0x83, 0x3e,
  0xf0, 0x22, 0xdf, 0xbe, 0xbd, 0x23, 0x4d, 0xbd, 0xe1, 0xfb, 0xd0, 0x3e,
  0xcf, 0x96, 0x5b, 0x3e, 0x93, 0xd3, 0x1a, 0x3e, 0xde, 0x20, 0x59, 0xbe,
  0x42, 0xda, 0x63, 0x3e, 0xee, 0xe6, 0x1c, 0x3e, 0x2e, 0x3d, 0x3b, 0xbe,
  0x00, 0xb5, 0xd6, 0xbd, 0xca, 0xf7, 0x67, 0x3e, 0x35, 0x87, 0xab, 0xbe,
  0x28, 0xf5, 0x54, 0x3d, 0xca, 0x49, 0x48, 0xbe, 0xee, 0xe6, 0x30, 0x3e,
  0x19, 0x2d, 0xbf, 0xbe, 0xa4, 0x6f, 0x9d, 0x3d, 0xac, 0xf0, 0xdd, 0xbd,
  0x9c, 0x76, 0x82, 0xbe, 0x9f, 0xb8, 0xce, 0xbe, 0xb1, 0x03, 0xdc, 0xbe,
  0xdc, 0xf6, 0xec, 0xbd, 0xd4, 0xa2, 0xbc, 0x3d, 0x10, 0x9a, 0x2d, 0xbe,
  0xaa, 0xe3, 0xe6, 0xbd, 0x7a, 0x53, 0xe1, 0xbd, 0xf8, 0x75, 0xe3, 0xbc,
  0xc6, 0xbd, 0xcf, 0x3e, 0xb6, 0x28, 0x47, 0x3e, 0x58, 0x77, 0x26, 0x3d,
  0xe2, 0xcb, 0xe0, 0x3e, 0xba, 0x0b, 0xd9, 0x3e, 0x08, 0x32, 0xe8, 0xbe,
  0x81, 0x18, 0xa6, 0x3e, 0x9a, 0xcc, 0xa2, 0xbe, 0x9b, 0xd4, 0xca, 0xbd,
  0x2d, 0x7d, 0xe3, 0xbc, 0xd0, 0x99, 0x05, 0xbe, 0x32, 0xb2, 0x0a, 0x3e,
  0xa4, 0xca, 0xb3, 0x3e, 0xc3, 0xfe, 0xd6, 0xbe, 0x74, 0x06, 0x58, 0xbc,
  0xa8, 0x2e, 0xcb, 0xbe, 0x1c, 0x95, 0x71, 0x3c, 0xbe, 0x2b, 0x2b, 0xbd,
  0x60, 0xce, 0xfb, 0xbd, 0x03, 0xa8, 0x07, 0xbf, 0xfa, 0x27, 0xa9, 0x3e,
  0x37, 0xc8, 0xae, 0x3e, 0xa4, 0x73, 0x59, 0xbc, 0x43, 0x4a, 0x51, 0x3d,
  0x16, 0xa2, 0xc0, 0xba, 0x1a, 0x73, 0x9a, 0x3e, 0xd3, 0xeb, 0x2f, 0xbd,
  0x60, 0x2c, 0x09, 0x3e, 0x18, 0x78, 0x03, 0xbf, 0xae, 0x41, 0xeb, 0xbd,
  0xc2, 0x24, 0x51, 0xbd, 0xf5, 0x6d, 0x95, 0xbe, 0xd5, 0xd7, 0x7b, 0xbe,
  0x2a, 0x9a, 0xd3, 0xbe, 0xde, 0x2a, 0xda, 0x3e, 0x84, 0x54, 0xd6, 0x3e,
  0x54, 0x52, 0x01, 0xbe, 0xa7, 0x4a, 0xc9, 0x3e, 0x30, 0x7a, 0x49, 0x3e,
  0xda, 0x01, 0x7d, 0x3e, 0x9f, 0x64, 0x40, 0xbd, 0x59, 0x59, 0xa8, 0x3e,
  0x37, 0x3c, 0x54, 0xbd, 0x00, 0x80, 0x85, 0xbd, 0x57, 0xea, 0xcd, 0x3e,
  0x57, 0x60, 0xa5, 0xbe, 0xea, 0x71, 0x50, 0xbe, 0x7a, 0xce, 0x4f, 0x3e,
  0x49, 0xa2, 0xcf, 0x3e, 0x22, 0x4b, 0x50, 0xbe, 0xe1, 0x3c, 0x8c, 0xbe,
  0xbc, 0x09, 0xad, 0xbd, 0xae, 0x26, 0x77, 0xbe, 0x5b, 0xea, 0xc8, 0x3e,
  0x46, 0xb7, 0x05, 0x3e, 0x1e, 0x81, 0x0c, 0xbe, 0x9b, 0xad, 0xd1, 0xbe,
  0xb8, 0x28, 0x7c, 0xbe, 0xae, 0x7a, 0x99, 0xbe, 0x97, 0xad, 0xce, 0xbe,
  0x8e, 0x60, 0xe4, 0x3d, 0x3e, 0x9e, 0x67, 0xbe, 0xcf, 0xc2, 0x9f, 0xbd,
  0x0b, 0x4e, 0x5e, 0xbe, 0x29, 0xa9, 0x95, 0x3e, 0xbd, 0xb1, 0x3c, 0x3e,
  0x13, 0xb7, 0x2f, 0x3f, 0x3e, 0xbc, 0x12, 0x3e, 0x88, 0x51, 0x00, 0xbc,
  0xf1, 0xe0, 0x85, 0xbd, 0xbe, 0x7d, 0xca, 0xbe, 0x7f, 0xa6, 0x9f, 0x3e,
  0x72, 0x64, 0x2c, 0x3d, 0x6e, 0xd8, 0x82, 0x3e, 0xc8, 0xac, 0x98, 0xbe,
  0xf3, 0x70, 0xc0, 0xbb, 0x89, 0x97, 0x55, 0xbe, 0x4a, 0xc0, 0xbf, 0xbd,
  0x29, 0xf6, 0x9a, 0xbe, 0x26, 0x60, 0x86, 0xbe, 0x4b, 0x37, 0x2d, 0x3d,
  0x67, 0xd2, 0xae, 0x3e, 0x4d, 0x65, 0x00, 0xbe, 0x3f, 0x0c, 0x8d, 0x3e,
  0xfc, 0x1c, 0x9d, 0xbe, 0x8b, 0x2c, 0xe8, 0xbd, 0x8f, 0x90, 0x19, 0xbe,
  0x91, 0x72, 0x10, 0x3e, 0x64, 0x10, 0xba, 0x3e, 0x13, 0x1d, 0xe0, 0x3c,
  0x02, 0x0a, 0xdd, 0xbe, 0x9b, 0x7f, 0x5e, 0xbe, 0xb3, 0xc6, 0xa3, 0xbe,
  0x85, 0xd1, 0x88, 0xbc, 0x97, 0x59, 0xe2, 0xbe, 0x4a, 0x11, 0x22, 0x3e,
  0xcf, 0x93, 0xb1, 0xbe, 0x90, 0xb6, 0x0b, 0x3f, 0xd7, 0xf2, 0x1c, 0x3e,
  0xa7, 0xe2, 0x2f, 0xbe, 0xb4, 0x44, 0xad, 0x3e, 0xbc, 0x57, 0x06, 0x3f,
  0xfc, 0x1d, 0xcc, 0xbc, 0x39, 0x94, 0xaa, 0xbe, 0x4c, 0x38, 0x67, 0xbe,
  0x72, 0x2d, 0x49, 0x3e, 0x54, 0x12, 0x2f, 0xbd, 0x2f, 0x1a, 0x8f, 0xbd,
  0x10, 0xbf, 0x49, 0x3e, 0x3b, 0xcd, 0x9e, 0x3e, 0x40, 0x82, 0x00, 0x3f,
  0xbe, 0xfb, 0xb7, 0x3e, 0xb8, 0x5f, 0x3e, 0xbe, 0x45, 0xb0, 0x28, 0x3c,
  0x19, 0x72, 0x98, 0xbc, 0x1d, 0x10, 0x8b, 0xbe, 0x26, 0xd5, 0xe0, 0xbd,
  0xd1, 0x57, 0xa1, 0xbd, 0xaf, 0x82, 0xcb, 0x3d, 0x8a, 0x45, 0x6a, 0x3e,
  0xca, 0x8f, 0x6e, 0x3e, 0xe1, 0x74, 0x92, 0xbe, 0x4b, 0x51, 0xa5, 0x3d,
  0x13, 0x87, 0xac, 0x3e, 0x54, 0x93, 0x19, 0x3f, 0x78, 0xcd, 0x8c, 0xbe,
  0x80, 0xde, 0x2f, 0x3f, 0x86, 0x8d, 0x96, 0x3e, 0x34, 0xc7, 0xe8, 0x3d,
  0xed, 0x9f, 0x82, 0xbd, 0x8f, 0xab, 0x4f, 0x3d, 0x3a, 0x59, 0x9d, 0xbe,
  0x41, 0x1e, 0x82, 0x3c, 0x53, 0xc6, 0x18, 0xbe, 0x24, 0x7c, 0xd8, 0x3e,
  0x38, 0x85, 0x53, 0x3c, 0x42, 0x59, 0x80, 0xbd, 0x88, 0x93, 0x00, 0xbe,
  0x44, 0xb9, 0x02, 0xbd, 0x8b, 0x70, 0xd1, 0xbe, 0xf0, 0xe5, 0x1b, 0xbe,
  0xdb, 0xcf, 0x81, 0x3e, 0xd1, 0x28, 0x7e, 0x3e, 0x86, 0xc3, 0x0c, 0xbe,
  0x0a, 0x19, 0x32, 0x3e, 0x0d, 0x65, 0x58, 0x3e, 0x5c, 0xd6, 0x43, 0x3e,
  0xd9, 0x3d, 0x96, 0xbe, 0x47, 0xef, 0xdb, 0xbe, 0x3b, 0xfe, 0x81, 0x3e,
  0x93, 0x79, 0x45, 0xbd, 0x02, 0x57, 0xa6, 0xbe, 0x49, 0x9d, 0x1c, 0x3c,
  0x04, 0xc0, 0x7f, 0x3e, 0x38, 0x29, 0x47, 0x3c, 0xbc, 0x5b, 0xcb, 0x3e,
  0xd6, 0xbf, 0xe1, 0xbd, 0xc2, 0x2d, 0xa2, 0x3e, 0x69, 0xd9, 0xca, 0x3e,
  0x3a, 0x76, 0xba, 0x3d, 0xde, 0xc2, 0xb8, 0x3c, 0x5a, 0x93, 0x7c, 0x3e,
  0xb1, 0xd6, 0x90, 0xbe, 0x60, 0xe1, 0x6a, 0xbd, 0x5e, 0x6a, 0x20, 0x3e,
  0xbf, 0x72, 0x6e, 0xbd, 0x4d, 0x3e, 0x02, 0xbe, 0x15, 0x16, 0xae, 0xbe,
  0xc7, 0x96, 0x64, 0x3e, 0x53, 0xed, 0x00, 0xbc, 0x69, 0xde, 0x1a, 0x3d,
  0xa1, 0xf6, 0x92, 0xbd, 0x5c, 0xd9, 0xff, 0xff, 0x60, 0xd9, 0xff, 0xff,
  0x64, 0xd9, 0xff, 0xff, 0x68, 0xd9, 0xff, 0xff, 0x6c, 0xd9, 0xff, 0xff,
  0x1a, 0xef, 0xff, 0xff, 0x04, 0x00, 0x00, 0x00, 0x50, 0x00, 0x00, 0x00,
  0xc8, 0xb9, 0xc9, 0xbc, 0x3b, 0x33, 0xe3, 0x3d, 0xa0, 0xe6, 0xe3, 0x3d,
  0x00, 0x00, 0x00, 0x00, 0xa1, 0x97, 0x2c, 0x3e, 0xef, 0x7d, 0x0d, 0xbd,
  0x4c, 0x03, 0x31, 0x3d, 0x3c, 0xd7, 0x0f, 0x3d, 0xfe, 0x2f, 0x6b, 0xbc,
  0xfb, 0x0d, 0xeb, 0xbb, 0xa1, 0xe9, 0x12, 0xbd, 0x47, 0x53, 0xbc, 0xbc,
  0x3f, 0xec, 0x0f, 0xbc, 0xcf, 0xb3, 0xc3, 0xbc, 0x82, 0xb0, 0x53, 0x3d,
  0xb6, 0x85, 0xaa, 0x3d, 0x25, 0xb4, 0xf0, 0x3c, 0x0f, 0x49, 0x94, 0x3d,
  0x76, 0xe3, 0x36, 0x3d, 0x29, 0xd6, 0xfd, 0x3c, 0xcc, 0xd9, 0xff, 0xff,
  0x7a, 0xef, 0xff, 0xff, 0x04, 0x00, 0x00, 0x00, 0xc8, 0x00, 0x00, 0x00,
  0x77, 0x80, 0xfe, 0x3c, 0x14, 0x92, 0x75, 0x3d, 0xbb, 0xeb, 0x37, 0xbd,
  0x79, 0x3a, 0x8c, 0x3c, 0x02, 0x57, 0x05, 0x3a, 0x00, 0x00, 0x00, 0x00,
  0xd8, 0x5e, 0xfa, 0xbc, 0x14, 0xe2, 0xd8, 0xbb, 0x8e, 0x1c, 0x73, 0x3c,
  0xca, 0xd3, 0xda, 0x3c, 0x16, 0xd7, 0xeb, 0xbc, 0x0b, 0x27, 0xf0, 0xbb,
  0x12, 0xe3, 0x83, 0xbd, 0xc2, 0x9a, 0xe3, 0xbb, 0xdc, 0xec, 0x8e, 0x3c,
  0x00, 0x00, 0x00, 0x00, 0xa2, 0x32, 0xf2, 0x3d, 0xa1, 0x3c, 0xf2, 0xbc,
  0x15, 0x4c, 0x45, 0xbc, 0x00, 0x00, 0x00, 0x00, 0x76, 0x0b, 0x09, 0x3d,
  0xce, 0x82, 0x3c, 0x3d, 0xa7, 0xb0, 0x31, 0x3d, 0x9d, 0x3a, 0xab, 0xbc,
  0xe8, 0x2c, 0xa6, 0x3d, 0x00, 0x00, 0x00, 0x00, 0xf9, 0xde, 0x4d, 0xbd,
  0x68, 0x30, 0x24, 0xbd, 0x1c, 0xa9, 0x3a, 0x3d, 0x4d, 0x3c, 0x27, 0x3d,
  0xdc, 0x04, 0xef, 0xbc, 0x54, 0xf1, 0x4d, 0xbd, 0xec, 0x26, 0x19, 0xbe,
  0x6c, 0xff, 0x68, 0xbd, 0x61, 0xe8, 0x93, 0x3d, 0xfb, 0xc8, 0x66, 0xbd,
  0xb4, 0xb2, 0x51, 0xbd, 0x3a, 0x23, 0x06, 0x3d, 0x00, 0x91, 0x61, 0xbc,
  0x05, 0x1b, 0xdf, 0xbc, 0x1d, 0xcd, 0xd5, 0xbc, 0x8b, 0xff, 0xa2, 0x3d,
  0xe9, 0x07, 0xe5, 0xbc, 0x91, 0xe6, 0xe4, 0x39, 0x00, 0x00, 0x00, 0x00,
  0x68, 0xd4, 0xdc, 0x3b, 0x5f, 0xc9, 0x58, 0xbd, 0xec, 0xb8, 0x4e, 0x3e,
  0xd8, 0x61, 0x5b, 0xbd, 0x93, 0x11, 0x02, 0xbd, 0xa4, 0xda, 0xff, 0xff,
  0x52, 0xf0, 0xff, 0xff, 0x04, 0x00, 0x00, 0x00, 0xa0, 0x0f, 0x00, 0x00,
  0x68, 0xf1, 0x3b, 0xbd, 0xd6, 0x99, 0xaa, 0xbe, 0xf5, 0x48, 0x30, 0xbc,
  0xda, 0xf2, 0x1c, 0xbc, 0x83, 0x40, 0x7c, 0x3c, 0x02, 0x0c, 0x5b, 0xbe,
  0x9b, 0x70, 0xb7, 0x3d, 0xde, 0xc5, 0xbf, 0x3d, 0xc8, 0x79, 0x1e, 0x3d,
  0x0e, 0x61, 0x8f, 0x3e, 0x16, 0xc8, 0x06, 0x3e, 0xe5, 0x6e, 0x90, 0xbd,
  0x4c, 0x9b, 0x31, 0x3e, 0xa1, 0x2f, 0xdd, 0xbd, 0xb2, 0xd9, 0xe4, 0x3c,
  0x40, 0xea, 0xbf, 0x3e, 0xe4, 0xc1, 0xab, 0xbc, 0x45, 0x8c, 0x8f, 0x3d,
  0xf3, 0x84, 0xc3, 0xbe, 0x67, 0xef, 0x42, 0xbe, 0xa0, 0x05, 0xa9, 0x3b,
  0xf6, 0x85, 0x24, 0xbe, 0xcd, 0x10, 0x2a, 0xbe, 0xd5, 0x40, 0xf7, 0xbd,
  0x75, 0x05, 0x37, 0x3f, 0x87, 0xe0, 0xcb, 0xbe, 0x5a, 0x7f, 0x87, 0x3e,
  0xad, 0xa0, 0x73, 0xbe, 0x48, 0x18, 0xdf, 0x3d, 0x99, 0x5b, 0x55, 0x3e,
  0xe8, 0x27, 0xa7, 0x3d, 0x85, 0xbe, 0x31, 0xbe, 0xb7, 0x88, 0x37, 0x3d,
  0x70, 0x5e, 0x28, 0x3e, 0x2b, 0x41, 0x2c, 0xbe, 0xb3, 0xdc, 0x3a, 0x3e,
  0xb4, 0x47, 0x06, 0x3e, 0xc5, 0x10, 0x3b, 0x3e, 0x0f, 0xb4, 0x5f, 0xbe,
  0x66, 0xc4, 0xde, 0x3d, 0x52, 0x13, 0x2f, 0x3e, 0x12, 0x44, 0xb3, 0xbd,
  0xd3, 0xfc, 0x17, 0x3e, 0x98, 0xb7, 0xe6, 0x3d, 0x3a, 0x65, 0x53, 0x3e,
  0x60, 0x29, 0x0c, 0x3d, 0x72, 0x42, 0x91, 0x3d, 0xb9, 0xd8, 0x82, 0x3e,
  0xd8, 0x8f, 0xe4, 0xbd, 0x40, 0x89, 0xba, 0xbc, 0xda, 0x14, 0xa1, 0x3e,
  0x42, 0xc7, 0xdc, 0xbd, 0x39, 0x1d, 0x6e, 0x3b, 0xb5, 0x30, 0x2d, 0xbe,
  0xba, 0x1e, 0x15, 0x3e, 0x83, 0x9e, 0x62, 0xbd, 0xdc, 0x4e, 0x48, 0xbe,
  0x18, 0xbb, 0x79, 0x3e, 0xa6, 0x71, 0x9b, 0x3e, 0xe0, 0x37, 0x71, 0xbd,
  0xfd, 0x9b, 0x53, 0x3e, 0x05, 0x9e, 0x14, 0xbc, 0x2c, 0x97, 0x46, 0xbd,
  0x7b, 0x6a, 0x09, 0xbf, 0x6f, 0x83, 0x69, 0x3e, 0xed, 0x8d, 0x29, 0x3c,
  0x0d, 0xf9, 0xd4, 0x3c, 0x00, 0x06, 0x60, 0x3e, 0x69, 0x86, 0x0c, 0xbf,
  0x66, 0x8b, 0x54, 0x3d, 0x0c, 0x08, 0x69, 0xbe, 0x08, 0xa7, 0x8a, 0xbe,
  0x30, 0xe8, 0x09, 0x3e, 0x05, 0x18, 0x70, 0xbe, 0x52, 0xf0, 0xd1, 0x3d,
  0x5b, 0x00, 0x18, 0xbc, 0x8b, 0x43, 0x6f, 0x3e, 0xb2, 0xc5, 0xf4, 0xbd,
  0xa2, 0xc3, 0x8d, 0x3e, 0xa5, 0x11, 0x9c, 0xbd, 0x07, 0x3d, 0x9e, 0x3e,
  0xe7, 0x57, 0x23, 0xbe, 0x66, 0x7c, 0x0b, 0xbe, 0xec, 0x43, 0x6a, 0xbe,
  0x80, 0x2f, 0x61, 0xbe, 0x22, 0xeb, 0x64, 0x3e, 0x46, 0x1c, 0x4c, 0x3e,
  0x7c, 0x8d, 0x6e, 0x3d, 0xd1, 0x2c, 0x9d, 0x3d, 0x81, 0x2f, 0x77, 0x3e,
  0x7e, 0x69, 0x86, 0xbe, 0xaa, 0xe4, 0x3e, 0x3e, 0x2a, 0xf8, 0x84, 0x3e,
  0xfc, 0x50, 0xee, 0xbd, 0xf6, 0x50, 0xd8, 0xbc, 0x4c, 0x94, 0x80, 0x3e,
  0x52, 0x9b, 0xac, 0x3e, 0x55, 0xfe, 0x8a, 0xbe, 0x20, 0x2b, 0x69, 0x3d,
  0x18, 0x3b, 0x6f, 0x3e, 0x3f, 0x26, 0x8f, 0xbe, 0x6c, 0x66, 0x56, 0x3e,
  0x6c, 0x93, 0xa1, 0xbd, 0xe5, 0x72, 0x19, 0xbf, 0x1c, 0x50, 0xcd, 0xbd,
  0xc6, 0x7f, 0x1c, 0xbf, 0x65, 0x50, 0x49, 0x3e, 0xae, 0x6d, 0x47, 0x3e,
  0x54, 0x02, 0x8b, 0xbe, 0x57, 0xc9, 0x5b, 0xbe, 0xb8, 0x12, 0xab, 0xbd,
  0x2a, 0x82, 0xdc, 0xbd, 0xbd, 0x25, 0xa6, 0x3e, 0xd6, 0x9f, 0x44, 0xbd,
  0x04, 0xfd, 0x66, 0xbe, 0x86, 0xba, 0x28, 0xbe, 0xc7, 0x11, 0x89, 0x3d,
  0x70, 0x29, 0x60, 0x3e, 0x51, 0x7d, 0x72, 0x3e, 0xd3, 0xef, 0xaf, 0x3c,
  0x11, 0x44, 0x68, 0xbe, 0xd6, 0x19, 0x7c, 0x3e, 0x1b, 0x8c, 0x32, 0x3e,
  0xf7, 0x6c, 0xb6, 0x3d, 0x58, 0x59, 0x14, 0x3f, 0xbf, 0x19, 0x11, 0x3e,
  0x4f, 0x92, 0x3b, 0x3e, 0x08, 0x3b, 0xe0, 0xbe, 0xd9, 0xee, 0x41, 0xbe,
  0xb2, 0x88, 0x35, 0xbe, 0x1a, 0x50, 0x5b, 0x3e, 0x7e, 0xb3, 0xd0, 0x3d,
  0xe0, 0x65, 0x88, 0x3c, 0xe9, 0xc2, 0x47, 0xbe, 0xf7, 0xb6, 0x84, 0xbe,
  0x0c, 0xcf, 0x23, 0x3e, 0x06, 0xf1, 0x94, 0x3e, 0x41, 0x34, 0xd1, 0xbd,
  0x3b, 0x12, 0x50, 0x3b, 0x92, 0x68, 0xcc, 0x3d, 0xe6, 0x41, 0x6c, 0xbe,
  0x55, 0x39, 0x6a, 0xbe, 0x31, 0x6c, 0x03, 0x3e, 0x52, 0x7e, 0xf4, 0xbd,
  0x61, 0xd7, 0x28, 0x3e, 0xe8, 0x4d, 0xc0, 0xbd, 0x8d, 0x1b, 0x3f, 0xbc,
  0x7d, 0xaf, 0x20, 0x3e, 0x52, 0xc4, 0xbd, 0xbd, 0x70, 0x6b, 0xca, 0x3c,
  0xf4, 0xa5, 0x4c, 0xbe, 0x7a, 0xae, 0x13, 0x3e, 0xa4, 0xc2, 0x61, 0xbd,
  0x04, 0x59, 0x3f, 0xbe, 0xc0, 0x37, 0x84, 0x3b, 0x38, 0x03, 0x0b, 0xbd,
  0x4c, 0x39, 0x8c, 0x3d, 0xba, 0x9c, 0x68, 0xbe, 0xe4, 0xba, 0xf7, 0xbd,
  0x9e, 0x48, 0x1e, 0xbe, 0xb3, 0xa7, 0x51, 0xbe, 0x74, 0x4c, 0x5a, 0x3e,
  0xec, 0x32, 0xe4, 0x3d, 0xe4, 0x84, 0x42, 0x3e, 0xbc, 0x29, 0x7c, 0xbd,
  0xe4, 0x62, 0x38, 0xbe, 0x33, 0xc8, 0x25, 0xbe, 0x90, 0x11, 0x7e, 0x3d,
  0x08, 0xe1, 0x3c, 0x3d, 0x98, 0x94, 0x89, 0x3e, 0xec, 0x97, 0xee, 0x3d,
  0x28, 0x6e, 0x0b, 0xbd, 0xac, 0x27, 0x11, 0x3e, 0xd9, 0x47, 0x10, 0xbe,
  0xd1, 0xa6, 0x85, 0xbe, 0x00, 0xa1, 0xf1, 0xbd, 0x62, 0x09, 0x81, 0x3e,
  0x24, 0xef, 0x85, 0xbd, 0xc0, 0x53, 0xc8, 0x3d, 0x20, 0xb0, 0x64, 0xbd,
  0x4a, 0x90, 0x8e, 0xbe, 0x0c, 0x66, 0x19, 0x3e, 0xb2, 0xf2, 0x1e, 0x3e,
  0xb8, 0xa4, 0x8b, 0x3d, 0x86, 0x34, 0x5a, 0xbe, 0x5c, 0xa2, 0x19, 0xbe,
  0xa0, 0x7b, 0x3d, 0xbc, 0xc0, 0xe8, 0x63, 0xbe, 0xbc, 0xa8, 0x50, 0x3e,
  0xac, 0x7d, 0x7e, 0xbd, 0xa0, 0x22, 0x99, 0xbc, 0x8c, 0xcb, 0x7c, 0x3e,
  0x10, 0x5a, 0xb7, 0xbc, 0xd6, 0xff, 0x26, 0xbe, 0x56, 0xb1, 0x8b, 0xbe,
  0x0a, 0x5f, 0xdb, 0xbd, 0x1e, 0xb9, 0x8a, 0xbd, 0x84, 0xec, 0x9c, 0x3d,
  0x60, 0x7c, 0x26, 0xbd, 0x5a, 0x20, 0x05, 0x3e, 0x82, 0x75, 0x81, 0xbd,
  0xe6, 0xf9, 0x8f, 0x3d, 0x2f, 0x91, 0x9f, 0x3d, 0xa7, 0xd1, 0x84, 0xbe,
  0x71, 0x98, 0xc6, 0xbe, 0xab, 0xb3, 0xb1, 0xbe, 0x13, 0x8c, 0x11, 0xbc,
  0x9d, 0x25, 0x79, 0xbe, 0x4a, 0x0e, 0x08, 0xbe, 0x46, 0x2a, 0xe9, 0xbd,
  0x2e, 0x0e, 0x3c, 0x3e, 0x3b, 0xba, 0xd4, 0x3d, 0x90, 0x6e, 0x8f, 0xbd,
  0x2d, 0xd8, 0x07, 0xbe, 0x37, 0x2a, 0x22, 0x3e, 0xf5, 0x59, 0xb1, 0xbe,
  0xce, 0xcb, 0xa0, 0x3d, 0x1e, 0xbb, 0x1f, 0xbe, 0x34, 0xe0, 0x65, 0x3e,
  0x02, 0xa8, 0xbb, 0x3d, 0x0c, 0x73, 0x84, 0xbe, 0x3a, 0x76, 0xf2, 0xbd,
  0x6a, 0x99, 0xdc, 0xbd, 0xee, 0xc4, 0x8b, 0x3e, 0x6f, 0x75, 0x11, 0xbd,
  0x20, 0x9b, 0x2b, 0x3e, 0xe5, 0x91, 0xfc, 0x3d, 0x47, 0xd2, 0xde, 0xbe,
  0x16, 0x81, 0xae, 0x3e, 0x4b, 0xeb, 0x10, 0x3e, 0x05, 0x6c, 0xf5, 0x3d,
  0xa3, 0xaf, 0x86, 0x3e, 0xe1, 0xa9, 0x53, 0xbe, 0xba, 0x53, 0x2d, 0x3e,
  0x78, 0xa5, 0xc9, 0xbc, 0x3c, 0xaa, 0x97, 0x3e, 0x52, 0xd9, 0x8c, 0xbe,
  0xd7, 0x5c, 0x81, 0x3e, 0xb3, 0x32, 0x1c, 0x3e, 0xbf, 0xea, 0x8d, 0x3e,
  0x9c, 0xdd, 0x01, 0xbe, 0x40, 0xfc, 0x7c, 0x3e, 0xeb, 0x59, 0x9b, 0x3e,
  0xdc, 0x79, 0xf4, 0x3d, 0xc2, 0x09, 0xa6, 0xbd, 0x8e, 0x98, 0x85, 0x3e,
  0x62, 0x49, 0xd8, 0x3c, 0xba, 0xd4, 0x9b, 0xbe, 0x14, 0x80, 0x95, 0xbe,
  0x4c, 0xa5, 0x79, 0x3e, 0xd1, 0xa1, 0x8b, 0xbe, 0x19, 0x18, 0x81, 0xbe,
  0x00, 0x98, 0x07, 0xbb, 0x98, 0x6a, 0x10, 0x3e, 0x29, 0x75, 0x9a, 0xbe,
  0x1b, 0x24, 0x7e, 0xbe, 0x80, 0x34, 0x82, 0xbb, 0x3e, 0x2d, 0x5e, 0x3e,
  0x00, 0x2c, 0x17, 0x3e, 0x26, 0x8b, 0x1c, 0xbe, 0xe4, 0x8f, 0x0a, 0x3e,
  0x66, 0xc2, 0x47, 0x3e, 0x3e, 0x6f, 0x31, 0x3e, 0x6b, 0xd1, 0x74, 0xbd,
  0xd9, 0x0c, 0x81, 0xbe, 0x51, 0xc3, 0xa9, 0x3a, 0xdc, 0x15, 0x46, 0xbe,
  0xd8, 0x1e, 0x8d, 0xbe, 0x91, 0x10, 0x7a, 0x3e, 0x68, 0x84, 0xaa, 0x3d,
  0x38, 0x66, 0x4a, 0x3d, 0x00, 0x4e, 0xf2, 0xba, 0x27, 0x42, 0x1a, 0xbe,
  0x7c, 0xc0, 0xb4, 0x3d, 0x05, 0x39, 0xc0, 0xbd, 0x1d, 0x3c, 0x41, 0xbe,
  0x62, 0xd2, 0x34, 0x3e, 0x70, 0x6c, 0xbe, 0x3d, 0x61, 0x06, 0x80, 0x3e,
  0xf6, 0xfb, 0x44, 0x3e, 0x73, 0x3c, 0xd6, 0x3d, 0xb0, 0x39, 0x5f, 0x3e,
  0x56, 0x80, 0x94, 0xbd, 0xca, 0x9d, 0x15, 0xbe, 0xd1, 0x26, 0x4c, 0xbe,
  0x48, 0xfa, 0x2c, 0xbe, 0x02, 0x1f, 0x32, 0xbe, 0xf3, 0x74, 0x25, 0xbe,
  0xc3, 0xc0, 0xfb, 0x3d, 0x09, 0xbe, 0x53, 0xbe, 0xdb, 0x92, 0x75, 0xbe,
  0xec, 0x40, 0xd7, 0xbd, 0x4d, 0xab, 0x11, 0xbe, 0x34, 0x8b, 0x88, 0xbe,
  0xa0, 0x5b, 0xd1, 0xbc, 0x1e, 0xb2, 0x89, 0xbe, 0x5f, 0xcd, 0x65, 0xbe,
  0xa2, 0x6d, 0x80, 0xbd, 0x60, 0x77, 0x23, 0xbd, 0x38, 0xe6, 0x04, 0xbe,
  0xc3, 0x40, 0x85, 0x3e, 0x8c, 0x7f, 0xc0, 0xbe, 0x72, 0x85, 0x06, 0x3e,
  0x61, 0xb0, 0xe1, 0x3e, 0xf1, 0x21, 0x9a, 0x3e, 0x51, 0xa0, 0xbd, 0x3e,
  0x3a, 0xde, 0x48, 0x3e, 0xe2, 0xb1, 0xba, 0x3d, 0x38, 0x6e, 0x48, 0x3e,
  0xa2, 0xb6, 0x67, 0xbe, 0x00, 0xe9, 0xac, 0x3c, 0xab, 0xef, 0x80, 0x3e,
  0x11, 0x6d, 0xdd, 0x3d, 0x9d, 0x38, 0x35, 0xbf, 0xe7, 0xf1, 0x3d, 0x3e,
  0x73, 0xf6, 0xb7, 0xbd, 0xe2, 0xf8, 0x4b, 0x3e, 0x1f, 0x9b, 0x32, 0xbe,
  0xfc, 0x5e, 0x90, 0xbe, 0x7b, 0x8e, 0x9f, 0xbd, 0xfc, 0x9c, 0x51, 0x3d,
  0x50, 0x2d, 0x26, 0x3e, 0x12, 0xfa, 0x5e, 0x3e, 0x7e, 0xad, 0x77, 0xbe,
  0x9d, 0x69, 0xee, 0xbe, 0x61, 0x50, 0x58, 0x3e, 0xac, 0xd6, 0xfb, 0xbc,
  0x27, 0x0a, 0x23, 0x3f, 0xbf, 0xf1, 0xed, 0xbc, 0xd9, 0x5c, 0x8d, 0xbd,
  0x52, 0xc5, 0x62, 0x3e, 0x9b, 0x34, 0x19, 0x3e, 0xc6, 0xbd, 0x13, 0xbe,
  0xba, 0xf8, 0x3d, 0xbd, 0xb7, 0xb5, 0x68, 0x3d, 0x6b, 0x8a, 0x34, 0xbe,
  0xb0, 0x8f, 0x92, 0x3e, 0xfa, 0x6f, 0xb1, 0xbd, 0x84, 0x4e, 0x23, 0xbe,
  0xd3, 0xb0, 0x12, 0x3e, 0x8a, 0xec, 0x0f, 0x3e, 0xf8, 0x75, 0x5d, 0x3e,
  0x18, 0xa2, 0xaf, 0xbd, 0xa6, 0x90, 0xd8, 0xbd, 0x90, 0xa7, 0x88, 0xbe,
  0xf0, 0xb2, 0xc1, 0x3d, 0x6b, 0xe3, 0x82, 0xbe, 0xf5, 0x6a, 0x54, 0x3e,
  0x32, 0x1b, 0xc2, 0xbd, 0x03, 0xcf, 0x5e, 0xbe, 0xda, 0x32, 0x72, 0x3e,
  0x81, 0x8e, 0x1d, 0xbe, 0x2d, 0xad, 0xb2, 0x3d, 0x2e, 0x82, 0x46, 0x3e,
  0x87, 0x2d, 0x55, 0x3d, 0x5c, 0xd3, 0x3b, 0x3e, 0xbf, 0xab, 0x88, 0x3e,
  0x82, 0x41, 0xad, 0x3d, 0xf7, 0x80, 0x8f, 0xbd, 0x13, 0x94, 0x55, 0x3e,
  0x50, 0x44, 0x23, 0xbe, 0xa0, 0x0c, 0x4e, 0xbe, 0xd9, 0xe6, 0xf1, 0xbd,
  0x3e, 0x5c, 0xc4, 0xbe, 0xc6, 0x8d, 0x6d, 0x3d, 0x76, 0x66, 0xf4, 0x3e,
  0x55, 0x0b, 0xa4, 0xbe, 0xe5, 0x46, 0x67, 0x3e, 0x9f, 0x3a, 0x87, 0xbf,
  0x61, 0x41, 0xf1, 0x3d, 0x53, 0x90, 0xe4, 0xbd, 0x82, 0xc3, 0x27, 0x3e,
  0x4d, 0x7b, 0x70, 0x3e, 0xc6, 0x6f, 0xc1, 0xbc, 0x50, 0x6c, 0x27, 0x3f,
  0xf9, 0x77, 0x86, 0xbe, 0x29, 0x09, 0x6c, 0x3f, 0x81, 0xe8, 0x7d, 0x3c,
  0x56, 0xa5, 0xfb, 0x3d, 0x9a, 0x2e, 0xe2, 0xbd, 0xe1, 0xcc, 0x60, 0x3e,
  0x03, 0x9e, 0x85, 0xbe, 0x95, 0x10, 0x44, 0x3e, 0x55, 0xe2, 0xaa, 0x3d,
  0x0b, 0xa2, 0x27, 0x3e, 0x92, 0x43, 0xf4, 0x3d, 0x90, 0xe7, 0xcb, 0x3c,
  0xf0, 0x4f, 0x60, 0x3e, 0x09, 0x48, 0x6c, 0x3e, 0x49, 0x67, 0xc1, 0x3d,
  0x0a, 0x91, 0x58, 0xbe, 0xd4, 0xec, 0xd1, 0x3d, 0xf4, 0x4c, 0x61, 0x3e,
  0xbf, 0x5e, 0xf8, 0xbd, 0x78, 0x8e, 0x3b, 0xbe, 0xee, 0x2c, 0xd4, 0xbd,
  0x42, 0xde, 0x01, 0xbd, 0x01, 0x0a, 0x0c, 0xbe, 0x16, 0x3a, 0xda, 0xbd,
  0xc8, 0x70, 0x16, 0xbe, 0xa6, 0x72, 0x40, 0x3e, 0xa5, 0x17, 0x8c, 0x3e,
  0x7e, 0x53, 0xbd, 0xbd, 0xec, 0xaf, 0x3e, 0x3e, 0xcc, 0xb5, 0x66, 0x3d,
  0x5f, 0x40, 0x8f, 0xbe, 0xdf, 0xb7, 0x95, 0xbe, 0x14, 0x2a, 0x9d, 0xbe,
  0xcc, 0x8a, 0x29, 0xbe, 0x4d, 0x6a, 0x4c, 0xbe, 0x24, 0xc1, 0xd4, 0x3d,
  0x56, 0xd1, 0x10, 0xbe, 0x99, 0x1b, 0x22, 0x3e, 0x90, 0x69, 0xe5, 0x3d,
  0xd0, 0x01, 0x63, 0x3d, 0x9c, 0xce, 0x84, 0x3e, 0xbf, 0x2a, 0xac, 0xbc,
  0x70, 0xaa, 0x8c, 0xbe, 0x85, 0xea, 0x90, 0xbe, 0xef, 0xe8, 0x4c, 0x3e,
  0x58, 0x25, 0x0f, 0x3e, 0xd0, 0xdb, 0x69, 0xbe, 0x67, 0xc9, 0x47, 0xbe,
  0x80, 0xdb, 0x08, 0x3d, 0x2d, 0x90, 0x3b, 0xbe, 0x53, 0xe6, 0x34, 0xbe,
  0x50, 0x19, 0x4a, 0x3e, 0x8c, 0xab, 0x87, 0xbe, 0x34, 0x9b, 0x61, 0xbd,
  0x68, 0xb5, 0xf9, 0x3d, 0x5e, 0x81, 0x2d, 0xbe, 0x54, 0x05, 0xbd, 0x3d,
  0xe5, 0xba, 0x4b, 0xbe, 0xa8, 0xcc, 0x43, 0x3d, 0xb4, 0x89, 0xb3, 0x3d,
  0x1a, 0x1f, 0x81, 0x3e, 0x60, 0x26, 0x94, 0x3e, 0x21, 0x93, 0xed, 0x3d,
  0xec, 0xdf, 0x0f, 0xbe, 0x79, 0x1d, 0x12, 0xbe, 0x12, 0x79, 0xd2, 0xbd,
  0x40, 0x42, 0x13, 0xbc, 0x74, 0x2c, 0x4d, 0xbe, 0x9d, 0x85, 0x29, 0xbe,
  0x66, 0x78, 0x31, 0x3e, 0x20, 0xe3, 0x71, 0x3e, 0x80, 0xeb, 0x81, 0x3e,
  0x96, 0x1b, 0x88, 0xbe, 0xa4, 0x21, 0x90, 0xbe, 0x3a, 0xe2, 0x92, 0x3e,
  0x6d, 0xa7, 0x95, 0xbe, 0x3f, 0xed, 0x37, 0xbe, 0x6d, 0x2a, 0x91, 0xbe,
  0x72, 0xb2, 0xa3, 0xbd, 0xc5, 0xa5, 0xed, 0x3d, 0xe6, 0x7a, 0x0e, 0xbe,
  0xf0, 0xba, 0x7a, 0x3e, 0xfb, 0xa0, 0x43, 0x3e, 0xb8, 0x89, 0x4f, 0xbe,
  0xf2, 0x8f, 0x90, 0x3e, 0x4c, 0xb5, 0xeb, 0x3d, 0xa5, 0x87, 0x94, 0xbe,
  0xb0, 0xd9, 0x86, 0x3e, 0xde, 0x9d, 0x32, 0xbe, 0xb0, 0x08, 0x65, 0x3d,
  0x61, 0xa1, 0x89, 0x3e, 0x22, 0x39, 0x95, 0x3d, 0x38, 0x8f, 0xed, 0x3d,
  0xb2, 0x1f, 0x8b, 0xbe, 0x4f, 0x15, 0x0d, 0xbe, 0x18, 0x92, 0x10, 0x3d,
  0xe6, 0x32, 0x04, 0xbe, 0xf8, 0xed, 0x0a, 0xbe, 0x38, 0xe4, 0x83, 0xbd,
  0x20, 0x61, 0x0a, 0xbc, 0x4e, 0x4e, 0x2a, 0x3e, 0xee, 0x35, 0x48, 0x3e,
  0x8d, 0x1f, 0xa5, 0xbd, 0x3a, 0xbe, 0x8c, 0xbe, 0xe0, 0x20, 0x98, 0x3d,
  0x5e, 0xbd, 0xc5, 0xbd, 0x14, 0x82, 0x63, 0xbe, 0x12, 0x2f, 0x3c, 0x3e,
  0xda, 0xce, 0x12, 0x3e, 0x5e, 0x77, 0x7c, 0x3d, 0x8d, 0x0d, 0xa2, 0x3d,
  0xd4, 0x37, 0x6e, 0x3e, 0xe2, 0xff, 0x18, 0x3e, 0x39, 0xc9, 0xea, 0x3c,
  0x9b, 0x1c, 0x86, 0xbe, 0xae, 0x48, 0x4b, 0x3e, 0xf5, 0x86, 0x32, 0xbe,
  0x8b, 0xd4, 0x9c, 0xbc, 0xa8, 0x36, 0x6e, 0x3d, 0xa6, 0x9a, 0x40, 0x3e,
  0x92, 0x88, 0x77, 0xbe, 0x8d, 0x6d, 0x08, 0xbd, 0x34, 0x1d, 0xd3, 0x3d,
  0x98, 0xd1, 0x12, 0x3d, 0x36, 0x04, 0xab, 0xbd, 0x52, 0x7e, 0x8e, 0x3e,
  0x05, 0xd3, 0xd0, 0x3e, 0x76, 0x1d, 0x7f, 0xbe, 0x67, 0xa0, 0xaa, 0xbe,
  0xdd, 0x62, 0x67, 0x3e, 0xf4, 0xfe, 0x92, 0xbe, 0x36, 0xf1, 0xf4, 0x3d,
  0x06, 0x53, 0xb6, 0xbd, 0x6c, 0x21, 0x7d, 0xbe, 0xf4, 0xf6, 0x94, 0x3e,
  0x99, 0x9d, 0x54, 0xbe, 0x6a, 0x3b, 0x19, 0xbe, 0x7a, 0x19, 0x2a, 0xbd,
  0xaf, 0x07, 0xe9, 0x3e, 0x03, 0xe5, 0x24, 0x3e, 0x73, 0x88, 0xc0, 0xbd,
  0x54, 0xb7, 0x2d, 0x3d, 0x6b, 0x64, 0x99, 0x3d, 0x76, 0x3b, 0x7d, 0x3e,
  0x8a, 0xb9, 0x2e, 0xbe, 0xa1, 0xd8, 0x07, 0xbe, 0x00, 0xf4, 0x3a, 0xbe,
  0x98, 0x78, 0x93, 0x3e, 0x0b, 0xcb, 0x88, 0x3e, 0x6a, 0xe4, 0x4c, 0x3d,
  0x84, 0x23, 0x2a, 0xbe, 0x9f, 0x9e, 0x6f, 0xbf, 0xa0, 0x7e, 0xf0, 0xbe,
  0x87, 0x7d, 0x12, 0x3e, 0x37, 0x09, 0x8c, 0xbe, 0x10, 0x53, 0x48, 0x3e,
  0xd3, 0xe2, 0x91, 0xbe, 0x16, 0x4a, 0xd1, 0x3d, 0x0d, 0xf3, 0x87, 0xbe,
  0x84, 0x5f, 0x25, 0x3e, 0x09, 0x9b, 0x28, 0x3d, 0x9f, 0xbf, 0x72, 0xbe,
  0x6c, 0x3a, 0x43, 0xbe, 0xeb, 0xba, 0x95, 0x3e, 0x0e, 0xae, 0x42, 0x3e,
  0x92, 0x1d, 0x39, 0x3e, 0x88, 0x67, 0x57, 0x3e, 0x4e, 0x92, 0xb8, 0x3d,
  0xe2, 0xcb, 0xb6, 0xbd, 0xe9, 0x31, 0x70, 0x3e, 0x02, 0x9c, 0x8e, 0x3e,
  0x5c, 0xa1, 0x34, 0x3e, 0xb5, 0xf4, 0x2e, 0x3e, 0x24, 0x0e, 0xaa, 0x3d,
  0x64, 0x10, 0xfb, 0xbd, 0x2c, 0xbc, 0xf6, 0xbd, 0x1a, 0x21, 0x8b, 0xbe,
  0x00, 0x94, 0xa9, 0x3b, 0x3f, 0x1d, 0x74, 0xbe, 0x1d, 0x0c, 0x6f, 0x3d,
  0xa8, 0x74, 0x8a, 0x3e, 0x82, 0xf0, 0x93, 0xbd, 0x9c, 0x88, 0x0b, 0xbe,
  0xa8, 0x0e, 0x52, 0xbd, 0x42, 0x64, 0x19, 0x3e, 0x5e, 0xd6, 0x76, 0xbe,
  0xfd, 0xb0, 0x8f, 0xbc, 0xce, 0x0e, 0x19, 0xbe, 0xa2, 0x87, 0x32, 0x3e,
  0x05, 0x89, 0x05, 0xbe, 0x26, 0x38, 0xe6, 0x3c, 0xfd, 0xf8, 0xad, 0x3d,
  0x3b, 0xc0, 0x7d, 0xbe, 0x2d, 0x47, 0x2c, 0xbe, 0x91, 0x61, 0x37, 0xbe,
  0x20, 0x62, 0x32, 0x3d, 0xb2, 0x77, 0x42, 0xbe, 0x6d, 0x55, 0x7e, 0x3d,
  0xfc, 0x78, 0xd3, 0xbd, 0x17, 0x0c, 0x8b, 0xbe, 0xb6, 0x4e, 0x78, 0x3e,
  0x56, 0x6e, 0xf5, 0x3d, 0x8c, 0x09, 0x2f, 0x3e, 0xbf, 0x58, 0x57, 0x3d,
  0x5b, 0x34, 0xde, 0x3d, 0xde, 0x59, 0xec, 0x3d, 0x6a, 0xd5, 0x66, 0xbe,
  0x74, 0xb2, 0x4c, 0x3e, 0xc5, 0x75, 0x8d, 0xbe, 0x70, 0x8e, 0xbb, 0x3c,
  0xf9, 0x07, 0xb4, 0x3d, 0x28, 0xc3, 0xc8, 0xbd, 0x63, 0xc7, 0xfb, 0xbb,
  0x46, 0x60, 0x47, 0xbe, 0xe5, 0xe4, 0x97, 0xbe, 0x28, 0x70, 0x5c, 0xbe,
  0x68, 0x48, 0x71, 0xbd, 0xa5, 0x4a, 0x07, 0xbe, 0x76, 0xd8, 0xf3, 0xbd,
  0x4a, 0x47, 0x33, 0xbe, 0x38, 0xfd, 0xd2, 0x3d, 0xd5, 0x00, 0x59, 0xbe,
  0x9d, 0x4d, 0x80, 0xbe, 0xb8, 0xa7, 0x09, 0xbd, 0x9c, 0x0c, 0x84, 0xbe,
  0xe5, 0xe2, 0x19, 0xbd, 0xc0, 0x63, 0x48, 0x3d, 0x62, 0x50, 0x92, 0x3e,
  0xc4, 0x41, 0x88, 0x3e, 0x01, 0xdf, 0x9c, 0x3d, 0x2e, 0x40, 0xc1, 0x3d,
  0x50, 0xa2, 0x8d, 0x3e, 0xa0, 0x2a, 0x51, 0xbe, 0xf7, 0xdd, 0x79, 0xbe,
  0x40, 0x2f, 0x86, 0x3e, 0x40, 0xe7, 0x16, 0xbc, 0x78, 0x2f, 0x6e, 0x3e,
  0xb3, 0xcf, 0xc9, 0x3d, 0xcd, 0x6b, 0x56, 0xbe, 0x9a, 0x90, 0x81, 0x3e,
  0xb8, 0x9d, 0xbc, 0xbd, 0xee, 0x96, 0x7a, 0xbe, 0x2d, 0x49, 0x34, 0xbe,
  0xae, 0xc3, 0x46, 0x3e, 0x53, 0x46, 0x59, 0xbe, 0x8c, 0x14, 0x6a, 0x3e,
  0x17, 0x62, 0x88, 0xbe, 0xf4, 0x87, 0x6f, 0x3e, 0xd0, 0x0b, 0x30, 0xbe,
  0xd5, 0xd5, 0x2c, 0x3e, 0x6f, 0x5c, 0x09, 0xbd, 0x1e, 0x6a, 0x2a, 0x3e,
  0x06, 0x69, 0x09, 0x3e, 0x2b, 0xad, 0x4d, 0xbe, 0xf2, 0x37, 0x2b, 0xbd,
  0xdd, 0xbb, 0x12, 0x3d, 0xb4, 0x2c, 0x0f, 0xbe, 0xd8, 0x45, 0x77, 0x3e,
  0x40, 0x84, 0xcd, 0xbc, 0xee, 0x39, 0x03, 0x3e, 0x09, 0xc2, 0x6e, 0xbe,
  0x90, 0x4a, 0x13, 0x3e, 0x8d, 0x02, 0xbe, 0x3d, 0x43, 0x25, 0x40, 0xbe,
  0x34, 0x19, 0x56, 0xbe, 0x10, 0x94, 0xf9, 0xbc, 0x00, 0x20, 0x50, 0x3a,
  0x95, 0x55, 0x85, 0x3d, 0x11, 0x13, 0x8c, 0xbe, 0x3e, 0x88, 0x51, 0x3e,
  0x00, 0xac, 0xd5, 0xbc, 0x69, 0xc6, 0x3a, 0xbd, 0x8c, 0x5b, 0x91, 0x3d,
  0x10, 0xe9, 0x85, 0x3e, 0x68, 0x5b, 0x5e, 0xbe, 0xe5, 0x3b, 0x26, 0x3e,
  0xe5, 0x71, 0xbf, 0x3c, 0x58, 0xe7, 0xb0, 0x3d, 0x74, 0xb5, 0x6e, 0xbd,
  0x50, 0x30, 0xf4, 0xbd, 0xb0, 0xbf, 0x6f, 0x3d, 0xd4, 0x43, 0x69, 0xbe,
  0xf3, 0xb2, 0x96, 0xbb, 0x15, 0xf7, 0x17, 0x3e, 0x51, 0x86, 0x32, 0xbe,
  0xed, 0x3e, 0x3d, 0xbe, 0x48, 0xf2, 0x3c, 0x3e, 0x31, 0xed, 0x7c, 0xbe,
  0x04, 0xb4, 0xdb, 0x3d, 0x40, 0x68, 0x4e, 0x3e, 0x6d, 0x8c, 0xd0, 0x3c,
  0x1e, 0xc0, 0x82, 0x3e, 0xbf, 0xeb, 0xca, 0x3d, 0x04, 0xcc, 0xdd, 0xbd,
  0xbc, 0xc3, 0x81, 0xbe, 0x60, 0xe3, 0x2a, 0x3d, 0x1c, 0x8a, 0x48, 0xbd,
  0x76, 0x7a, 0x50, 0xbe, 0x99, 0x66, 0x8e, 0xbe, 0xfa, 0x63, 0x7e, 0xbd,
  0xa1, 0xab, 0x62, 0xbe, 0x4c, 0x15, 0xb7, 0x3c, 0x2c, 0x05, 0x36, 0xbc,
  0xdb, 0x86, 0xe4, 0x3d, 0x2e, 0xf4, 0x21, 0xbe, 0x47, 0xae, 0x35, 0xbe,
  0xa1, 0xe0, 0x1f, 0xbe, 0xa0, 0xd0, 0x09, 0x3d, 0x45, 0xed, 0x6b, 0x3e,
  0xe1, 0x29, 0x8a, 0xbd, 0x39, 0xcb, 0x01, 0x3e, 0x76, 0x68, 0x77, 0xbe,
  0x35, 0x78, 0x33, 0x3e, 0xce, 0xf7, 0x61, 0xbd, 0x2a, 0x2b, 0x57, 0x3e,
  0x4e, 0x38, 0x35, 0x3e, 0x41, 0x38, 0x74, 0xbe, 0x86, 0x88, 0x95, 0xbd,
  0xad, 0xbe, 0x00, 0xbe, 0x4e, 0xc8, 0xe1, 0xbd, 0x1b, 0x40, 0x38, 0xbe,
  0x34, 0x6c, 0xa0, 0xbe, 0x7c, 0x3f, 0x9c, 0x3d, 0x28, 0x8e, 0x01, 0xbd,
  0x18, 0xf3, 0x6c, 0xbe, 0xad, 0x02, 0x6e, 0xbd, 0xa0, 0x13, 0x22, 0x3e,
  0x08, 0xf5, 0x6f, 0x3d, 0x76, 0x43, 0xf6, 0xbe, 0x70, 0x9c, 0x86, 0xbe,
  0x1d, 0x16, 0xcd, 0xbe, 0x53, 0x7d, 0x26, 0xbe, 0x6b, 0x1b, 0x6e, 0xbe,
  0x30, 0xe2, 0xaf, 0x3d, 0xcd, 0x28, 0x69, 0x3b, 0x4d, 0x8f, 0x2b, 0x3e,
  0x05, 0x5a, 0x96, 0xbd, 0xbe, 0x89, 0x0e, 0x3e, 0x3d, 0xc1, 0x4c, 0x3e,
  0xa2, 0x4c, 0x25, 0xbe, 0x08, 0x4f, 0x6a, 0xbe, 0x59, 0x87, 0x81, 0x3e,
  0x5d, 0xfd, 0x80, 0xbe, 0xfa, 0x52, 0xf2, 0x3d, 0x0a, 0x5c, 0x00, 0x3e,
  0x2e, 0x0c, 0xcd, 0xbd, 0xd7, 0xf4, 0x4b, 0xbe, 0x32, 0x69, 0x3c, 0x3e,
  0xf7, 0x72, 0x4b, 0x3e, 0xe1, 0xa5, 0x0a, 0x3f, 0x4e, 0xfb, 0xa0, 0xbe,
  0x1a, 0x06, 0xaa, 0x3e, 0xe3, 0x51, 0xef, 0xbe, 0xaa, 0x1b, 0x84, 0xba,
  0xb4, 0x73, 0x35, 0x3e, 0xa6, 0xb1, 0x26, 0x3e, 0xcd, 0xb9, 0xb7, 0x3c,
  0xe9, 0x08, 0x76, 0xbc, 0x98, 0x44, 0x9e, 0x3e, 0x72, 0x83, 0xb2, 0xbd,
  0x5a, 0xb5, 0x9d, 0xbd, 0x10, 0xc4, 0x15, 0x3e, 0x18, 0x72, 0x9c, 0x3e,
  0x06, 0xb9, 0x21, 0x3e, 0x29, 0x98, 0x3f, 0xbe, 0xf8, 0x6f, 0xc0, 0x3d,
  0xc2, 0xae, 0x84, 0x3e, 0x2e, 0xf6, 0xfb, 0x3d, 0x76, 0x64, 0x3f, 0x3e,
  0xb0, 0x03, 0x88, 0xbe, 0xb0, 0xfa, 0x50, 0x3e, 0xa9, 0x2d, 0x18, 0x3e,
  0x36, 0xd1, 0x52, 0xbe, 0x40, 0xe1, 0xdf, 0xbd, 0xe4, 0x87, 0x58, 0x3e,
  0x37, 0x1b, 0x6e, 0x3d, 0xa3, 0x0c, 0x2c, 0xbe, 0x34, 0x90, 0x24, 0x3e,
  0xd2, 0x34, 0xf7, 0xbe, 0x70, 0x8b, 0x57, 0xbe, 0x60, 0xd4, 0x15, 0x3e,
  0xf3, 0xa3, 0x92, 0x3e, 0x8a, 0x7d, 0x89, 0x3e, 0xfe, 0x1b, 0x54, 0x3e,
  0x71, 0x02, 0xad, 0xbc, 0xb1, 0x1d, 0x92, 0x3d, 0x22, 0x29, 0x87, 0xbe,
  0x39, 0x15, 0x7f, 0xbb, 0xb8, 0xc3, 0x2c, 0xbe, 0x11, 0x1e, 0xcb, 0xbd,
  0xb9, 0x31, 0x19, 0xbe, 0x3c, 0x0f, 0xb2, 0x3d, 0x25, 0xff, 0x97, 0xbe,
  0x70, 0x4b, 0x8f, 0xbc, 0xca, 0xe9, 0xfe, 0xbd, 0xa9, 0x42, 0x7f, 0x3e,
  0x82, 0x12, 0x5b, 0x3e, 0x38, 0xf3, 0x72, 0x3e, 0x2d, 0xa8, 0x8e, 0xbe,
  0x9b, 0xf7, 0x4c, 0x3e, 0xbb, 0xfe, 0xcd, 0x3c, 0x27, 0xeb, 0x31, 0x3d,
  0xd6, 0x4b, 0xc6, 0x3c, 0x29, 0x39, 0x28, 0xbe, 0x97, 0x30, 0x2c, 0x3e,
  0x36, 0x52, 0x32, 0xbe, 0x73, 0x5b, 0x45, 0x3e, 0xb0, 0x66, 0x5d, 0xbd,
  0x44, 0xa5, 0xa8, 0xbb, 0xcf, 0x1c, 0x74, 0xbe, 0xc0, 0x41, 0x87, 0x3e,
  0x30, 0x78, 0xc0, 0x3c, 0x9e, 0x1d, 0x76, 0xbd, 0xca, 0x0c, 0x94, 0x3e,
  0x7e, 0x51, 0xfd, 0x3d, 0xac, 0xe7, 0x09, 0x3e, 0xc6, 0xa0, 0x22, 0x3e,
  0x13, 0xb5, 0xea, 0xbd, 0x7f, 0x33, 0x54, 0xbe, 0x29, 0x0a, 0x58, 0x3e,
  0x38, 0x82, 0x82, 0x3e, 0x0a, 0x63, 0x51, 0x3e, 0xa2, 0x8c, 0x39, 0x3e,
  0xe0, 0x45, 0x4f, 0x3d, 0xfa, 0xc7, 0xed, 0xbd, 0x49, 0x80, 0x90, 0x3e,
  0x2a, 0x02, 0xf3, 0xbe, 0x5b, 0x5d, 0x80, 0xbd, 0x42, 0xe1, 0x06, 0x3f,
  0x30, 0x9c, 0x7d, 0xba, 0xc7, 0x6a, 0x99, 0x3d, 0xa3, 0x95, 0x50, 0x3e,
  0xad, 0x41, 0x47, 0x3e, 0x7a, 0xc2, 0xdc, 0x3d, 0xb8, 0x89, 0x0b, 0xbe,
  0xc8, 0xde, 0x0e, 0xbe, 0x49, 0x74, 0xd3, 0x3d, 0x0c, 0x62, 0xa0, 0xbd,
  0x80, 0xe9, 0x7a, 0xbf, 0xcc, 0x9e, 0x82, 0xbe, 0xc7, 0xe1, 0xac, 0xbb,
  0xff, 0x92, 0x79, 0xbd, 0x02, 0x23, 0xe4, 0x3d, 0x4f, 0x64, 0x86, 0xbf,
  0x14, 0x04, 0x3a, 0x3e, 0x11, 0x54, 0x41, 0x3d, 0x14, 0xf4, 0xec, 0x3d,
  0xb2, 0x45, 0x96, 0x3d, 0x13, 0xf8, 0xb8, 0xbd, 0x7a, 0x38, 0xd4, 0xbe,
  0x66, 0x27, 0x00, 0x3e, 0x3f, 0x6e, 0x12, 0x3f, 0x15, 0xcd, 0xf5, 0x3e,
  0xca, 0x48, 0x45, 0x3e, 0x06, 0xa4, 0xdc, 0xbd, 0x6b, 0x92, 0xd8, 0xbb,
  0x3d, 0xec, 0x16, 0xbe, 0xff, 0xe3, 0x01, 0xbe, 0xfb, 0xe1, 0x86, 0x3d,
  0x9a, 0x05, 0x5b, 0xbe, 0x6f, 0xba, 0xf6, 0xbd, 0xfc, 0xe0, 0x7b, 0x3e,
  0xbb, 0x74, 0x88, 0xbd, 0xf6, 0x95, 0xc9, 0x3d, 0x42, 0x7f, 0xa5, 0x3d,
  0x30, 0x58, 0x97, 0xbc, 0x88, 0x0f, 0x41, 0xbd, 0x77, 0x4d, 0x63, 0x3e,
  0x2b, 0x47, 0x85, 0xbb, 0x4a, 0x40, 0x8c, 0xbe, 0x08, 0x10, 0xd7, 0x3d,
  0xc6, 0xc2, 0xcd, 0xbd, 0xa6, 0x10, 0x06, 0xbd, 0x26, 0xa8, 0x48, 0xbe,
  0x6a, 0x6f, 0x31, 0x3e, 0xa5, 0xca, 0x2e, 0xbe, 0x6b, 0xc0, 0x1b, 0x3e,
  0xd7, 0x31, 0x99, 0xbc, 0x29, 0x27, 0x8b, 0x3d, 0x85, 0x7f, 0x29, 0xbc,
  0x0c, 0x3e, 0xb8, 0x3e, 0x91, 0x37, 0x91, 0x3e, 0xef, 0x9b, 0x07, 0x3e,
  0x42, 0x35, 0x75, 0x3e, 0xa8, 0x4a, 0xfb, 0xbd, 0x85, 0x5d, 0xa3, 0x3d,
  0x99, 0x0d, 0x47, 0xbe, 0xe8, 0xa7, 0xba, 0x3d, 0xe9, 0x9e, 0xfb, 0x3e,
  0x67, 0x54, 0x4d, 0xbe, 0x5f, 0x4a, 0xb7, 0xbe, 0xb0, 0x2a, 0x31, 0x3e,
  0x75, 0x0f, 0x4e, 0x3d, 0x22, 0x83, 0xad, 0x3e, 0x74, 0x51, 0xeb, 0x3d,
  0x4b, 0x4f, 0x59, 0x3e, 0x9e, 0x3c, 0x54, 0xbe, 0xe0, 0xec, 0x90, 0x3e,
  0xe8, 0x17, 0x4a, 0x3e, 0xff, 0x93, 0x05, 0xbf, 0xbd, 0x2c, 0x99, 0x3c,
  0x1c, 0xe0, 0x2e, 0xbe, 0xd1, 0xe9, 0x9f, 0xbe, 0xef, 0x82, 0x0c, 0xbe,
  0x8a, 0x6e, 0x5c, 0x3e, 0x45, 0x2c, 0x2a, 0x3d, 0x4f, 0xed, 0x37, 0xbe,
  0x18, 0x22, 0x9f, 0x3e, 0x20, 0xc0, 0xcf, 0xbd, 0x00, 0x2e, 0xb5, 0xbd,
  0x3d, 0x5d, 0xd6, 0xbd, 0x00, 0xd3, 0x42, 0x3b, 0x99, 0x64, 0xaa, 0xbd,
  0xc8, 0x5d, 0x99, 0x3e, 0x83, 0xc2, 0x95, 0xbd, 0xa4, 0x6a, 0x56, 0x3e,
  0x50, 0xca, 0x48, 0xbe, 0x6c, 0xe1, 0x95, 0xbe, 0x10, 0x53, 0xee, 0xbd,
  0xe7, 0x5f, 0xb4, 0xbd, 0x40, 0x3b, 0x72, 0x3d, 0x21, 0xe1, 0x8a, 0xbd,
  0x89, 0x4f, 0xee, 0x3d, 0xf4, 0xa2, 0x7d, 0x3e, 0x56, 0x64, 0x48, 0x3e,
  0xf7, 0xe1, 0x03, 0xbf, 0x6f, 0xc9, 0x57, 0xbe, 0x70, 0xde, 0xea, 0x3d,
  0x28, 0x26, 0x49, 0xbf, 0x56, 0x64, 0xe0, 0x3c, 0x19, 0x52, 0x5d, 0xbd,
  0x88, 0xf3, 0x54, 0xbd, 0x58, 0x90, 0xbc, 0x3d, 0xe7, 0xd2, 0x1f, 0xbc,
  0x79, 0xf2, 0x4b, 0xbe, 0x90, 0x1b, 0x78, 0xbe, 0x08, 0x8b, 0x50, 0xbe,
  0xb9, 0x2d, 0x88, 0xbe, 0x56, 0xd0, 0x24, 0x3f, 0x60, 0x29, 0x80, 0xbe,
  0x65, 0x22, 0xad, 0x3e, 0x1c, 0xe6, 0xc4, 0x3d, 0xe4, 0xdf, 0xda, 0xbe,
  0xda, 0x30, 0x06, 0xbe, 0xb2, 0xb4, 0x0f, 0x3e, 0xfe, 0x9d, 0x12, 0x3e,
  0x6e, 0xf0, 0xfe, 0xbd, 0x29, 0xf0, 0x50, 0xbd, 0x82, 0xdd, 0x46, 0x3e,
  0xba, 0x04, 0xd8, 0xbe, 0x33, 0xb9, 0xc3, 0x3e, 0x4b, 0x59, 0x0b, 0x3e,
  0x51, 0x5b, 0xca, 0xbe, 0x6b, 0xb0, 0x16, 0xbe, 0x5a, 0x0a, 0xd4, 0xbe,
  0x4c, 0xb0, 0x8e, 0xbd, 0x98, 0x9b, 0x22, 0x3e, 0x5c, 0x13, 0x3f, 0xbd,
  0x67, 0x7d, 0xd7, 0xbc, 0xe2, 0x15, 0xe8, 0xbb, 0x80, 0xc6, 0x52, 0x3e,
  0xc0, 0x1c, 0x7a, 0x3c, 0xc7, 0xba, 0x4f, 0xbd, 0x96, 0x7b, 0x90, 0x3e,
  0x4b, 0x8f, 0xe0, 0x3c, 0xd8, 0xa3, 0x6a, 0x3d, 0xf8, 0x75, 0x2a, 0xbd,
  0xc1, 0x89, 0x3f, 0xbd, 0x29, 0xef, 0xfb, 0x3d, 0xa9, 0x8f, 0x03, 0xbe,
  0x30, 0x2c, 0x8a, 0x3c, 0x76, 0x42, 0x88, 0x3e, 0xb6, 0xee, 0x5e, 0x3d,
  0xde, 0x75, 0x44, 0x3e, 0xf8, 0xcc, 0x14, 0xbe, 0x51, 0xc1, 0x53, 0x3e,
  0x20, 0x7d, 0xba, 0xbe, 0x4e, 0xc8, 0x10, 0x3e, 0x04, 0x0c, 0x98, 0x3e,
  0x48, 0xfa, 0x8e, 0x3e, 0xa3, 0x99, 0xf7, 0x3d, 0xf4, 0x46, 0xe6, 0xbd,
  0x1a, 0x5b, 0xb5, 0x3c, 0xd6, 0xae, 0x31, 0x3e, 0x26, 0x21, 0x1e, 0x3e,
  0x55, 0xb1, 0xe6, 0x3d, 0x2d, 0x68, 0x4c, 0x3c, 0x14, 0x0d, 0x7d, 0xbe,
  0xd6, 0x4a, 0x5e, 0xbf, 0x41, 0xd5, 0x54, 0xbe, 0x17, 0x5b, 0xe2, 0x3c,
  0x94, 0x1e, 0x19, 0xbe, 0x52, 0x30, 0x32, 0xbd, 0x27, 0x2b, 0xa5, 0xbe,
  0xa1, 0x3c, 0x12, 0x3d, 0x93, 0x40, 0x6b, 0xbe, 0x2f, 0xb1, 0x1a, 0xbe,
  0xe2, 0xf3, 0xc3, 0x3d, 0xc8, 0x1f, 0x8f, 0xbe, 0x80, 0x9b, 0x9c, 0xbe,
  0x9c, 0x36, 0x05, 0x3e, 0x7b, 0x26, 0xc6, 0x3e, 0xe2, 0x8b, 0x10, 0x3c,
  0x8c, 0xe0, 0x0d, 0x3e, 0xe8, 0x72, 0xe5, 0xbb, 0x9b, 0x32, 0x54, 0x3e,
  0xd0, 0x6f, 0x57, 0xbe, 0xf8, 0xeb, 0xe8, 0xbd, 0xb2, 0xcb, 0x1b, 0x3e,
  0xd3, 0xea, 0x8c, 0xbc, 0xf0, 0xf3, 0x2e, 0x3e, 0x04, 0x83, 0x57, 0x3e,
  0x45, 0x9d, 0x95, 0x3e, 0x26, 0x81, 0xac, 0xbe, 0x66, 0x0a, 0x2e, 0x3e,
  0x38, 0x1c, 0xe3, 0x3d, 0x70, 0x32, 0x59, 0x3d, 0xb4, 0x3c, 0x50, 0x3e,
  0xf8, 0xe8, 0xe5, 0xbb, 0xed, 0x91, 0x7b, 0xbe, 0x84, 0xd6, 0x91, 0x3d,
  0x72, 0xc2, 0x7a, 0xbe, 0x4e, 0x89, 0x18, 0xbc, 0xaa, 0x55, 0x84, 0x3e,
  0x32, 0x54, 0xb8, 0xbd, 0x00, 0x00, 0x06, 0x00, 0x08, 0x00, 0x04, 0x00,
  0x06, 0x00, 0x00, 0x00, 0x04, 0x00, 0x00, 0x00, 0x80, 0x0c, 0x00, 0x00,
  0x47, 0x92, 0xe1, 0xbe, 0xea, 0x34, 0xf5, 0xbd, 0x68, 0xbe, 0xb9, 0x3d,
  0x8b, 0x11, 0xaa, 0x3d, 0x50, 0xcc, 0x82, 0x3e, 0x1b, 0x74, 0x6f, 0x3e,
  0x74, 0xcb, 0xb6, 0x3c, 0x52, 0x66, 0xea, 0xbd, 0x10, 0x5f, 0xc4, 0x3d,
  0xf9, 0x6c, 0x54, 0x3e, 0x64, 0x4b, 0xdc, 0x3c, 0x85, 0xed, 0x37, 0x3e,
  0xa4, 0xd2, 0x6b, 0x3e, 0x00, 0xce, 0x75, 0xbe, 0x87, 0x41, 0xe1, 0xbc,
  0xa6, 0xb4, 0x7a, 0xbd, 0x5c, 0x37, 0xd2, 0x3d, 0x35, 0xe6, 0x53, 0xbe,
  0xf8, 0x10, 0x70, 0x3d, 0x0a, 0x5b, 0xf7, 0xbd, 0xce, 0x1f, 0x89, 0x3e,
  0x66, 0x5b, 0x35, 0xbe, 0xb0, 0x6c, 0x14, 0x3d, 0x14, 0xab, 0x94, 0x3e,
  0xd8, 0x3d, 0xb3, 0x3d, 0x58, 0xda, 0xbb, 0x3d, 0x64, 0x9e, 0x23, 0xbe,
  0x4e, 0x40, 0xae, 0xbd, 0xb0, 0x13, 0x96, 0xbe, 0xa0, 0x62, 0x1d, 0x3e,
  0xf8, 0xf9, 0x6b, 0x3e, 0xb0, 0x69, 0x1c, 0xbe, 0x55, 0x2b, 0x50, 0x3d,
  0x67, 0xdc, 0xf3, 0xbd, 0xf8, 0x24, 0x94, 0x3d, 0x7d, 0x35, 0x40, 0xbe,
  0xba, 0xe8, 0x0f, 0x3e, 0x5b, 0xa4, 0xac, 0xbe, 0x55, 0x75, 0xd7, 0x3e,
  0x71, 0xd1, 0x1b, 0x3f, 0x9e, 0x30, 0x77, 0xbe, 0x26, 0x7a, 0x35, 0xbe,
  0x1e, 0x87, 0xf5, 0xbd, 0xa8, 0xb7, 0x00, 0xbe, 0xcb, 0xa7, 0x20, 0x3e,
  0xdf, 0xac, 0xaa, 0x3d, 0x1e, 0xfa, 0x2d, 0x3c, 0x94, 0x60, 0x51, 0x3e,
  0x94, 0x43, 0x94, 0xbe, 0x78, 0x37, 0x05, 0xbd, 0xa0, 0xf9, 0x7e, 0x3c,
  0x4c, 0x8f, 0x6b, 0xbe, 0x1d, 0xc4, 0x34, 0xbe, 0x57, 0x76, 0x14, 0x3b,
  0xef, 0xa3, 0x9a, 0xbe, 0x61, 0xb6, 0x1a, 0xbe, 0xc0, 0x20, 0x2b, 0x3e,
  0x42, 0x69, 0x99, 0x3d, 0x89, 0x4d, 0x7c, 0xbe, 0x4b, 0x83, 0x75, 0x3e,
  0x8f, 0x97, 0xd1, 0xbd, 0x58, 0x61, 0x59, 0xbe, 0x4e, 0xbb, 0x26, 0xbe,
  0x85, 0x7d, 0x21, 0x3e, 0xdf, 0x9f, 0x88, 0xbe, 0x63, 0x79, 0x4d, 0xbe,
  0x00, 0x03, 0xb6, 0xbd, 0xda, 0xa0, 0x03, 0x3e, 0x27, 0xa0, 0x1f, 0xbe,
  0x42, 0x25, 0x11, 0x3e, 0x58, 0x43, 0x89, 0x3d, 0xb1, 0xa1, 0x68, 0xbe,
  0x5c, 0x24, 0x01, 0xbe, 0xec, 0x9c, 0xf0, 0xbd, 0xe0, 0x25, 0xed, 0xbd,
  0x7e, 0x5d, 0x55, 0xbe, 0xd0, 0x9a, 0x10, 0x3e, 0xb2, 0x77, 0xf6, 0xbd,
  0xfc, 0x95, 0xe7, 0xbd, 0xd9, 0xea, 0x7b, 0xbe, 0x20, 0xc5, 0x4e, 0x3b,
  0x19, 0xfa, 0x00, 0xbe, 0x80, 0x6c, 0x67, 0x3b, 0x8e, 0x3e, 0x55, 0xbd,
  0x0a, 0xd8, 0xf3, 0xbd, 0x57, 0xab, 0xad, 0x3e, 0x47, 0x82, 0xdd, 0x3c,
  0xbb, 0x1b, 0x5d, 0x3e, 0xd2, 0xc8, 0xcf, 0xbd, 0xc1, 0x39, 0x2b, 0xbe,
  0x15, 0x90, 0x07, 0xbe, 0xec, 0x25, 0xad, 0x3e, 0x71, 0x17, 0xb9, 0xbc,
  0x0c, 0xe2, 0x33, 0x3e, 0x58, 0x76, 0x89, 0x3e, 0xf9, 0x0d, 0x8a, 0x3e,
  0xc1, 0x6c, 0x0f, 0x3e, 0x8d, 0x62, 0x18, 0x3e, 0x16, 0xde, 0xb6, 0xbd,
  0xfe, 0xf1, 0xa1, 0xbe, 0x08, 0xc6, 0x7e, 0xbe, 0x34, 0xb6, 0x18, 0x3e,
  0xdb, 0xad, 0x06, 0xbf, 0x10, 0xe9, 0x14, 0x3f, 0x48, 0x0e, 0x52, 0x3e,
  0x67, 0xbf, 0x8a, 0x3e, 0x33, 0xa8, 0xf8, 0xbd, 0x2f, 0x45, 0xfe, 0xbd,
  0x72, 0xe9, 0xc1, 0xbd, 0x0c, 0xec, 0x37, 0x3e, 0x86, 0x16, 0xb5, 0x3e,
  0x8e, 0xc1, 0x9a, 0x3e, 0x69, 0x6e, 0xa0, 0xbd, 0xd5, 0xe1, 0x43, 0x3e,
  0x18, 0x4f, 0x57, 0x3e, 0x20, 0xec, 0xdf, 0xbb, 0xc6, 0xf7, 0x91, 0x3e,
  0x0a, 0xac, 0x6e, 0xbe, 0x81, 0x5d, 0xfa, 0x3c, 0x88, 0xcc, 0xd1, 0x3e,
  0x14, 0x47, 0x58, 0x3e, 0x27, 0x5e, 0xe6, 0xbe, 0xca, 0x4e, 0x6b, 0x3e,
  0x89, 0x45, 0x97, 0x3e, 0x13, 0x85, 0x13, 0x3e, 0x0e, 0x97, 0xc6, 0xbe,
  0x64, 0xde, 0xe7, 0xbc, 0x0c, 0x81, 0x6e, 0x3e, 0x92, 0xfe, 0xb3, 0xbe,
  0xdb, 0x5a, 0xde, 0x3d, 0xa0, 0xff, 0x94, 0x3e, 0x1d, 0xa3, 0x45, 0xbe,
  0x49, 0x4f, 0x08, 0xbe, 0xee, 0x2a, 0x78, 0x3e, 0xf3, 0x29, 0xc9, 0x3e,
  0xf9, 0xd1, 0x9a, 0x3d, 0xbe, 0x79, 0x8c, 0x3e, 0x87, 0xfd, 0x85, 0x3c,
  0x2e, 0xd1, 0x64, 0xbe, 0x86, 0xd6, 0xe8, 0xbe, 0x76, 0xf0, 0x6e, 0x3d,
  0x34, 0xdb, 0x7a, 0xbe, 0x6c, 0xf6, 0xad, 0xbe, 0x77, 0x2d, 0xcb, 0x3d,
  0xa8, 0x73, 0x60, 0xbe, 0xc0, 0x5d, 0x57, 0x3d, 0xc1, 0x42, 0x84, 0xbe,
  0xf0, 0xbf, 0x89, 0xbd, 0x0a, 0x27, 0x43, 0x3e, 0xce, 0x85, 0x0b, 0x3e,
  0x98, 0x44, 0x45, 0x3d, 0x47, 0x9f, 0x41, 0xbe, 0xac, 0xdb, 0xc6, 0x3d,
  0x83, 0x25, 0x01, 0xbe, 0x38, 0x61, 0x74, 0x3e, 0x10, 0x19, 0x39, 0xbd,
  0x0f, 0xf2, 0x36, 0xbe, 0xb2, 0x80, 0x92, 0xbe, 0xf0, 0x3a, 0x4e, 0xbe,
  0x00, 0x1e, 0xd0, 0x3d, 0x7e, 0x7c, 0x4c, 0x3e, 0xe5, 0xb3, 0x4e, 0x3e,
  0x2c, 0xf1, 0x9a, 0xbd, 0xb9, 0x72, 0xc0, 0x3e, 0xe4, 0xfc, 0x65, 0xbe,
  0xf1, 0x6d, 0xac, 0xbe, 0x5b, 0x9d, 0xbd, 0x3d, 0x1d, 0x91, 0x29, 0x3f,
  0x0a, 0x8b, 0x4a, 0xbe, 0x61, 0x75, 0x46, 0xbe, 0x0c, 0x18, 0x86, 0x3e,
  0x96, 0x65, 0x0b, 0x3e, 0xfa, 0x90, 0x30, 0x3d, 0x3e, 0xb6, 0x51, 0x3d,
  0x6f, 0xe2, 0xf3, 0xbd, 0x3b, 0xc5, 0x53, 0xbe, 0x46, 0xe0, 0x2f, 0x3e,
  0x05, 0xd2, 0x8e, 0xbd, 0x6c, 0x4a, 0x86, 0x3e, 0x79, 0x4a, 0x60, 0xbd,
  0x1c, 0x35, 0x5c, 0x3e, 0xaa, 0x33, 0xc5, 0xbd, 0x73, 0xc5, 0x83, 0x3d,
  0x28, 0x45, 0xd1, 0xbe, 0x00, 0xc3, 0xdd, 0x3d, 0x44, 0xbc, 0x38, 0x3e,
  0x82, 0x72, 0xa1, 0xbd, 0x6f, 0xb8, 0x90, 0x3d, 0x4f, 0x15, 0x72, 0x3e,
  0x8f, 0xaf, 0x02, 0x3c, 0x30, 0x2e, 0x6b, 0x3e, 0xd9, 0x47, 0x02, 0xbe,
  0xc0, 0x88, 0xde, 0x3d, 0xe3, 0x43, 0x28, 0xbe, 0x14, 0x92, 0x89, 0x3e,
  0xf6, 0xd2, 0x51, 0xbe, 0x7c, 0x7b, 0xd6, 0x3d, 0x04, 0xed, 0x85, 0x3e,
  0xde, 0xdf, 0xb2, 0x3e, 0x08, 0xe8, 0xf0, 0x3d, 0x58, 0x49, 0x98, 0xbe,
  0xaa, 0xa1, 0x91, 0x3e, 0xce, 0x94, 0x75, 0xbe, 0x53, 0xb8, 0x6f, 0xbe,
  0xeb, 0xac, 0xff, 0x3d, 0x91, 0x07, 0xf7, 0x3d, 0x1e, 0x78, 0x99, 0xbe,
  0x15, 0xd9, 0x99, 0x3e, 0x0f, 0xef, 0x88, 0xbe, 0xf2, 0x68, 0x01, 0x3d,
  0xf2, 0x3c, 0x81, 0x3e, 0xe0, 0x0a, 0x32, 0xbe, 0x24, 0xd0, 0x5c, 0x3e,
  0x88, 0x20, 0x66, 0x3e, 0x57, 0xb3, 0x8e, 0xbe, 0xd2, 0x2f, 0x7a, 0xbe,
  0xde, 0x55, 0x27, 0x3e, 0x7e, 0x1b, 0x04, 0x3e, 0x9e, 0x85, 0x27, 0xbe,
  0x86, 0xa2, 0x8c, 0x3e, 0x8f, 0xae, 0x57, 0xbe, 0x03, 0x2c, 0x6a, 0xbe,
  0xb8, 0x4b, 0x86, 0xbe, 0x89, 0xaf, 0x02, 0xbd, 0x48, 0xb0, 0x5d, 0xbf,
  0x2d, 0x99, 0xbb, 0xbd, 0x01, 0x99, 0x24, 0xbe, 0x42, 0x31, 0xfc, 0xbe,
  0xf2, 0x9d, 0x7c, 0xbe, 0x2d, 0x9f, 0x92, 0xbe, 0xb8, 0xd5, 0x00, 0xbe,
  0xf4, 0x42, 0x58, 0x3e, 0xc4, 0xfe, 0x8e, 0x3e, 0xf6, 0x79, 0x64, 0xbe,
  0x8c, 0xa4, 0x82, 0x3d, 0x40, 0x41, 0x98, 0x3e, 0xf9, 0xc6, 0x88, 0x3e,
  0x1c, 0xa4, 0x88, 0x3d, 0x74, 0x77, 0x98, 0xbd, 0x98, 0xde, 0x6f, 0x3e,
  0xc3, 0x00, 0x2c, 0x3e, 0x24, 0x2b, 0x3f, 0x3e, 0x34, 0x54, 0x56, 0x3e,
  0xa3, 0xe5, 0x63, 0xbe, 0xba, 0x76, 0x70, 0xbe, 0x18, 0x29, 0xc9, 0x3e,
  0x74, 0x82, 0x6b, 0xbc, 0x33, 0x55, 0x55, 0x3e, 0x00, 0x28, 0x30, 0xbd,
  0x3b, 0x4c, 0x90, 0x3e, 0x0d, 0xba, 0x50, 0xbd, 0x76, 0x11, 0xc2, 0x3c,
  0xe8, 0x80, 0x0e, 0xbe, 0x0e, 0xb3, 0xa9, 0xbe, 0x85, 0x95, 0x9b, 0x3d,
  0x5f, 0x4c, 0x61, 0xbd, 0x70, 0x31, 0x47, 0x3e, 0x9d, 0x43, 0x5c, 0xbe,
  0xdd, 0x03, 0x3f, 0xbe, 0x2b, 0xa8, 0xb7, 0xbe, 0x34, 0x4b, 0x96, 0x3e,
  0x0f, 0xb1, 0x24, 0xbe, 0x03, 0xb9, 0xab, 0x3c, 0x03, 0x9e, 0xc1, 0xbd,
  0x74, 0x77, 0x7e, 0x3e, 0x4c, 0x47, 0x24, 0x3c, 0x08, 0x6a, 0xcb, 0x3d,
  0x8c, 0xc4, 0x9f, 0xbe, 0x56, 0x9e, 0x9d, 0x3e, 0xd5, 0x7b, 0xd1, 0x3d,
  0xf5, 0x26, 0xaf, 0x3e, 0xea, 0x79, 0x31, 0x3e, 0x88, 0x49, 0x5b, 0x3e,
  0x45, 0x4d, 0x42, 0xbe, 0xd0, 0xf7, 0x76, 0x3e, 0x7c, 0x9b, 0xcf, 0x3d,
  0x8b, 0x43, 0x41, 0xbe, 0xa6, 0x88, 0xc3, 0xbd, 0x34, 0xec, 0xfc, 0xbd,
  0xb0, 0x6c, 0x8f, 0x3d, 0x8e, 0xa1, 0xf0, 0xbd, 0xfb, 0x93, 0x75, 0xbe,
  0x30, 0xac, 0x39, 0x3e, 0xb7, 0x3f, 0x87, 0xbe, 0xb0, 0x00, 0xfe, 0xbd,
  0xc2, 0x42, 0x82, 0xbe, 0xbf, 0x60, 0x77, 0xbe, 0xd0, 0x19, 0x75, 0x3e,
  0x0a, 0xde, 0x0c, 0xbf, 0xf5, 0xcf, 0xa2, 0x3e, 0xd3, 0xfb, 0x08, 0xbe,
  0xde, 0x1e, 0x01, 0xbf, 0xa0, 0xc4, 0xa0, 0xbc, 0xb0, 0xdb, 0x16, 0xbd,
  0x78, 0x85, 0xb6, 0x3d, 0x5b, 0xa9, 0x22, 0xbf, 0x3d, 0xd5, 0x83, 0xbe,
  0x93, 0x10, 0xdb, 0xbd, 0xbb, 0x12, 0x51, 0xbe, 0xcb, 0x05, 0x71, 0x3d,
  0x58, 0xc3, 0xd8, 0xbc, 0xa2, 0x4b, 0x94, 0x3e, 0x48, 0xad, 0x9a, 0x3c,
  0xdc, 0x07, 0xe9, 0x3d, 0xbd, 0xce, 0x59, 0xbe, 0x4b, 0xe7, 0x6c, 0xbe,
  0x17, 0x9e, 0x5d, 0xbe, 0xba, 0x4a, 0x09, 0xbe, 0xf4, 0x30, 0x3e, 0x3e,
  0xda, 0x74, 0x20, 0xbe, 0xe7, 0x8d, 0x11, 0xbe, 0xaa, 0x18, 0x48, 0x3e,
  0xce, 0xd5, 0xa8, 0xbd, 0x80, 0x2a, 0x0f, 0x3c, 0x50, 0x62, 0x55, 0xbd,
  0x86, 0x96, 0x0a, 0x3e, 0xf2, 0xa5, 0x34, 0x3e, 0x92, 0x8d, 0x01, 0xbe,
  0xd0, 0xdd, 0xc2, 0x3d, 0x52, 0x6f, 0x12, 0xbe, 0xc0, 0xff, 0xb8, 0x3c,
  0x4a, 0x6a, 0x04, 0xbe, 0x98, 0x60, 0xaa, 0xbd, 0xdd, 0x4b, 0x5f, 0x3d,
  0xd0, 0xeb, 0x6b, 0x3e, 0x06, 0xc6, 0xf1, 0xbd, 0x1a, 0x03, 0x04, 0xbe,
  0x76, 0x0e, 0xfb, 0xbd, 0x4c, 0x5c, 0x94, 0x3d, 0x0e, 0x20, 0xa3, 0x3d,
  0xe5, 0x8c, 0x15, 0xbe, 0x30, 0xaa, 0xd3, 0x3d, 0xc9, 0x1a, 0xf2, 0xbd,
  0x77, 0x3f, 0x56, 0x3e, 0x02, 0x6c, 0xa4, 0xbe, 0x8c, 0xf6, 0x99, 0xbd,
  0x83, 0xda, 0x2d, 0xbc, 0x84, 0x2e, 0x55, 0x3e, 0xd8, 0x13, 0x7e, 0x3d,
  0x25, 0x62, 0xf9, 0x3d, 0xca, 0xe5, 0x8b, 0xbe, 0x6f, 0x23, 0x23, 0xbe,
  0x54, 0xdd, 0xc2, 0x3d, 0xb8, 0xde, 0xf0, 0x3c, 0x0c, 0xa9, 0x7f, 0x3e,
  0xad, 0xc8, 0x95, 0xbe, 0xa3, 0xaa, 0x83, 0x3e, 0x97, 0x7d, 0x83, 0xbe,
  0x4b, 0x16, 0x1b, 0x3d, 0x15, 0x25, 0xde, 0xbd, 0x22, 0x11, 0x36, 0xbe,
  0x7b, 0xb2, 0x6f, 0x3e, 0x7e, 0x38, 0xc1, 0x3d, 0xf4, 0xc0, 0x0d, 0x3e,
  0x70, 0x02, 0x80, 0x3e, 0xc4, 0x28, 0x68, 0xbe, 0x48, 0xe4, 0x28, 0xbd,
  0x1b, 0xb3, 0xb9, 0x3b, 0x3b, 0x45, 0xab, 0x3e, 0x3b, 0x70, 0x29, 0xbe,
  0x06, 0xb8, 0x8f, 0x3e, 0x8d, 0x7b, 0x86, 0xbe, 0xbc, 0xc3, 0x3d, 0xbe,
  0x15, 0x7e, 0xca, 0xbe, 0x46, 0x05, 0x6b, 0x3d, 0xd0, 0x91, 0x7f, 0xbd,
  0x2d, 0x87, 0x47, 0x3e, 0xfa, 0x28, 0x47, 0xbe, 0xf3, 0x8b, 0xab, 0xbe,
  0xb8, 0x0d, 0xef, 0x3d, 0x3e, 0x41, 0x98, 0xbd, 0x8b, 0x0e, 0xc1, 0x3e,
  0xf0, 0x67, 0x46, 0xbd, 0x85, 0x28, 0x53, 0x3d, 0x69, 0xf3, 0xa4, 0xbb,
  0x59, 0x2c, 0xbb, 0xbe, 0xe0, 0x15, 0x6c, 0x3d, 0x9f, 0x30, 0x33, 0xbe,
  0xf5, 0x98, 0x7f, 0xbe, 0x9f, 0x17, 0x78, 0x3d, 0xfc, 0x7c, 0xd0, 0x3d,
  0x15, 0x10, 0xa3, 0x3e, 0xe4, 0xc7, 0x02, 0x3e, 0x5e, 0x59, 0xaf, 0xbd,
  0x64, 0x0e, 0x91, 0xbe, 0x82, 0xa0, 0x3b, 0x3e, 0x08, 0x8a, 0x0f, 0xbd,
  0x38, 0xcc, 0x3f, 0xbe, 0x30, 0x8d, 0x7a, 0x3d, 0x04, 0x52, 0x40, 0xbe,
  0xc0, 0x52, 0x56, 0x3e, 0x2c, 0xf2, 0x3f, 0xbe, 0x40, 0x20, 0x4a, 0x3e,
  0x48, 0x10, 0x8e, 0x3e, 0xf5, 0x2f, 0x21, 0xbe, 0x54, 0x2d, 0xca, 0x3d,
  0xb8, 0xea, 0x60, 0xbe, 0x9a, 0x86, 0x33, 0xbe, 0xd4, 0x0b, 0x57, 0xbe,
  0xf1, 0x68, 0x88, 0xbe, 0x87, 0x34, 0x55, 0x3e, 0xc0, 0x45, 0x7f, 0xbd,
  0xa2, 0xe1, 0x27, 0x3e, 0x09, 0x14, 0x33, 0x3e, 0x26, 0x68, 0xbd, 0xbd,
  0x61, 0xe1, 0x38, 0x3e, 0xe1, 0xc1, 0x68, 0x3e, 0x7e, 0x95, 0x0f, 0x3e,
  0x80, 0x3b, 0x80, 0x3d, 0x91, 0xac, 0x0c, 0xbe, 0x96, 0x00, 0x47, 0x3e,
  0x39, 0x21, 0x43, 0x3e, 0x9c, 0xcd, 0x84, 0xbe, 0xfd, 0x34, 0x19, 0x3e,
  0x66, 0xa5, 0x8f, 0xbe, 0xc9, 0x82, 0x9b, 0xbe, 0x8d, 0x30, 0xa7, 0xbe,
  0x57, 0x1f, 0x5b, 0x3e, 0xac, 0xa7, 0x6b, 0xbe, 0xf0, 0x63, 0x50, 0x3d,
  0x40, 0x35, 0x61, 0x3c, 0xca, 0x3c, 0x5d, 0x3e, 0xcd, 0x49, 0xf9, 0x3d,
  0x0e, 0x45, 0x03, 0x3c, 0xc0, 0x99, 0xa1, 0x3c, 0xfd, 0xf1, 0x5f, 0xbc,
  0xd6, 0xd6, 0x01, 0xbe, 0x2c, 0xfc, 0xb8, 0xbd, 0x6b, 0x90, 0x5b, 0x3e,
  0x28, 0xf3, 0xb1, 0xbe, 0x83, 0xcb, 0x6f, 0xbe, 0xba, 0xb7, 0x8f, 0xbc,
  0xc0, 0x1f, 0x61, 0x3e, 0xe6, 0x40, 0x80, 0xbe, 0xd6, 0x5b, 0x56, 0xbe,
  0xbc, 0xad, 0x4e, 0x3e, 0x10, 0xda, 0x8d, 0xbe, 0xd4, 0xfe, 0x44, 0xbe,
  0x41, 0x7b, 0x33, 0xbe, 0xac, 0x57, 0x6a, 0x3e, 0x50, 0x5b, 0x0e, 0x3d,
  0xad, 0xbd, 0x5d, 0xbc, 0x98, 0x89, 0x20, 0xbd, 0x6c, 0x7a, 0xe8, 0xbd,
  0xb1, 0xdd, 0xfd, 0x3d, 0x98, 0x86, 0xab, 0x3d, 0xa7, 0x73, 0x8a, 0xbe,
  0xe4, 0x37, 0x30, 0xbe, 0x4e, 0xf9, 0xb6, 0x3e, 0x88, 0xbc, 0x54, 0xbd,
  0xad, 0x3a, 0x75, 0xbe, 0xac, 0xbb, 0x9e, 0xbe, 0xda, 0x47, 0x88, 0xbe,
  0xdc, 0x1c, 0x3c, 0x3e, 0x80, 0xad, 0x41, 0x3d, 0x9f, 0x7b, 0x8c, 0x3c,
  0x2f, 0x5a, 0x6b, 0xbe, 0x1e, 0xb7, 0x8c, 0x3e, 0xd0, 0x38, 0x99, 0x3c,
  0x4a, 0xb8, 0x6d, 0x3d, 0x3f, 0x23, 0x37, 0x3e, 0x36, 0x33, 0xd1, 0x3e,
  0x87, 0xb0, 0xaf, 0xbe, 0x8e, 0xd1, 0x6f, 0xbe, 0x5c, 0x88, 0xe2, 0xbd,
  0x2d, 0x1b, 0x04, 0x3e, 0xb8, 0x93, 0xf5, 0x3d, 0x05, 0x51, 0xcd, 0x3d,
  0x80, 0x23, 0xcd, 0xbb, 0xe2, 0x06, 0x02, 0xbe, 0x3e, 0x9a, 0x33, 0xbe,
  0x87, 0xea, 0x6b, 0x3d, 0x20, 0x1a, 0xb9, 0x3c, 0xea, 0x4a, 0x79, 0x3d,
  0x88, 0x75, 0xa2, 0xbd, 0x5a, 0xca, 0x78, 0xbe, 0x13, 0x97, 0x44, 0xbe,
  0x41, 0xc5, 0x71, 0xbe, 0x8a, 0x21, 0x9b, 0xbc, 0xd2, 0x1e, 0xe9, 0x3d,
  0x2a, 0x1e, 0x8c, 0xbe, 0x25, 0x57, 0x2c, 0x3c, 0x08, 0x42, 0x3f, 0x3e,
  0x8c, 0x02, 0x50, 0x3e, 0x32, 0x14, 0x62, 0xbe, 0x32, 0x8a, 0x7e, 0xbd,
  0x90, 0xb6, 0x68, 0x3d, 0xdd, 0x75, 0x0c, 0xbd, 0x4c, 0x2d, 0x27, 0x3e,
  0x61, 0x95, 0xd7, 0xbd, 0x94, 0x94, 0x09, 0x3e, 0xbd, 0xb5, 0x79, 0xbe,
  0x84, 0x19, 0x61, 0xbe, 0x5f, 0x7a, 0xb8, 0xbd, 0x78, 0xf5, 0x61, 0x3d,
  0x63, 0x01, 0x13, 0x3c, 0x78, 0x83, 0x1d, 0x3e, 0x84, 0x76, 0x10, 0xbe,
  0x6c, 0x95, 0x97, 0x3e, 0x10, 0x9f, 0xba, 0x3c, 0x9a, 0x74, 0x13, 0x3e,
  0xea, 0x38, 0x79, 0xbe, 0x30, 0x77, 0xb4, 0xbd, 0x00, 0x8d, 0x73, 0xbb,
  0x60, 0xa0, 0x0b, 0x3e, 0xa4, 0x18, 0x4c, 0x3e, 0xca, 0xf3, 0x19, 0x3e,
  0xb1, 0x9c, 0x8e, 0xbe, 0x0f, 0xdd, 0x83, 0xbe, 0x78, 0xd4, 0xd8, 0x3d,
  0x60, 0xbc, 0x02, 0xbc, 0x2c, 0x8e, 0xcd, 0x3d, 0xd0, 0x2a, 0x63, 0xbe,
  0xe7, 0x73, 0xb3, 0x3b, 0x70, 0xda, 0x7b, 0x3e, 0xba, 0x62, 0x06, 0x3d,
  0xf0, 0xe9, 0x91, 0x3d, 0x90, 0x90, 0x6b, 0x3e, 0x2e, 0x9e, 0xf6, 0x3d,
  0x4e, 0x56, 0x4c, 0x3e, 0x16, 0x15, 0x98, 0xbe, 0x40, 0xa2, 0x0c, 0x3e,
  0xe5, 0xc3, 0x0c, 0x3e, 0xc0, 0x02, 0x6a, 0xbe, 0xe8, 0xe6, 0x9d, 0x3d,
  0x1d, 0x98, 0x73, 0x3e, 0x32, 0x90, 0x51, 0xbb, 0xe8, 0x6c, 0x4f, 0xbe,
  0x6b, 0xcd, 0x86, 0x39, 0x18, 0x5a, 0x6c, 0xbe, 0x9c, 0x50, 0x51, 0x3e,
  0x92, 0xd4, 0xb7, 0xbe, 0x44, 0x2d, 0x11, 0x3e, 0x69, 0x18, 0xa8, 0x3b,
  0x06, 0xfa, 0x82, 0x3e, 0x5d, 0x71, 0xa6, 0x3d, 0x80, 0xfa, 0x65, 0xbe,
  0xd7, 0xa8, 0x68, 0xbd, 0x8d, 0xcf, 0xe2, 0x3b, 0xb8, 0x16, 0xa5, 0xbe,
  0x83, 0xa2, 0x58, 0x3d, 0x6a, 0x1f, 0x15, 0x3e, 0x15, 0x5d, 0xc2, 0x3e,
  0x0b, 0x20, 0xb9, 0x3e, 0x82, 0x95, 0xac, 0xbd, 0x52, 0x28, 0x70, 0xbe,
  0x86, 0xb8, 0x19, 0x3e, 0x84, 0xe2, 0x0f, 0xbd, 0x58, 0xea, 0xbe, 0x3d,
  0x7d, 0x12, 0x39, 0x3e, 0x90, 0x1f, 0xa7, 0x3d, 0x16, 0x35, 0x7d, 0x3e,
  0x52, 0x2b, 0x91, 0x3e, 0x6d, 0xfc, 0x89, 0x3e, 0x70, 0x7f, 0xd4, 0x3c,
  0x00, 0x3e, 0xcb, 0x3c, 0x75, 0x0d, 0x04, 0xbe, 0x0a, 0x65, 0xec, 0xbc,
  0x56, 0x0f, 0x87, 0x3e, 0x01, 0xde, 0x8a, 0xbe, 0x56, 0x17, 0x39, 0x3e,
  0x55, 0x74, 0x5f, 0x3e, 0xce, 0xdc, 0x9b, 0xbd, 0x89, 0xfe, 0xda, 0x3d,
  0x0f, 0x98, 0x07, 0xbe, 0x8d, 0xa3, 0x9a, 0xbe, 0x50, 0xdd, 0xa3, 0xbd,
  0x97, 0xd8, 0x74, 0x3e, 0xd0, 0x6b, 0x8f, 0x3c, 0xce, 0x5a, 0xa2, 0xbe,
  0x3a, 0xb9, 0x89, 0xbd, 0xc7, 0x0e, 0x92, 0x3c, 0xca, 0xc7, 0x3e, 0xbd,
  0x35, 0x28, 0x6e, 0x3c, 0x04, 0x1f, 0x3a, 0xbd, 0xdd, 0x9a, 0x94, 0xbe,
  0x1a, 0xdd, 0x01, 0x3d, 0xd3, 0x30, 0x09, 0xbe, 0xc2, 0x42, 0xea, 0xbd,
  0xd9, 0xfa, 0xd1, 0xbe, 0x90, 0x76, 0xd1, 0xbc, 0x28, 0xa2, 0x51, 0x3e,
  0x23, 0xcd, 0xc7, 0x3d, 0x7e, 0x36, 0x6e, 0xbe, 0x56, 0x34, 0x5f, 0xbe,
  0x2c, 0x18, 0x4c, 0xbe, 0xac, 0xa1, 0x11, 0x3e, 0xbc, 0x37, 0x40, 0x3e,
  0x11, 0xff, 0x78, 0x3e, 0x2b, 0x7f, 0xef, 0x3c, 0x54, 0x8a, 0x08, 0xbe,
  0x53, 0x07, 0x7e, 0x3e, 0xb6, 0xff, 0x49, 0xbc, 0xa2, 0xaa, 0x4f, 0xbc,
  0x58, 0x67, 0x98, 0x3d, 0x15, 0xd3, 0x12, 0x3e, 0x0e, 0x9a, 0x87, 0xbe,
  0x85, 0xca, 0x16, 0x3e, 0x3a, 0x26, 0x45, 0xbd, 0xfe, 0x20, 0x88, 0xbd,
  0x66, 0xca, 0x26, 0xbe, 0x4b, 0x51, 0x85, 0xbe, 0xcb, 0x8e, 0xe8, 0x3d,
  0x9c, 0xad, 0x86, 0xbe, 0x34, 0x7d, 0x0b, 0x3e, 0x43, 0x14, 0x66, 0x3e,
  0xdd, 0x4e, 0x8a, 0x3e, 0x52, 0x8f, 0x7c, 0x3e, 0x4d, 0x01, 0xe1, 0xbe,
  0x3b, 0x9f, 0x73, 0x3e, 0x2c, 0xd1, 0x78, 0x3e, 0xaa, 0x16, 0xc2, 0xbe,
  0x7e, 0x01, 0xe7, 0xbd, 0x7f, 0x0a, 0x43, 0xbe, 0x6c, 0x5e, 0x9c, 0xbe,
  0x17, 0x56, 0xdc, 0xbe, 0x18, 0xff, 0x40, 0x3d, 0x0a, 0x45, 0x9e, 0xbc,
  0xd5, 0xca, 0x0d, 0x3d, 0x37, 0x1d, 0xe5, 0x3d, 0xba, 0x5f, 0xb4, 0xbd,
  0x93, 0x7c, 0xcd, 0x3c, 0x51, 0x5d, 0x04, 0xbd, 0xc9, 0x51, 0xf8, 0x3d,
  0x12, 0x3c, 0x3a, 0xbf, 0xa7, 0x39, 0x87, 0xbe, 0xe6, 0x0a, 0x87, 0x3e,
  0x71, 0xe4, 0x8f, 0xbc, 0x60, 0xec, 0x84, 0x3d, 0x62, 0xa8, 0x22, 0xbe,
  0xe0, 0xbe, 0x5c, 0xbe, 0xde, 0x41, 0xe2, 0xbe, 0xe0, 0x72, 0x55, 0x3e,
  0x6b, 0x45, 0x92, 0xbe, 0xbb, 0x74, 0xa2, 0x3d, 0x39, 0x19, 0x65, 0x3d,
  0x96, 0xf2, 0xb5, 0x3e, 0x31, 0xf6, 0xc6, 0x3d, 0x96, 0xf8, 0x59, 0xbc,
  0x8e, 0x52, 0x89, 0x3e, 0xf0, 0xf5, 0xb4, 0xbd, 0xf9, 0xe8, 0x89, 0xbe,
  0x1c, 0x38, 0xa8, 0x3d, 0x8e, 0x75, 0x36, 0xbe, 0xc0, 0x07, 0xc7, 0xbb,
  0xac, 0xdd, 0x60, 0x3e, 0x7e, 0x99, 0x2c, 0x3e, 0xd4, 0xd1, 0x33, 0x3e,
  0xc8, 0xef, 0x1b, 0xbe, 0xc8, 0x00, 0x55, 0xbe, 0x74, 0x6a, 0x80, 0xbe,
  0xd8, 0xdf, 0x91, 0x3d, 0x99, 0x89, 0x7f, 0xbe, 0xcf, 0xe8, 0x95, 0xbe,
  0xca, 0x99, 0x2a, 0x3e, 0x80, 0x40, 0xd0, 0x3c, 0x2e, 0xd7, 0x59, 0xbe,
  0x33, 0x3b, 0x4c, 0xbe, 0x80, 0xb9, 0xdc, 0xbc, 0x36, 0xff, 0xa1, 0xbe,
  0x82, 0x04, 0x23, 0xbe, 0x85, 0x14, 0x65, 0x3e, 0xac, 0xcd, 0xd6, 0xbd,
  0xd5, 0x43, 0x93, 0xbd, 0xec, 0x0c, 0x3d, 0x3e, 0x5c, 0x8d, 0xa2, 0x3d,
  0x18, 0x70, 0x6f, 0x3e, 0xf3, 0xf8, 0x72, 0x3e, 0x5d, 0x91, 0xc1, 0xbd,
  0xbe, 0x74, 0x82, 0x3e, 0xcb, 0x6a, 0x5c, 0x3e, 0x82, 0x4c, 0x3f, 0xbe,
  0xa8, 0xeb, 0x12, 0xbe, 0x18, 0xde, 0x4c, 0x3d, 0x0f, 0x0a, 0x17, 0xbe,
  0x2d, 0x73, 0x92, 0xbe, 0xe2, 0x6a, 0x47, 0xbe, 0x22, 0xf0, 0x2b, 0xbe,
  0x9c, 0x87, 0xdb, 0x3d, 0x58, 0x42, 0x4c, 0xbd, 0xb0, 0x4f, 0xea, 0x3d,
  0xee, 0xd9, 0xe1, 0xbd, 0xac, 0xc2, 0x53, 0x3e, 0x10, 0x76, 0x3a, 0xbd,
  0x74, 0xd3, 0x8e, 0xbe, 0x8e, 0xa7, 0x94, 0xbd, 0xb0, 0xa9, 0x00, 0x3e,
  0x66, 0xc4, 0xa3, 0xbd, 0xee, 0xac, 0xf3, 0xbd, 0x52, 0x2a, 0x7f, 0xbe,
  0x0c, 0x6f, 0x64, 0x3e, 0xda, 0x68, 0xed, 0xbd, 0xd8, 0xed, 0x6c, 0x3d,
  0xf8, 0xb5, 0xdf, 0xbd, 0x1a, 0x03, 0x31, 0x3e, 0x64, 0x1b, 0x61, 0xbe,
  0x30, 0x39, 0x7f, 0xbe, 0xea, 0xb8, 0x31, 0xbe, 0xf8, 0x6d, 0xa6, 0xbd,
  0x68, 0x80, 0x6d, 0x3e, 0xea, 0x5d, 0x3a, 0x3e, 0xde, 0x67, 0x0c, 0x3e,
  0x88, 0x05, 0x2d, 0xbd, 0x3f, 0x55, 0x8b, 0xbe, 0xcc, 0x3f, 0x43, 0x3e,
  0xfa, 0xcb, 0x42, 0xbe, 0xd0, 0x26, 0x5c, 0x3d, 0x00, 0xc5, 0x3c, 0xbc,
  0x6a, 0x7b, 0x91, 0x3e, 0x00, 0xa7, 0xe9, 0xbc, 0x4b, 0x08, 0x2c, 0xbe,
  0xe0, 0x81, 0x1d, 0x3d, 0x14, 0xe7, 0x4d, 0x3e, 0x34, 0xed, 0x80, 0x3e,
  0x26, 0x55, 0x3b, 0xbe, 0x2e, 0xf8, 0x50, 0xbe, 0x6f, 0x4b, 0x35, 0xbe,
  0xb3, 0x39, 0x98, 0xbe, 0x15, 0x5a, 0x7b, 0xbe, 0xda, 0xf7, 0x85, 0xbe,
  0xa3, 0x84, 0x86, 0xbe, 0x9e, 0x69, 0x10, 0xbe, 0xd4, 0x78, 0x88, 0x3e,
  0xb7, 0x56, 0x80, 0x3e, 0x02, 0xdb, 0x8d, 0xbd, 0xd7, 0xf9, 0x9e, 0xbe,
  0x54, 0xa8, 0xab, 0xbb, 0x14, 0xb2, 0x75, 0xbe, 0x88, 0x2e, 0xc1, 0x3d,
  0x39, 0xaf, 0x4d, 0xbe, 0x6f, 0xdf, 0x32, 0xbe, 0x70, 0x31, 0xd7, 0x3c,
  0xc0, 0xbf, 0x84, 0x3d, 0x15, 0x34, 0xb1, 0x3d, 0xda, 0xe1, 0x4c, 0x3e,
  0xc7, 0x98, 0x04, 0xbe, 0xea, 0x97, 0x63, 0xbe, 0xcb, 0x61, 0xc1, 0x3d,
  0x30, 0x7f, 0x79, 0x3d, 0xca, 0xf9, 0xcc, 0x3c, 0xf0, 0xa5, 0x56, 0x3e,
  0xd4, 0xb4, 0xb8, 0x3e, 0x0e, 0xf4, 0xac, 0xbd, 0x9f, 0x5f, 0x1f, 0xbf,
  0x20, 0xff, 0x2b, 0x3d, 0x11, 0x70, 0x46, 0xbe, 0x89, 0x98, 0x18, 0xbe,
  0x12, 0x82, 0x8d, 0xbe, 0xbe, 0xae, 0x98, 0xbd, 0x83, 0x20, 0xa1, 0xbe,
  0xc8, 0x23, 0x60, 0xbe, 0x40, 0x4f, 0xaf, 0x3e, 0xd0, 0x91, 0x7e, 0xbe,
  0x93, 0x37, 0x3f, 0xbd, 0x6d, 0xa4, 0x7b, 0xbe, 0x53, 0x52, 0x36, 0xbe,
  0xec, 0x47, 0x54, 0x3e, 0xb7, 0x0d, 0x8f, 0x3e, 0x90, 0xf7, 0x10, 0x3e,
  0x60, 0x2a, 0x00, 0x3e, 0x40, 0x77, 0xad, 0x3b, 0x84, 0x07, 0x9e, 0xbe,
  0xd4, 0x4a, 0x33, 0xbe, 0xef, 0x85, 0x33, 0xbe, 0xe5, 0x47, 0x37, 0x3e,
  0x9d, 0x51, 0x46, 0x3e, 0xad, 0xe2, 0x10, 0xbe, 0xc1, 0x8e, 0xd8, 0x3d,
  0x44, 0x0b, 0x88, 0x3e, 0x40, 0xc4, 0x3e, 0x3d, 0x48, 0xdb, 0x55, 0x3e,
  0x86, 0xc7, 0x93, 0x3e, 0xe0, 0xd7, 0xde, 0x3d, 0x53, 0x4b, 0x95, 0xbe,
  0x30, 0x64, 0x60, 0xbe, 0xc4, 0x52, 0x4a, 0x3e, 0x00, 0x52, 0x43, 0x3a,
  0xbe, 0xdc, 0xb3, 0xbd, 0xd0, 0xf4, 0x18, 0x3d, 0x8e, 0x7d, 0x1e, 0x3e,
  0x48, 0xc1, 0x02, 0xbe, 0xaa, 0xa4, 0x3e, 0xbe, 0x8d, 0x1f, 0x4b, 0xbe,
  0xc0, 0x9a, 0x3b, 0xbd, 0xd4, 0x82, 0x1a, 0x3e, 0x95, 0xd1, 0xd5, 0x3e,
  0xfa, 0x10, 0x33, 0xbe, 0x66, 0x48, 0x5d, 0x3e, 0x00, 0x04, 0x05, 0xbd,
  0x2e, 0x80, 0x97, 0x3e, 0xb0, 0x5e, 0xb3, 0x3e, 0x23, 0x39, 0x22, 0x3e,
  0x11, 0x3d, 0x1d, 0xbe, 0x76, 0xf2, 0x75, 0xbe, 0x9d, 0xec, 0x1a, 0xbe,
  0x92, 0xc2, 0x5c, 0x3e, 0x70, 0x0d, 0x0e, 0xbe, 0x6a, 0x1c, 0xfa, 0xbd,
  0x38, 0x54, 0x4a, 0x3e, 0x0d, 0x37, 0x3c, 0xbe, 0xe8, 0xf6, 0xff, 0xff,
  0xec, 0xf6, 0xff, 0xff, 0x0f, 0x00, 0x00, 0x00, 0x54, 0x4f, 0x43, 0x4f,
  0x20, 0x43, 0x6f, 0x6e, 0x76, 0x65, 0x72, 0x74, 0x65, 0x64, 0x2e, 0x00,
  0x01, 0x00, 0x00, 0x00, 0x10, 0x00, 0x00, 0x00, 0x0c, 0x00, 0x14, 0x00,
  0x04, 0x00, 0x08, 0x00, 0x0c, 0x00, 0x10, 0x00, 0x0c, 0x00, 0x00, 0x00,
  0xd0, 0x01, 0x00, 0x00, 0xc4, 0x01, 0x00, 0x00, 0xb8, 0x01, 0x00, 0x00,
  0x04, 0x00, 0x00, 0x00, 0x07, 0x00, 0x00, 0x00, 0x70, 0x01, 0x00, 0x00,
  0x28, 0x01, 0x00, 0x00, 0xe0, 0x00, 0x00, 0x00, 0xa8, 0x00, 0x00, 0x00,
  0x70, 0x00, 0x00, 0x00, 0x38, 0x00, 0x00, 0x00, 0x04, 0x00, 0x00, 0x00,
  0xfe, 0xfe, 0xff, 0xff, 0x00, 0x00, 0x00, 0x08, 0x18, 0x00, 0x00, 0x00,
  0x0c, 0x00, 0x00, 0x00, 0x04, 0x00, 0x00, 0x00, 0x60, 0xf7, 0xff, 0xff,
  0x01, 0x00, 0x00, 0x00, 0x00, 0x00, 0x00, 0x00, 0x03, 0x00, 0x00, 0x00,
  0x13, 0x00, 0x00, 0x00, 0x14, 0x00, 0x00, 0x00, 0x15, 0x00, 0x00, 0x00,
  0x2e, 0xff, 0xff, 0xff, 0x00, 0x00, 0x00, 0x08, 0x1c, 0x00, 0x00, 0x00,
  0x10, 0x00, 0x00, 0x00, 0x04, 0x00, 0x00, 0x00, 0xda, 0xfe, 0xff, 0xff,
  0x00, 0x00, 0x00, 0x01, 0x01, 0x00, 0x00, 0x00, 0x13, 0x00, 0x00, 0x00,
  0x03, 0x00, 0x00, 0x00, 0x10, 0x00, 0x00, 0x00, 0x11, 0x00, 0x00, 0x00,
  0x12, 0x00, 0x00, 0x00, 0x62, 0xff, 0xff, 0xff, 0x00, 0x00, 0x00, 0x08,
  0x1c, 0x00, 0x00, 0x00, 0x10, 0x00, 0x00, 0x00, 0x04, 0x00, 0x00, 0x00,
  0x0e, 0xff, 0xff, 0xff, 0x00, 0x00, 0x00, 0x01, 0x01, 0x00, 0x00, 0x00,
  0x10, 0x00, 0x00, 0x00, 0x03, 0x00, 0x00, 0x00, 0x0d, 0x00, 0x00, 0x00,
  0x0e, 0x00, 0x00, 0x00, 0x0f, 0x00, 0x00, 0x00, 0x96, 0xff, 0xff, 0xff,
  0x00, 0x00, 0x00, 0x08, 0x1c, 0x00, 0x00, 0x00, 0x10, 0x00, 0x00, 0x00,
  0x04, 0x00, 0x00, 0x00, 0x42, 0xff, 0xff, 0xff, 0x00, 0x00, 0x00, 0x01,
  0x01, 0x00, 0x00, 0x00, 0x0d, 0x00, 0x00, 0x00, 0x03, 0x00, 0x00, 0x00,
  0x0a, 0x00, 0x00, 0x00, 0x0b, 0x00, 0x00, 0x00, 0x0c, 0x00, 0x00, 0x00,
  0xca, 0xff, 0xff, 0xff, 0x00, 0x00, 0x00, 0x08, 0x1c, 0x00, 0x00, 0x00,
  0x10, 0x00, 0x00, 0x00, 0x04, 0x00, 0x00, 0x00, 0x76, 0xff, 0xff, 0xff,
  0x00, 0x00, 0x00, 0x01, 0x01, 0x00, 0x00, 0x00, 0x0a, 0x00, 0x00, 0x00,
  0x03, 0x00, 0x00, 0x00, 0x07, 0x00, 0x00, 0x00, 0x08, 0x00, 0x00, 0x00,
  0x09, 0x00, 0x00, 0x00, 0x00, 0x00, 0x0e, 0x00, 0x14, 0x00, 0x00, 0x00,
  0x08, 0x00, 0x0c, 0x00, 0x07, 0x00, 0x10, 0x00, 0x0e, 0x00, 0x00, 0x00,
  0x00, 0x00, 0x00, 0x08, 0x1c, 0x00, 0x00, 0x00, 0x10, 0x00, 0x00, 0x00,
  0x04, 0x00, 0x00, 0x00, 0xba, 0xff, 0xff, 0xff, 0x00, 0x00, 0x00, 0x01,
  0x01, 0x00, 0x00, 0x00, 0x07, 0x00, 0x00, 0x00, 0x03, 0x00, 0x00, 0x00,
  0x04, 0x00, 0x00, 0x00, 0x05, 0x00, 0x00, 0x00, 0x06, 0x00, 0x00, 0x00,
  0x00, 0x00, 0x0e, 0x00, 0x16, 0x00, 0x00, 0x00, 0x08, 0x00, 0x0c, 0x00,
  0x07, 0x00, 0x10, 0x00, 0x0e, 0x00, 0x00, 0x00, 0x00, 0x00, 0x00, 0x08,
  0x24, 0x00, 0x00, 0x00, 0x18, 0x00, 0x00, 0x00, 0x0c, 0x00, 0x00, 0x00,
  0x00, 0x00, 0x06, 0x00, 0x08, 0x00, 0x07, 0x00, 0x06, 0x00, 0x00, 0x00,
  0x00, 0x00, 0x00, 0x01, 0x01, 0x00, 0x00, 0x00, 0x04, 0x00, 0x00, 0x00,
  0x03, 0x00, 0x00, 0x00, 0x01, 0x00, 0x00, 0x00, 0x02, 0x00, 0x00, 0x00,
  0x03, 0x00, 0x00, 0x00, 0x01, 0x00, 0x00, 0x00, 0x00, 0x00, 0x00, 0x00,
  0x01, 0x00, 0x00, 0x00, 0x01, 0x00, 0x00, 0x00, 0x16, 0x00, 0x00, 0x00,
  0xfc, 0x06, 0x00, 0x00, 0x94, 0x06, 0x00, 0x00, 0x34, 0x06, 0x00, 0x00,
  0xec, 0x05, 0x00, 0x00, 0xa8, 0x05, 0x00, 0x00, 0x48, 0x05, 0x00, 0x00,
  0x00, 0x05, 0x00, 0x00, 0xbc, 0x04, 0x00, 0x00, 0x30, 0x04, 0x00, 0x00,
  0xd8, 0x03, 0x00, 0x00, 0x94, 0x03, 0x00, 0x00, 0x10, 0x03, 0x00, 0x00,
  0xc8, 0x02, 0x00, 0x00, 0x84, 0x02, 0x00, 0x00, 0x24, 0x02, 0x00, 0x00,
  0xdc, 0x01, 0x00, 0x00, 0x98, 0x01, 0x00, 0x00, 0x38, 0x01, 0x00, 0x00,
  0xf0, 0x00, 0x00, 0x00, 0xac, 0x00, 0x00, 0x00, 0x4c, 0x00, 0x00, 0x00,
  0x04, 0x00, 0x00, 0x00, 0x6a, 0xf9, 0xff, 0xff, 0x38, 0x00, 0x00, 0x00,
  0x16, 0x00, 0x00, 0x00, 0x0c, 0x00, 0x00, 0x00, 0x04, 0x00, 0x00, 0x00,
  0x5c, 0xf9, 0xff, 0xff, 0x1e, 0x00, 0x00, 0x00, 0x73, 0x65, 0x71, 0x75,
  0x65, 0x6e, 0x74, 0x69, 0x61, 0x6c, 0x2f, 0x64, 0x65, 0x6e, 0x73, 0x65,
  0x5f, 0x36, 0x2f, 0x4d, 0x61, 0x74, 0x4d, 0x75, 0x6c, 0x5f, 0x62, 0x69,
  0x61, 0x73, 0x00, 0x00, 0x01, 0x00, 0x00, 0x00, 0x05, 0x00, 0x00, 0x00,
  0xae, 0xf9, 0xff, 0xff, 0x4c, 0x00, 0x00, 0x00, 0x15, 0x00, 0x00, 0x00,
