
#define TENSORFLOW_LITE_EXPERIMENTAL_MICRO_EXAMPLES_HELLO_WORLD_SINE_MODEL_DATA_H_
#ifdef __has_attribute
#define HAVE_ATTRIBUTE(x) __has_attribute(x)
#else
#define HAVE_ATTRIBUTE(x) 0
#endif
#if HAVE_ATTRIBUTE(aligned) || (defined(__GNUC__) && !defined(__clang__))
#define DATA_ALIGN_ATTRIBUTE __attribute__((aligned(4)))
#else
#define DATA_ALIGN_ATTRIBUTE
#endif

const int flight_model_len = 7780;
const unsigned char flight_model[] DATA_ALIGN_ATTRIBUTE = {
 0x1c, 0x00, 0x00, 0x00, 0x54, 0x46, 0x4c, 0x33, 0x00, 0x00, 0x12, 0x00,
  0x1c, 0x00, 0x04, 0x00, 0x08, 0x00, 0x0c, 0x00, 0x10, 0x00, 0x14, 0x00,
  0x00, 0x00, 0x18, 0x00, 0x12, 0x00, 0x00, 0x00, 0x03, 0x00, 0x00, 0x00,
  0x20, 0x1e, 0x00, 0x00, 0xec, 0x19, 0x00, 0x00, 0xd4, 0x19, 0x00, 0x00,
  0x34, 0x00, 0x00, 0x00, 0x04, 0x00, 0x00, 0x00, 0x01, 0x00, 0x00, 0x00,
  0x04, 0x00, 0x00, 0x00, 0x84, 0xe2, 0xff, 0xff, 0x08, 0x00, 0x00, 0x00,
  0x0b, 0x00, 0x00, 0x00, 0x13, 0x00, 0x00, 0x00, 0x6d, 0x69, 0x6e, 0x5f,
  0x72, 0x75, 0x6e, 0x74, 0x69, 0x6d, 0x65, 0x5f, 0x76, 0x65, 0x72, 0x73,
  0x69, 0x6f, 0x6e, 0x00, 0x0c, 0x00, 0x00, 0x00, 0x94, 0x19, 0x00, 0x00,
  0x8c, 0x19, 0x00, 0x00, 0x6c, 0x0b, 0x00, 0x00, 0x5c, 0x0b, 0x00, 0x00,
  0x50, 0x0b, 0x00, 0x00, 0x48, 0x0b, 0x00, 0x00, 0xb8, 0x03, 0x00, 0x00,
  0x30, 0x03, 0x00, 0x00, 0xa8, 0x02, 0x00, 0x00, 0x40, 0x00, 0x00, 0x00,
  0x1c, 0x00, 0x00, 0x00, 0x04, 0x00, 0x00, 0x00, 0xc2, 0xf4, 0xff, 0xff,
  0x04, 0x00, 0x00, 0x00, 0x05, 0x00, 0x00, 0x00, 0x31, 0x2e, 0x35, 0x2e,
  0x30, 0x00, 0x00, 0x00, 0xd6, 0xf4, 0xff, 0xff, 0x04, 0x00, 0x00, 0x00,
  0x14, 0x00, 0x00, 0x00, 0x3c, 0x92, 0x0b, 0x3e, 0x96, 0xfe, 0xe7, 0x3d,
  0x84, 0xe1, 0xe0, 0x3d, 0xd7, 0x75, 0xe4, 0x3d, 0x9a, 0x7c, 0x8c, 0x3d,
  0xf6, 0xf4, 0xff, 0xff, 0x04, 0x00, 0x00, 0x00, 0x58, 0x02, 0x00, 0x00,
  0xa5, 0xc7, 0xa5, 0x3e, 0xc1, 0x6b, 0xdf, 0x3e, 0x10, 0x08, 0xdf, 0x3b,
  0xd6, 0xad, 0xbc, 0x3c, 0xf2, 0xe7, 0xd1, 0x3e, 0xc9, 0xac, 0x85, 0x3e,
  0x4f, 0xae, 0xdf, 0xbc, 0x91, 0x0f, 0xd1, 0x3e, 0x98, 0x1c, 0x88, 0xbe,
  0x7e, 0x07, 0xf2, 0x3d, 0x06, 0x91, 0xe6, 0x3d, 0x74, 0x8d, 0xb6, 0x3e,
  0x6e, 0x94, 0x06, 0xbd, 0x61, 0x2a, 0xf3, 0xbd, 0x21, 0x1c, 0xb1, 0x3e,
  0xf3, 0xbd, 0x9e, 0xbb, 0x68, 0xbd, 0xaf, 0xbe, 0x53, 0x9d, 0x9d, 0xbe,
  0x59, 0xe4, 0xf3, 0xbb, 0x20, 0x18, 0xd7, 0xbc, 0xef, 0xbc, 0xd0, 0xbe,
  0xf9, 0x28, 0xaa, 0xbc, 0x0e, 0x10, 0x18, 0x3e, 0xe4, 0x12, 0x4e, 0xbe,
  0xd8, 0xd9, 0x96, 0x3c, 0x55, 0x2a, 0xba, 0x3e, 0x46, 0x3a, 0xb6, 0x3e,
  0x85, 0xf4, 0xa9, 0x3e, 0x0d, 0xd0, 0xd6, 0xbe, 0x82, 0x78, 0xd5, 0x3a,
  0xbc, 0x73, 0xe9, 0xbd, 0x8d, 0x8e, 0xba, 0xbe, 0x53, 0x6b, 0xaf, 0x3d,
  0x40, 0xc0, 0x82, 0x3e, 0x21, 0x15, 0x48, 0x3d, 0x88, 0x9d, 0xc9, 0x3d,
  0xf7, 0x9d, 0x17, 0x3e, 0xa0, 0xc9, 0x8e, 0xbd, 0x4c, 0x56, 0xf5, 0x3e,
  0x0e, 0x73, 0xeb, 0xbd, 0x56, 0x7f, 0x0f, 0xbf, 0x45, 0xcd, 0x69, 0xbe,
  0xca, 0x79, 0xb0, 0xbe, 0xd9, 0x85, 0xee, 0x3e, 0x2d, 0xda, 0x0a, 0x3e,
  0x75, 0x65, 0xbe, 0x3d, 0xbf, 0xc6, 0xb0, 0x3e, 0xf5, 0xc3, 0x51, 0xbd,
  0x57, 0x5c, 0x65, 0x3d, 0x29, 0x52, 0x93, 0x3e, 0x49, 0x73, 0x10, 0xbe,
  0x8c, 0x6a, 0xab, 0x3d, 0x46, 0x42, 0xaa, 0xbe, 0x02, 0x38, 0x11, 0xbf,
  0xfa, 0xe6, 0x3f, 0xbd, 0x90, 0x75, 0x1b, 0xbe, 0xfb, 0x36, 0x77, 0x3d,
  0x1c, 0x5e, 0xce, 0x3e, 0x35, 0x5f, 0x94, 0xbe, 0x3d, 0x9c, 0xa5, 0xbd,
  0x5f, 0x38, 0xb5, 0x3e, 0x8e, 0x8c, 0x7e, 0x3e, 0xab, 0xe8, 0xab, 0xbe,
  0xd1, 0x31, 0x44, 0x3e, 0xc9, 0xf7, 0x7e, 0x3e, 0x4b, 0xbf, 0x2d, 0xbe,
  0xc6, 0x1e, 0xa6, 0x3e, 0x0b, 0x65, 0xb9, 0x3e, 0xbd, 0x98, 0x54, 0x3e,
  0xc7, 0x8d, 0x4f, 0xbd, 0x67, 0xfe, 0x05, 0xbf, 0x4a, 0x5a, 0x79, 0xbe,
  0x4f, 0xe8, 0xb0, 0x3e, 0x53, 0xe7, 0xd7, 0x3e, 0xa4, 0xeb, 0x0e, 0x3e,
  0xfd, 0x8e, 0xdf, 0xbd, 0xff, 0x3d, 0xea, 0x3e, 0xf0, 0xd3, 0x11, 0x3e,
  0x14, 0xa2, 0x14, 0x3d, 0x06, 0xde, 0x6b, 0x3e, 0xf4, 0xc7, 0xdd, 0xbc,
  0x61, 0x2d, 0x6b, 0xbe, 0xdc, 0x9d, 0x40, 0xbe, 0x79, 0xc2, 0x21, 0xbf,
  0xd7, 0x1a, 0xd9, 0x3e, 0xf8, 0xa7, 0x7d, 0x3d, 0xbd, 0x1e, 0xbb, 0x3e,
  0x1d, 0xab, 0xb3, 0x3e, 0x77, 0x76, 0x63, 0xbc, 0xbe, 0x6a, 0x17, 0x3e,
  0xe2, 0x54, 0x92, 0xbe, 0x1d, 0x56, 0x7b, 0xbe, 0x9b, 0x19, 0x5e, 0x3e,
  0xa0, 0xc8, 0x6e, 0x3e, 0xff, 0x52, 0x02, 0x3e, 0x1f, 0xf6, 0x16, 0xbb,
  0x10, 0xef, 0xbc, 0xbe, 0xe9, 0x75, 0xc3, 0xbe, 0x4f, 0x81, 0xa0, 0xbe,
  0xda, 0x18, 0xea, 0xbd, 0x68, 0xa8, 0x4a, 0xbe, 0xa1, 0x79, 0xb3, 0x3e,
  0x67, 0x0b, 0x17, 0x3e, 0x1a, 0x46, 0xf5, 0xbc, 0xa7, 0x69, 0x85, 0x3e,
  0x54, 0x94, 0xc7, 0xbd, 0xa8, 0x9e, 0x47, 0xbd, 0xd8, 0x7a, 0x75, 0x3e,
  0xaf, 0xd5, 0x82, 0x3d, 0x6b, 0xf5, 0x8e, 0x3e, 0x47, 0x36, 0x82, 0xbb,
  0xcb, 0x77, 0xa2, 0x3e, 0xf2, 0x85, 0x44, 0x3e, 0x3d, 0xbd, 0x62, 0x3d,
  0x83, 0xa8, 0x91, 0x3e, 0x8f, 0x43, 0xa0, 0xbe, 0x21, 0xe9, 0xa0, 0xbe,
  0xaf, 0xe1, 0xa0, 0x3e, 0x66, 0xf3, 0xae, 0x3d, 0xfb, 0x17, 0xcc, 0xbe,
  0x90, 0x37, 0x25, 0xbd, 0x29, 0x3b, 0x6f, 0x3e, 0x26, 0xb8, 0x78, 0x3e,
  0xcc, 0x5d, 0x39, 0x3e, 0x59, 0xa7, 0xcc, 0xbd, 0xf9, 0xb3, 0xc2, 0x3e,
  0x7d, 0xba, 0x45, 0x3e, 0x78, 0x9c, 0x31, 0xbd, 0x30, 0x3d, 0x1b, 0x3e,
  0x85, 0x60, 0x55, 0x3f, 0x07, 0xee, 0x02, 0x3f, 0x6c, 0x73, 0x37, 0x3e,
  0x3f, 0xf2, 0x09, 0xbe, 0xf0, 0x2f, 0xa1, 0x3d, 0x88, 0x03, 0x01, 0xbd,
  0x2c, 0x57, 0xef, 0xbc, 0x2e, 0x61, 0x87, 0x3e, 0x26, 0x9a, 0x11, 0x3e,
  0x47, 0x2f, 0xc6, 0xbe, 0xf1, 0xa5, 0xaf, 0x3e, 0xfb, 0x3c, 0x62, 0xbf,
  0x9d, 0x8d, 0xec, 0xbe, 0xb2, 0x51, 0x0d, 0x3e, 0xa7, 0x69, 0xa7, 0xbd,
  0xe3, 0x6f, 0x81, 0x3e, 0x50, 0x37, 0x9d, 0x3d, 0x5f, 0x29, 0xc4, 0xbd,
  0xe2, 0xfc, 0x87, 0xbd, 0xaf, 0xcd, 0x73, 0xbe, 0x85, 0x9f, 0xbc, 0xbe,
  0x5a, 0xf7, 0xff, 0xff, 0x04, 0x00, 0x00, 0x00, 0x78, 0x00, 0x00, 0x00,
  0x00, 0x00, 0x00, 0x00, 0xb4, 0x6e, 0x3f, 0xbb, 0x44, 0x53, 0x25, 0x3d,
  0x82, 0xd4, 0x13, 0x3e, 0x67, 0x56, 0x59, 0x3e, 0x7f, 0x75, 0xfa, 0x3d,
  0x21, 0x17, 0xa1, 0xbc, 0x00, 0x00, 0x00, 0x00, 0x3c, 0x72, 0x3e, 0x3d,
  0x02, 0x11, 0xc3, 0xbc, 0xcd, 0xa6, 0xa3, 0xbc, 0x27, 0x5a, 0x4b, 0x3d,
  0x4c, 0x45, 0x25, 0xbd, 0x42, 0xd4, 0xa0, 0x3c, 0x7a, 0x97, 0x51, 0x3e,
  0x50, 0xc7, 0xd9, 0xbd, 0xb5, 0x7d, 0x9a, 0x3c, 0xe0, 0xeb, 0x10, 0xbc,
  0x33, 0x3d, 0x9a, 0x3c, 0x00, 0x00, 0x00, 0x00, 0xca, 0x21, 0xcf, 0xbd,
  0xff, 0x7a, 0x97, 0xbc, 0x00, 0x00, 0x00, 0x00, 0x95, 0x95, 0x8e, 0xbd,
  0x42, 0xf8, 0x0e, 0x3e, 0x00, 0x00, 0x00, 0x00, 0xb9, 0x8f, 0xa6, 0x3d,
  0x56, 0x7f, 0x07, 0x3e, 0x76, 0x15, 0x39, 0xbd, 0x63, 0x5a, 0x87, 0xbc,
  0xde, 0xf7, 0xff, 0xff, 0x04, 0x00, 0x00, 0x00, 0x78, 0x00, 0x00, 0x00,
  0xd0, 0x3f, 0xc2, 0x3d, 0x02, 0x27, 0x53, 0x3d, 0x5c, 0xee, 0x7c, 0xbc,
  0x00, 0x00, 0x00, 0x00, 0x5d, 0xc1, 0x0b, 0x3d, 0xd8, 0xfb, 0x85, 0x3a,
  0xc9, 0xef, 0xb5, 0x3d, 0x80, 0x07, 0x69, 0x3e, 0x64, 0xd0, 0x10, 0x3e,
  0x00, 0x00, 0x00, 0x00, 0x00, 0x00, 0x00, 0x00, 0xb1, 0x48, 0x93, 0xbd,
  0x00, 0x00, 0x00, 0x00, 0x18, 0x40, 0x8c, 0xbc, 0x79, 0x91, 0x0b, 0x3e,
  0x00, 0x00, 0x00, 0x00, 0x72, 0xae, 0x55, 0xbd, 0x64, 0xfb, 0xfd, 0x3d,
  0xcf, 0x16, 0xfe, 0x3d, 0x51, 0x89, 0x25, 0xbc, 0x00, 0x00, 0x00, 0x00,
  0xe7, 0x93, 0x79, 0xbb, 0x6c, 0xec, 0xfe, 0xbc, 0x00, 0x00, 0x00, 0x00,
  0xa6, 0xac, 0x42, 0x3e, 0x9b, 0x3a, 0x24, 0xbd, 0x00, 0x00, 0x00, 0x00,
  0x35, 0x35, 0x06, 0xbe, 0x0e, 0xb6, 0x59, 0x3d, 0x00, 0x00, 0x00, 0x00,
  0x62, 0xf8, 0xff, 0xff, 0x04, 0x00, 0x00, 0x00, 0x80, 0x07, 0x00, 0x00,
  0xc8, 0x0c, 0x03, 0x3d, 0x2f, 0xc9, 0x9a, 0x3e, 0x06, 0xd5, 0xd7, 0x3d,
  0xb9, 0xa6, 0x2d, 0x3e, 0x71, 0xa7, 0x8c, 0xbe, 0x38, 0xc7, 0xe8, 0x3d,
  0x45, 0x9d, 0x11, 0xbe, 0xc1, 0x34, 0xf7, 0x3d, 0x4d, 0x8a, 0x94, 0x3e,
  0x8f, 0x0e, 0xf6, 0xbd, 0x9a, 0xe1, 0xa9, 0x3d, 0x6c, 0x86, 0x1a, 0xbe,
  0x97, 0x36, 0xab, 0xbe, 0xbd, 0x64, 0xa4, 0xbe, 0xc4, 0x12, 0x04, 0xbe,
  0x2d, 0xde, 0x9f, 0x3d, 0x7d, 0xb2, 0xfd, 0xbe, 0x45, 0xbe, 0x88, 0x3e,
  0x14, 0xac, 0xac, 0x3d, 0x43, 0x6a, 0xe4, 0x3e, 0x3e, 0xd2, 0x21, 0x3e,
  0x65, 0x36, 0x89, 0x3e, 0xfd, 0xb7, 0x41, 0x3d, 0x23, 0xc6, 0x8f, 0xbe,
  0xe8, 0x77, 0xd6, 0xbd, 0x3a, 0x04, 0x98, 0xbe, 0xd4, 0x10, 0xf5, 0xbe,
  0x8b, 0xc1, 0x16, 0xbb, 0x39, 0x5c, 0x99, 0x3e, 0x1c, 0x6d, 0x7d, 0xbe,
  0xfc, 0xa0, 0x4a, 0x3e, 0x26, 0xaa, 0x2d, 0x3d, 0x54, 0x5f, 0xc7, 0xbe,
  0x6f, 0x62, 0x32, 0xbe, 0x7b, 0x37, 0x0b, 0xbe, 0xec, 0xed, 0xc6, 0xbe,
  0xde, 0xea, 0xa2, 0x3e, 0x7a, 0x51, 0x16, 0x3e, 0xac, 0xb4, 0xc8, 0x3d,
  0xf7, 0xad, 0xf8, 0x3d, 0x9d, 0x78, 0x9f, 0xbc, 0xb6, 0x2a, 0x96, 0x3e,
  0xaf, 0xc7, 0x9f, 0x3e, 0xd1, 0xaf, 0x88, 0xbe, 0xdd, 0x60, 0x98, 0xbe,
  0xfa, 0x83, 0x32, 0x3e, 0x39, 0xa8, 0x8a, 0x3e, 0x60, 0x4b, 0xef, 0x3d,
  0x10, 0xf9, 0x55, 0xbe, 0xf0, 0xec, 0xe5, 0x3c, 0x68, 0x0f, 0x45, 0xbd,
  0x80, 0xc1, 0x01, 0xbc, 0xac, 0x14, 0x8b, 0xbe, 0x38, 0xf3, 0x01, 0xbd,
  0xb8, 0x1b, 0x53, 0xbd, 0x29, 0x33, 0xb5, 0x3e, 0x12, 0x54, 0x8b, 0xbe,
  0x57, 0xee, 0x8e, 0xbe, 0x4f, 0xdf, 0x01, 0xbe, 0x81, 0x5f, 0x75, 0xbe,
  0x60, 0x59, 0x97, 0xbc, 0xe7, 0x29, 0x85, 0x3e, 0x05, 0x0d, 0xb4, 0x3e,
  0x40, 0x85, 0x95, 0xbe, 0x04, 0xe7, 0x62, 0xbe, 0x2e, 0xed, 0x91, 0x3c,
  0xe4, 0x37, 0xd9, 0x3e, 0x9c, 0x20, 0xa9, 0x3e, 0x53, 0x6a, 0xe4, 0x3c,
  0x7f, 0x27, 0xed, 0x3c, 0xac, 0xa3, 0xe7, 0xbe, 0x8b, 0x2c, 0xc2, 0x3d,
  0xb2, 0x35, 0xff, 0xbc, 0xc8, 0xb4, 0x92, 0xbc, 0x68, 0xd5, 0x90, 0xbe,
  0x04, 0xde, 0x3d, 0x3e, 0xb7, 0xfe, 0xcd, 0xbe, 0x87, 0x5f, 0x84, 0x3e,
  0x0a, 0xd1, 0x81, 0x3e, 0xbb, 0xaf, 0x94, 0x3c, 0xd1, 0x68, 0xa0, 0x3e,
  0x15, 0x90, 0xa4, 0x3d, 0x7a, 0xb1, 0x82, 0x3e, 0x5b, 0x50, 0x06, 0x3e,
  0x50, 0xe9, 0x7b, 0x3d, 0x3d, 0xb0, 0x81, 0xbe, 0x7b, 0x93, 0xa0, 0xbd,
  0x1f, 0x72, 0x4e, 0xbe, 0x6a, 0xc0, 0xae, 0x3c, 0x91, 0x32, 0x61, 0x3e,
  0x9f, 0x1a, 0xb2, 0xbb, 0x95, 0xd7, 0x8a, 0xbe, 0x96, 0xff, 0x35, 0x3d,
  0xd0, 0xfe, 0xa5, 0xbe, 0x67, 0xc0, 0x8d, 0xbe, 0x30, 0x31, 0xb5, 0xbe,
  0x48, 0x65, 0x39, 0x3e, 0x5e, 0x08, 0xb9, 0xbe, 0x1e, 0xc6, 0x03, 0xbe,
  0x6f, 0xcb, 0xa3, 0xbe, 0x35, 0xa5, 0xc4, 0x3e, 0x80, 0xf1, 0xab, 0xbe,
  0xa9, 0x82, 0x61, 0x3e, 0x52, 0x4a, 0x9f, 0xbe, 0x17, 0xf7, 0x15, 0x3c,
  0x6e, 0xb0, 0x8f, 0x3e, 0x50, 0x9e, 0x85, 0x3e, 0xc6, 0x23, 0x9a, 0x3d,
  0xc5, 0xc8, 0xcc, 0xbd, 0x0c, 0x56, 0xac, 0xbd, 0x48, 0x17, 0x73, 0xbd,
  0xea, 0xdf, 0x8c, 0x3e, 0xf0, 0x85, 0x7c, 0x3d, 0x15, 0xfe, 0x8a, 0xbd,
  0xa8, 0x50, 0x9a, 0x3e, 0x45, 0x5b, 0x93, 0x3d, 0x3d, 0x76, 0xa7, 0xbd,
  0x91, 0x78, 0xd7, 0x3d, 0x2e, 0xf3, 0xb8, 0xbe, 0x04, 0x6c, 0xf1, 0xbe,
  0x3b, 0x7c, 0x5b, 0x3d, 0xf8, 0xdd, 0xc1, 0x3d, 0xd6, 0xc9, 0x10, 0xbc,
  0xe2, 0x25, 0xb8, 0x3c, 0x98, 0xc8, 0xb4, 0xbd, 0xba, 0x66, 0x14, 0xbd,
  0x63, 0x0f, 0xff, 0x39, 0xeb, 0x87, 0x79, 0x3e, 0x21, 0x67, 0x27, 0x3e,
  0xec, 0x4b, 0xa0, 0x3e, 0xd4, 0x58, 0x12, 0xbc, 0xd4, 0xf2, 0x8e, 0xbd,
  0x5b, 0x7e, 0x7b, 0xbe, 0xbb, 0xf1, 0x0b, 0x3d, 0x87, 0x09, 0xb6, 0x3e,
  0xfb, 0x79, 0x12, 0x3e, 0xc8, 0x27, 0x84, 0x3d, 0xb7, 0xdd, 0xa4, 0x3d,
  0xac, 0x2e, 0x2e, 0xbe, 0x12, 0x73, 0x74, 0x3d, 0x58, 0x28, 0xd1, 0xbc,
  0x76, 0xa0, 0x99, 0xbd, 0x3f, 0xfb, 0x66, 0xbe, 0xc2, 0x51, 0xf9, 0xbd,
  0xe0, 0x8d, 0x14, 0x3c, 0x8f, 0x96, 0xb3, 0xbe, 0x98, 0x1b, 0x20, 0x3d,
  0x20, 0x3b, 0x72, 0xbc, 0xb6, 0xb9, 0x57, 0x3e, 0xcd, 0x86, 0xb0, 0xbe,
  0x78, 0x5f, 0xe4, 0x3d, 0xf0, 0xb2, 0x10, 0xbd, 0xd3, 0x07, 0x8f, 0x3e,
  0xe8, 0x65, 0x82, 0xbe, 0xae, 0x59, 0x75, 0xbe, 0x80, 0x89, 0x97, 0xbb,
  0x00, 0x3c, 0x26, 0x3b, 0x56, 0x0d, 0x65, 0x3e, 0x79, 0xf2, 0x0e, 0xbe,
  0x94, 0x2d, 0xa4, 0x3d, 0xb9, 0xce, 0x9a, 0xbe, 0xc5, 0x45, 0xa8, 0xbe,
  0xf0, 0xa9, 0xcf, 0x3d, 0x02, 0x1f, 0x55, 0x3e, 0xa0, 0x8e, 0x1a, 0xbc,
  0x95, 0x0a, 0x83, 0xbe, 0xb4, 0xc1, 0xad, 0x3d, 0x08, 0x84, 0x7f, 0x3d,
  0x56, 0xa0, 0x2a, 0xbe, 0xef, 0xf0, 0x86, 0x3e, 0x80, 0x76, 0xc8, 0x3c,
  0xab, 0x49, 0x9c, 0x3e, 0xfc, 0x2e, 0x43, 0xbe, 0xc6, 0xb6, 0x28, 0x3e,
  0x9f, 0xda, 0x3a, 0xbe, 0xd0, 0xee, 0x7a, 0x3d, 0x48, 0x4a, 0x5f, 0x3e,
  0xee, 0x60, 0xb5, 0xbe, 0xa0, 0xc2, 0xa4, 0xbe, 0xa1, 0x1e, 0x43, 0x3e,
  0x52, 0x30, 0x44, 0x3e, 0x07, 0x11, 0x9b, 0x3e, 0x29, 0xcc, 0xba, 0x3e,
  0x07, 0x08, 0x9d, 0x3c, 0x4e, 0x97, 0x1e, 0x3d, 0x8c, 0xd8, 0x84, 0x3d,
  0x16, 0xb3, 0x9f, 0xbd, 0xc5, 0xdd, 0x97, 0x3e, 0xfd, 0x02, 0x4c, 0xbe,
  0x50, 0x07, 0x76, 0xbe, 0x08, 0xa2, 0x4e, 0xbe, 0xc6, 0x63, 0x99, 0x3c,
  0xf5, 0x5a, 0x91, 0xbe, 0x96, 0xe0, 0x63, 0xbe, 0xda, 0x9e, 0x3a, 0x3e,
  0xfa, 0xcf, 0x4f, 0x3e, 0x48, 0x35, 0x55, 0x3d, 0x90, 0x75, 0x88, 0xbe,
  0xe4, 0xd6, 0x01, 0x3e, 0x51, 0x0e, 0x82, 0x3e, 0x88, 0x34, 0x9e, 0xbd,
  0x74, 0xe5, 0xc7, 0xbd, 0x88, 0x72, 0x0e, 0xbe, 0x49, 0x8a, 0x54, 0xbe,
  0x7a, 0x02, 0x7d, 0x3e, 0x6a, 0x47, 0x32, 0xbe, 0xe4, 0x53, 0x86, 0x3d,
  0x40, 0x6e, 0x75, 0x3c, 0x1d, 0xb4, 0x65, 0x3e, 0xb9, 0xf3, 0x01, 0x3e,
  0x5f, 0x2f, 0xd7, 0xbe, 0xcf, 0x15, 0x99, 0xbe, 0x09, 0x1f, 0xef, 0xbe,
  0x0e, 0xa6, 0xb0, 0x3d, 0xaa, 0xe9, 0x6f, 0x3e, 0x2c, 0x5f, 0x61, 0x3e,
  0x2e, 0x6d, 0x49, 0x3c, 0x26, 0x34, 0x91, 0x3e, 0xcb, 0x79, 0x9e, 0xbd,
  0xd8, 0x42, 0x0d, 0x3e, 0x06, 0xa7, 0x76, 0x3e, 0xd4, 0xda, 0xa1, 0x3d,
  0x61, 0x68, 0xf0, 0x3d, 0x89, 0x2c, 0x2a, 0x3e, 0x8f, 0x65, 0x01, 0xbe,
  0xe3, 0xf8, 0xac, 0xbe, 0x8f, 0x0e, 0x3c, 0xbd, 0x7c, 0x34, 0x5a, 0x3d,
  0x4e, 0x22, 0xf4, 0x3d, 0x12, 0xe4, 0x80, 0x3e, 0x7e, 0xa2, 0xb2, 0x3e,
  0xc7, 0xe1, 0x7b, 0xbd, 0xd4, 0xdd, 0xb5, 0x3d, 0xb8, 0x26, 0x8a, 0x3d,
  0x39, 0x2d, 0x42, 0xbd, 0xa6, 0x08, 0xd0, 0xbd, 0x5e, 0x24, 0x8e, 0x3e,
  0x21, 0x0f, 0x4c, 0xbc, 0x58, 0x6c, 0x2c, 0xbd, 0x09, 0x75, 0xc0, 0xbe,
  0x29, 0x22, 0x95, 0x3e, 0xe0, 0xb5, 0x9f, 0xbd, 0xc8, 0x33, 0x81, 0xbe,
  0xca, 0x8f, 0x94, 0xbe, 0x9e, 0x0a, 0x8d, 0xbe, 0x72, 0xfe, 0x8e, 0xbe,
  0x5e, 0xd2, 0x5f, 0x3e, 0xaa, 0xb2, 0x60, 0x3e, 0x13, 0xb4, 0x9a, 0x3e,
  0x49, 0xd1, 0x9f, 0xbe, 0x90, 0x32, 0xa0, 0x3d, 0xc8, 0x3c, 0x4c, 0xbe,
  0x9b, 0xcb, 0x8a, 0x3e, 0xb1, 0x43, 0x25, 0xbe, 0xa6, 0x8f, 0x6e, 0x3e,
  0x92, 0x9e, 0x3b, 0x3e, 0x46, 0x2c, 0x0a, 0x3e, 0x68, 0x55, 0x58, 0x3c,
  0x55, 0x98, 0xba, 0x3e, 0x1c, 0xea, 0x0c, 0x3c, 0x81, 0x4b, 0x8a, 0x3e,
  0xfb, 0x3b, 0x3c, 0xbd, 0xe2, 0x55, 0xaa, 0x3e, 0xab, 0x62, 0xa2, 0x3e,
  0xe8, 0xdb, 0x99, 0xbe, 0x8f, 0xf3, 0x01, 0xbe, 0xb7, 0x76, 0xaf, 0xbe,
  0xba, 0xd4, 0x32, 0xbe, 0x92, 0x68, 0x38, 0xbe, 0x80, 0x87, 0xba, 0x3c,
  0xc3, 0x59, 0x31, 0x3c, 0xc0, 0x69, 0x93, 0x3d, 0x90, 0x32, 0xe9, 0xbe,
  0x4d, 0x78, 0x4f, 0xbe, 0xec, 0xf3, 0x47, 0xbe, 0x85, 0xf5, 0x8e, 0x3e,
  0xbc, 0xe7, 0x93, 0x3e, 0x6e, 0x02, 0x5b, 0x3e, 0x95, 0x99, 0xd8, 0xbd,
  0x20, 0x03, 0x86, 0x3e, 0xc8, 0x1d, 0x8b, 0xbe, 0x52, 0x27, 0x83, 0x3e,
  0x41, 0xb2, 0xea, 0xbb, 0xc3, 0x1a, 0x01, 0x3e, 0x7c, 0x24, 0x9f, 0xbd,
  0x5a, 0x64, 0xb5, 0x3d, 0x72, 0xf4, 0x8e, 0xbd, 0xec, 0x83, 0x44, 0x3e,
  0x9e, 0x70, 0x4a, 0x3e, 0x33, 0x5a, 0x97, 0xbe, 0x83, 0x75, 0x61, 0x3d,
  0x2c, 0xec, 0x44, 0x3e, 0xc1, 0x05, 0x4d, 0xbd, 0x4a, 0xd8, 0x0f, 0x3e,
  0x66, 0x57, 0xd7, 0x3c, 0x1b, 0x1c, 0xce, 0xbc, 0xc2, 0x7a, 0x93, 0xbe,
  0x19, 0xec, 0x57, 0x3e, 0x65, 0xed, 0x92, 0xbe, 0xaa, 0x67, 0x87, 0xbd,
  0x50, 0xdd, 0x9e, 0x3e, 0x2e, 0x22, 0x04, 0x3e, 0x69, 0xd6, 0x6e, 0xbe,
  0xd8, 0x92, 0x04, 0xbe, 0x8a, 0x25, 0x8f, 0x3c, 0x6d, 0x25, 0x2f, 0xbd,
  0x3c, 0x31, 0x4e, 0x3e, 0xfa, 0xe1, 0x52, 0x3e, 0x79, 0xe3, 0xaf, 0x3d,
  0xfb, 0x78, 0x3a, 0x3c, 0x5e, 0x14, 0x9a, 0xbe, 0xca, 0x03, 0x9a, 0x3c,
  0x00, 0xbe, 0x79, 0xbe, 0x83, 0x5d, 0x8b, 0x3e, 0xf5, 0xa8, 0xba, 0xbe,
  0xb3, 0x22, 0x9c, 0x3e, 0xcd, 0xb7, 0xa0, 0xbe, 0x7a, 0xf5, 0xbe, 0x3c,
  0xa5, 0x49, 0x78, 0xbe, 0x68, 0xa9, 0x9d, 0xbd, 0x58, 0x12, 0x4c, 0x3d,
  0x28, 0x93, 0x1d, 0xbe, 0x09, 0x47, 0xb6, 0xbe, 0x3f, 0x15, 0x10, 0xbe,
  0x7a, 0x97, 0x69, 0xbe, 0xc4, 0xca, 0x93, 0xbe, 0x03, 0xf3, 0x52, 0xbe,
  0x9c, 0xed, 0xb1, 0xbe, 0xd0, 0xb3, 0x69, 0xbd, 0x6d, 0x4e, 0x8e, 0x3e,
  0xa0, 0x93, 0x2e, 0xbd, 0x1e, 0x5b, 0x1c, 0x3e, 0xb0, 0xad, 0x23, 0x3d,
  0x00, 0xc1, 0xbb, 0x3b, 0x38, 0xff, 0x4a, 0x3d, 0x35, 0x01, 0xac, 0x3e,
  0x84, 0x49, 0xaf, 0xbe, 0x41, 0x3b, 0x83, 0x3d, 0x37, 0xf4, 0xe9, 0xbe,
  0x72, 0x23, 0xbf, 0x3e, 0x8d, 0x78, 0x21, 0x3c, 0x1c, 0x8f, 0x3f, 0x3e,
  0x60, 0x7e, 0xbd, 0xbe, 0x29, 0xe0, 0x22, 0x3e, 0x5f, 0xe6, 0xfd, 0x3d,
  0xf8, 0x42, 0xb0, 0x3e, 0xcf, 0x8f, 0x38, 0x3e, 0x3c, 0xd1, 0x36, 0xbc,
  0x6d, 0x71, 0x38, 0xbe, 0xb5, 0x93, 0x8b, 0xbe, 0xa4, 0x4c, 0x09, 0x3d,
  0x9f, 0x5c, 0xc9, 0xbd, 0xab, 0xec, 0x13, 0x3e, 0xeb, 0x6c, 0x4d, 0xbe,
  0xe2, 0xb6, 0x72, 0xbe, 0x37, 0xb4, 0x70, 0x3d, 0x07, 0x0a, 0xea, 0x3d,
  0xec, 0x6b, 0xbe, 0x3c, 0x3f, 0x70, 0x90, 0x3e, 0x87, 0xbf, 0x9b, 0xbe,
  0x4d, 0x45, 0xf9, 0x3d, 0x17, 0x97, 0x79, 0x3e, 0x18, 0x4e, 0xa7, 0x3e,
  0x05, 0x4d, 0x11, 0x3e, 0x5f, 0x61, 0x1e, 0xbe, 0x99, 0xc0, 0x2d, 0xbe,
  0x95, 0xc8, 0x5f, 0x3e, 0x41, 0x71, 0x6b, 0xbe, 0x92, 0x72, 0xf9, 0xbd,
  0x48, 0xb6, 0xb3, 0xbe, 0x7e, 0x67, 0xad, 0xbe, 0x94, 0x74, 0x83, 0xbd,
  0xda, 0x03, 0x2f, 0xbe, 0xae, 0xe2, 0x77, 0xbe, 0x36, 0xae, 0x75, 0xbe,
  0x60, 0x7b, 0x37, 0xbc, 0xe2, 0x3e, 0x52, 0x3e, 0xf6, 0x7c, 0x5b, 0x3e,
  0xad, 0x55, 0x02, 0xbe, 0xa0, 0x02, 0x31, 0xbd, 0x70, 0x6d, 0xd6, 0xbc,
  0x47, 0x56, 0xaa, 0x3e, 0x8a, 0x10, 0x4f, 0xbe, 0xd5, 0xfb, 0x66, 0xbe,
  0xe0, 0x5c, 0x8f, 0x3e, 0x0e, 0xe1, 0x9e, 0xbd, 0x61, 0x67, 0xfb, 0x3e,
  0xca, 0xa2, 0xf2, 0xbd, 0x7f, 0x18, 0x6f, 0x3e, 0x7f, 0xd8, 0x03, 0xbd,
  0x35, 0x8a, 0x89, 0xbc, 0xd8, 0x0e, 0x1e, 0xbe, 0xbf, 0xa6, 0x89, 0xbb,
  0xdf, 0x1b, 0xe4, 0x3e, 0x3b, 0xbc, 0xae, 0xbe, 0x77, 0x20, 0x76, 0x3d,
  0x1a, 0x6b, 0x83, 0xbe, 0x8a, 0xb6, 0x6c, 0xbe, 0x6f, 0xeb, 0xd2, 0xbd,
  0x05, 0x30, 0x90, 0xbe, 0x7c, 0xbc, 0xe3, 0xbe, 0x75, 0x1a, 0xf0, 0xbd,
  0xb5, 0x53, 0x37, 0xbc, 0x60, 0x83, 0x09, 0x3d, 0x5c, 0xe2, 0x05, 0xbe,
  0x82, 0x59, 0xaa, 0x3c, 0x93, 0x5a, 0x0c, 0x3e, 0xae, 0xa5, 0x17, 0x3e,
  0x83, 0x92, 0x26, 0x3d, 0x78, 0xb7, 0x1c, 0x3e, 0x26, 0x51, 0x74, 0x3e,
  0x7c, 0xe9, 0x89, 0x3e, 0x17, 0x8c, 0x88, 0x3d, 0x46, 0x2f, 0x07, 0xbe,
  0x98, 0x91, 0xbc, 0x3d, 0x07, 0x5a, 0xe1, 0x3d, 0x6c, 0x06, 0xab, 0xbe,
  0xd2, 0x03, 0x0d, 0x3e, 0x57, 0x2e, 0x84, 0x3e, 0x10, 0xa3, 0x5c, 0xbd,
  0x40, 0x91, 0x5f, 0xbe, 0xa0, 0x27, 0x31, 0xbc, 0x73, 0xbf, 0x8c, 0xbe,
  0xbe, 0x99, 0xa4, 0xbe, 0x18, 0x2d, 0x33, 0x3d, 0x80, 0xd9, 0x5a, 0xbb,
  0x6f, 0x8c, 0x91, 0xbe, 0x35, 0xe1, 0x9a, 0x3e, 0xe8, 0x2a, 0x55, 0xbd,
  0x04, 0xb0, 0xdf, 0xbd, 0x10, 0xd1, 0xac, 0x3c, 0x85, 0xf0, 0x89, 0xbe,
  0xb4, 0x48, 0x1e, 0x3e, 0x93, 0xa5, 0x8c, 0xbe, 0x00, 0xa2, 0xf9, 0x3d,
  0x5a, 0x45, 0x8f, 0x3e, 0xd6, 0x96, 0x5a, 0xbe, 0x1f, 0xcf, 0x1a, 0x3d,
  0x30, 0xbb, 0xc4, 0x3d, 0xf3, 0xf9, 0x7b, 0x3e, 0x03, 0x98, 0x2f, 0x3e,
  0xad, 0x9b, 0xd0, 0xbc, 0xc9, 0x4d, 0x7c, 0x3e, 0xbd, 0x7a, 0xe8, 0x3d,
  0xee, 0x17, 0x7c, 0x3e, 0x19, 0x66, 0x17, 0xbe, 0x5e, 0xf3, 0xfb, 0xbc,
  0x98, 0x3d, 0x37, 0xbc, 0x81, 0x0c, 0xd5, 0xbe, 0x31, 0x1c, 0x46, 0x3e,
  0x9a, 0x4f, 0x28, 0x3e, 0xd5, 0xc8, 0x12, 0x3e, 0xbc, 0xba, 0x09, 0x3e,
  0x5f, 0x3f, 0x5f, 0xbe, 0x78, 0x3b, 0x8e, 0xbe, 0x54, 0xc7, 0xaa, 0xbd,
  0x5d, 0xaa, 0xf5, 0x3c, 0xcb, 0x8c, 0x0b, 0x3d, 0xb4, 0x1f, 0x03, 0xbe,
  0x32, 0x72, 0x42, 0x3e, 0xf2, 0xb1, 0x49, 0x3d, 0x11, 0x2f, 0x09, 0x3e,
  0xa4, 0x1f, 0x91, 0xbd, 0x98, 0x21, 0xaa, 0x3d, 0x3a, 0xd5, 0xf1, 0xbd,
  0x53, 0x08, 0xb5, 0x3e, 0x7e, 0xaf, 0x9c, 0xbe, 0x97, 0x2b, 0xa9, 0xbe,
  0xb2, 0x39, 0x99, 0xbe, 0x57, 0x70, 0x98, 0xbe, 0x1a, 0x4d, 0x88, 0xbe,
  0x89, 0x1f, 0xb1, 0xbe, 0x75, 0x67, 0xae, 0x3e, 0x69, 0x41, 0x88, 0xbe,
  0xa4, 0xee, 0xa0, 0xbd, 0xb7, 0x93, 0x8e, 0x3e, 0x82, 0x18, 0xa7, 0xbe,
  0x03, 0xa5, 0x8b, 0xbe, 0xb6, 0x0c, 0xa1, 0xbe, 0x2f, 0x66, 0xa1, 0x3e,
  0xa4, 0xed, 0xff, 0xff, 0xa8, 0xed, 0xff, 0xff, 0x04, 0x00, 0x06, 0x00,
  0x04, 0x00, 0x00, 0x00, 0x00, 0x00, 0x06, 0x00, 0x08, 0x00, 0x04, 0x00,
  0x06, 0x00, 0x00, 0x00, 0x04, 0x00, 0x00, 0x00, 0x10, 0x0e, 0x00, 0x00,
  0x00, 0x99, 0x02, 0x3b, 0x2a, 0x7e, 0x12, 0x3e, 0x95, 0x30, 0x11, 0xbe,
  0xa0, 0x21, 0xc9, 0xbc, 0x10, 0x39, 0x82, 0xbc, 0xae, 0xde, 0x30, 0x3e,
  0x10, 0xbb, 0xc5, 0xbc, 0x01, 0x03, 0x14, 0xbe, 0xed, 0x8b, 0x87, 0x3e,
  0x28, 0x7f, 0xbd, 0xbd, 0xae, 0x32, 0x75, 0x3e, 0x70, 0xf1, 0xc6, 0x3c,
  0xc4, 0x63, 0x3a, 0x3e, 0x7a, 0x1e, 0x8e, 0xbe, 0x50, 0x47, 0x5f, 0xbe,
  0x98, 0xa4, 0x18, 0xbd, 0xf2, 0x09, 0x80, 0xbe, 0x6c, 0x8e, 0x4e, 0xbe,
  0x80, 0x3c, 0x25, 0xbc, 0x90, 0x14, 0xda, 0xbc, 0x40, 0xe1, 0x4e, 0xbe,
  0x58, 0x2c, 0x0d, 0x3e, 0xbe, 0x91, 0x0a, 0x3e, 0x02, 0x15, 0x17, 0xbe,
  0x7f, 0x41, 0x97, 0xbe, 0xb4, 0x42, 0x44, 0xbe, 0xcb, 0x98, 0x2a, 0xbe,
  0x90, 0x4f, 0x89, 0xbe, 0x3b, 0xe9, 0x5d, 0xbe, 0xbc, 0x68, 0xb8, 0xbd,
  0xfc, 0x40, 0x69, 0x3e, 0x85, 0x4d, 0xcb, 0xbe, 0x01, 0xb8, 0xe8, 0xbd,
  0xf6, 0x5e, 0x74, 0x3e, 0xbf, 0xbb, 0x4d, 0x3d, 0x41, 0xae, 0xb4, 0x3d,
  0x85, 0x36, 0xbd, 0x3d, 0x48, 0x8d, 0xf9, 0x3d, 0x70, 0xcd, 0x84, 0x3e,
  0xc0, 0x1b, 0x21, 0xbc, 0x02, 0xc8, 0x3d, 0xbe, 0x05, 0xcc, 0x89, 0x3e,
  0x8c, 0xd0, 0x3a, 0x3e, 0x79, 0xf4, 0xa2, 0x3e, 0xcf, 0x23, 0x89, 0x3e,
  0x89, 0x2e, 0x99, 0xbe, 0x73, 0x14, 0x71, 0x3c, 0x1a, 0x44, 0x60, 0xbe,
  0x82, 0x9e, 0xa3, 0xbe, 0xb0, 0xc9, 0x50, 0x3e, 0x00, 0xa6, 0x75, 0x3d,
  0xb2, 0xe4, 0xb3, 0xbe, 0xb6, 0xe1, 0x9f, 0xbd, 0x3d, 0x85, 0x9f, 0x3e,
  0x65, 0x09, 0x08, 0x3e, 0x7d, 0xb4, 0x75, 0x3c, 0x68, 0x0a, 0xb0, 0x3d,
  0x8c, 0x9d, 0xb1, 0x3d, 0x9c, 0xdb, 0x21, 0xbe, 0x50, 0x72, 0xa3, 0xbd,
  0xb6, 0x79, 0xed, 0x3e, 0x0c, 0xd0, 0xa9, 0xbe, 0xb9, 0x72, 0xa6, 0xbd,
  0x5e, 0x46, 0x9d, 0xbe, 0x4f, 0xb6, 0x90, 0xbc, 0xd1, 0xd0, 0x62, 0xbd,
  0x37, 0x8c, 0xa0, 0xbd, 0x94, 0x6d, 0xad, 0x3d, 0x06, 0x0a, 0x5b, 0x3e,
  0x80, 0x86, 0x32, 0xbd, 0x1e, 0x45, 0x99, 0xbe, 0x45, 0x4a, 0x98, 0xbd,
  0x10, 0x3e, 0xed, 0xbc, 0xa0, 0x36, 0xa9, 0x3d, 0x89, 0xf3, 0x1a, 0xbc,
  0x0e, 0xa4, 0x03, 0x3e, 0xc0, 0xa9, 0xd4, 0x3d, 0x0d, 0x49, 0x00, 0x3e,
  0xed, 0x2c, 0x5d, 0xbe, 0xe3, 0x83, 0x9a, 0x3e, 0x90, 0xb4, 0xb9, 0x3c,
  0xa7, 0x76, 0x0c, 0xbf, 0x60, 0x90, 0x3b, 0x3e, 0x04, 0xc4, 0xb7, 0x3d,
  0xb0, 0x34, 0x2a, 0x3d, 0x6c, 0x70, 0x7f, 0x3e, 0x00, 0xc0, 0xcc, 0xbb,
  0x90, 0x44, 0x3d, 0x3e, 0x25, 0x92, 0xfb, 0x3b, 0x2e, 0x9b, 0x7e, 0x3e,
  0xf6, 0xf7, 0xc0, 0xbe, 0xed, 0xc6, 0xf8, 0x3e, 0x17, 0xca, 0x9d, 0xbd,
  0xf2, 0x75, 0x47, 0x3e, 0x50, 0xbf, 0x6d, 0x3d, 0xd4, 0xd6, 0x6e, 0x3e,
  0x8d, 0xa3, 0x81, 0x3e, 0x7f, 0xae, 0x01, 0xbe, 0xfe, 0xb7, 0x74, 0x3e,
  0x6d, 0x45, 0x23, 0xbe, 0xa8, 0x38, 0xc2, 0x3d, 0x98, 0x3d, 0x9f, 0xbd,
  0x9e, 0x15, 0x61, 0x3e, 0xf0, 0x44, 0xa2, 0xbe, 0x29, 0x7c, 0x28, 0x3e,
  0x5b, 0xe5, 0x7d, 0xbe, 0xf0, 0x90, 0x3a, 0x3e, 0x8c, 0x0e, 0xda, 0xbc,
  0x4b, 0x07, 0x4e, 0xbe, 0xf5, 0x49, 0x84, 0xbe, 0x70, 0x23, 0x0f, 0xbd,
  0xcb, 0x6e, 0xaf, 0xbe, 0xe6, 0x08, 0x15, 0xbe, 0x60, 0xac, 0xcd, 0xbc,
  0x25, 0xb0, 0xa7, 0x3e, 0x77, 0xa0, 0x11, 0xbc, 0x5c, 0xc5, 0xc3, 0x3d,
  0xb0, 0xdc, 0x02, 0x3e, 0xf9, 0xda, 0x50, 0xbc, 0xba, 0xb0, 0x77, 0xbe,
  0x52, 0xde, 0xc0, 0xbd, 0xe6, 0x52, 0x68, 0xbe, 0xe2, 0xae, 0x96, 0x3c,
  0xa0, 0x1e, 0x8c, 0x3d, 0xba, 0xa1, 0x79, 0xbc, 0x88, 0xdc, 0x38, 0xbe,
  0x08, 0x3b, 0x10, 0xbd, 0x11, 0x1f, 0x52, 0xbd, 0xa2, 0xfd, 0xa1, 0x3e,
  0xd2, 0xc9, 0x4f, 0xbe, 0xf4, 0xa8, 0xfc, 0x3d, 0xed, 0x32, 0x4f, 0xbe,
  0x5a, 0x84, 0x53, 0x3e, 0x91, 0x9c, 0x81, 0x3b, 0x3f, 0xf8, 0x2c, 0xbd,
  0xe8, 0x90, 0x8d, 0xbe, 0xf3, 0x3b, 0x29, 0xbe, 0x67, 0x4f, 0x8c, 0xbd,
  0xb4, 0x28, 0x52, 0x3e, 0x3c, 0xe4, 0x20, 0x3e, 0x14, 0xd8, 0x4d, 0xbe,
  0x88, 0x2c, 0x7b, 0xbe, 0x2f, 0x4d, 0x2b, 0x3c, 0xb0, 0xc2, 0xa1, 0x3c,
  0xd5, 0x76, 0xa7, 0x3e, 0x4c, 0x98, 0xcb, 0x3d, 0x3a, 0x61, 0x42, 0xbe,
  0x4d, 0x64, 0xa6, 0xbe, 0xf2, 0x37, 0x31, 0xbe, 0x94, 0x6e, 0x87, 0x3d,
  0xcc, 0x2f, 0x25, 0x3f, 0xed, 0xc5, 0x6d, 0xbe, 0x89, 0xea, 0xad, 0x3e,
  0x20, 0x58, 0x63, 0x3d, 0x7b, 0xff, 0x45, 0xbe, 0x10, 0x50, 0x9b, 0xbe,
  0xb1, 0x41, 0x08, 0xbe, 0xcb, 0x1d, 0x99, 0x3e, 0x76, 0xb3, 0x0c, 0x3e,
  0xf9, 0x43, 0x88, 0x3e, 0x45, 0x60, 0x96, 0x3e, 0x95, 0xc6, 0xde, 0x3e,
  0xe0, 0x19, 0x25, 0x3e, 0xbe, 0x18, 0x0c, 0x3e, 0x8b, 0xac, 0xda, 0x3d,
  0x08, 0xdc, 0xad, 0xbd, 0x43, 0xbc, 0x3a, 0xbe, 0x47, 0x4d, 0x7b, 0x3e,
  0x36, 0x55, 0x5e, 0x3e, 0x09, 0x2e, 0x6c, 0xbe, 0xfb, 0x74, 0x82, 0xbe,
  0x22, 0x34, 0xa3, 0xbe, 0x4f, 0xcd, 0xa1, 0xbd, 0xc4, 0x00, 0x88, 0xbe,
  0x56, 0xf8, 0x66, 0x3d, 0xa4, 0xd5, 0xab, 0x3e, 0x40, 0xb9, 0xee, 0x3c,
  0x83, 0xfb, 0xa8, 0x3e, 0x8f, 0x8e, 0x9d, 0xbd, 0x50, 0xd7, 0x02, 0xbd,
  0x1a, 0x88, 0xfd, 0xbc, 0xe5, 0x71, 0xaa, 0xbe, 0xe5, 0x72, 0x6e, 0xbe,
  0x39, 0xfa, 0x9f, 0xbe, 0xbd, 0x2e, 0x9c, 0xbd, 0xf0, 0x05, 0xf7, 0x3c,
  0x60, 0x52, 0x13, 0x3d, 0x0a, 0x3a, 0x77, 0x3e, 0xeb, 0x71, 0x9f, 0xbe,
  0xe8, 0x13, 0x15, 0x3e, 0xfe, 0x66, 0xbe, 0xbd, 0x04, 0x6d, 0x16, 0xbe,
  0xb8, 0xe8, 0x08, 0xbd, 0x57, 0x95, 0x24, 0x3e, 0xe1, 0x97, 0xa0, 0x3c,
  0x62, 0x0b, 0x04, 0xbe, 0xe3, 0x30, 0x0b, 0xbd, 0xa9, 0x61, 0xe7, 0xbd,
  0x80, 0xcd, 0xfd, 0x3d, 0xa9, 0x70, 0x8b, 0x3e, 0x06, 0x3a, 0x95, 0xbe,
  0x6a, 0xb8, 0x92, 0xbe, 0x5b, 0x38, 0x5b, 0xbd, 0x80, 0x4c, 0x19, 0xbd,
  0x98, 0xd8, 0x08, 0xbe, 0xab, 0xe5, 0x4f, 0xbe, 0x70, 0xf5, 0xdf, 0xbd,
  0x6e, 0x5b, 0x64, 0x3b, 0xd1, 0x34, 0xad, 0x3d, 0x3a, 0x0d, 0x98, 0xbe,
  0x10, 0xcf, 0x78, 0xbd, 0xc2, 0xc0, 0x77, 0xbe, 0x8d, 0xd7, 0x8e, 0xbe,
  0x68, 0x44, 0x99, 0xbe, 0xf5, 0x5b, 0x80, 0xbe, 0x12, 0xdd, 0xaf, 0xbd,
  0x0e, 0x37, 0x29, 0xbe, 0x50, 0x3b, 0x88, 0xbc, 0x90, 0x14, 0x05, 0xbe,
  0xc0, 0x09, 0xd5, 0xbd, 0xe7, 0xf4, 0x85, 0x3e, 0xe2, 0xd6, 0x80, 0xbe,
  0xe2, 0xf1, 0x7c, 0x3e, 0xea, 0x2e, 0x47, 0x3e, 0x00, 0xfd, 0x97, 0xbc,
  0x46, 0x55, 0x66, 0x3e, 0x62, 0x59, 0xf9, 0xbd, 0xe2, 0xf2, 0x4e, 0x3e,
  0x02, 0x71, 0x3d, 0xbe, 0x60, 0xba, 0x5f, 0x3d, 0x0f, 0xae, 0x95, 0xbe,
  0x88, 0x89, 0x9e, 0xbe, 0xfb, 0x0a, 0x36, 0xbe, 0x1c, 0xea, 0xb2, 0xbd,
  0xf0, 0x21, 0x85, 0x3c, 0x10, 0xf3, 0xee, 0xbd, 0x40, 0xc1, 0xfb, 0xbc,
  0x10, 0x57, 0x8e, 0x3c, 0x70, 0x52, 0xe2, 0x3c, 0xe5, 0x27, 0x93, 0x3e,
  0xd1, 0x44, 0x89, 0xbe, 0x67, 0x2d, 0x6d, 0x3e, 0xd4, 0x1c, 0x00, 0xbe,
  0x12, 0xc0, 0x66, 0x3e, 0x86, 0xe6, 0x75, 0x3e, 0xa1, 0x13, 0xd4, 0xbd,
  0x25, 0x23, 0x0a, 0x3e, 0xd6, 0x78, 0x9c, 0x3e, 0x56, 0x4e, 0x04, 0x3e,
  0xff, 0x3b, 0x89, 0xbe, 0x34, 0x03, 0xc8, 0x3d, 0x47, 0xae, 0x19, 0xbd,
  0x1a, 0x47, 0x73, 0x3e, 0xee, 0xdf, 0xb0, 0xbe, 0x57, 0x11, 0x46, 0x3e,
  0xa4, 0x2d, 0x84, 0x3d, 0xd2, 0x15, 0x33, 0x3e, 0x0d, 0x38, 0x89, 0x3d,
  0xd1, 0x38, 0xc1, 0x3e, 0x7b, 0xb5, 0x34, 0x3c, 0xc1, 0x0b, 0x10, 0xbe,
  0x3a, 0xe4, 0xde, 0xbe, 0x49, 0x4e, 0x22, 0xbd, 0x54, 0xff, 0x20, 0x3e,
  0x8e, 0xa1, 0x9f, 0x3e, 0x6f, 0xc7, 0xe6, 0x3d, 0x23, 0xed, 0x05, 0xbe,
  0x17, 0x17, 0x82, 0xbe, 0x06, 0x6d, 0x48, 0x3e, 0x41, 0xcd, 0x65, 0xbe,
  0xbb, 0x80, 0xb2, 0x3e, 0x6b, 0x96, 0xb1, 0xbd, 0x87, 0x0c, 0xe4, 0xbe,
  0xa4, 0xda, 0x70, 0xbe, 0x51, 0x89, 0x11, 0xbe, 0xb0, 0xb0, 0x03, 0x3e,
  0x46, 0xdc, 0xef, 0x3d, 0x2d, 0x91, 0xe8, 0x3c, 0x02, 0xbc, 0xec, 0xbd,
  0x41, 0x64, 0x09, 0xbe, 0xac, 0x31, 0x7c, 0xbe, 0xf7, 0x3e, 0x9d, 0xbe,
  0x6a, 0x57, 0x8d, 0xbd, 0x04, 0x01, 0x83, 0xbe, 0x5a, 0xfd, 0x97, 0x3d,
  0x14, 0xf4, 0x0f, 0x3e, 0xbb, 0xce, 0xac, 0xbc, 0x20, 0x65, 0x85, 0x3d,
  0xf6, 0x2b, 0x79, 0x3e, 0x36, 0x15, 0x82, 0xbe, 0xf2, 0xb2, 0x94, 0xbe,
  0x9b, 0xcd, 0xf0, 0x3e, 0xc8, 0x90, 0x07, 0x3e, 0x80, 0x98, 0x9f, 0xbc,
  0x8e, 0xce, 0x8d, 0xbd, 0xb3, 0xe0, 0x2c, 0x3e, 0x40, 0xa2, 0x98, 0xbe,
  0xf4, 0xa0, 0xf9, 0x3d, 0x70, 0x69, 0x9d, 0xbd, 0x80, 0x91, 0x91, 0xbb,
  0xf7, 0xff, 0xd4, 0xbe, 0xa5, 0x15, 0xf7, 0x3e, 0x7d, 0xd3, 0xa9, 0x3d,
  0x80, 0x40, 0x38, 0xbb, 0x25, 0xff, 0x38, 0x3e, 0x8e, 0xa1, 0x8b, 0xbd,
  0x4e, 0xdd, 0x6c, 0x3e, 0x39, 0x26, 0xfa, 0xbb, 0x4b, 0xbd, 0x0f, 0xbe,
  0x12, 0x5b, 0x2d, 0xbe, 0xa0, 0xd3, 0x62, 0x3c, 0x50, 0xe8, 0x8d, 0x3c,
  0x78, 0x8b, 0x0a, 0x3d, 0x13, 0x7f, 0x53, 0xbe, 0x2e, 0xb7, 0x6e, 0x3d,
  0xa6, 0xcb, 0x5d, 0x3e, 0xb8, 0x7d, 0x83, 0x3e, 0x29, 0xa8, 0xa5, 0x3d,
  0x59, 0xcf, 0x1a, 0xbe, 0x72, 0x5f, 0x76, 0x3e, 0x68, 0xf6, 0x3b, 0x3e,
  0x04, 0xc0, 0xce, 0x3e, 0x9f, 0x47, 0x33, 0xbe, 0x90, 0x7d, 0x28, 0x3e,
  0xa2, 0xc8, 0xe8, 0xbe, 0x84, 0x31, 0x12, 0x3e, 0x9c, 0xad, 0x83, 0xbd,
  0xd2, 0xab, 0x0f, 0xbe, 0x8a, 0x09, 0xa1, 0x3e, 0x48, 0x3b, 0xbb, 0x3d,
  0x94, 0x1a, 0xe2, 0x3e, 0x6a, 0x07, 0xfd, 0xbe, 0xbb, 0x55, 0x55, 0xbe,
  0x8b, 0xab, 0x9e, 0x3e, 0x08, 0xb9, 0xcf, 0x3d, 0xe9, 0x86, 0x3c, 0x3c,
  0x6a, 0x5e, 0x25, 0x3d, 0x45, 0x7e, 0xcf, 0xbe, 0x5d, 0xd5, 0x82, 0x3e,
  0xbc, 0xcc, 0xfe, 0x3d, 0x64, 0xd3, 0x89, 0x3d, 0xb1, 0x37, 0x8b, 0x3e,
  0x62, 0xa3, 0xbc, 0xbd, 0xea, 0x37, 0x6e, 0x3e, 0xf8, 0x11, 0x8d, 0x3e,
  0xee, 0xc1, 0x3e, 0x3e, 0x39, 0x3c, 0x8b, 0xbe, 0x27, 0x48, 0x9a, 0x3e,
  0xe2, 0xcf, 0x81, 0xbe, 0x7a, 0xdb, 0x6a, 0xbe, 0x8c, 0xc3, 0x48, 0xbe,
  0xc9, 0xd2, 0x16, 0xbd, 0x78, 0xb2, 0xc4, 0x3d, 0x5d, 0xfe, 0x91, 0x3e,
  0xad, 0xbd, 0x15, 0x3d, 0x8e, 0x84, 0x37, 0xbe, 0xaf, 0x55, 0x8a, 0xbe,
  0xd2, 0x85, 0xde, 0xbd, 0x73, 0x4f, 0xb8, 0xbd, 0xd2, 0x56, 0x00, 0xbe,
  0xf7, 0xc9, 0x92, 0x3d, 0x5c, 0xc6, 0x1a, 0xbc, 0xf9, 0xd9, 0x1d, 0xbe,
  0x02, 0x89, 0x96, 0xbe, 0x24, 0x5d, 0x48, 0x3e, 0x43, 0x23, 0xb7, 0xbd,
  0x8d, 0xce, 0x8f, 0x3d, 0x9e, 0x3f, 0x08, 0x3e, 0xe2, 0x6a, 0x23, 0x3e,
  0xb8, 0x0e, 0x28, 0x3d, 0xf6, 0xb3, 0x63, 0x3e, 0xa5, 0xf3, 0xbc, 0xbc,
  0xb6, 0x67, 0x85, 0xbe, 0x16, 0x2b, 0x78, 0xbe, 0xd3, 0xac, 0x2f, 0xbe,
  0x3e, 0x46, 0x5e, 0xbe, 0xc7, 0x6c, 0x45, 0x3e, 0xb6, 0x97, 0x62, 0x3d,
  0xcb, 0xe9, 0xf0, 0xbc, 0x5e, 0x6e, 0x6e, 0xbd, 0xca, 0xd1, 0x1f, 0x3e,
  0xa7, 0x27, 0xf9, 0x3c, 0x67, 0x16, 0x63, 0x3d, 0xbc, 0x0b, 0x74, 0xbe,
  0xd6, 0x87, 0x8b, 0xbc, 0x7e, 0x96, 0xda, 0xbc, 0xa4, 0x98, 0x6e, 0xbe,
  0x2e, 0x82, 0x38, 0xbe, 0xe7, 0x99, 0x88, 0xbd, 0xd6, 0xdb, 0x7e, 0x3e,
  0x8e, 0xf5, 0x29, 0xbd, 0xd5, 0xd6, 0x84, 0x3e, 0x9d, 0x85, 0x02, 0x3e,
  0x38, 0x97, 0x58, 0x3d, 0x8a, 0x3b, 0x5f, 0xbd, 0x80, 0x3e, 0x00, 0x3c,
  0x82, 0xcf, 0x96, 0xbd, 0x71, 0x49, 0xcb, 0x3e, 0x7f, 0x94, 0x9e, 0xbe,
  0x9a, 0x8f, 0x7b, 0x3e, 0x70, 0xfa, 0xeb, 0x3c, 0x55, 0xfe, 0x2c, 0xbd,
  0xf2, 0x60, 0x5f, 0x3e, 0x27, 0x7c, 0x91, 0x3d, 0x66, 0xa0, 0x96, 0xbe,
  0x80, 0x31, 0xba, 0x3c, 0x11, 0x2c, 0x05, 0xbf, 0x54, 0x7f, 0x3b, 0xbe,
  0xb1, 0x15, 0x7a, 0xba, 0x1c, 0x44, 0x34, 0x3e, 0x16, 0xfc, 0x20, 0x3e,
  0xe2, 0xd5, 0x8f, 0x3c, 0x5b, 0xbe, 0x09, 0x3e, 0xa6, 0x2a, 0xd4, 0xbd,
  0x24, 0xfa, 0x48, 0xbd, 0x35, 0x9f, 0xee, 0xbc, 0x58, 0xba, 0x17, 0xbd,
  0xc3, 0x12, 0xa9, 0x3d, 0xf3, 0xbe, 0x3e, 0x3e, 0xc8, 0xc6, 0xef, 0x3d,
  0x10, 0xd6, 0x87, 0x3d, 0x7b, 0x71, 0x0c, 0x3b, 0x01, 0x91, 0xa8, 0xbc,
  0x93, 0x97, 0x81, 0xbe, 0xf3, 0x64, 0x76, 0xbe, 0x28, 0x9b, 0x86, 0x3d,
  0xb5, 0xd2, 0x32, 0x3e, 0x60, 0x6e, 0xaa, 0x3d, 0xbe, 0xee, 0x37, 0xbe,
  0xf0, 0x5a, 0x93, 0xbc, 0x48, 0x0e, 0xca, 0xbd, 0x69, 0x8c, 0x1d, 0xbe,
  0x07, 0xe8, 0x9d, 0x3e, 0x56, 0x66, 0x28, 0x3e, 0x89, 0xff, 0x81, 0xbd,
  0xc6, 0x43, 0x67, 0x3e, 0x2d, 0xb6, 0x6e, 0xbe, 0x3a, 0xab, 0x93, 0x3e,
  0xb5, 0xa6, 0x48, 0x3e, 0xf5, 0xed, 0xef, 0xbd, 0xba, 0x91, 0x95, 0xbe,
  0x80, 0x14, 0xc6, 0xbc, 0xd9, 0x37, 0x88, 0x3b, 0xe0, 0x8f, 0xb9, 0xbc,
  0x57, 0xf0, 0x24, 0x3e, 0x34, 0x9b, 0x52, 0xbd, 0x18, 0xbc, 0xf0, 0x3d,
  0xa6, 0x1c, 0x36, 0xbe, 0xb6, 0x12, 0xcd, 0x3e, 0x00, 0x36, 0x89, 0x3b,
  0x32, 0xcb, 0x9e, 0x3e, 0xbc, 0xff, 0xd5, 0x3d, 0xe0, 0x60, 0x49, 0x3e,
  0xd6, 0xa5, 0x7e, 0x3e, 0x36, 0x49, 0x84, 0xbd, 0x1a, 0xdd, 0x72, 0xbe,
  0xe1, 0x8f, 0x99, 0x3e, 0xb0, 0x30, 0x1e, 0xbe, 0x2d, 0x7f, 0x56, 0x3e,
  0x53, 0x45, 0x84, 0xbe, 0xb8, 0x25, 0x39, 0xbe, 0xbe, 0xd0, 0x67, 0x3c,
  0x82, 0xda, 0x06, 0x3e, 0x08, 0xd3, 0x7f, 0xbb, 0x63, 0xc1, 0x4e, 0x3e,
  0xb8, 0xf9, 0x4d, 0xbd, 0x6e, 0x75, 0x06, 0x3c, 0x97, 0x38, 0x1c, 0xbe,
  0xf4, 0xaf, 0x52, 0xbd, 0xbc, 0x29, 0xd4, 0x3d, 0xc0, 0x88, 0x69, 0x3c,
  0xe6, 0x5a, 0x45, 0x3d, 0x9e, 0x03, 0x25, 0xbe, 0x62, 0xc1, 0x60, 0xbe,
  0x1d, 0x64, 0x36, 0x3e, 0x58, 0x57, 0x48, 0xbd, 0x44, 0x97, 0x9a, 0x3d,
  0x1f, 0x16, 0x9e, 0x3e, 0x69, 0x10, 0x67, 0x3e, 0x48, 0x62, 0x96, 0x3d,
  0xdf, 0x9a, 0x34, 0x3d, 0x65, 0x95, 0x27, 0xbf, 0xad, 0x33, 0x94, 0xbe,
  0xa3, 0x67, 0x83, 0xbe, 0xe9, 0xc7, 0x2b, 0x3e, 0x16, 0x9d, 0x63, 0x3e,
  0xa3, 0xc0, 0x59, 0x3e, 0xb8, 0x99, 0x10, 0x3e, 0x54, 0x2d, 0xa3, 0x3c,
  0xac, 0xb3, 0xc4, 0xbd, 0xaa, 0x2a, 0x8d, 0xbd, 0x12, 0xef, 0x7e, 0x3d,
  0x80, 0x7f, 0x38, 0x3c, 0x24, 0xd9, 0x8a, 0xbd, 0x7d, 0xd4, 0x51, 0xbe,
  0x91, 0xc3, 0x91, 0xbe, 0x7b, 0xfc, 0x64, 0x3e, 0x6a, 0x9c, 0xfa, 0xbb,
  0x10, 0x4f, 0x84, 0xbd, 0xe7, 0x8b, 0x1f, 0x3e, 0xb6, 0xbd, 0x3a, 0xbe,
  0xb9, 0x19, 0xef, 0xbe, 0x49, 0x0e, 0x95, 0xbe, 0x8c, 0x79, 0x54, 0xbe,
  0x62, 0x7b, 0xb2, 0x3e, 0x92, 0x48, 0x0c, 0xbe, 0x28, 0xd3, 0xa6, 0x3d,
  0x1b, 0x35, 0x68, 0x3e, 0xe8, 0x8d, 0xc7, 0x3d, 0x3c, 0xa3, 0xa4, 0x3d,
  0x45, 0xb2, 0x07, 0x3f, 0xc7, 0x36, 0x57, 0x3e, 0x12, 0x10, 0x20, 0xbe,
  0x01, 0x04, 0x9f, 0x3e, 0x19, 0x3e, 0x93, 0x3e, 0x4d, 0x95, 0xcd, 0xbd,
  0x9b, 0x4f, 0x01, 0xbe, 0x2a, 0x04, 0xdc, 0xbd, 0xfc, 0x43, 0x88, 0xbe,
  0x35, 0x7c, 0x1c, 0xbe, 0x1c, 0x55, 0x8e, 0x3d, 0x10, 0x73, 0x14, 0x3d,
  0xa6, 0x59, 0x37, 0xbe, 0x8f, 0xcd, 0x1b, 0xbe, 0xde, 0xd1, 0x6a, 0x3e,
  0x80, 0xe3, 0x09, 0x3e, 0x93, 0x13, 0xf8, 0x3d, 0x4e, 0x64, 0x33, 0x3d,
  0x48, 0xb3, 0xc7, 0x3d, 0x04, 0x74, 0x86, 0x3e, 0xae, 0x85, 0xdd, 0xbd,
  0x18, 0x08, 0xff, 0xba, 0x62, 0x61, 0x02, 0xbe, 0xac, 0x1c, 0x10, 0x3e,
  0x58, 0x62, 0x92, 0xbe, 0xcb, 0xe5, 0xf2, 0xbd, 0xe4, 0xbe, 0x97, 0xbe,
  0xeb, 0x6e, 0x8b, 0x3e, 0xc7, 0xea, 0x91, 0xbb, 0x1e, 0x62, 0x76, 0x3e,
  0xb1, 0xaf, 0xe4, 0xbe, 0x85, 0x0c, 0x99, 0x3e, 0x71, 0x08, 0xae, 0x3d,
  0xc9, 0x29, 0x95, 0x3e, 0x08, 0x50, 0xbd, 0x3e, 0xde, 0xd8, 0x61, 0xbe,
  0xa2, 0x79, 0x67, 0xbe, 0x92, 0xc0, 0x90, 0x3e, 0x71, 0x13, 0x8a, 0x3e,
  0xf0, 0x90, 0x50, 0xbd, 0xff, 0xd8, 0x35, 0xbe, 0xb5, 0x70, 0xd2, 0xbe,
  0xe8, 0xdd, 0x62, 0xbd, 0xfe, 0xea, 0xa3, 0x3c, 0x7d, 0xf3, 0x1d, 0x3e,
  0xe6, 0x58, 0x5d, 0x3e, 0x76, 0xc2, 0xdc, 0xbd, 0xcd, 0x1d, 0x1a, 0xbe,
  0xb6, 0x2b, 0x0e, 0xbe, 0x0a, 0x4a, 0x8a, 0x3e, 0x04, 0xfe, 0x18, 0xbe,
  0x48, 0x6d, 0xbc, 0x3e, 0x9d, 0xa5, 0x8e, 0xbe, 0xbc, 0x8c, 0x88, 0xbe,
  0x6a, 0xe4, 0x3f, 0xbd, 0x12, 0x5e, 0x7c, 0x3e, 0x72, 0x93, 0x18, 0x3e,
  0x0b, 0x1d, 0x8b, 0xbe, 0xaf, 0x8d, 0x0c, 0x3e, 0x8d, 0x41, 0x9b, 0x3e,
  0x50, 0x27, 0x3d, 0xbd, 0xb2, 0x40, 0xb2, 0xbd, 0xd0, 0xef, 0xa6, 0x3d,
  0x50, 0xdf, 0xe1, 0xbd, 0x00, 0xe8, 0x05, 0xbe, 0xa2, 0xf7, 0x42, 0x3e,
  0x66, 0x8b, 0x2e, 0x3e, 0x5c, 0xa6, 0x2e, 0x3e, 0x02, 0x1d, 0x88, 0xbe,
  0xe4, 0x59, 0xf3, 0x3d, 0x94, 0x5b, 0x1f, 0x3e, 0xf8, 0xef, 0x0a, 0xbd,
  0xb6, 0x1a, 0x02, 0x3e, 0xd4, 0x3b, 0x58, 0xbe, 0xe0, 0xd9, 0x7e, 0xbc,
  0x76, 0x2f, 0xf2, 0xbd, 0xdc, 0x80, 0x0a, 0x3e, 0xd0, 0x69, 0xa0, 0xbc,
  0x4c, 0x14, 0x92, 0xbe, 0x3e, 0xab, 0x8b, 0xbe, 0x6e, 0x40, 0x51, 0x3e,
  0xb0, 0x31, 0xd1, 0x3d, 0xe4, 0xa8, 0x4f, 0xbe, 0x40, 0xbd, 0x7b, 0xbd,
  0xf4, 0xc2, 0x0a, 0xbe, 0xde, 0x67, 0xcc, 0xbd, 0x74, 0xe3, 0x5f, 0xbe,
  0x97, 0x25, 0x04, 0xbe, 0xba, 0x49, 0xdf, 0xbd, 0x26, 0x4a, 0x60, 0x3e,
  0xa4, 0xc6, 0xe0, 0x3d, 0xf2, 0x19, 0x60, 0x3e, 0x76, 0x98, 0xd2, 0x3c,
  0x98, 0xea, 0x33, 0xbe, 0xcb, 0x79, 0x8d, 0xbe, 0xde, 0x45, 0x6f, 0x3e,
  0xba, 0xfe, 0x88, 0xbd, 0x76, 0x68, 0x2f, 0x3e, 0x68, 0x9d, 0x5a, 0x3d,
  0xe9, 0xbb, 0x99, 0x3e, 0x80, 0xfb, 0x33, 0x3b, 0xb2, 0xa0, 0x08, 0x3f,
  0xc2, 0x25, 0xbc, 0xbd, 0xff, 0x80, 0x0a, 0x3e, 0xe6, 0xd6, 0xbb, 0xbe,
  0x5b, 0x44, 0x53, 0xbe, 0xd5, 0xbe, 0x49, 0xbb, 0xa3, 0xdb, 0xe6, 0x3d,
  0x22, 0xfd, 0x32, 0x3d, 0x65, 0x1a, 0x86, 0x3e, 0x30, 0x10, 0x40, 0xbd,
  0xfa, 0x66, 0xae, 0xbd, 0x53, 0xf1, 0x10, 0xbe, 0x60, 0xe2, 0xca, 0x3c,
  0x77, 0x6a, 0xa6, 0xbe, 0xca, 0x79, 0x33, 0x3e, 0xd6, 0x82, 0x1d, 0xbe,
  0x7b, 0x40, 0xc4, 0x3c, 0x2f, 0x8f, 0x00, 0xbf, 0xc3, 0x74, 0x2a, 0xbe,
  0x0e, 0x25, 0x20, 0xbf, 0x50, 0x7d, 0xc9, 0xbd, 0x6e, 0x6d, 0x0d, 0xbe,
  0x64, 0xe2, 0x93, 0xbd, 0xd3, 0xd1, 0xbc, 0x3d, 0x07, 0x8d, 0xdd, 0x3c,
  0x1e, 0xbd, 0xbe, 0x3c, 0xd2, 0xb7, 0x31, 0x3d, 0x3f, 0x76, 0x60, 0x3e,
  0xe8, 0xa0, 0x44, 0x3d, 0x00, 0x41, 0xd1, 0x3c, 0x8c, 0x43, 0x91, 0xbe,
  0x58, 0x49, 0x59, 0xbd, 0x46, 0x32, 0x2e, 0x3d, 0xcd, 0x2a, 0x46, 0xbe,
  0x35, 0x11, 0x23, 0xbe, 0xa6, 0xdf, 0xb0, 0x3d, 0x79, 0x73, 0xb0, 0x3c,
  0x68, 0x68, 0x17, 0xbe, 0xf2, 0x36, 0xb6, 0xbc, 0xa8, 0x83, 0x92, 0x3d,
  0xfe, 0xc8, 0x08, 0x3f, 0xb8, 0x5a, 0x75, 0xbe, 0xcf, 0x38, 0x92, 0xbe,
  0xb9, 0xd1, 0xbd, 0x3e, 0xbe, 0x09, 0x8b, 0x3d, 0x38, 0x9d, 0x9c, 0x3d,
  0x86, 0x59, 0x94, 0x3e, 0xd3, 0x7a, 0x5b, 0x3e, 0x40, 0x58, 0xb1, 0x3b,
  0x88, 0xe7, 0xe4, 0xbd, 0x56, 0x35, 0x36, 0xbe, 0xb6, 0x5d, 0x50, 0x3e,
  0x46, 0x49, 0x28, 0x3e, 0xf6, 0xe5, 0x21, 0x3e, 0x3a, 0xab, 0x89, 0xbd,
  0x78, 0xef, 0x57, 0xbd, 0x40, 0x7f, 0x7a, 0xbc, 0x29, 0xc6, 0x28, 0xbe,
  0xa0, 0x5a, 0x58, 0x3c, 0xc0, 0x93, 0xaa, 0xbc, 0x17, 0x7b, 0x61, 0xbe,
  0x2d, 0x32, 0x93, 0x3e, 0x02, 0x64, 0x5e, 0xbe, 0x7e, 0x38, 0x1f, 0xbe,
  0xf0, 0x0b, 0xec, 0x3c, 0xb1, 0x71, 0x87, 0x3e, 0x07, 0x69, 0x41, 0xbe,
  0x98, 0x21, 0x0d, 0xbe, 0x4c, 0x13, 0x79, 0xbe, 0xe0, 0x9d, 0x57, 0x3d,
  0x29, 0xf9, 0x7d, 0xbe, 0xb0, 0xfd, 0xaf, 0x3d, 0x69, 0x3f, 0x8c, 0x3e,
  0x87, 0x1c, 0x59, 0xbe, 0xe8, 0x15, 0x74, 0x3d, 0xe4, 0xe5, 0x96, 0xbe,
  0x60, 0x0c, 0xb7, 0x3d, 0x34, 0xe9, 0xbe, 0x3d, 0x74, 0x33, 0x85, 0xbe,
  0xf9, 0x2b, 0x72, 0xbf, 0x09, 0x7e, 0x19, 0xbf, 0x66, 0x86, 0x83, 0x3d,
  0x4e, 0x3c, 0xef, 0xbd, 0x24, 0x07, 0x3d, 0xbd, 0x2a, 0x8c, 0xc5, 0xbc,
  0xe0, 0x69, 0xa0, 0xbe, 0x85, 0x34, 0x9a, 0xbe, 0xbf, 0x09, 0x35, 0x3d,
  0xdf, 0x77, 0x84, 0x3e, 0x0e, 0xfb, 0x46, 0x3e, 0x97, 0x3a, 0x4e, 0xbe,
  0x82, 0x97, 0xbd, 0xbd, 0xf9, 0x92, 0xdd, 0xbc, 0xe5, 0x02, 0x0e, 0x3e,
  0x10, 0xf9, 0x09, 0x3e, 0xde, 0x5a, 0x87, 0xba, 0x6e, 0xbf, 0x33, 0xbe,
  0x30, 0x72, 0xed, 0xbd, 0xfc, 0x56, 0x77, 0x3e, 0x30, 0x3b, 0x85, 0xbd,
  0xb3, 0xe1, 0xb2, 0x3e, 0x39, 0x67, 0xb2, 0x3e, 0x30, 0xc9, 0xe3, 0xbc,
  0xf3, 0xf9, 0x36, 0xbd, 0x28, 0xbd, 0x40, 0x3e, 0xd2, 0x35, 0xb8, 0xbd,
  0x92, 0xdc, 0x86, 0x3e, 0xfe, 0x77, 0x48, 0xbe, 0xcd, 0x25, 0x30, 0xbe,
  0x71, 0x50, 0x30, 0xbe, 0xe3, 0xed, 0xa9, 0x3e, 0x38, 0xbb, 0xaf, 0x3d,
  0xa5, 0x9a, 0x9e, 0x3e, 0xd9, 0x13, 0x29, 0xbe, 0x07, 0xc7, 0x97, 0xbe,
  0xe8, 0x19, 0x66, 0xbc, 0x83, 0x6f, 0xc0, 0x3e, 0xc4, 0x4c, 0xc4, 0x3d,
  0x2d, 0xe4, 0x31, 0xbe, 0x00, 0x8c, 0x70, 0xba, 0x84, 0x9a, 0x15, 0xbe,
  0x34, 0x17, 0x87, 0xbe, 0xe4, 0xfe, 0xef, 0xbd, 0x2a, 0xe6, 0xf3, 0xbd,
  0xd4, 0x2b, 0x56, 0xbe, 0xa2, 0x3e, 0xab, 0x3e, 0x88, 0xa8, 0x7f, 0x3e,
  0xde, 0x0e, 0x1c, 0xbe, 0x8c, 0x4a, 0x83, 0xbe, 0x5d, 0xbd, 0x8e, 0xbe,
  0xf6, 0x98, 0x36, 0xbe, 0x8d, 0x0b, 0xc2, 0x3d, 0x4c, 0x39, 0xf8, 0x3d,
  0xed, 0x22, 0x2b, 0x3e, 0xb6, 0xda, 0x02, 0x3e, 0x10, 0x08, 0x3f, 0xbd,
  0xcc, 0xcc, 0x9e, 0xbc, 0x3a, 0x67, 0x6c, 0x3e, 0x76, 0xe5, 0x51, 0x3e,
  0x08, 0xe6, 0x70, 0xbd, 0x6c, 0x15, 0xae, 0xbd, 0xb7, 0x7d, 0x40, 0xbe,
  0x80, 0xed, 0xaa, 0xbd, 0xfe, 0x54, 0x85, 0xbe, 0xd6, 0x81, 0x42, 0xbe,
  0x92, 0x83, 0x6e, 0x3e, 0x57, 0x57, 0x87, 0x3e, 0xff, 0x60, 0x13, 0xbe,
  0xc0, 0x89, 0xf3, 0xbc, 0x5e, 0x2d, 0x42, 0x3e, 0x0a, 0x16, 0x04, 0xbe,
  0x79, 0xae, 0x8a, 0x3e, 0x98, 0x0d, 0x27, 0xbe, 0x27, 0x37, 0x89, 0xbe,
  0x16, 0x65, 0x81, 0xbe, 0xc0, 0x8e, 0x76, 0x3d, 0x7a, 0x75, 0x94, 0xbd,
  0x6e, 0xd2, 0x14, 0xbe, 0x10, 0x3a, 0x03, 0x3d, 0x26, 0xc7, 0x62, 0xbe,
  0xb0, 0x84, 0xac, 0xbd, 0xb6, 0x7a, 0x30, 0xbe, 0x20, 0xb5, 0xdc, 0xbd,
  0x96, 0x3f, 0xd2, 0xbd, 0x48, 0xb2, 0x85, 0xbe, 0x90, 0x54, 0xca, 0x3d,
  0xfc, 0x50, 0xbd, 0x3d, 0xa3, 0x1a, 0x83, 0xbe, 0x87, 0xf4, 0x96, 0x3e,
  0x27, 0xaf, 0x80, 0xbe, 0x0e, 0x35, 0x85, 0xbe, 0x1e, 0x92, 0x20, 0xbe,
  0x10, 0x86, 0xc4, 0x3d, 0x5d, 0xc1, 0x89, 0x3e, 0x66, 0xe4, 0x32, 0x3e,
  0x7c, 0x2d, 0xe5, 0xbd, 0xb3, 0x58, 0x61, 0xbe, 0xca, 0x5b, 0x9d, 0xbe,
  0x5a, 0x0a, 0x51, 0x3e, 0x45, 0xca, 0x48, 0xbe, 0x32, 0x85, 0xdf, 0xbd,
  0x4e, 0x1d, 0x96, 0xbd, 0x94, 0x7b, 0x8c, 0x3e, 0xb9, 0x4e, 0x57, 0x3e,
  0xd0, 0xbd, 0x45, 0xbd, 0xcd, 0x31, 0x9d, 0xbb, 0x94, 0x80, 0x51, 0x3e,
  0x5d, 0xcb, 0x7d, 0x3e, 0xd6, 0x39, 0x88, 0x3d, 0x00, 0x31, 0x8f, 0xba,
  0xfd, 0x90, 0x14, 0x3d, 0xa1, 0x15, 0x00, 0xbc, 0xab, 0x29, 0x83, 0x3e,
  0xf4, 0x59, 0xb1, 0xbd, 0x1c, 0xd4, 0x28, 0xbe, 0xe6, 0x2c, 0x3a, 0xbe,
  0x81, 0x23, 0xf1, 0xbd, 0x2a, 0x7e, 0x24, 0xbd, 0x80, 0x89, 0x89, 0xbb,
  0xff, 0x01, 0x37, 0xbe, 0xd4, 0xc2, 0xa6, 0x3d, 0x64, 0x4f, 0x8a, 0x3e,
  0x36, 0xe9, 0x51, 0x3e, 0x26, 0x3d, 0x3f, 0x3e, 0xc6, 0xb4, 0x7d, 0x3e,
  0x26, 0x06, 0xd5, 0x3d, 0xe0, 0x7b, 0xf0, 0x3e, 0x33, 0x47, 0x1e, 0x3e,
  0x02, 0x4b, 0x75, 0xbe, 0xb4, 0x9f, 0x8f, 0xbe, 0x92, 0x11, 0x1d, 0xbe,
  0x2e, 0x27, 0x4f, 0x3e, 0x04, 0x1a, 0x77, 0xbd, 0x47, 0xc0, 0x8d, 0x3e,
  0xc0, 0x60, 0xc0, 0x3b, 0xd8, 0xdf, 0xdd, 0x3c, 0xad, 0x5e, 0xc6, 0x3c,
  0x5c, 0xf0, 0x8c, 0x3e, 0xcd, 0x03, 0xa6, 0x3d, 0xc0, 0x07, 0x4b, 0x3d,
  0x06, 0x81, 0x90, 0xbe, 0x65, 0x21, 0xe1, 0xbc, 0x48, 0xe5, 0x30, 0x3e,
  0xc0, 0x5e, 0x4b, 0x3e, 0xd4, 0x2d, 0x90, 0x3d, 0x1e, 0x95, 0x7e, 0xbe,
  0xdc, 0x16, 0x9e, 0xbc, 0xd7, 0x28, 0x2a, 0x3c, 0x4c, 0x6e, 0x0d, 0x3e,
  0x52, 0x57, 0x97, 0xb9, 0x9f, 0x7a, 0x9a, 0xbe, 0xde, 0x0e, 0x32, 0x3c,
  0xc7, 0x2d, 0xa1, 0x3e, 0xe2, 0xc2, 0x55, 0x3e, 0x77, 0x08, 0xce, 0x3d,
  0x8e, 0x89, 0xb9, 0xbd, 0x2f, 0x81, 0x28, 0x3e, 0xb2, 0xa4, 0xe7, 0xbd,
  0xc8, 0x21, 0xcc, 0xbd, 0x80, 0xce, 0xae, 0xbd, 0x9f, 0x8b, 0xb1, 0xbc,
  0xb1, 0xcb, 0x2e, 0xbe, 0x8c, 0x49, 0x1e, 0xbe, 0x0d, 0xa5, 0x42, 0x3e,
  0x92, 0xa4, 0x10, 0x3e, 0x58, 0xad, 0x2b, 0x3d, 0x86, 0x2c, 0x9a, 0xbc,
  0x5f, 0xb5, 0xd2, 0xbd, 0xf8, 0x1e, 0x18, 0xbd, 0xcc, 0xeb, 0xd9, 0xbd,
  0x43, 0xd9, 0x9c, 0x3b, 0xac, 0x8b, 0x9f, 0xbe, 0xe4, 0x7a, 0x03, 0x3e,
  0x78, 0x51, 0x4d, 0x3e, 0x18, 0x02, 0x92, 0xbe, 0x3e, 0xac, 0x1a, 0x3e,
  0xaa, 0x1e, 0x58, 0xbe, 0x23, 0x33, 0x90, 0xbe, 0x4a, 0x29, 0x6b, 0xbe,
  0x86, 0x0a, 0x07, 0x3e, 0x91, 0x7e, 0xab, 0x3c, 0x53, 0xf2, 0xe8, 0xbc,
  0xf5, 0x92, 0x94, 0x3e, 0x9b, 0xc3, 0x85, 0xbe, 0x7a, 0xdb, 0x1d, 0xbe,
  0x4c, 0x05, 0x2c, 0xbe, 0x4c, 0x4b, 0x19, 0xbe, 0xf3, 0xf2, 0xdf, 0x3d,
  0xc6, 0xf3, 0xe5, 0xbd, 0x78, 0x83, 0xd4, 0xbd, 0x28, 0x66, 0xb2, 0x3d,
  0xc8, 0xf9, 0x3c, 0x3d, 0x3b, 0x62, 0x76, 0xbd, 0xce, 0xd1, 0x39, 0x3c,
  0x66, 0x8b, 0x5a, 0x3e, 0xd4, 0x4a, 0xa8, 0xbd, 0x4e, 0xdd, 0x3d, 0xbe,
  0x54, 0x75, 0x40, 0xbe, 0xcc, 0x07, 0x1e, 0xbe, 0xd4, 0xe7, 0x64, 0xbe,
  0xfc, 0x0c, 0x5d, 0xbe, 0xba, 0x18, 0x43, 0xbd, 0x73, 0x52, 0x43, 0xbe,
  0x3d, 0x5f, 0x35, 0x3e, 0x73, 0xdb, 0x97, 0x3e, 0x77, 0xa7, 0x80, 0x3e,
  0x26, 0x26, 0x85, 0xbc, 0xc9, 0x4d, 0xfe, 0x3d, 0x00, 0x2a, 0xe0, 0xba,
  0xd8, 0xfb, 0xff, 0xff, 0xdc, 0xfb, 0xff, 0xff, 0x0f, 0x00, 0x00, 0x00,
  0x54, 0x4f, 0x43, 0x4f, 0x20, 0x43, 0x6f, 0x6e, 0x76, 0x65, 0x72, 0x74,
  0x65, 0x64, 0x2e, 0x00, 0x01, 0x00, 0x00, 0x00, 0x10, 0x00, 0x00, 0x00,
  0x0c, 0x00, 0x14, 0x00, 0x04, 0x00, 0x08, 0x00, 0x0c, 0x00, 0x10, 0x00,
  0x0c, 0x00, 0x00, 0x00, 0xf0, 0x00, 0x00, 0x00, 0xe4, 0x00, 0x00, 0x00,
  0xd8, 0x00, 0x00, 0x00, 0x04, 0x00, 0x00, 0x00, 0x03, 0x00, 0x00, 0x00,
  0x90, 0x00, 0x00, 0x00, 0x48, 0x00, 0x00, 0x00, 0x04, 0x00, 0x00, 0x00,
  0xce, 0xff, 0xff, 0xff, 0x00, 0x00, 0x00, 0x08, 0x18, 0x00, 0x00, 0x00,
  0x0c, 0x00, 0x00, 0x00, 0x04, 0x00, 0x00, 0x00, 0x40, 0xfc, 0xff, 0xff,
  0x01, 0x00, 0x00, 0x00, 0x00, 0x00, 0x00, 0x00, 0x03, 0x00, 0x00, 0x00,
  0x07, 0x00, 0x00, 0x00, 0x08, 0x00, 0x00, 0x00, 0x09, 0x00, 0x00, 0x00,
  0x00, 0x00, 0x0e, 0x00, 0x14, 0x00, 0x00, 0x00, 0x08, 0x00, 0x0c, 0x00,
  0x07, 0x00, 0x10, 0x00, 0x0e, 0x00, 0x00, 0x00, 0x00, 0x00, 0x00, 0x08,
  0x1c, 0x00, 0x00, 0x00, 0x10, 0x00, 0x00, 0x00, 0x04, 0x00, 0x00, 0x00,
  0xba, 0xff, 0xff, 0xff, 0x00, 0x00, 0x00, 0x01, 0x01, 0x00, 0x00, 0x00,
  0x07, 0x00, 0x00, 0x00, 0x03, 0x00, 0x00, 0x00, 0x04, 0x00, 0x00, 0x00,
  0x05, 0x00, 0x00, 0x00, 0x06, 0x00, 0x00, 0x00, 0x00, 0x00, 0x0e, 0x00,
  0x16, 0x00, 0x00, 0x00, 0x08, 0x00, 0x0c, 0x00, 0x07, 0x00, 0x10, 0x00,
  0x0e, 0x00, 0x00, 0x00, 0x00, 0x00, 0x00, 0x08, 0x24, 0x00, 0x00, 0x00,
  0x18, 0x00, 0x00, 0x00, 0x0c, 0x00, 0x00, 0x00, 0x00, 0x00, 0x06, 0x00,
  0x08, 0x00, 0x07, 0x00, 0x06, 0x00, 0x00, 0x00, 0x00, 0x00, 0x00, 0x01,
  0x01, 0x00, 0x00, 0x00, 0x04, 0x00, 0x00, 0x00, 0x03, 0x00, 0x00, 0x00,
  0x01, 0x00, 0x00, 0x00, 0x02, 0x00, 0x00, 0x00, 0x03, 0x00, 0x00, 0x00,
  0x01, 0x00, 0x00, 0x00, 0x00, 0x00, 0x00, 0x00, 0x01, 0x00, 0x00, 0x00,
  0x01, 0x00, 0x00, 0x00, 0x0a, 0x00, 0x00, 0x00, 0xec, 0x02, 0x00, 0x00,
  0x84, 0x02, 0x00, 0x00, 0x24, 0x02, 0x00, 0x00, 0xdc, 0x01, 0x00, 0x00,
  0x98, 0x01, 0x00, 0x00, 0x38, 0x01, 0x00, 0x00, 0xf0, 0x00, 0x00, 0x00,
  0xac, 0x00, 0x00, 0x00, 0x4c, 0x00, 0x00, 0x00, 0x04, 0x00, 0x00, 0x00,
  0x4a, 0xfd, 0xff, 0xff, 0x38, 0x00, 0x00, 0x00, 0x0a, 0x00, 0x00, 0x00,
  0x0c, 0x00, 0x00, 0x00, 0x04, 0x00, 0x00, 0x00, 0x3c, 0xfd, 0xff, 0xff,
  0x1e, 0x00, 0x00, 0x00, 0x73, 0x65, 0x71, 0x75, 0x65, 0x6e, 0x74, 0x69,
  0x61, 0x6c, 0x2f, 0x64, 0x65, 0x6e, 0x73, 0x65, 0x5f, 0x32, 0x2f, 0x4d,
  0x61, 0x74, 0x4d, 0x75, 0x6c, 0x5f, 0x62, 0x69, 0x61, 0x73, 0x00, 0x00,
  0x01, 0x00, 0x00, 0x00, 0x05, 0x00, 0x00, 0x00, 0x8e, 0xfd, 0xff, 0xff,
  0x4c, 0x00, 0x00, 0x00, 0x09, 0x00, 0x00, 0x00, 0x0c, 0x00, 0x00, 0x00,
  0x04, 0x00, 0x00, 0x00, 0x80, 0xfd, 0xff, 0xff, 0x32, 0x00, 0x00, 0x00,
  0x73, 0x65, 0x71, 0x75, 0x65, 0x6e, 0x74, 0x69, 0x61, 0x6c, 0x2f, 0x64,
  0x65, 0x6e, 0x73, 0x65, 0x5f, 0x32, 0x2f, 0x4d, 0x61, 0x74, 0x4d, 0x75,
  0x6c, 0x2f, 0x52, 0x65, 0x61, 0x64, 0x56, 0x61, 0x72, 0x69, 0x61, 0x62,
  0x6c, 0x65, 0x4f, 0x70, 0x2f, 0x74, 0x72, 0x61, 0x6e, 0x73, 0x70, 0x6f,
  0x73, 0x65, 0x00, 0x00, 0x02, 0x00, 0x00, 0x00, 0x05, 0x00, 0x00, 0x00,
  0x1e, 0x00, 0x00, 0x00, 0xea, 0xfd, 0xff, 0xff, 0x30, 0x00, 0x00, 0x00,
  0x04, 0x00, 0x00, 0x00, 0x0c, 0x00, 0x00, 0x00, 0x04, 0x00, 0x00, 0x00,
  0xdc, 0xfd, 0xff, 0xff, 0x17, 0x00, 0x00, 0x00, 0x73, 0x65, 0x71, 0x75,
  0x65, 0x6e, 0x74, 0x69, 0x61, 0x6c, 0x2f, 0x64, 0x65, 0x6e, 0x73, 0x65,
  0x5f, 0x31, 0x2f, 0x52, 0x65, 0x6c, 0x75, 0x00, 0x02, 0x00, 0x00, 0x00,
  0x01, 0x00, 0x00, 0x00, 0x1e, 0x00, 0x00, 0x00, 0x2a, 0xfe, 0xff, 0xff,
  0x38, 0x00, 0x00, 0x00, 0x08, 0x00, 0x00, 0x00, 0x0c, 0x00, 0x00, 0x00,
  0x04, 0x00, 0x00, 0x00, 0x1c, 0xfe, 0xff, 0xff, 0x1e, 0x00, 0x00, 0x00,
  0x73, 0x65, 0x71, 0x75, 0x65, 0x6e, 0x74, 0x69, 0x61, 0x6c, 0x2f, 0x64,
  0x65, 0x6e, 0x73, 0x65, 0x5f, 0x31, 0x2f, 0x4d, 0x61, 0x74, 0x4d, 0x75,
  0x6c, 0x5f, 0x62, 0x69, 0x61, 0x73, 0x00, 0x00, 0x01, 0x00, 0x00, 0x00,
  0x1e, 0x00, 0x00, 0x00, 0x6e, 0xfe, 0xff, 0xff, 0x4c, 0x00, 0x00, 0x00,
  0x02, 0x00, 0x00, 0x00, 0x0c, 0x00, 0x00, 0x00, 0x04, 0x00, 0x00, 0x00,
  0x60, 0xfe, 0xff, 0xff, 0x32, 0x00, 0x00, 0x00, 0x73, 0x65, 0x71, 0x75,
  0x65, 0x6e, 0x74, 0x69, 0x61, 0x6c, 0x2f, 0x64, 0x65, 0x6e, 0x73, 0x65,
  0x5f, 0x31, 0x2f, 0x4d, 0x61, 0x74, 0x4d, 0x75, 0x6c, 0x2f, 0x52, 0x65,
  0x61, 0x64, 0x56, 0x61, 0x72, 0x69, 0x61, 0x62, 0x6c, 0x65, 0x4f, 0x70,
  0x2f, 0x74, 0x72, 0x61, 0x6e, 0x73, 0x70, 0x6f, 0x73, 0x65, 0x00, 0x00,
  0x02, 0x00, 0x00, 0x00, 0x1e, 0x00, 0x00, 0x00, 0x1e, 0x00, 0x00, 0x00,
  0xca, 0xfe, 0xff, 0xff, 0x30, 0x00, 0x00, 0x00, 0x03, 0x00, 0x00, 0x00,
  0x0c, 0x00, 0x00, 0x00, 0x04, 0x00, 0x00, 0x00, 0xbc, 0xfe, 0xff, 0xff,
  0x15, 0x00, 0x00, 0x00, 0x73, 0x65, 0x71, 0x75, 0x65, 0x6e, 0x74, 0x69,
  0x61, 0x6c, 0x2f, 0x64, 0x65, 0x6e, 0x73, 0x65, 0x2f, 0x52, 0x65, 0x6c,
  0x75, 0x00, 0x00, 0x00, 0x02, 0x00, 0x00, 0x00, 0x01, 0x00, 0x00, 0x00,
  0x1e, 0x00, 0x00, 0x00, 0x0a, 0xff, 0xff, 0xff, 0x38, 0x00, 0x00, 0x00,
  0x07, 0x00, 0x00, 0x00, 0x0c, 0x00, 0x00, 0x00, 0x04, 0x00, 0x00, 0x00,
  0xfc, 0xfe, 0xff, 0xff, 0x1c, 0x00, 0x00, 0x00, 0x73, 0x65, 0x71, 0x75,
  0x65, 0x6e, 0x74, 0x69, 0x61, 0x6c, 0x2f, 0x64, 0x65, 0x6e, 0x73, 0x65,
  0x2f, 0x4d, 0x61, 0x74, 0x4d, 0x75, 0x6c, 0x5f, 0x62, 0x69, 0x61, 0x73,
  0x00, 0x00, 0x00, 0x00, 0x01, 0x00, 0x00, 0x00, 0x1e, 0x00, 0x00, 0x00,
  0x4e, 0xff, 0xff, 0xff, 0x4c, 0x00, 0x00, 0x00, 0x06, 0x00, 0x00, 0x00,
  0x0c, 0x00, 0x00, 0x00, 0x04, 0x00, 0x00, 0x00, 0x40, 0xff, 0xff, 0xff,
  0x30, 0x00, 0x00, 0x00, 0x73, 0x65, 0x71, 0x75, 0x65, 0x6e, 0x74, 0x69,
  0x61, 0x6c, 0x2f, 0x64, 0x65, 0x6e, 0x73, 0x65, 0x2f, 0x4d, 0x61, 0x74,
  0x4d, 0x75, 0x6c, 0x2f, 0x52, 0x65, 0x61, 0x64, 0x56, 0x61, 0x72, 0x69,
  0x61, 0x62, 0x6c, 0x65, 0x4f, 0x70, 0x2f, 0x74, 0x72, 0x61, 0x6e, 0x73,
  0x70, 0x6f, 0x73, 0x65, 0x00, 0x00, 0x00, 0x00, 0x02, 0x00, 0x00, 0x00,
  0x1e, 0x00, 0x00, 0x00, 0x10, 0x00, 0x00, 0x00, 0xaa, 0xff, 0xff, 0xff,
  0x44, 0x00, 0x00, 0x00, 0x01, 0x00, 0x00, 0x00, 0x2c, 0x00, 0x00, 0x00,
  0x0c, 0x00, 0x00, 0x00, 0x08, 0x00, 0x0c, 0x00, 0x04, 0x00, 0x08, 0x00,
  0x08, 0x00, 0x00, 0x00, 0x10, 0x00, 0x00, 0x00, 0x04, 0x00, 0x00, 0x00,
  0x01, 0x00, 0x00, 0x00, 0x00, 0x00, 0x7f, 0x43, 0x01, 0x00, 0x00, 0x00,
  0x00, 0x00, 0x00, 0x00, 0x0b, 0x00, 0x00, 0x00, 0x64, 0x65, 0x6e, 0x73,
  0x65, 0x5f, 0x69, 0x6e, 0x70, 0x75, 0x74, 0x00, 0x02, 0x00, 0x00, 0x00,
  0x01, 0x00, 0x00, 0x00, 0x10, 0x00, 0x00, 0x00, 0x00, 0x00, 0x0e, 0x00,
  0x14, 0x00, 0x04, 0x00, 0x00, 0x00, 0x08, 0x00, 0x0c, 0x00, 0x10, 0x00,
  0x0e, 0x00, 0x00, 0x00, 0x28, 0x00, 0x00, 0x00, 0x05, 0x00, 0x00, 0x00,
  0x10, 0x00, 0x00, 0x00, 0x08, 0x00, 0x00, 0x00, 0x04, 0x00, 0x04, 0x00,
  0x04, 0x00, 0x00, 0x00, 0x08, 0x00, 0x00, 0x00, 0x49, 0x64, 0x65, 0x6e,
  0x74, 0x69, 0x74, 0x79, 0x00, 0x00, 0x00, 0x00, 0x02, 0x00, 0x00, 0x00,
  0x01, 0x00, 0x00, 0x00, 0x05, 0x00, 0x00, 0x00, 0x01, 0x00, 0x00, 0x00,
  0x10, 0x00, 0x00, 0x00, 0x00, 0x00, 0x0a, 0x00, 0x0c, 0x00, 0x07, 0x00,
  0x00, 0x00, 0x08, 0x00, 0x0a, 0x00, 0x00, 0x00, 0x00, 0x00, 0x00, 0x09,
  0x03, 0x00, 0x00, 0x00
};

