
#define TENSORFLOW_LITE_EXPERIMENTAL_MICRO_EXAMPLES_HELLO_WORLD_SINE_MODEL_DATA_H_
#ifdef __has_attribute
#define HAVE_ATTRIBUTE(x) __has_attribute(x)
#else
#define HAVE_ATTRIBUTE(x) 0
#endif
#if HAVE_ATTRIBUTE(aligned) || (defined(__GNUC__) && !defined(__clang__))
#define DATA_ALIGN_ATTRIBUTE __attribute__((aligned(4)))
#else
#define DATA_ALIGN_ATTRIBUTE
#endif

const int flight_model_len = 4584;
const unsigned char flight_model[] DATA_ALIGN_ATTRIBUTE = {
 0x1c, 0x00, 0x00, 0x00, 0x54, 0x46, 0x4c, 0x33, 0x00, 0x00, 0x12, 0x00,
  0x1c, 0x00, 0x04, 0x00, 0x08, 0x00, 0x0c, 0x00, 0x10, 0x00, 0x14, 0x00,
  0x00, 0x00, 0x18, 0x00, 0x12, 0x00, 0x00, 0x00, 0x03, 0x00, 0x00, 0x00,
  0x94, 0x11, 0x00, 0x00, 0x94, 0x0c, 0x00, 0x00, 0x7c, 0x0c, 0x00, 0x00,
  0x34, 0x00, 0x00, 0x00, 0x04, 0x00, 0x00, 0x00, 0x01, 0x00, 0x00, 0x00,
  0x04, 0x00, 0x00, 0x00, 0x10, 0xef, 0xff, 0xff, 0x08, 0x00, 0x00, 0x00,
  0x0d, 0x00, 0x00, 0x00, 0x13, 0x00, 0x00, 0x00, 0x6d, 0x69, 0x6e, 0x5f,
  0x72, 0x75, 0x6e, 0x74, 0x69, 0x6d, 0x65, 0x5f, 0x76, 0x65, 0x72, 0x73,
  0x69, 0x6f, 0x6e, 0x00, 0x0e, 0x00, 0x00, 0x00, 0x3c, 0x0c, 0x00, 0x00,
  0x34, 0x0c, 0x00, 0x00, 0xdc, 0x08, 0x00, 0x00, 0xcc, 0x08, 0x00, 0x00,
  0xc0, 0x08, 0x00, 0x00, 0xb8, 0x08, 0x00, 0x00, 0xb0, 0x08, 0x00, 0x00,
  0xa8, 0x08, 0x00, 0x00, 0xb4, 0x01, 0x00, 0x00, 0x50, 0x01, 0x00, 0x00,
  0x18, 0x01, 0x00, 0x00, 0x40, 0x00, 0x00, 0x00, 0x1c, 0x00, 0x00, 0x00,
  0x04, 0x00, 0x00, 0x00, 0x5a, 0xf7, 0xff, 0xff, 0x04, 0x00, 0x00, 0x00,
  0x06, 0x00, 0x00, 0x00, 0x31, 0x2e, 0x31, 0x34, 0x2e, 0x30, 0x00, 0x00,
  0x6e, 0xf7, 0xff, 0xff, 0x04, 0x00, 0x00, 0x00, 0x14, 0x00, 0x00, 0x00,
  0x9b, 0xf6, 0xa9, 0x3e, 0xce, 0xd2, 0xe3, 0x3e, 0x5a, 0x2d, 0xb8, 0x3e,
  0x74, 0x7d, 0x01, 0x3f, 0x74, 0xfc, 0xdd, 0x3e, 0x8e, 0xf7, 0xff, 0xff,
  0x04, 0x00, 0x00, 0x00, 0xc8, 0x00, 0x00, 0x00, 0x78, 0x6e, 0xbb, 0x3e,
  0x2d, 0xe4, 0x40, 0x3f, 0x7d, 0xa1, 0xe5, 0x3e, 0x48, 0xf8, 0x88, 0x3c,
  0x56, 0x51, 0xb9, 0x3e, 0x4d, 0xcf, 0xd3, 0x3e, 0x3f, 0x17, 0xdb, 0x3d,
  0x43, 0x41, 0xb5, 0x3c, 0x78, 0xd5, 0x04, 0x3f, 0xe3, 0x8a, 0x2b, 0x3e,
  0xac, 0x53, 0xdb, 0xbe, 0x84, 0x86, 0xcd, 0x3d, 0xa2, 0x8c, 0x85, 0x3e,
  0x74, 0x13, 0x9f, 0x3e, 0x32, 0xf3, 0x14, 0xbe, 0x2c, 0x7a, 0xc5, 0xbd,
  0xf5, 0x69, 0x99, 0x3c, 0x0d, 0x5a, 0x54, 0x3e, 0xce, 0x55, 0xcc, 0xbd,
  0xe4, 0x97, 0x8f, 0x3e, 0x35, 0xda, 0xc4, 0xbe, 0x94, 0x44, 0x0c, 0xbd,
  0x14, 0xfd, 0xaf, 0x3e, 0x86, 0xae, 0x9b, 0x3e, 0xe7, 0x26, 0x29, 0xbe,
  0xa2, 0x1e, 0xbb, 0xbd, 0xec, 0x93, 0x14, 0x3d, 0xfb, 0xc2, 0x54, 0x3e,
  0xfe, 0x26, 0xa2, 0xbd, 0x67, 0x1c, 0x79, 0x3e, 0x88, 0x44, 0xce, 0x3d,
  0x92, 0x42, 0x0e, 0xbb, 0x59, 0x48, 0x41, 0x3d, 0x39, 0xfb, 0x0a, 0xbd,
  0xa1, 0x1c, 0x29, 0xbe, 0xca, 0x45, 0x52, 0x3d, 0xa8, 0x8d, 0xf8, 0x3c,
  0x82, 0x81, 0x36, 0xbc, 0xef, 0x36, 0xc3, 0xbd, 0xa3, 0x07, 0x21, 0x3d,
  0x8f, 0xb9, 0xe5, 0xbc, 0xd9, 0x8b, 0xc1, 0xbe, 0x80, 0xbd, 0x6b, 0x3e,
  0x2d, 0x47, 0x90, 0x3c, 0xce, 0x63, 0x98, 0x3e, 0x0f, 0x96, 0xed, 0x3e,
  0xa2, 0xed, 0xf1, 0xbe, 0xc9, 0xae, 0x37, 0x3d, 0xdf, 0xc0, 0xa5, 0x3d,
  0x14, 0x24, 0x1e, 0x3e, 0x62, 0xf8, 0xff, 0xff, 0x04, 0x00, 0x00, 0x00,
  0x28, 0x00, 0x00, 0x00, 0x26, 0xbb, 0x92, 0xbe, 0x89, 0xbe, 0x91, 0xbe,
  0x9a, 0xac, 0x51, 0xbe, 0x70, 0x47, 0xb0, 0xbe, 0x70, 0xb1, 0x94, 0xbe,
  0x8f, 0x3b, 0xcd, 0xbe, 0xa3, 0x31, 0xd5, 0xbe, 0x0d, 0xc8, 0xa9, 0xbe,
  0x3e, 0xa1, 0xa4, 0xbe, 0xc2, 0x69, 0xb3, 0xbe, 0x96, 0xf8, 0xff, 0xff,
  0x04, 0x00, 0x00, 0x00, 0x54, 0x00, 0x00, 0x00, 0xea, 0xf8, 0x97, 0xbe,
  0x3a, 0x8d, 0x74, 0x3e, 0x4d, 0x10, 0x00, 0xbd, 0x39, 0xaf, 0x34, 0x3e,
  0x9f, 0xc9, 0x46, 0xbe, 0x87, 0x3c, 0x24, 0x3e, 0x38, 0xb1, 0xe6, 0x3e,
  0x5a, 0x4b, 0xce, 0xbe, 0x6f, 0x4b, 0xb8, 0xbe, 0xaf, 0x01, 0x5f, 0x3e,
  0xea, 0xba, 0x87, 0xbe, 0x10, 0xcd, 0xab, 0xbe, 0xfd, 0x7e, 0x9f, 0xbe,
  0xac, 0x72, 0x45, 0x3d, 0xb5, 0xb8, 0x80, 0xbd, 0x74, 0x98, 0xd1, 0x3d,
  0xc4, 0x13, 0x22, 0x3f, 0xd8, 0xc0, 0xaa, 0xbd, 0xc6, 0xea, 0xc1, 0x3d,
  0x58, 0xba, 0x8a, 0x3e, 0x10, 0x42, 0x10, 0x3d, 0xf6, 0xf8, 0xff, 0xff,
  0x04, 0x00, 0x00, 0x00, 0xe4, 0x06, 0x00, 0x00, 0x31, 0x36, 0x0a, 0xbc,
  0x48, 0xf0, 0x81, 0xbe, 0xd7, 0x49, 0x05, 0x3e, 0xd5, 0x90, 0xba, 0x3e,
  0x69, 0x5f, 0xae, 0x3e, 0xac, 0x69, 0xfd, 0x3d, 0xa7, 0xe1, 0xae, 0xbe,
  0xec, 0xdb, 0x8b, 0xbe, 0x54, 0x67, 0x7a, 0xbe, 0xe4, 0xf9, 0x31, 0xbf,
  0xb7, 0x94, 0xb9, 0xbe, 0x9c, 0xdb, 0xd4, 0xbe, 0xef, 0x1d, 0xd2, 0xbd,
  0xbe, 0xcd, 0x9b, 0x3e, 0xe5, 0xb9, 0x40, 0xbd, 0x40, 0x38, 0xab, 0x3e,
  0x6c, 0xce, 0x12, 0xc0, 0xd4, 0xa3, 0x9f, 0x3f, 0x3a, 0x7a, 0xc9, 0x3f,
  0x95, 0xca, 0x19, 0xbe, 0xf7, 0xc8, 0x41, 0xbe, 0x76, 0xf2, 0x2e, 0xbd,
  0xab, 0x48, 0x26, 0x3f, 0x58, 0xeb, 0x14, 0xbe, 0x23, 0xf5, 0x42, 0x3e,
  0x33, 0x5f, 0x16, 0x3f, 0xa0, 0x7d, 0x9e, 0xbd, 0x59, 0xf2, 0x97, 0x3e,
  0xc5, 0xca, 0x6d, 0x3e, 0x18, 0x49, 0x88, 0x3e, 0x8c, 0xdf, 0x52, 0x3e,
  0x45, 0xbf, 0xab, 0x3e, 0xbe, 0x31, 0xfd, 0xbd, 0xb5, 0xf1, 0xe1, 0x3e,
  0x98, 0x9d, 0x92, 0xbe, 0xd0, 0xa1, 0x14, 0xbe, 0x04, 0xd9, 0x0f, 0x3f,
  0x6e, 0x09, 0x1b, 0xc0, 0xcc, 0xa0, 0x87, 0xbf, 0xa8, 0x5b, 0xf3, 0xbf,
  0x9a, 0x77, 0x33, 0xbe, 0x9f, 0x24, 0x65, 0x3e, 0x9d, 0xc7, 0x72, 0xbe,
  0xfb, 0x42, 0xe9, 0xbd, 0x94, 0xae, 0xb3, 0xbc, 0xdf, 0x63, 0x13, 0x3d,
  0x58, 0x96, 0x0a, 0xbe, 0x58, 0x6a, 0x21, 0x3e, 0x1c, 0x16, 0x4d, 0x3e,
  0xc5, 0x9e, 0x77, 0xbd, 0x81, 0xca, 0xc4, 0x3e, 0xda, 0x1f, 0x6c, 0x3d,
  0xf7, 0x6e, 0x97, 0x3d, 0xd3, 0x33, 0xbb, 0x3e, 0x7c, 0x31, 0x5c, 0xbe,
  0xf7, 0xab, 0x1a, 0xbd, 0x58, 0x8e, 0xa7, 0x3d, 0xca, 0xb2, 0xf2, 0x3c,
  0x4d, 0x26, 0x0c, 0xc0, 0xd4, 0xd4, 0x5f, 0xbe, 0x23, 0xf9, 0xbe, 0xbe,
  0x16, 0x30, 0x81, 0xbe, 0xbd, 0x9c, 0xb2, 0x3f, 0x1d, 0x57, 0xac, 0x3e,
  0xe7, 0xb5, 0x1a, 0x3f, 0x15, 0x61, 0x23, 0xbe, 0xd9, 0xf8, 0x25, 0x3f,
  0x64, 0x12, 0x64, 0xbe, 0xf5, 0xe8, 0xfb, 0xbd, 0xb1, 0x24, 0x63, 0xbe,
  0xce, 0xad, 0x68, 0xbe, 0xdb, 0x0f, 0xa0, 0x3e, 0xf0, 0x7f, 0xc1, 0x3e,
  0xfa, 0xa4, 0x29, 0xbf, 0x9e, 0x05, 0x05, 0xbe, 0x48, 0xd5, 0xac, 0x3d,
  0xb7, 0x63, 0x8b, 0x3e, 0xa1, 0xe3, 0xa2, 0x3e, 0x34, 0x5e, 0xf1, 0x3e,
  0x19, 0x58, 0xe5, 0xbf, 0xd5, 0xc4, 0xc8, 0x3e, 0x8d, 0x6f, 0x70, 0x3f,
  0xd5, 0x87, 0x46, 0x3f, 0x28, 0xf9, 0x99, 0xc0, 0x19, 0x76, 0xa4, 0xbc,
  0x27, 0xde, 0xa4, 0x3d, 0x18, 0xb0, 0x01, 0x3f, 0x6c, 0x17, 0xa7, 0x3e,
  0x50, 0xd8, 0x2e, 0x3e, 0xfb, 0x71, 0x92, 0xbd, 0x48, 0x4e, 0x8a, 0xbe,
  0xab, 0x85, 0x77, 0xbe, 0xc6, 0x4e, 0x73, 0xbd, 0x68, 0x80, 0x2e, 0xbd,
  0x8d, 0x6c, 0xbf, 0xbe, 0xd2, 0x62, 0x07, 0x3e, 0x80, 0x25, 0x34, 0xbe,
  0x6e, 0xe8, 0x4a, 0xbd, 0xce, 0xec, 0x92, 0xbc, 0x84, 0x8f, 0x04, 0xbe,
  0xba, 0x15, 0x0f, 0xc0, 0x6d, 0x97, 0x7d, 0x3f, 0x94, 0x04, 0x67, 0x3f,
  0x2a, 0x41, 0xba, 0xbe, 0x4c, 0x1b, 0x6a, 0xbe, 0xad, 0x1f, 0x33, 0xbe,
  0x80, 0x5f, 0xa8, 0xbe, 0x8d, 0xc9, 0xfc, 0xbc, 0x9e, 0x23, 0xa8, 0xbe,
  0x3b, 0x95, 0xbc, 0xbe, 0xf8, 0x0a, 0xe3, 0xbd, 0x33, 0x0d, 0x79, 0x3e,
  0x59, 0xbc, 0x96, 0x3d, 0x82, 0x0d, 0x3b, 0x3e, 0x41, 0x0e, 0xc6, 0x3e,
  0x74, 0xdf, 0x24, 0xbe, 0x7a, 0x94, 0x09, 0x3e, 0xd3, 0x70, 0x9c, 0xbe,
  0x1f, 0x14, 0xe0, 0xbe, 0x6a, 0x58, 0xb7, 0x3d, 0x89, 0x04, 0x17, 0xbe,
  0x9d, 0x98, 0x8a, 0x3f, 0x5d, 0x24, 0xf5, 0xbf, 0x63, 0xb1, 0x1f, 0xc0,
  0xe9, 0xc1, 0x2c, 0x3f, 0xac, 0xd7, 0x4d, 0x3f, 0x7f, 0x8d, 0x3e, 0xbf,
  0xb1, 0x13, 0x9b, 0x3e, 0xa6, 0xce, 0xf9, 0xbe, 0x46, 0x6f, 0xec, 0x3e,
  0x7a, 0x32, 0xa1, 0xbd, 0xba, 0x31, 0x9b, 0xbd, 0xd8, 0x64, 0xe7, 0xbe,
  0x4d, 0x78, 0x28, 0x3f, 0x07, 0xce, 0x2f, 0x3f, 0x52, 0x2a, 0x52, 0x3e,
  0x00, 0xc4, 0xa6, 0x3e, 0x3e, 0x36, 0x86, 0x3e, 0x0b, 0xd0, 0xbf, 0x3d,
  0xbd, 0x74, 0x48, 0x3e, 0xdb, 0x20, 0x80, 0x3e, 0x79, 0xe7, 0x98, 0x3c,
  0x86, 0x67, 0xd9, 0xbd, 0xc8, 0x28, 0x15, 0xc0, 0x22, 0xc4, 0x64, 0xc0,
  0xb7, 0x0b, 0x81, 0x3e, 0x39, 0x0c, 0x0b, 0xbf, 0x92, 0x5a, 0xab, 0xbe,
  0x3f, 0x51, 0xf9, 0xbe, 0xb9, 0x9a, 0x8a, 0xbd, 0x88, 0xf9, 0xe6, 0xbd,
  0x52, 0x15, 0x42, 0xbe, 0x60, 0xc7, 0xb3, 0x3d, 0xce, 0x73, 0x9f, 0x3d,
  0x62, 0x5c, 0x28, 0xbe, 0xe1, 0x67, 0x2a, 0x3e, 0x68, 0x66, 0x37, 0xbf,
  0x0c, 0xe0, 0xa7, 0x3d, 0x39, 0xee, 0xa4, 0xbd, 0x07, 0xcf, 0xcc, 0xbc,
  0x31, 0x95, 0x0a, 0xbf, 0xcd, 0xc2, 0x6f, 0xbe, 0xbb, 0x0a, 0x59, 0x3e,
  0xa2, 0x52, 0x66, 0xbf, 0x44, 0x88, 0x04, 0xbf, 0x9c, 0x39, 0x0b, 0xbf,
  0xd8, 0xeb, 0x48, 0xbf, 0x5c, 0x56, 0x96, 0x40, 0x0d, 0xeb, 0xf3, 0x3e,
  0xe1, 0x1d, 0x88, 0xbc, 0xdb, 0x1e, 0xeb, 0x3e, 0x83, 0xe9, 0x82, 0xbd,
  0xcd, 0xcc, 0x57, 0x3e, 0x9c, 0xcb, 0xfd, 0xbe, 0x38, 0x2e, 0xd4, 0xbe,
  0xe8, 0x4a, 0xd9, 0xbe, 0xa2, 0x97, 0xf2, 0xbe, 0xce, 0x3a, 0x3b, 0xbf,
  0x96, 0x8f, 0xc4, 0xbe, 0x7d, 0x79, 0x2c, 0xbf, 0x3c, 0x87, 0x78, 0x3c,
  0x9e, 0xeb, 0x0b, 0xbe, 0x12, 0x62, 0x09, 0x3e, 0xaf, 0x03, 0xf2, 0xbe,
  0xbe, 0xbc, 0x1e, 0xbf, 0x63, 0xe6, 0xdc, 0x3f, 0x5e, 0x89, 0x0c, 0x40,
  0x06, 0xef, 0xff, 0xbe, 0xa3, 0x8f, 0xa2, 0xbf, 0x97, 0xb2, 0xb5, 0x3e,
  0x81, 0x46, 0x2f, 0x3e, 0x2d, 0x5a, 0x9c, 0xbe, 0xed, 0xb5, 0xff, 0xbd,
  0xab, 0x30, 0x50, 0xbe, 0x20, 0x35, 0x09, 0xbe, 0x99, 0xd0, 0xd7, 0x3e,
  0x08, 0x25, 0x8f, 0x3e, 0xca, 0x17, 0x93, 0xbd, 0x29, 0xd5, 0x87, 0x3d,
  0x81, 0x4e, 0x68, 0x3e, 0x8f, 0x43, 0x6d, 0xbe, 0x94, 0xc4, 0x95, 0xbd,
  0x42, 0x0b, 0xe6, 0xbd, 0xbc, 0xff, 0xb2, 0x3d, 0xfb, 0x0d, 0x00, 0xbf,
  0x0c, 0x49, 0xeb, 0xbd, 0xf1, 0xf6, 0x47, 0xbf, 0xdc, 0x9f, 0xbd, 0xbf,
  0x46, 0x23, 0x86, 0xbe, 0x26, 0xd0, 0x61, 0xbe, 0x81, 0xce, 0xcb, 0x3b,
  0xc6, 0xbf, 0x55, 0xbe, 0x5a, 0x9f, 0x67, 0xbd, 0xc6, 0x61, 0xdb, 0x3c,
  0x19, 0x8c, 0x20, 0x3e, 0xc5, 0x32, 0x2e, 0xbe, 0xcb, 0x04, 0x13, 0xbb,
  0x80, 0xb8, 0x11, 0xbe, 0xca, 0xa0, 0xee, 0xbe, 0x04, 0xa5, 0x9d, 0xbd,
  0x5d, 0xc2, 0x88, 0xbe, 0x1b, 0x18, 0x9f, 0xbe, 0xe6, 0x64, 0x8d, 0x3d,
  0xe0, 0xe8, 0x8f, 0x3e, 0xc7, 0x75, 0xc1, 0x3e, 0x14, 0x43, 0x29, 0x3e,
  0xfb, 0x91, 0x25, 0xc0, 0xd1, 0x02, 0x8b, 0x3f, 0xac, 0xe7, 0xd8, 0x3f,
  0xe3, 0x2f, 0x3f, 0xbf, 0x11, 0x54, 0x01, 0x3d, 0xef, 0xe0, 0x05, 0x3f,
  0x73, 0xf3, 0xdd, 0x3d, 0x75, 0x2a, 0x5c, 0x3d, 0x03, 0xe5, 0x08, 0xbe,
  0x0f, 0x42, 0x4c, 0xbe, 0x9e, 0xc5, 0x45, 0xbe, 0xd8, 0x87, 0xef, 0xbe,
  0x8e, 0x76, 0x85, 0xbe, 0x51, 0xd5, 0x16, 0xbf, 0x2f, 0xe3, 0x29, 0xbe,
  0xf4, 0x44, 0x4e, 0xbf, 0x9f, 0xf6, 0xc9, 0xbe, 0x6f, 0x2f, 0x92, 0x3d,
  0xa7, 0xba, 0x4d, 0x3e, 0x06, 0xd4, 0x90, 0xbe, 0x63, 0x44, 0x6e, 0xbe,
  0xf4, 0x26, 0x37, 0xbf, 0xd0, 0x43, 0xf7, 0x3f, 0xce, 0x6c, 0x16, 0x40,
  0xa4, 0xcf, 0x12, 0xbf, 0xea, 0xef, 0xd7, 0xbf, 0xab, 0x36, 0xea, 0x3e,
  0xab, 0x18, 0xc0, 0xbe, 0xb3, 0x54, 0x98, 0x3e, 0xc3, 0x93, 0xb9, 0xbd,
  0x1f, 0x72, 0xd7, 0x3d, 0x96, 0xf6, 0x3e, 0xbe, 0x6f, 0x1d, 0x2c, 0xbd,
  0x3b, 0xfb, 0xae, 0xbe, 0x64, 0x3d, 0xaa, 0xbe, 0x3e, 0xd8, 0xbe, 0xbe,
  0x04, 0x5e, 0xad, 0xbe, 0xab, 0x7d, 0x2e, 0xbd, 0xb6, 0xf3, 0xcd, 0xbe,
  0x1d, 0x94, 0xc4, 0xbe, 0x13, 0x84, 0x2c, 0xbe, 0xdf, 0x78, 0xbd, 0x3e,
  0x63, 0xf7, 0x14, 0xc0, 0xb8, 0x5f, 0x44, 0x3f, 0x30, 0x24, 0x8a, 0x3f,
  0xb9, 0xa0, 0x14, 0xbf, 0xed, 0x99, 0x2f, 0x40, 0x44, 0xb0, 0x52, 0x3e,
  0xfb, 0x71, 0xf6, 0x3e, 0x80, 0x3c, 0x09, 0x3e, 0xa5, 0x9b, 0xe2, 0x3e,
  0xbb, 0xe7, 0x05, 0x3d, 0xaf, 0x39, 0x03, 0xbe, 0x83, 0x7a, 0x83, 0xbd,
  0xe6, 0x8c, 0x34, 0xbe, 0x19, 0x91, 0x85, 0xbe, 0xb6, 0xfc, 0xc0, 0x3e,
  0x34, 0xef, 0xd1, 0x3d, 0x67, 0x49, 0xf4, 0xbe, 0x94, 0x1c, 0x4f, 0xbe,
  0xce, 0xbe, 0xd1, 0xbd, 0x14, 0xfd, 0xf7, 0xbd, 0xcb, 0xbc, 0xd0, 0x3d,
  0x5c, 0x38, 0x56, 0xbf, 0x5a, 0x39, 0x1a, 0x3f, 0xf9, 0x25, 0xe9, 0x3e,
  0xf1, 0x9a, 0xfe, 0x3c, 0x5d, 0xa7, 0x47, 0xc0, 0xd8, 0x01, 0x3b, 0x3e,
  0x69, 0x17, 0x5e, 0x3e, 0xcc, 0xf0, 0x62, 0xbd, 0xde, 0x02, 0x93, 0x3e,
  0xed, 0x77, 0xec, 0x3e, 0xee, 0xc7, 0x62, 0xbb, 0xfc, 0x21, 0x16, 0xbf,
  0xa8, 0x2c, 0x52, 0xbe, 0xb8, 0x0f, 0xd0, 0xbd, 0xae, 0x8a, 0xce, 0xbe,
  0x40, 0x82, 0x43, 0xbd, 0x5f, 0x4e, 0x1c, 0xbe, 0x0d, 0x92, 0x10, 0x3e,
  0x58, 0xb2, 0x3f, 0x3e, 0xad, 0x22, 0xe6, 0x3d, 0xd7, 0x6d, 0xba, 0x3d,
  0xef, 0x81, 0x2f, 0xc0, 0x91, 0x9c, 0x94, 0x3f, 0x69, 0x27, 0x9a, 0x3f,
  0xcd, 0xaa, 0xa2, 0xbe, 0x0d, 0x23, 0xce, 0xbf, 0x4e, 0xb9, 0x84, 0x3e,
  0x95, 0x59, 0x7e, 0x3d, 0xcd, 0x6a, 0x95, 0x3e, 0x04, 0x75, 0xc1, 0x3e,
  0xd4, 0x42, 0x80, 0xbe, 0x17, 0x85, 0xa7, 0x3d, 0x3a, 0x8f, 0x82, 0x3d,
  0xb9, 0xe0, 0x9c, 0x3e, 0xf2, 0xb9, 0x0b, 0xbe, 0xa2, 0x8d, 0xbf, 0x3e,
  0x00, 0x1a, 0x87, 0x3e, 0x0f, 0x54, 0x57, 0xbd, 0x33, 0x26, 0x86, 0xbe,
  0x0b, 0x29, 0xd4, 0xbd, 0xdd, 0x3f, 0xa4, 0xbd, 0xfa, 0x8d, 0x9d, 0xbe,
  0xc4, 0xc4, 0xb1, 0xbf, 0x61, 0xdb, 0xac, 0xbf, 0x3f, 0x9b, 0x91, 0xbf,
  0x81, 0xd4, 0x09, 0x3d, 0xa6, 0x69, 0x01, 0x3f, 0xf0, 0x47, 0x5f, 0xbe,
  0x4d, 0xa2, 0x4d, 0x3f, 0x03, 0xe5, 0x33, 0xbf, 0xde, 0x4c, 0x66, 0x3f,
  0x67, 0xd2, 0xe6, 0xbe, 0x1c, 0xf1, 0x53, 0xbc, 0x6d, 0x4f, 0x7d, 0xbf,
  0xbf, 0xb3, 0x61, 0x3e, 0x8e, 0x69, 0x12, 0x3f, 0x94, 0x72, 0x35, 0x3f,
  0x6e, 0xe0, 0xb1, 0x3e, 0xe7, 0xc1, 0x0f, 0x3f, 0xaa, 0x35, 0xc8, 0x3e,
  0x4b, 0x7d, 0x60, 0x3e, 0x1e, 0xfa, 0xe0, 0x3e, 0x16, 0x7e, 0x29, 0x3d,
  0x71, 0x5b, 0xa5, 0xbf, 0xd6, 0xac, 0xaa, 0xbf, 0xab, 0x4b, 0x07, 0xc0,
  0xea, 0x2e, 0x56, 0x3f, 0xe3, 0xc3, 0x79, 0xc0, 0x14, 0xe5, 0x05, 0x3e,
  0xb2, 0xa0, 0x0b, 0xbe, 0xbf, 0x28, 0x8c, 0x3e, 0x11, 0xf5, 0x2b, 0xbd,
  0x62, 0x36, 0xbe, 0xbd, 0xf3, 0x8e, 0xb5, 0xbd, 0xcd, 0x57, 0x53, 0x3d,
  0x30, 0xdb, 0xaf, 0x3e, 0x26, 0xb2, 0x4b, 0x3e, 0x1c, 0x67, 0x5f, 0x3c,
  0x20, 0xdf, 0xe9, 0xbc, 0xcc, 0xf0, 0x6f, 0xbe, 0x8e, 0xed, 0x98, 0xbe,
  0xbf, 0x8f, 0xab, 0xbe, 0x44, 0x88, 0x9e, 0x3c, 0x07, 0x66, 0x07, 0x3e,
  0xdc, 0xfb, 0x18, 0xc0, 0x13, 0xea, 0x1f, 0xbf, 0x9d, 0x90, 0x1e, 0xbf,
  0xe0, 0x53, 0xb6, 0xbd, 0x8f, 0xf3, 0x3c, 0x40, 0xc3, 0xf9, 0x01, 0x3f,
  0x8f, 0xae, 0x7e, 0x3e, 0x48, 0x98, 0xaa, 0x3d, 0xa8, 0xf3, 0x88, 0x3e,
  0xe4, 0x84, 0xb8, 0x3e, 0x9e, 0x1e, 0x45, 0x3e, 0x84, 0x00, 0x6d, 0xbe,
  0x3a, 0xf0, 0xff, 0x3d, 0xe8, 0xfd, 0xcd, 0xbe, 0x80, 0x5c, 0xc6, 0x3e,
  0x5f, 0x26, 0x9b, 0x3e, 0x3a, 0x3f, 0x5b, 0x3e, 0x7f, 0x45, 0x85, 0xbe,
  0xcf, 0x4c, 0xd1, 0x3d, 0xe5, 0x4d, 0x92, 0xbd, 0x78, 0x19, 0xe4, 0xbe,
  0x0a, 0x77, 0xf3, 0xbf, 0x8e, 0x4f, 0xea, 0xbe, 0x76, 0x2b, 0x50, 0xbf,
  0x7d, 0xe5, 0x36, 0xbe, 0xa4, 0xd8, 0x0a, 0xbf, 0x10, 0x02, 0xd3, 0xbe,
  0xbc, 0x72, 0x1d, 0xbe, 0x5a, 0x5f, 0x68, 0xbe, 0x1d, 0x32, 0x47, 0x3d,
  0x73, 0x9b, 0x12, 0x3d, 0x98, 0x6f, 0x02, 0xbc, 0x8e, 0x6d, 0xf6, 0x3d,
  0x20, 0x18, 0xd6, 0x3e, 0x17, 0xae, 0xad, 0x3e, 0x75, 0x88, 0x17, 0x3e,
  0xa7, 0xfc, 0x8f, 0xbc, 0x82, 0xaf, 0x31, 0x3d, 0x1d, 0x4d, 0x93, 0xbe,
  0x2c, 0x3d, 0x64, 0x3d, 0x51, 0x8f, 0x54, 0x3e, 0x54, 0x72, 0x78, 0x3e,
  0x18, 0x09, 0xe4, 0xbd, 0xda, 0xd6, 0xac, 0xbf, 0x98, 0x00, 0xca, 0xbf,
  0xf1, 0x82, 0x22, 0x3f, 0xa8, 0xf1, 0xe0, 0xbf, 0x3a, 0xe6, 0xa1, 0xbd,
  0xaf, 0x30, 0x61, 0x3e, 0x80, 0xe1, 0x30, 0xbe, 0x71, 0xde, 0xd9, 0x3e,
  0x19, 0xa3, 0xff, 0x3e, 0x64, 0x93, 0xec, 0x39, 0x09, 0xbb, 0x50, 0x3e,
  0x6f, 0xd5, 0xa0, 0x3e, 0x16, 0x0e, 0x5c, 0x3e, 0x77, 0xb2, 0x87, 0xbd,
  0x47, 0xdd, 0x87, 0xbe, 0x5d, 0x79, 0xb3, 0xbe, 0xcd, 0x75, 0x9b, 0xbe,
  0x13, 0x29, 0x44, 0x3e, 0x1d, 0xf9, 0x0f, 0x3e, 0x31, 0x77, 0x8b, 0xbd,
  0x1d, 0x21, 0x23, 0xc0, 0xb7, 0x07, 0xfb, 0xbe, 0x91, 0xb0, 0x93, 0xbd,
  0xd0, 0xd5, 0x95, 0x3e, 0x43, 0xd4, 0x65, 0x3e, 0x98, 0xf7, 0xff, 0xff,
  0x9c, 0xf7, 0xff, 0xff, 0xa0, 0xf7, 0xff, 0xff, 0xa4, 0xf7, 0xff, 0xff,
  0x04, 0x00, 0x06, 0x00, 0x04, 0x00, 0x00, 0x00, 0x00, 0x00, 0x06, 0x00,
  0x08, 0x00, 0x04, 0x00, 0x06, 0x00, 0x00, 0x00, 0x04, 0x00, 0x00, 0x00,
  0x48, 0x03, 0x00, 0x00, 0x9a, 0xa3, 0x59, 0xbf, 0x59, 0x48, 0xe6, 0xbe,
  0x99, 0xe3, 0x1b, 0xbf, 0x49, 0x69, 0xc4, 0xbe, 0x57, 0x6d, 0x5b, 0xbf,
  0xa9, 0x96, 0x48, 0x3f, 0x2d, 0x25, 0x7c, 0x3f, 0xa1, 0x87, 0x50, 0xbe,
  0x76, 0x62, 0x29, 0xbf, 0x17, 0x83, 0xad, 0xbe, 0x83, 0xbb, 0x8d, 0xbf,
  0x0c, 0x9a, 0x83, 0xbf, 0x30, 0x09, 0x0b, 0xbf, 0x45, 0x06, 0xf9, 0xbe,
  0x30, 0x89, 0x86, 0xbf, 0xe2, 0xf7, 0x7a, 0xbe, 0xcd, 0x98, 0xfb, 0x3e,
  0x5f, 0xf9, 0xac, 0xbe, 0x0d, 0x01, 0xcb, 0xbe, 0x65, 0x51, 0x18, 0x3f,
  0x70, 0xda, 0xe8, 0xbe, 0xf4, 0x87, 0x2f, 0xbf, 0xb5, 0xbd, 0x5e, 0xbf,
  0x16, 0xcf, 0x6a, 0xbf, 0x16, 0x69, 0x68, 0x3d, 0xcb, 0x8b, 0x22, 0xbf,
  0x45, 0x9a, 0x6f, 0xbc, 0x2c, 0x89, 0x2c, 0xbf, 0xd8, 0x6d, 0x5d, 0xbf,
  0x3f, 0x28, 0x8b, 0x3c, 0xd6, 0x4a, 0x05, 0x3e, 0xfe, 0xd2, 0x56, 0xbf,
  0x35, 0x06, 0x89, 0x3e, 0x44, 0x7b, 0x50, 0xbf, 0x50, 0xe2, 0x9b, 0x3e,
  0x15, 0xb8, 0x76, 0xbf, 0x24, 0x50, 0xec, 0xbe, 0x70, 0x14, 0x2a, 0xbe,
  0xe7, 0x44, 0x88, 0xbf, 0x19, 0x20, 0xbd, 0xbe, 0x7b, 0x21, 0x16, 0x3e,
  0x87, 0xaa, 0x4d, 0xbf, 0xe9, 0x80, 0xd1, 0xbe, 0xd1, 0x1f, 0x87, 0xbf,
  0x58, 0x9c, 0xfd, 0xbe, 0xe4, 0x18, 0x4d, 0xbf, 0x4a, 0x18, 0x8f, 0xbe,
  0x16, 0xf9, 0x08, 0xbf, 0x8a, 0xb8, 0xbf, 0xbf, 0x40, 0xb7, 0xb3, 0x3d,
  0x18, 0x3b, 0x24, 0x3f, 0xa8, 0x0e, 0x12, 0xbe, 0x65, 0x0d, 0xc8, 0xbe,
  0x59, 0x7c, 0xcf, 0x3e, 0x95, 0x00, 0x46, 0x3e, 0x86, 0x37, 0x1a, 0xbf,
  0xef, 0x11, 0x3a, 0xbf, 0xed, 0xde, 0x5e, 0xbf, 0x33, 0x0a, 0xb8, 0xbf,
  0xb9, 0x89, 0xfd, 0xbe, 0x8a, 0x49, 0x2e, 0xbf, 0xa7, 0x19, 0x68, 0xbf,
  0x3e, 0x1e, 0x85, 0xbe, 0xac, 0x9e, 0x11, 0x3f, 0x7f, 0x13, 0x65, 0xbf,
  0x39, 0x58, 0x63, 0xbe, 0xa9, 0x8f, 0x03, 0xbe, 0x35, 0x83, 0xa3, 0xbe,
  0x9c, 0x50, 0xb5, 0xbf, 0x44, 0x12, 0x04, 0xc0, 0xfe, 0xfa, 0xf5, 0xbe,
  0x58, 0x3f, 0x19, 0x3f, 0xeb, 0x2c, 0x84, 0xbf, 0xc9, 0x6e, 0xbe, 0x3e,
  0xf8, 0x97, 0x18, 0x3f, 0x77, 0x43, 0xcf, 0xbb, 0x79, 0xd5, 0xf9, 0xbb,
  0x2d, 0x57, 0x27, 0x3f, 0x82, 0x0d, 0xad, 0xbe, 0x6e, 0x6f, 0x96, 0xbf,
  0x8f, 0xfb, 0x05, 0xbf, 0x99, 0x6a, 0x97, 0xbe, 0x9c, 0xfa, 0x53, 0xbf,
  0xf6, 0x53, 0x90, 0xbe, 0x4d, 0xe1, 0x13, 0xbf, 0x80, 0xef, 0x34, 0xbe,
  0x51, 0x03, 0x27, 0x3c, 0x3d, 0x01, 0xc1, 0xbf, 0x87, 0xbd, 0x05, 0xbf,
  0x45, 0xe4, 0x32, 0xbe, 0xc3, 0xa7, 0xca, 0x3e, 0x7f, 0xd2, 0x45, 0xbc,
  0x41, 0x97, 0x35, 0xbf, 0x3f, 0x97, 0x89, 0x3e, 0x9c, 0x13, 0x81, 0xbe,
  0xd3, 0x77, 0x32, 0xbf, 0x35, 0xd1, 0x0c, 0xbf, 0x75, 0xc3, 0x65, 0xbf,
  0xe0, 0xc9, 0x46, 0xbf, 0x61, 0x1b, 0x51, 0xbe, 0x71, 0xa7, 0x0b, 0xbf,
  0xbf, 0x71, 0x24, 0xbf, 0x84, 0x88, 0x45, 0xbe, 0x62, 0x2e, 0xe6, 0xbe,
  0x3d, 0x40, 0xce, 0xbe, 0x9c, 0xc1, 0x03, 0xbe, 0xbc, 0x7b, 0x52, 0xbe,
  0x86, 0xeb, 0x2c, 0x3e, 0xd6, 0x93, 0x9b, 0xbf, 0xf3, 0x14, 0x23, 0xbf,
  0x3d, 0xc0, 0x42, 0x3f, 0x9b, 0x46, 0xb4, 0xbe, 0x5f, 0x81, 0xc9, 0x3e,
  0xf1, 0x21, 0x42, 0xbf, 0x1a, 0x76, 0xe5, 0xbe, 0xe5, 0xee, 0x26, 0xbf,
  0x17, 0xa4, 0x30, 0xbf, 0x9d, 0xe9, 0x5c, 0xbe, 0x89, 0x6e, 0x0a, 0xbf,
  0xe0, 0x76, 0x93, 0xbf, 0xd1, 0x63, 0x67, 0xbe, 0x36, 0x0e, 0xbf, 0xbf,
  0x09, 0x11, 0x80, 0xbd, 0xc4, 0x8e, 0x4e, 0xbf, 0x8a, 0xc8, 0x03, 0xbf,
  0xb0, 0xb3, 0x5d, 0xbe, 0xb3, 0x7a, 0x99, 0xbe, 0x7d, 0xec, 0x43, 0xbf,
  0x0c, 0xc8, 0x18, 0xbf, 0x95, 0xdc, 0xe7, 0x3f, 0x71, 0xec, 0xb4, 0xbe,
  0x5c, 0x57, 0x8e, 0xbe, 0xfd, 0x01, 0x63, 0xbd, 0x46, 0xb6, 0xf8, 0xbf,
  0x41, 0x8f, 0xb2, 0x3e, 0x1f, 0xaa, 0x31, 0xbe, 0x2a, 0x82, 0x14, 0xbf,
  0xd4, 0x53, 0x26, 0x3f, 0xbc, 0x8f, 0xdc, 0xbf, 0x7f, 0xb5, 0x94, 0x3f,
  0xd1, 0x56, 0x19, 0x3e, 0x46, 0xe0, 0x2d, 0xbf, 0xaa, 0x49, 0xae, 0x3f,
  0xef, 0xd0, 0xd4, 0xbf, 0x85, 0x7b, 0x9b, 0xbe, 0x29, 0x61, 0x08, 0x3f,
  0x2c, 0xd6, 0x18, 0xbf, 0xcf, 0x77, 0xd1, 0x3e, 0x5b, 0xff, 0xf2, 0xbe,
  0xe6, 0xd6, 0x0c, 0xbf, 0xa2, 0xce, 0x43, 0x3e, 0x98, 0x76, 0xbc, 0x3e,
  0xa2, 0x6a, 0x37, 0xbf, 0xf2, 0xd1, 0xef, 0xbf, 0x87, 0x65, 0x5b, 0xbe,
  0xdc, 0x98, 0x58, 0x3c, 0x6a, 0x59, 0x3f, 0xbf, 0xac, 0x12, 0xac, 0x3e,
  0xbf, 0xea, 0x0a, 0x3f, 0xb8, 0x41, 0x19, 0x3e, 0x59, 0x8b, 0x5b, 0x3c,
  0x14, 0xd5, 0x8c, 0x3e, 0xbe, 0x6e, 0xc5, 0xbe, 0x9f, 0xbe, 0xb7, 0xbf,
  0x9f, 0xcd, 0x9c, 0xbe, 0x89, 0x6a, 0x25, 0xbe, 0xac, 0xac, 0x89, 0xbf,
  0xa5, 0x22, 0xcf, 0xbe, 0x5e, 0x80, 0x36, 0xbf, 0xf5, 0xf9, 0x48, 0xbf,
  0x8a, 0xf5, 0xf0, 0xbe, 0x25, 0x18, 0x5d, 0xbf, 0x23, 0x8a, 0xbd, 0xbe,
  0x1a, 0x2a, 0xa5, 0x3e, 0x48, 0x9d, 0x8b, 0xbc, 0xa1, 0xe4, 0x99, 0x3d,
  0x41, 0x8d, 0x47, 0xbe, 0x04, 0xf6, 0x36, 0x3d, 0x88, 0xe8, 0x3d, 0xbf,
  0xb2, 0x56, 0x0a, 0xbe, 0x0d, 0xf9, 0x55, 0xbf, 0xf5, 0xbf, 0x9b, 0xbd,
  0x0a, 0x6b, 0x77, 0xbf, 0xc9, 0x8e, 0x07, 0xbe, 0xda, 0x0b, 0x2f, 0xbf,
  0x8f, 0xdb, 0xa3, 0xbe, 0x9a, 0xc7, 0x7b, 0xbe, 0xaf, 0x12, 0x24, 0xbe,
  0xf1, 0x2c, 0x8a, 0xbf, 0xf5, 0xd8, 0x2e, 0xbe, 0x74, 0xd2, 0x4a, 0xbf,
  0xb7, 0x39, 0x96, 0x3c, 0x14, 0x75, 0xa2, 0xbe, 0x80, 0x2c, 0xba, 0x3d,
  0x5d, 0x82, 0x88, 0xbf, 0x4a, 0x2d, 0xe5, 0xbf, 0x1d, 0x9d, 0x29, 0x3d,
  0x96, 0x20, 0xdf, 0x3e, 0x2f, 0x8f, 0x67, 0xbf, 0xa5, 0xe7, 0xba, 0x3d,
  0x14, 0x18, 0x6c, 0xbc, 0xcd, 0xd8, 0x82, 0x3c, 0x44, 0x4d, 0x9e, 0xbe,
  0x08, 0x70, 0xa4, 0xbe, 0x65, 0xeb, 0x6b, 0xbf, 0x7f, 0xbe, 0x97, 0xbf,
  0x5c, 0xf8, 0xb3, 0x3c, 0xc2, 0x71, 0x27, 0xbf, 0x6d, 0x9b, 0xed, 0xbe,
  0xec, 0xb6, 0xca, 0xbe, 0x0c, 0xfb, 0xff, 0xff, 0x10, 0xfb, 0xff, 0xff,
  0x0f, 0x00, 0x00, 0x00, 0x54, 0x4f, 0x43, 0x4f, 0x20, 0x43, 0x6f, 0x6e,
  0x76, 0x65, 0x72, 0x74, 0x65, 0x64, 0x2e, 0x00, 0x01, 0x00, 0x00, 0x00,
  0x10, 0x00, 0x00, 0x00, 0x0c, 0x00, 0x14, 0x00, 0x04, 0x00, 0x08, 0x00,
  0x0c, 0x00, 0x10, 0x00, 0x0c, 0x00, 0x00, 0x00, 0x24, 0x01, 0x00, 0x00,
  0x18, 0x01, 0x00, 0x00, 0x0c, 0x01, 0x00, 0x00, 0x04, 0x00, 0x00, 0x00,
  0x05, 0x00, 0x00, 0x00, 0xd0, 0x00, 0x00, 0x00, 0x9c, 0x00, 0x00, 0x00,
  0x5c, 0x00, 0x00, 0x00, 0x38, 0x00, 0x00, 0x00, 0x04, 0x00, 0x00, 0x00,
  0x52, 0xff, 0xff, 0xff, 0x00, 0x00, 0x00, 0x08, 0x18, 0x00, 0x00, 0x00,
  0x0c, 0x00, 0x00, 0x00, 0x04, 0x00, 0x00, 0x00, 0x7c, 0xfb, 0xff, 0xff,
  0x01, 0x00, 0x00, 0x00, 0x00, 0x00, 0x00, 0x00, 0x03, 0x00, 0x00, 0x00,
  0x09, 0x00, 0x00, 0x00, 0x0a, 0x00, 0x00, 0x00, 0x0b, 0x00, 0x00, 0x00,
  0xae, 0xff, 0xff, 0xff, 0x01, 0x00, 0x00, 0x00, 0x10, 0x00, 0x00, 0x00,
  0x04, 0x00, 0x00, 0x00, 0x01, 0x00, 0x00, 0x00, 0x09, 0x00, 0x00, 0x00,
  0x01, 0x00, 0x00, 0x00, 0x06, 0x00, 0x00, 0x00, 0xa2, 0xff, 0xff, 0xff,
  0x00, 0x00, 0x00, 0x08, 0x18, 0x00, 0x00, 0x00, 0x0c, 0x00, 0x00, 0x00,
  0x04, 0x00, 0x00, 0x00, 0xcc, 0xfb, 0xff, 0xff, 0x01, 0x00, 0x00, 0x00,
  0x06, 0x00, 0x00, 0x00, 0x03, 0x00, 0x00, 0x00, 0x05, 0x00, 0x00, 0x00,
  0x07, 0x00, 0x00, 0x00, 0x08, 0x00, 0x00, 0x00, 0x00, 0x00, 0x0a, 0x00,
  0x10, 0x00, 0x04, 0x00, 0x08, 0x00, 0x0c, 0x00, 0x0a, 0x00, 0x00, 0x00,
  0x01, 0x00, 0x00, 0x00, 0x10, 0x00, 0x00, 0x00, 0x04, 0x00, 0x00, 0x00,
  0x01, 0x00, 0x00, 0x00, 0x05, 0x00, 0x00, 0x00, 0x01, 0x00, 0x00, 0x00,
  0x02, 0x00, 0x00, 0x00, 0x00, 0x00, 0x0e, 0x00, 0x14, 0x00, 0x00, 0x00,
  0x08, 0x00, 0x0c, 0x00, 0x07, 0x00, 0x10, 0x00, 0x0e, 0x00, 0x00, 0x00,
  0x00, 0x00, 0x00, 0x08, 0x18, 0x00, 0x00, 0x00, 0x0c, 0x00, 0x00, 0x00,
  0x04, 0x00, 0x00, 0x00, 0x38, 0xfc, 0xff, 0xff, 0x01, 0x00, 0x00, 0x00,
  0x02, 0x00, 0x00, 0x00, 0x03, 0x00, 0x00, 0x00, 0x01, 0x00, 0x00, 0x00,
  0x03, 0x00, 0x00, 0x00, 0x04, 0x00, 0x00, 0x00, 0x01, 0x00, 0x00, 0x00,
  0x00, 0x00, 0x00, 0x00, 0x01, 0x00, 0x00, 0x00, 0x01, 0x00, 0x00, 0x00,
  0x0c, 0x00, 0x00, 0x00, 0x84, 0x03, 0x00, 0x00, 0x1c, 0x03, 0x00, 0x00,
  0xd4, 0x02, 0x00, 0x00, 0x74, 0x02, 0x00, 0x00, 0x2c, 0x02, 0x00, 0x00,
  0xe4, 0x01, 0x00, 0x00, 0x9c, 0x01, 0x00, 0x00, 0x3c, 0x01, 0x00, 0x00,
  0xf4, 0x00, 0x00, 0x00, 0xac, 0x00, 0x00, 0x00, 0x4c, 0x00, 0x00, 0x00,
  0x04, 0x00, 0x00, 0x00, 0xba, 0xfc, 0xff, 0xff, 0x38, 0x00, 0x00, 0x00,
  0x0c, 0x00, 0x00, 0x00, 0x0c, 0x00, 0x00, 0x00, 0x04, 0x00, 0x00, 0x00,
  0xac, 0xfc, 0xff, 0xff, 0x1e, 0x00, 0x00, 0x00, 0x73, 0x65, 0x71, 0x75,
  0x65, 0x6e, 0x74, 0x69, 0x61, 0x6c, 0x2f, 0x64, 0x65, 0x6e, 0x73, 0x65,
  0x5f, 0x32, 0x2f, 0x4d, 0x61, 0x74, 0x4d, 0x75, 0x6c, 0x5f, 0x62, 0x69,
  0x61, 0x73, 0x00, 0x00, 0x01, 0x00, 0x00, 0x00, 0x05, 0x00, 0x00, 0x00,
  0xfe, 0xfc, 0xff, 0xff, 0x4c, 0x00, 0x00, 0x00, 0x0b, 0x00, 0x00, 0x00,
  0x0c, 0x00, 0x00, 0x00, 0x04, 0x00, 0x00, 0x00, 0xf0, 0xfc, 0xff, 0xff,
  0x32, 0x00, 0x00, 0x00, 0x73, 0x65, 0x71, 0x75, 0x65, 0x6e, 0x74, 0x69,
  0x61, 0x6c, 0x2f, 0x64, 0x65, 0x6e, 0x73, 0x65, 0x5f, 0x32, 0x2f, 0x4d,
  0x61, 0x74, 0x4d, 0x75, 0x6c, 0x2f, 0x52, 0x65, 0x61, 0x64, 0x56, 0x61,
  0x72, 0x69, 0x61, 0x62, 0x6c, 0x65, 0x4f, 0x70, 0x2f, 0x74, 0x72, 0x61,
  0x6e, 0x73, 0x70, 0x6f, 0x73, 0x65, 0x00, 0x00, 0x02, 0x00, 0x00, 0x00,
  0x05, 0x00, 0x00, 0x00, 0x0a, 0x00, 0x00, 0x00, 0x5a, 0xfd, 0xff, 0xff,
  0x34, 0x00, 0x00, 0x00, 0x06, 0x00, 0x00, 0x00, 0x0c, 0x00, 0x00, 0x00,
  0x04, 0x00, 0x00, 0x00, 0x4c, 0xfd, 0xff, 0xff, 0x1a, 0x00, 0x00, 0x00,
  0x73, 0x65, 0x71, 0x75, 0x65, 0x6e, 0x74, 0x69, 0x61, 0x6c, 0x2f, 0x64,
  0x65, 0x6e, 0x73, 0x65, 0x5f, 0x31, 0x2f, 0x53, 0x69, 0x67, 0x6d, 0x6f,
  0x69, 0x64, 0x00, 0x00, 0x02, 0x00, 0x00, 0x00, 0x01, 0x00, 0x00, 0x00,
  0x0a, 0x00, 0x00, 0x00, 0x9e, 0xfd, 0xff, 0xff, 0x38, 0x00, 0x00, 0x00,
  0x0a, 0x00, 0x00, 0x00, 0x0c, 0x00, 0x00, 0x00, 0x04, 0x00, 0x00, 0x00,
  0x90, 0xfd, 0xff, 0xff, 0x1e, 0x00, 0x00, 0x00, 0x73, 0x65, 0x71, 0x75,
  0x65, 0x6e, 0x74, 0x69, 0x61, 0x6c, 0x2f, 0x64, 0x65, 0x6e, 0x73, 0x65,
  0x5f, 0x31, 0x2f, 0x4d, 0x61, 0x74, 0x4d, 0x75, 0x6c, 0x5f, 0x62, 0x69,
  0x61, 0x73, 0x00, 0x00, 0x01, 0x00, 0x00, 0x00, 0x0a, 0x00, 0x00, 0x00,
  0xe2, 0xfd, 0xff, 0xff, 0x4c, 0x00, 0x00, 0x00, 0x02, 0x00, 0x00, 0x00,
  0x0c, 0x00, 0x00, 0x00, 0x04, 0x00, 0x00, 0x00, 0xd4, 0xfd, 0xff, 0xff,
  0x32, 0x00, 0x00, 0x00, 0x73, 0x65, 0x71, 0x75, 0x65, 0x6e, 0x74, 0x69,
  0x61, 0x6c, 0x2f, 0x64, 0x65, 0x6e, 0x73, 0x65, 0x5f, 0x31, 0x2f, 0x4d,
  0x61, 0x74, 0x4d, 0x75, 0x6c, 0x2f, 0x52, 0x65, 0x61, 0x64, 0x56, 0x61,
  0x72, 0x69, 0x61, 0x62, 0x6c, 0x65, 0x4f, 0x70, 0x2f, 0x74, 0x72, 0x61,
  0x6e, 0x73, 0x70, 0x6f, 0x73, 0x65, 0x00, 0x00, 0x02, 0x00, 0x00, 0x00,
  0x0a, 0x00, 0x00, 0x00, 0x15, 0x00, 0x00, 0x00, 0x3e, 0xfe, 0xff, 0xff,
  0x34, 0x00, 0x00, 0x00, 0x04, 0x00, 0x00, 0x00, 0x0c, 0x00, 0x00, 0x00,
  0x04, 0x00, 0x00, 0x00, 0x30, 0xfe, 0xff, 0xff, 0x1a, 0x00, 0x00, 0x00,
  0x73, 0x65, 0x71, 0x75, 0x65, 0x6e, 0x74, 0x69, 0x61, 0x6c, 0x2f, 0x64,
  0x65, 0x6e, 0x73, 0x65, 0x5f, 0x31, 0x2f, 0x42, 0x69, 0x61, 0x73, 0x41,
  0x64, 0x64, 0x00, 0x00, 0x02, 0x00, 0x00, 0x00, 0x01, 0x00, 0x00, 0x00,
  0x0a, 0x00, 0x00, 0x00, 0x82, 0xfe, 0xff, 0xff, 0x34, 0x00, 0x00, 0x00,
  0x05, 0x00, 0x00, 0x00, 0x0c, 0x00, 0x00, 0x00, 0x04, 0x00, 0x00, 0x00,
  0x74, 0xfe, 0xff, 0xff, 0x18, 0x00, 0x00, 0x00, 0x73, 0x65, 0x71, 0x75,
  0x65, 0x6e, 0x74, 0x69, 0x61, 0x6c, 0x2f, 0x64, 0x65, 0x6e, 0x73, 0x65,
  0x2f, 0x53, 0x69, 0x67, 0x6d, 0x6f, 0x69, 0x64, 0x00, 0x00, 0x00, 0x00,
  0x02, 0x00, 0x00, 0x00, 0x01, 0x00, 0x00, 0x00, 0x15, 0x00, 0x00, 0x00,
  0xc6, 0xfe, 0xff, 0xff, 0x38, 0x00, 0x00, 0x00, 0x09, 0x00, 0x00, 0x00,
  0x0c, 0x00, 0x00, 0x00, 0x04, 0x00, 0x00, 0x00, 0xb8, 0xfe, 0xff, 0xff,
  0x1c, 0x00, 0x00, 0x00, 0x73, 0x65, 0x71, 0x75, 0x65, 0x6e, 0x74, 0x69,
  0x61, 0x6c, 0x2f, 0x64, 0x65, 0x6e, 0x73, 0x65, 0x2f, 0x4d, 0x61, 0x74,
  0x4d, 0x75, 0x6c, 0x5f, 0x62, 0x69, 0x61, 0x73, 0x00, 0x00, 0x00, 0x00,
  0x01, 0x00, 0x00, 0x00, 0x15, 0x00, 0x00, 0x00, 0x0a, 0xff, 0xff, 0xff,
  0x4c, 0x00, 0x00, 0x00, 0x08, 0x00, 0x00, 0x00, 0x0c, 0x00, 0x00, 0x00,
  0x04, 0x00, 0x00, 0x00, 0xfc, 0xfe, 0xff, 0xff, 0x30, 0x00, 0x00, 0x00,
  0x73, 0x65, 0x71, 0x75, 0x65, 0x6e, 0x74, 0x69, 0x61, 0x6c, 0x2f, 0x64,
  0x65, 0x6e, 0x73, 0x65, 0x2f, 0x4d, 0x61, 0x74, 0x4d, 0x75, 0x6c, 0x2f,
  0x52, 0x65, 0x61, 0x64, 0x56, 0x61, 0x72, 0x69, 0x61, 0x62, 0x6c, 0x65,
  0x4f, 0x70, 0x2f, 0x74, 0x72, 0x61, 0x6e, 0x73, 0x70, 0x6f, 0x73, 0x65,
  0x00, 0x00, 0x00, 0x00, 0x02, 0x00, 0x00, 0x00, 0x15, 0x00, 0x00, 0x00,
  0x15, 0x00, 0x00, 0x00, 0x66, 0xff, 0xff, 0xff, 0x34, 0x00, 0x00, 0x00,
  0x03, 0x00, 0x00, 0x00, 0x0c, 0x00, 0x00, 0x00, 0x04, 0x00, 0x00, 0x00,
  0x58, 0xff, 0xff, 0xff, 0x18, 0x00, 0x00, 0x00, 0x73, 0x65, 0x71, 0x75,
  0x65, 0x6e, 0x74, 0x69, 0x61, 0x6c, 0x2f, 0x64, 0x65, 0x6e, 0x73, 0x65,
  0x2f, 0x42, 0x69, 0x61, 0x73, 0x41, 0x64, 0x64, 0x00, 0x00, 0x00, 0x00,
  0x02, 0x00, 0x00, 0x00, 0x01, 0x00, 0x00, 0x00, 0x15, 0x00, 0x00, 0x00,
  0xaa, 0xff, 0xff, 0xff, 0x44, 0x00, 0x00, 0x00, 0x01, 0x00, 0x00, 0x00,
  0x2c, 0x00, 0x00, 0x00, 0x0c, 0x00, 0x00, 0x00, 0x08, 0x00, 0x0c, 0x00,
  0x04, 0x00, 0x08, 0x00, 0x08, 0x00, 0x00, 0x00, 0x10, 0x00, 0x00, 0x00,
  0x04, 0x00, 0x00, 0x00, 0x01, 0x00, 0x00, 0x00, 0x00, 0x00, 0x7f, 0x43,
  0x01, 0x00, 0x00, 0x00, 0x00, 0x00, 0x00, 0x00, 0x0b, 0x00, 0x00, 0x00,
  0x64, 0x65, 0x6e, 0x73, 0x65, 0x5f, 0x69, 0x6e, 0x70, 0x75, 0x74, 0x00,
  0x02, 0x00, 0x00, 0x00, 0x01, 0x00, 0x00, 0x00, 0x15, 0x00, 0x00, 0x00,
  0x00, 0x00, 0x0e, 0x00, 0x14, 0x00, 0x04, 0x00, 0x00, 0x00, 0x08, 0x00,
  0x0c, 0x00, 0x10, 0x00, 0x0e, 0x00, 0x00, 0x00, 0x28, 0x00, 0x00, 0x00,
  0x07, 0x00, 0x00, 0x00, 0x10, 0x00, 0x00, 0x00, 0x08, 0x00, 0x00, 0x00,
  0x04, 0x00, 0x04, 0x00, 0x04, 0x00, 0x00, 0x00, 0x08, 0x00, 0x00, 0x00,
  0x49, 0x64, 0x65, 0x6e, 0x74, 0x69, 0x74, 0x79, 0x00, 0x00, 0x00, 0x00,
  0x02, 0x00, 0x00, 0x00, 0x01, 0x00, 0x00, 0x00, 0x05, 0x00, 0x00, 0x00,
  0x02, 0x00, 0x00, 0x00, 0x20, 0x00, 0x00, 0x00, 0x0c, 0x00, 0x00, 0x00,
  0x00, 0x00, 0x06, 0x00, 0x06, 0x00, 0x05, 0x00, 0x06, 0x00, 0x00, 0x00,
  0x00, 0x0e, 0x0a, 0x00, 0x0c, 0x00, 0x07, 0x00, 0x00, 0x00, 0x08, 0x00,
  0x0a, 0x00, 0x00, 0x00, 0x00, 0x00, 0x00, 0x09, 0x03, 0x00, 0x00, 0x00
 
};

