
#define TENSORFLOW_LITE_EXPERIMENTAL_MICRO_EXAMPLES_HELLO_WORLD_SINE_MODEL_DATA_H_
#ifdef __has_attribute
#define HAVE_ATTRIBUTE(x) __has_attribute(x)
#else
#define HAVE_ATTRIBUTE(x) 0
#endif
#if HAVE_ATTRIBUTE(aligned) || (defined(__GNUC__) && !defined(__clang__))
#define DATA_ALIGN_ATTRIBUTE __attribute__((aligned(4)))
#else
#define DATA_ALIGN_ATTRIBUTE
#endif

const int flight_model_len = 8008;
const unsigned char flight_model[] DATA_ALIGN_ATTRIBUTE = {
 0x1c, 0x00, 0x00, 0x00, 0x54, 0x46, 0x4c, 0x33, 0x00, 0x00, 0x12, 0x00,
  0x1c, 0x00, 0x04, 0x00, 0x08, 0x00, 0x0c, 0x00, 0x10, 0x00, 0x14, 0x00,
  0x00, 0x00, 0x18, 0x00, 0x12, 0x00, 0x00, 0x00, 0x03, 0x00, 0x00, 0x00,
  0xf4, 0x1e, 0x00, 0x00, 0xfc, 0x19, 0x00, 0x00, 0xe4, 0x19, 0x00, 0x00,
  0x34, 0x00, 0x00, 0x00, 0x04, 0x00, 0x00, 0x00, 0x01, 0x00, 0x00, 0x00,
  0x04, 0x00, 0x00, 0x00, 0xb0, 0xe1, 0xff, 0xff, 0x08, 0x00, 0x00, 0x00,
  0x0d, 0x00, 0x00, 0x00, 0x13, 0x00, 0x00, 0x00, 0x6d, 0x69, 0x6e, 0x5f,
  0x72, 0x75, 0x6e, 0x74, 0x69, 0x6d, 0x65, 0x5f, 0x76, 0x65, 0x72, 0x73,
  0x69, 0x6f, 0x6e, 0x00, 0x0e, 0x00, 0x00, 0x00, 0xa4, 0x19, 0x00, 0x00,
  0x9c, 0x19, 0x00, 0x00, 0x7c, 0x0b, 0x00, 0x00, 0x6c, 0x0b, 0x00, 0x00,
  0x60, 0x0b, 0x00, 0x00, 0x58, 0x0b, 0x00, 0x00, 0xf0, 0x08, 0x00, 0x00,
  0xe8, 0x08, 0x00, 0x00, 0xe0, 0x08, 0x00, 0x00, 0x50, 0x01, 0x00, 0x00,
  0xc8, 0x00, 0x00, 0x00, 0x40, 0x00, 0x00, 0x00, 0x1c, 0x00, 0x00, 0x00,
  0x04, 0x00, 0x00, 0x00, 0xba, 0xf4, 0xff, 0xff, 0x04, 0x00, 0x00, 0x00,
  0x06, 0x00, 0x00, 0x00, 0x31, 0x2e, 0x31, 0x34, 0x2e, 0x30, 0x00, 0x00,
  0xce, 0xf4, 0xff, 0xff, 0x04, 0x00, 0x00, 0x00, 0x14, 0x00, 0x00, 0x00,
  0x38, 0x2a, 0xe8, 0x3b, 0xf2, 0x3d, 0x53, 0x3d, 0xfe, 0x12, 0x0c, 0x3d,
  0xf4, 0xbb, 0x36, 0x3d, 0x78, 0x8d, 0x57, 0x3d, 0xee, 0xf4, 0xff, 0xff,
  0x04, 0x00, 0x00, 0x00, 0x78, 0x00, 0x00, 0x00, 0x81, 0x81, 0x5d, 0x3d,
  0xa4, 0x4f, 0x6a, 0xbd, 0x61, 0x1c, 0x59, 0x3d, 0xb9, 0xe0, 0x21, 0x3d,
  0x3f, 0x5a, 0x2a, 0x3d, 0x95, 0x1f, 0xb2, 0x3d, 0x75, 0x6e, 0x92, 0x3d,
  0x80, 0x84, 0xbd, 0x3d, 0x35, 0xb9, 0xf3, 0x3c, 0x80, 0xf9, 0x87, 0x3d,
  0xe8, 0xa7, 0x1d, 0xbd, 0x3e, 0x10, 0x5f, 0x3d, 0x32, 0x7f, 0x5a, 0xbd,
  0x98, 0xe6, 0x0f, 0x3d, 0xe0, 0x20, 0x84, 0x3d, 0xff, 0x2b, 0xbc, 0xbc,
  0x6a, 0xa8, 0x7b, 0x3d, 0xc8, 0xae, 0xb7, 0x3c, 0x36, 0x31, 0x7b, 0xbd,
  0xd1, 0x78, 0x87, 0x3c, 0x79, 0xd9, 0xa6, 0x3d, 0xaa, 0x20, 0x12, 0xbc,
  0xf3, 0x2c, 0xb6, 0xbc, 0x90, 0x6d, 0x9d, 0xbc, 0xb0, 0xbf, 0x58, 0xbc,
  0x26, 0xbf, 0x2c, 0x3c, 0x8e, 0xbc, 0x85, 0xbd, 0xe4, 0xe5, 0x5b, 0x3d,
  0x02, 0xed, 0x0e, 0xbd, 0x67, 0x3f, 0x13, 0x3d, 0x72, 0xf5, 0xff, 0xff,
  0x04, 0x00, 0x00, 0x00, 0x78, 0x00, 0x00, 0x00, 0xb9, 0xf8, 0xb0, 0x3b,
  0xae, 0x75, 0x6a, 0x3c, 0xd9, 0x43, 0xce, 0x3c, 0x18, 0x05, 0x5c, 0xbc,
  0x62, 0x15, 0xd1, 0xbb, 0x01, 0xcd, 0x56, 0xbd, 0xbd, 0xf6, 0x87, 0xbc,
  0x53, 0x7c, 0x47, 0xbd, 0xe7, 0x7c, 0x1a, 0x3d, 0xf2, 0xfa, 0x36, 0xbe,
  0x84, 0xfc, 0x3f, 0xbb, 0xfb, 0x1d, 0x22, 0x3b, 0x3c, 0x0d, 0x77, 0x3d,
  0xa2, 0x94, 0xcc, 0xbd, 0x22, 0xcc, 0x07, 0x3e, 0x0c, 0xfd, 0xe6, 0xbc,
  0x69, 0xa4, 0xde, 0xbd, 0x90, 0xbf, 0xc4, 0x3c, 0x4f, 0x45, 0x38, 0x3d,
  0xd8, 0x4e, 0x29, 0xbd, 0x68, 0x73, 0x56, 0x3d, 0x6d, 0xb1, 0x3b, 0xbd,
  0x7d, 0xc1, 0x6a, 0x3d, 0x3b, 0x3f, 0xd0, 0xbd, 0xbf, 0xd0, 0x67, 0x3d,
  0xb2, 0xfa, 0x88, 0xbb, 0xe5, 0xc2, 0x49, 0xbd, 0x29, 0x9b, 0x8c, 0x3c,
  0x21, 0x59, 0x38, 0x3d, 0xc9, 0xd5, 0x5f, 0xbc, 0xf6, 0xf5, 0xff, 0xff,
  0x04, 0x00, 0x00, 0x00, 0x80, 0x07, 0x00, 0x00, 0xa4, 0xdf, 0xbc, 0xbe,
  0x4e, 0xc1, 0xb3, 0xbd, 0x11, 0x29, 0xa7, 0xbe, 0x3b, 0x7a, 0x0c, 0xbe,
  0xd6, 0xca, 0x49, 0xbe, 0x21, 0x15, 0xb2, 0x3e, 0xce, 0xb2, 0x12, 0x3e,
  0xb8, 0x1f, 0x73, 0x3e, 0xbf, 0x92, 0x14, 0xbe, 0x4d, 0xa6, 0xe9, 0xbd,
  0xee, 0x65, 0x18, 0xbe, 0x87, 0x59, 0xa5, 0xbe, 0x36, 0xab, 0xae, 0xbe,
  0x2b, 0x05, 0xba, 0x3c, 0xeb, 0xe0, 0x9c, 0x3e, 0x53, 0x14, 0x74, 0xbe,
  0x83, 0x74, 0xb5, 0xbe, 0x6f, 0x14, 0xcc, 0x3b, 0xc7, 0xf1, 0xb2, 0x3e,
  0x16, 0x36, 0xac, 0x3e, 0xb5, 0xcf, 0x25, 0xbe, 0x34, 0x58, 0x5a, 0x3e,
  0x5e, 0x8e, 0x97, 0xbe, 0x12, 0xf3, 0x70, 0xbd, 0xac, 0x97, 0x23, 0x3d,
  0x9c, 0x89, 0x0c, 0x3e, 0x9e, 0xfb, 0x8a, 0xbe, 0x84, 0x3b, 0x52, 0x3e,
  0x8f, 0x90, 0x51, 0x3e, 0x06, 0xbf, 0x15, 0xbd, 0xbf, 0xe0, 0x83, 0x3e,
  0xb0, 0x05, 0x2b, 0x3e, 0xeb, 0x92, 0x98, 0x3e, 0xd6, 0xae, 0xf1, 0xbb,
  0x8a, 0xfb, 0x8b, 0x3e, 0x35, 0x30, 0xae, 0x3e, 0x40, 0x8f, 0x9f, 0xbe,
  0x5e, 0xb5, 0x8a, 0x3e, 0xf9, 0x65, 0xae, 0xbd, 0x80, 0x2c, 0x80, 0xbe,
  0x64, 0x83, 0xb7, 0x3c, 0xad, 0xad, 0x5f, 0xbd, 0xba, 0x1c, 0x8d, 0xbc,
  0x55, 0x34, 0xa9, 0xbc, 0xa9, 0xcc, 0xd9, 0x3c, 0xe6, 0x9b, 0xab, 0xbe,
  0xad, 0x2d, 0x73, 0xbe, 0xcb, 0xd2, 0x82, 0x3e, 0xda, 0x9a, 0x16, 0x3e,
  0xae, 0xc2, 0x84, 0xbe, 0xed, 0x95, 0x95, 0x3d, 0xeb, 0x8e, 0x4b, 0xbd,
  0x39, 0x32, 0x0b, 0xbe, 0x14, 0x98, 0xb3, 0xbe, 0x05, 0xa9, 0x44, 0xbe,
  0x44, 0x92, 0x0e, 0xbd, 0xf7, 0x38, 0xb0, 0xbe, 0xfd, 0xff, 0xc2, 0x3e,
  0x36, 0xf0, 0x3d, 0x3e, 0x85, 0xf1, 0x33, 0xbd, 0x9c, 0x77, 0xc0, 0x3e,
  0x33, 0x13, 0x93, 0x3e, 0xbc, 0x23, 0x9c, 0x3e, 0xf9, 0xdc, 0xea, 0x3d,
  0x05, 0x45, 0x94, 0xbe, 0x84, 0x5b, 0xc6, 0x3d, 0x17, 0xfa, 0xce, 0x3e,
  0xa0, 0x3d, 0x5f, 0x3e, 0x5b, 0x1d, 0x9e, 0x3e, 0x7a, 0x71, 0x7f, 0xbe,
  0x7d, 0x95, 0x7a, 0x3e, 0x00, 0xf2, 0x9b, 0xbe, 0x8f, 0xf1, 0x9c, 0x3d,
  0x06, 0x45, 0x0a, 0xbe, 0xbe, 0xb9, 0x91, 0x3e, 0xc1, 0xea, 0xb0, 0xbe,
  0xaa, 0x77, 0x9c, 0xbd, 0x0e, 0x87, 0x4c, 0x3e, 0x79, 0xaa, 0xa1, 0x3e,
  0x3d, 0x08, 0x50, 0x3e, 0x54, 0x89, 0x22, 0xbe, 0xef, 0xd8, 0xb9, 0x3d,
  0x27, 0x48, 0x67, 0xbd, 0xa5, 0x7c, 0xac, 0xbc, 0xb5, 0x75, 0xc6, 0xbe,
  0x15, 0x61, 0x1d, 0xbe, 0x0f, 0xf0, 0xa5, 0x39, 0x61, 0x37, 0x3f, 0xbe,
  0x0d, 0x66, 0x4c, 0xbd, 0x09, 0x5b, 0xfc, 0x3b, 0x7a, 0xe4, 0xf6, 0xbd,
  0x94, 0xf8, 0x92, 0xbe, 0x65, 0x18, 0x94, 0xbe, 0x53, 0x88, 0x15, 0xbe,
  0xa7, 0x1c, 0x8b, 0x3e, 0xd1, 0x6d, 0x1d, 0xbe, 0x69, 0x4b, 0x21, 0xbe,
  0x5d, 0xa6, 0x9e, 0xbd, 0x7c, 0x05, 0x3d, 0xbc, 0x9d, 0x50, 0x87, 0x3c,
  0x6a, 0xb7, 0x5a, 0xbe, 0x56, 0x71, 0xe5, 0x3d, 0x0f, 0x12, 0xa0, 0x3e,
  0x89, 0x28, 0x25, 0x3e, 0xb6, 0x95, 0xb9, 0xbd, 0x7d, 0x48, 0x52, 0xbe,
  0xbd, 0xd9, 0x01, 0x3d, 0x38, 0x6b, 0x75, 0xbe, 0xaa, 0x46, 0x9f, 0x3d,
  0x0e, 0x0f, 0x3a, 0xbe, 0x85, 0xcd, 0x96, 0xbe, 0x48, 0xaa, 0x74, 0x3e,
  0x85, 0x89, 0x59, 0xbe, 0x8f, 0x1a, 0x39, 0x3d, 0x5b, 0xfe, 0x47, 0xbd,
  0xf0, 0x5e, 0x30, 0xbe, 0x84, 0x58, 0x4e, 0x3e, 0xe1, 0x72, 0x63, 0xbe,
  0xa8, 0x7c, 0x3c, 0x3d, 0x8d, 0x7d, 0x96, 0x3e, 0xc5, 0x30, 0x52, 0xbe,
  0x5e, 0x5b, 0x52, 0x3e, 0x05, 0xf0, 0x3a, 0xbe, 0x45, 0x80, 0xa6, 0x3e,
  0x43, 0xfe, 0x85, 0xbd, 0xc3, 0x87, 0xf9, 0x3d, 0x06, 0xea, 0x82, 0x3e,
  0x2f, 0x85, 0xc4, 0xbe, 0x86, 0x63, 0x59, 0xbe, 0xe9, 0xd2, 0x85, 0x3e,
  0x60, 0x81, 0xbb, 0xbe, 0x7c, 0x12, 0x80, 0x3e, 0x23, 0x67, 0xae, 0x3e,
  0xb7, 0x5c, 0xb8, 0x3e, 0xf7, 0x59, 0x33, 0x3e, 0xcc, 0xd9, 0x71, 0xbd,
  0x6a, 0xdc, 0x93, 0xbe, 0xbc, 0x17, 0x95, 0xbe, 0x57, 0xff, 0x8d, 0x3d,
  0xb5, 0x56, 0x10, 0xbe, 0x1b, 0x59, 0x13, 0xbe, 0x8f, 0x32, 0x70, 0xbe,
  0x04, 0x56, 0x87, 0xbc, 0x8f, 0xa6, 0x4d, 0xbd, 0x2d, 0xec, 0x73, 0xbe,
  0xc8, 0x5c, 0x6c, 0xbe, 0xeb, 0x82, 0x08, 0x3e, 0x4f, 0x3e, 0x53, 0xbe,
  0x21, 0x6f, 0xcb, 0x3e, 0x48, 0x65, 0xa1, 0xbe, 0x84, 0x8d, 0xb0, 0x3e,
  0xa9, 0x32, 0x86, 0x3e, 0x04, 0xaf, 0x42, 0xbe, 0x29, 0x47, 0xa9, 0xbe,
  0x28, 0xf3, 0x98, 0x3e, 0x23, 0xb1, 0x23, 0x3c, 0xa8, 0xf4, 0x19, 0x3e,
  0x33, 0x79, 0x72, 0xbd, 0xc1, 0x99, 0xde, 0x3d, 0xa3, 0x04, 0x9b, 0x3e,
  0x01, 0xda, 0xb0, 0xbe, 0x14, 0xcf, 0xc9, 0x3d, 0x2c, 0xc8, 0x80, 0x3e,
  0x48, 0xcc, 0xee, 0x3d, 0x48, 0x18, 0xec, 0xbe, 0x72, 0x6e, 0x15, 0x3e,
  0x29, 0xa5, 0x99, 0xbe, 0xac, 0xed, 0xab, 0xbe, 0x0e, 0xc6, 0xa9, 0xbc,
  0xf7, 0x64, 0xb1, 0xbe, 0x13, 0x39, 0x00, 0x3d, 0xdb, 0x12, 0xa1, 0xbd,
  0x39, 0x94, 0x3d, 0x3d, 0xb0, 0x81, 0x88, 0xbe, 0x2f, 0xc4, 0x70, 0xbe,
  0x52, 0x91, 0x2d, 0xbe, 0x21, 0x33, 0x76, 0xbe, 0x79, 0x11, 0x01, 0x3e,
  0xe2, 0xec, 0x8a, 0x3e, 0x7a, 0x6c, 0x48, 0x3e, 0x3b, 0x0f, 0xcf, 0x3d,
  0x6c, 0x87, 0xe6, 0x3c, 0x5a, 0xb1, 0x9f, 0xbd, 0xa0, 0xb5, 0x10, 0x3e,
  0x41, 0x92, 0x98, 0xbd, 0x17, 0x0d, 0x32, 0x3d, 0x20, 0x95, 0x92, 0xbd,
  0x9b, 0x67, 0x8c, 0xbe, 0x8c, 0x52, 0xab, 0xbe, 0xa0, 0xe5, 0x2d, 0x3e,
  0x7a, 0x8f, 0x76, 0x3d, 0x27, 0xee, 0xd8, 0x3d, 0x7c, 0x18, 0x8b, 0x3e,
  0x8a, 0x51, 0x27, 0x3e, 0xa6, 0x04, 0x92, 0xbe, 0x42, 0x73, 0xcd, 0xbe,
  0x41, 0x83, 0xaa, 0xbe, 0xd0, 0x7a, 0x18, 0x3d, 0xea, 0x9c, 0x7d, 0x3e,
  0x4b, 0x97, 0x2c, 0xbe, 0xb2, 0x26, 0x47, 0xbe, 0x8a, 0x51, 0x22, 0xbd,
  0xb0, 0x52, 0x43, 0xbe, 0xfb, 0x55, 0xca, 0x3e, 0x5b, 0x9c, 0x6d, 0xbe,
  0x29, 0x8f, 0x92, 0xbe, 0xfa, 0x3e, 0x72, 0x3e, 0xd4, 0xa1, 0xb0, 0x3e,
  0xb4, 0x96, 0x91, 0xbe, 0x99, 0x36, 0xac, 0x3e, 0x5e, 0xc0, 0x93, 0xbe,
  0xdc, 0xa7, 0x57, 0x3d, 0xa2, 0x76, 0x10, 0x3e, 0x18, 0xd8, 0xa1, 0xbb,
  0xd4, 0x78, 0xb8, 0xbe, 0x3d, 0x22, 0x1b, 0x3e, 0xad, 0xee, 0x77, 0x3e,
  0xb9, 0x57, 0x4f, 0xbe, 0x52, 0xc7, 0x10, 0x3e, 0xd9, 0x45, 0xab, 0xbd,
  0x0b, 0xb0, 0x6d, 0xbd, 0x47, 0x3a, 0x4e, 0xbd, 0xe3, 0x5a, 0xad, 0xbd,
  0x5d, 0x80, 0x56, 0x3e, 0x03, 0x5f, 0x84, 0xbd, 0xec, 0x09, 0x6c, 0x3d,
  0x88, 0x87, 0xb9, 0x3d, 0xb6, 0x9f, 0x10, 0x3e, 0x8a, 0x66, 0xdf, 0xba,
  0xb8, 0x97, 0xe8, 0x3d, 0xbf, 0x68, 0x83, 0x3d, 0x6d, 0xd1, 0x15, 0x3e,
  0x08, 0x35, 0x9d, 0x3e, 0x9a, 0x50, 0xc7, 0x3e, 0x9c, 0x4a, 0xdb, 0x3c,
  0xe0, 0x1c, 0x59, 0xbe, 0xa1, 0x25, 0x2d, 0xbe, 0xa9, 0x96, 0x20, 0x3e,
  0x2f, 0x2e, 0x3e, 0xbe, 0x09, 0xf8, 0x42, 0xbe, 0x2f, 0x87, 0x34, 0xbf,
  0x99, 0x23, 0xf5, 0xbd, 0x97, 0x47, 0x27, 0xbf, 0x5e, 0xc4, 0x68, 0x3d,
  0xcd, 0x61, 0xc0, 0xbd, 0xf2, 0xbd, 0xa3, 0x3e, 0x2a, 0x45, 0xe5, 0xbe,
  0x7d, 0x99, 0xcd, 0xbe, 0xfc, 0x7f, 0xae, 0x3e, 0x85, 0xcf, 0x60, 0xbe,
  0x67, 0x04, 0xda, 0xbe, 0x80, 0x3a, 0x82, 0x3e, 0x40, 0x60, 0xd6, 0x3a,
  0xb1, 0xb4, 0x69, 0xbe, 0x2d, 0x04, 0xcb, 0x3d, 0x71, 0x60, 0x74, 0x3e,
  0x50, 0xf4, 0x32, 0x3e, 0x9f, 0x60, 0xc5, 0xbd, 0xb5, 0xa5, 0x14, 0xbd,
  0xe1, 0xdd, 0x09, 0x3d, 0x9c, 0x4d, 0x4c, 0xbe, 0xbc, 0x95, 0xe5, 0x3d,
  0x7d, 0x6f, 0x75, 0x3d, 0x27, 0x78, 0x6f, 0x3e, 0x8d, 0x00, 0x80, 0x3e,
  0x2a, 0xdf, 0xb9, 0x3c, 0x7d, 0xe4, 0x64, 0xbe, 0x93, 0x50, 0x89, 0x3a,
  0xd9, 0x8e, 0x05, 0xbe, 0x86, 0xfd, 0xb0, 0x3d, 0x4b, 0x76, 0x41, 0x3e,
  0xb7, 0x0a, 0x58, 0x3e, 0x0a, 0xf8, 0x96, 0x3e, 0x72, 0x94, 0xb0, 0xbd,
  0x26, 0xff, 0x11, 0x3d, 0x0b, 0xdf, 0x30, 0x3e, 0x43, 0xb8, 0xf1, 0xbd,
  0x4f, 0x06, 0x92, 0x3e, 0x6a, 0xa4, 0xbb, 0x3e, 0x1f, 0x23, 0x1e, 0x3e,
  0x3d, 0x81, 0x63, 0x3d, 0x6f, 0x9b, 0x2b, 0x3e, 0xd6, 0xf5, 0x8a, 0x3e,
  0x02, 0x2f, 0xc0, 0x3c, 0x94, 0x15, 0x33, 0xbe, 0xd2, 0xda, 0x12, 0x3e,
  0xb3, 0x6a, 0xf9, 0x3d, 0x4b, 0xcd, 0x4f, 0x3e, 0x52, 0xe7, 0xe9, 0xbd,
  0xfa, 0x52, 0x5a, 0x3e, 0x3f, 0x1f, 0xe8, 0x3e, 0x55, 0x64, 0x3f, 0x3e,
  0xf6, 0x30, 0x65, 0xbe, 0x36, 0xd5, 0x45, 0xbe, 0x75, 0x21, 0x8d, 0xbe,
  0x3c, 0xa7, 0xc8, 0xbe, 0x3d, 0xe4, 0xbc, 0x3d, 0x16, 0xec, 0xfc, 0x3d,
  0xaf, 0x76, 0xf3, 0x3d, 0x6a, 0x12, 0x94, 0xbe, 0x14, 0x69, 0x64, 0xbd,
  0x71, 0xa0, 0x28, 0x3e, 0xb9, 0x8a, 0x23, 0xbe, 0xbb, 0x3f, 0x6d, 0xbe,
  0x1f, 0x42, 0xd7, 0x3d, 0x02, 0x50, 0xc9, 0x3d, 0x73, 0x92, 0xf5, 0x3e,
  0x25, 0x2e, 0x96, 0xbd, 0x98, 0xc5, 0x9d, 0xbe, 0xf9, 0x5c, 0xd5, 0xbd,
  0x86, 0x32, 0xeb, 0xbe, 0xce, 0x07, 0xf1, 0xbd, 0xe5, 0xbb, 0x4f, 0x3e,
  0x7a, 0x31, 0x83, 0xbe, 0xb9, 0x0a, 0x98, 0x3e, 0x8f, 0x74, 0x1b, 0xbc,
  0x4d, 0xd8, 0x65, 0x3e, 0xdb, 0x98, 0x2b, 0x3e, 0x1d, 0xf6, 0xd0, 0x3d,
  0xbb, 0xba, 0xd7, 0xbe, 0x61, 0x8d, 0xea, 0xbe, 0x6d, 0xcc, 0xcc, 0xbe,
  0xcf, 0xc3, 0x8f, 0x3e, 0x8e, 0xda, 0x37, 0x3e, 0xd6, 0x41, 0x06, 0x3e,
  0xb5, 0x4a, 0x27, 0xbe, 0xe1, 0x82, 0x7b, 0x3e, 0x2e, 0x8e, 0x68, 0x3e,
  0x6a, 0x58, 0x78, 0x3e, 0xec, 0xff, 0x43, 0x3d, 0x90, 0x84, 0xea, 0x3c,
  0xdc, 0x34, 0x91, 0xbe, 0x67, 0xeb, 0x16, 0x3e, 0x93, 0xa9, 0x96, 0xbe,
  0xbd, 0x6d, 0x20, 0xbb, 0xe4, 0xb9, 0x84, 0x3c, 0x4d, 0x38, 0x5b, 0x3e,
  0x24, 0x82, 0xc6, 0x3e, 0x2c, 0x2f, 0x7b, 0x3d, 0xe3, 0xf3, 0x86, 0xbd,
  0xb5, 0x4c, 0x64, 0xbe, 0x62, 0xfc, 0x89, 0xbe, 0x94, 0x2c, 0xd7, 0x3d,
  0x2b, 0xcd, 0x4d, 0xbe, 0x9f, 0xeb, 0x9d, 0x3e, 0x87, 0x4a, 0x8e, 0xbd,
  0x03, 0xb3, 0x90, 0x3e, 0x01, 0x75, 0x40, 0x3d, 0x0a, 0x78, 0x10, 0xbe,
  0x1c, 0xe9, 0x44, 0xbe, 0xd7, 0xa4, 0xb0, 0xbd, 0x88, 0xf0, 0x98, 0x3e,
  0xe0, 0xf9, 0x8d, 0xbe, 0x65, 0xdb, 0x9e, 0xbb, 0xb3, 0x72, 0x62, 0xbe,
  0x08, 0x78, 0x07, 0x3d, 0x49, 0x42, 0x61, 0x3c, 0x0b, 0x1a, 0xe9, 0x3c,
  0x79, 0x02, 0x3f, 0x3e, 0xa7, 0x3b, 0x8e, 0xbe, 0xfc, 0x73, 0x83, 0x3e,
  0xd5, 0xa3, 0xed, 0x3d, 0x72, 0xcd, 0x83, 0x3e, 0x17, 0xaa, 0xab, 0xbc,
  0xda, 0xef, 0xae, 0x3d, 0xc0, 0x09, 0x1c, 0xbd, 0x52, 0x13, 0x90, 0xbd,
  0x03, 0xc6, 0xa0, 0xbe, 0x3b, 0x3f, 0xbe, 0xbd, 0xa1, 0x13, 0x5b, 0xbe,
  0x58, 0x6d, 0xab, 0x3d, 0xdb, 0x38, 0x32, 0x3e, 0x34, 0x6e, 0x92, 0xbe,
  0xf5, 0xc7, 0xfb, 0x3d, 0x99, 0x57, 0x90, 0xbe, 0xdb, 0x97, 0x54, 0xbe,
  0x5d, 0xfd, 0x2e, 0xbe, 0xfb, 0x83, 0xaf, 0x3e, 0xcf, 0x03, 0x9f, 0x3e,
  0x67, 0x60, 0x66, 0x3e, 0xa7, 0xd6, 0x2f, 0xbe, 0x7c, 0x0d, 0x27, 0x3e,
  0xe8, 0x59, 0x69, 0xbd, 0xcf, 0xea, 0xc0, 0x3e, 0x0a, 0xeb, 0xaf, 0xbe,
  0xe3, 0x18, 0x99, 0xbe, 0x38, 0x10, 0x07, 0x3f, 0x28, 0x3a, 0x8b, 0x3c,
  0xee, 0x00, 0x6c, 0x3e, 0x43, 0xf9, 0x5c, 0x3e, 0x27, 0x55, 0xf7, 0xbd,
  0x33, 0xb1, 0x27, 0xbe, 0x82, 0x4c, 0xb8, 0xbe, 0xe1, 0xac, 0xc7, 0x3d,
  0x9f, 0xb3, 0xa0, 0xbe, 0x09, 0xf2, 0x2c, 0x3e, 0xb8, 0x17, 0x00, 0x3d,
  0x17, 0xad, 0xea, 0x3d, 0x81, 0xd2, 0x14, 0xbe, 0x65, 0xef, 0x68, 0x3e,
  0x14, 0x34, 0x0f, 0x3d, 0xad, 0xef, 0xdf, 0xbd, 0xba, 0x96, 0x58, 0xbd,
  0x64, 0x50, 0xa4, 0xbe, 0x55, 0x54, 0xc0, 0xbe, 0xad, 0x71, 0xca, 0x3d,
  0xb9, 0x53, 0x84, 0xbe, 0xfb, 0x88, 0x1d, 0xbe, 0xe4, 0x74, 0x87, 0x3e,
  0xf0, 0xb1, 0xb4, 0x3d, 0xaa, 0x66, 0x28, 0x3e, 0xc1, 0x2b, 0x8c, 0x3e,
  0xe3, 0xa2, 0x85, 0x3e, 0xf1, 0xf4, 0xb6, 0x39, 0xbd, 0xd5, 0xa8, 0x3e,
  0xf6, 0x48, 0x55, 0x3a, 0x28, 0xbe, 0xbf, 0x3d, 0xd7, 0xbe, 0x05, 0xbe,
  0x45, 0xe8, 0x88, 0xbe, 0x37, 0xf5, 0x92, 0x3e, 0xfb, 0xb8, 0x9e, 0x3e,
  0xd6, 0x55, 0xb6, 0x3e, 0x72, 0xc2, 0xae, 0x3e, 0x47, 0xc9, 0x4b, 0xbe,
  0x1e, 0x7d, 0xdc, 0xbd, 0xea, 0xb7, 0x28, 0x3c, 0xa5, 0xae, 0x7c, 0xbc,
  0x10, 0x89, 0x1c, 0xbd, 0x22, 0x3e, 0x99, 0x3e, 0xa0, 0x68, 0x48, 0xbe,
  0xb4, 0x8d, 0x1c, 0xbe, 0x67, 0xbe, 0xf2, 0x3b, 0x9b, 0x64, 0x82, 0x3e,
  0xac, 0x56, 0x8b, 0x3e, 0xc9, 0x33, 0xb1, 0x3e, 0xea, 0xd9, 0x38, 0xbe,
  0xd9, 0x61, 0xaa, 0xbd, 0x55, 0xdc, 0x6b, 0xbe, 0xc6, 0xcf, 0x7c, 0xbe,
  0xec, 0xad, 0xa2, 0xbe, 0xc4, 0xb4, 0xdf, 0xbc, 0x44, 0x10, 0xb4, 0x3e,
  0x50, 0x46, 0x65, 0x3d, 0xad, 0x50, 0xd4, 0xbc, 0xe8, 0xfe, 0x8b, 0x3e,
  0x98, 0xb8, 0xa2, 0xbe, 0xd1, 0x2d, 0xb9, 0x3d, 0x0b, 0x7e, 0xae, 0x3e,
  0x66, 0x15, 0x3d, 0xbe, 0x5d, 0x27, 0x70, 0x3e, 0xd0, 0x05, 0xac, 0x3e,
  0xc0, 0xf4, 0xdd, 0xbd, 0xc9, 0xf6, 0xd7, 0x3c, 0x42, 0xc5, 0xab, 0xbe,
  0x87, 0xd0, 0x69, 0xbe, 0xea, 0xce, 0x86, 0xbe, 0x52, 0x6c, 0xa2, 0xbd,
  0xc8, 0xd7, 0x84, 0xbd, 0x7c, 0x4c, 0x00, 0xbe, 0xac, 0x98, 0x7f, 0x3b,
  0x72, 0x94, 0x9d, 0x3e, 0xec, 0xe8, 0x01, 0x3e, 0x4f, 0x04, 0xb4, 0x3e,
  0x7f, 0x65, 0x39, 0xbe, 0x57, 0x3b, 0x2b, 0xbc, 0xbb, 0x92, 0x7d, 0xbd,
  0x03, 0x9b, 0x8d, 0xbc, 0xdb, 0x28, 0x0c, 0x3e, 0x53, 0xd4, 0xae, 0x3e,
  0x80, 0x71, 0x98, 0xbe, 0x96, 0x1c, 0x3a, 0x3d, 0xc3, 0x46, 0x3b, 0x3e,
  0xe8, 0x87, 0x50, 0x3e, 0x81, 0x47, 0x59, 0xbd, 0x23, 0x4a, 0x65, 0xbe,
  0x12, 0xad, 0x78, 0x3e, 0x51, 0x72, 0x02, 0xbe, 0x66, 0xa4, 0xac, 0x3e,
  0x3d, 0xe2, 0x86, 0x3e, 0x0f, 0x7d, 0xbf, 0xbe, 0x74, 0xea, 0xff, 0xff,
  0x78, 0xea, 0xff, 0xff, 0x8a, 0xfd, 0xff, 0xff, 0x04, 0x00, 0x00, 0x00,
  0x58, 0x02, 0x00, 0x00, 0x30, 0xa8, 0x42, 0x3d, 0x7e, 0x56, 0x58, 0x3e,
  0x7d, 0x22, 0x97, 0x3e, 0xdf, 0x53, 0x9a, 0xbe, 0x26, 0xe9, 0x4f, 0xbe,
  0xd0, 0x98, 0xe7, 0x3e, 0x92, 0x91, 0xc3, 0x3d, 0x76, 0xa0, 0x6d, 0x3e,
  0x4c, 0x0f, 0x4f, 0x3e, 0x83, 0x2d, 0xe4, 0xbd, 0x0a, 0x54, 0xe5, 0xb9,
  0x73, 0xa8, 0x34, 0x3e, 0x16, 0x12, 0xd1, 0xbe, 0x4a, 0x15, 0x5a, 0xbe,
  0x19, 0xca, 0x57, 0x3d, 0x3b, 0x22, 0x87, 0xbd, 0xe3, 0x81, 0x5d, 0x3d,
  0x31, 0xaa, 0x56, 0xbd, 0x7f, 0x1d, 0xa9, 0xbe, 0x45, 0xd4, 0x8d, 0x3e,
  0x4b, 0xe5, 0x49, 0x3d, 0xff, 0x94, 0xfb, 0x3c, 0x85, 0x79, 0x11, 0x3c,
  0x55, 0x32, 0x4f, 0xbe, 0xb1, 0xfc, 0xff, 0x3d, 0x4c, 0x1c, 0x3f, 0xbe,
  0x13, 0x5b, 0x83, 0xbe, 0x4d, 0x7f, 0xf2, 0x3e, 0xe5, 0xb6, 0x57, 0x3a,
  0x0e, 0x3b, 0x06, 0xbf, 0x5b, 0x38, 0x36, 0x3e, 0x60, 0x10, 0xca, 0xbe,
  0xf1, 0xd5, 0x6d, 0xbe, 0x6b, 0x34, 0x01, 0x3e, 0x85, 0x68, 0xa9, 0x3e,
  0x7e, 0xd2, 0x89, 0x3e, 0xfb, 0x0c, 0x09, 0x3f, 0xa6, 0x75, 0x2d, 0x3e,
  0xf0, 0x06, 0xe4, 0xbd, 0x25, 0x2c, 0xbd, 0x3e, 0x72, 0xf6, 0x16, 0x3c,
  0xc2, 0x57, 0x55, 0x3e, 0x54, 0x20, 0x8f, 0xbe, 0x6b, 0xa3, 0x38, 0x3e,
  0xdc, 0x7e, 0x21, 0xbd, 0xf4, 0x04, 0x0b, 0xbd, 0xe7, 0xfb, 0x13, 0x3e,
  0x4f, 0x86, 0x91, 0x3d, 0x8f, 0x9b, 0xfc, 0x3d, 0x27, 0x32, 0xc1, 0xbe,
  0x94, 0xec, 0xbe, 0x3e, 0x1f, 0x9e, 0x9a, 0xbd, 0xc7, 0xed, 0xdb, 0xbd,
  0x30, 0x8c, 0x63, 0xbe, 0x3a, 0x09, 0xc6, 0xbe, 0x71, 0x6c, 0xa6, 0xbe,
  0xe3, 0x87, 0x30, 0xbe, 0x5f, 0xf2, 0x7a, 0xbd, 0xf6, 0x3d, 0x15, 0xbe,
  0x56, 0xb3, 0xc2, 0x3e, 0xda, 0x22, 0x51, 0x3e, 0xbc, 0x94, 0x82, 0xbd,
  0xe4, 0x1b, 0xde, 0x3d, 0x41, 0xc9, 0xcc, 0x3e, 0x2b, 0xb0, 0xe3, 0x3e,
  0x62, 0xde, 0x9b, 0x3e, 0x20, 0x12, 0xaf, 0x3b, 0x25, 0x26, 0xc2, 0xbe,
  0x0f, 0x9a, 0xba, 0x3e, 0x46, 0xb9, 0xcd, 0xbd, 0x59, 0x9a, 0x3e, 0xbe,
  0xaa, 0x7d, 0xeb, 0x3d, 0x4f, 0x20, 0xc9, 0xbe, 0x90, 0xec, 0x62, 0x3e,
  0xa1, 0xfc, 0xbd, 0x3e, 0x38, 0xbd, 0xa0, 0x3e, 0x66, 0xa6, 0xae, 0x3e,
  0xe2, 0x14, 0x82, 0x3e, 0x37, 0x55, 0x81, 0xbd, 0x8a, 0x5a, 0x51, 0x3d,
  0xf8, 0x02, 0x93, 0x3e, 0x72, 0x40, 0x4d, 0xbe, 0xc9, 0x9b, 0x95, 0xbe,
  0xdd, 0xb2, 0x15, 0x3e, 0x80, 0x88, 0xf0, 0x3d, 0xd6, 0x23, 0xd9, 0x3d,
  0x87, 0x6f, 0xd3, 0x3e, 0x64, 0x16, 0xd1, 0x3e, 0xee, 0xa3, 0x1a, 0xbd,
  0xe1, 0xe5, 0x91, 0x3e, 0xa0, 0xa0, 0x81, 0x3e, 0x1e, 0xd5, 0xac, 0x3d,
  0x65, 0x31, 0xc3, 0x3d, 0x8e, 0x4e, 0x84, 0x3e, 0x65, 0xa8, 0x5a, 0xbe,
  0x18, 0xfc, 0x82, 0x3c, 0xe4, 0x4d, 0x90, 0xbd, 0xe7, 0x6c, 0xd5, 0x3e,
  0xab, 0xc9, 0xd1, 0x3d, 0x91, 0x08, 0x51, 0x3d, 0x46, 0x17, 0x0b, 0xbe,
  0xc7, 0x70, 0x74, 0x3d, 0x70, 0xc7, 0x06, 0xbe, 0xaf, 0xbb, 0x22, 0x3e,
  0x32, 0x46, 0xd2, 0x3e, 0x82, 0x1f, 0x44, 0xbe, 0x5e, 0x76, 0x42, 0xbe,
  0x58, 0x85, 0xbe, 0x3e, 0xa1, 0x20, 0x2c, 0xbe, 0x17, 0x05, 0x93, 0x3e,
  0xf8, 0x09, 0x81, 0xbc, 0xd9, 0xb6, 0x2c, 0x3b, 0xf5, 0xe0, 0x64, 0x3e,
  0x08, 0x5a, 0xd1, 0xbe, 0x6d, 0x4f, 0x85, 0x3e, 0x33, 0xb0, 0x50, 0x3e,
  0xf2, 0xf7, 0x81, 0xbe, 0x0f, 0xa2, 0xf7, 0xbd, 0x22, 0xba, 0x8d, 0x3e,
  0x9c, 0x4f, 0x93, 0x3d, 0x41, 0x36, 0xec, 0x3d, 0x34, 0xc8, 0x80, 0xbe,
  0x2e, 0x38, 0xd6, 0x3e, 0xf7, 0xaf, 0x05, 0x3e, 0x99, 0xb2, 0x87, 0xbe,
  0x53, 0x4a, 0xc3, 0xbe, 0x34, 0x43, 0x54, 0x3e, 0x54, 0x76, 0x89, 0x3d,
  0x07, 0xb0, 0xc8, 0xbe, 0x32, 0x6d, 0xbb, 0x3e, 0xe9, 0xd4, 0x9d, 0x3d,
  0xbc, 0xe6, 0xd7, 0xbd, 0xac, 0xdf, 0xd2, 0xbe, 0x26, 0x3c, 0x07, 0x3d,
  0x71, 0x25, 0x0c, 0x3e, 0xdd, 0x2d, 0x46, 0xbc, 0x0d, 0xca, 0xe3, 0x3d,
  0x5d, 0xa0, 0xd5, 0xbe, 0xa5, 0x15, 0x8f, 0xbd, 0x9f, 0x17, 0x60, 0x3e,
  0x53, 0xcc, 0xbf, 0x3e, 0xdc, 0xc3, 0x5e, 0xbe, 0x22, 0x64, 0x4c, 0xbe,
  0xdc, 0x42, 0x83, 0x3e, 0xd1, 0xa3, 0x3c, 0xbe, 0x79, 0xe8, 0x7c, 0x3e,
  0x56, 0x9b, 0x4b, 0xbd, 0x2c, 0x61, 0x94, 0x3e, 0xb6, 0x46, 0xe7, 0xbe,
  0x24, 0x0c, 0x95, 0x3e, 0xe0, 0xec, 0xff, 0xff, 0xe4, 0xec, 0xff, 0xff,
  0x04, 0x00, 0x06, 0x00, 0x04, 0x00, 0x00, 0x00, 0x00, 0x00, 0x06, 0x00,
  0x08, 0x00, 0x04, 0x00, 0x06, 0x00, 0x00, 0x00, 0x04, 0x00, 0x00, 0x00,
  0x10, 0x0e, 0x00, 0x00, 0x11, 0x0b, 0x36, 0x3e, 0x50, 0x73, 0xaa, 0x3e,
  0xd6, 0x69, 0x9b, 0x3e, 0x02, 0x25, 0x2f, 0xbc, 0x1f, 0x06, 0x81, 0x3e,
  0x2e, 0x3d, 0xa8, 0xbd, 0x07, 0xef, 0x84, 0x3e, 0x3d, 0x33, 0x0b, 0xbe,
  0xc0, 0x32, 0xb0, 0x3e, 0x4f, 0xd2, 0xa2, 0x3e, 0xde, 0x5f, 0xa5, 0x3d,
  0x60, 0x90, 0x08, 0x3e, 0x12, 0x69, 0x86, 0x3e, 0x79, 0xd8, 0xbc, 0xbd,
  0x3a, 0x8c, 0xf2, 0x3d, 0x17, 0x04, 0x59, 0x3e, 0x77, 0xb8, 0xd5, 0xbc,
  0xd9, 0x5c, 0x59, 0xbe, 0x90, 0x6b, 0x88, 0xbe, 0xae, 0xa8, 0x05, 0xbe,
  0x6d, 0x3e, 0xee, 0x3e, 0x7b, 0xbc, 0x57, 0x3e, 0x75, 0x0f, 0xc2, 0x3e,
  0x50, 0xae, 0x7d, 0xbe, 0x38, 0xd1, 0x02, 0x3e, 0x8d, 0x0c, 0x8f, 0xbc,
  0xfb, 0xd0, 0x9b, 0xbe, 0x32, 0xd7, 0x90, 0x3b, 0x86, 0xa3, 0x6f, 0x3d,
  0xaf, 0x29, 0xfe, 0x3d, 0x11, 0xc4, 0x80, 0xbe, 0x8f, 0x07, 0x9b, 0xbe,
  0xa6, 0xfd, 0xbc, 0xbe, 0x31, 0x5c, 0xa1, 0xbd, 0x8f, 0xfa, 0xeb, 0x3d,
  0x3b, 0xdc, 0x7d, 0x3e, 0x86, 0x1c, 0xe8, 0x3d, 0x4c, 0x84, 0x1d, 0x3c,
  0x8b, 0x5a, 0x51, 0xbe, 0x62, 0xca, 0x5d, 0x3c, 0x2b, 0xd2, 0x0c, 0xbd,
  0xd2, 0xca, 0xac, 0xbd, 0xd1, 0x46, 0x50, 0x3e, 0xde, 0xef, 0x9c, 0x3e,
  0x22, 0x30, 0x99, 0xbd, 0x16, 0x3a, 0x2d, 0x3d, 0x4c, 0x82, 0x59, 0x3e,
  0xa0, 0x90, 0xb0, 0xbe, 0x66, 0x3f, 0xb3, 0x3c, 0xb6, 0x92, 0xa1, 0xbc,
  0x68, 0x79, 0x5e, 0x3d, 0xe9, 0x09, 0xb8, 0xbc, 0xa9, 0x0b, 0x59, 0xbe,
  0x49, 0x4c, 0x92, 0xbe, 0x13, 0xff, 0xbe, 0xbe, 0xd2, 0xb8, 0x30, 0xbd,
  0x7d, 0x40, 0xb3, 0xbc, 0xfb, 0xe5, 0x5e, 0xbe, 0x15, 0xf3, 0x93, 0x3d,
  0x77, 0x26, 0x4a, 0xbe, 0x89, 0x32, 0xab, 0xbe, 0x63, 0xd8, 0x33, 0x3e,
  0x68, 0x03, 0xb3, 0x3c, 0x26, 0x27, 0xf7, 0x3d, 0x47, 0x8a, 0x90, 0xbe,
  0xfe, 0xbd, 0x33, 0xbe, 0x92, 0x2c, 0x10, 0xbe, 0xee, 0xb4, 0x92, 0xbe,
  0x54, 0x4a, 0x9e, 0xbd, 0x33, 0x63, 0xca, 0x3e, 0x67, 0xa3, 0xfe, 0x3c,
  0x9f, 0xdf, 0x80, 0xbe, 0xcd, 0xcb, 0x91, 0x3e, 0x6a, 0x5b, 0x00, 0xbe,
  0x9d, 0x99, 0x03, 0xbe, 0x1d, 0x5f, 0x3b, 0xbe, 0xdb, 0x9e, 0xa9, 0x3e,
  0x36, 0x73, 0xc5, 0x3d, 0x9f, 0x25, 0x03, 0xbe, 0x4c, 0x2e, 0x8f, 0x3c,
  0x70, 0x4b, 0xfe, 0xbe, 0xca, 0xf5, 0xf3, 0xbd, 0x02, 0xba, 0xcd, 0xbe,
  0x3a, 0x07, 0x05, 0x3e, 0x64, 0x3e, 0x54, 0xbb, 0xe0, 0x9b, 0x2c, 0x3e,
  0xe7, 0x8c, 0x92, 0x3e, 0x40, 0x36, 0x1b, 0x3e, 0x66, 0x37, 0x8a, 0xbe,
  0x53, 0xe9, 0x39, 0xbe, 0x46, 0x60, 0xec, 0x3c, 0xa8, 0xab, 0x0e, 0xbe,
  0xdb, 0x8b, 0x29, 0x3b, 0xe9, 0x92, 0xb5, 0xbe, 0x81, 0x51, 0x85, 0xbe,
  0xb5, 0x8d, 0x57, 0xbe, 0x3c, 0xdb, 0x9b, 0xbe, 0xcf, 0x65, 0x5c, 0x3e,
  0x93, 0x5d, 0x4a, 0xbe, 0xc6, 0x27, 0xa9, 0xbc, 0xf4, 0x91, 0xe4, 0xbd,
  0x4e, 0x77, 0xa2, 0x3e, 0x6d, 0x16, 0x68, 0xbe, 0x6f, 0x16, 0x98, 0xbe,
  0x87, 0x58, 0x51, 0xbe, 0xaa, 0xe7, 0x40, 0x3e, 0x99, 0x72, 0x28, 0x3e,
  0x95, 0x22, 0x74, 0xbe, 0x0a, 0x9a, 0x25, 0x3e, 0x2e, 0x02, 0x64, 0x3e,
  0xda, 0x69, 0xba, 0x3e, 0xc2, 0x70, 0x6b, 0xbd, 0x10, 0x4d, 0x32, 0xbd,
  0xd9, 0xdb, 0x1b, 0xbe, 0x79, 0xd8, 0xfb, 0x3e, 0xa3, 0xe0, 0xbc, 0xbe,
  0x36, 0x61, 0xec, 0xbd, 0xa8, 0x92, 0x6a, 0x3e, 0x64, 0x03, 0x52, 0x3e,
  0x63, 0xe6, 0xb6, 0x3e, 0x3d, 0xdf, 0x1d, 0xbe, 0x20, 0xbb, 0x89, 0x3d,
  0xec, 0x18, 0x0d, 0xbd, 0x38, 0x42, 0x23, 0x3e, 0xfe, 0x2a, 0x4e, 0xbd,
  0x60, 0x83, 0x4c, 0x3e, 0xf5, 0xde, 0x6b, 0x3c, 0xfc, 0x12, 0x1a, 0xbe,
  0xae, 0xc4, 0x38, 0xbe, 0x6d, 0x5f, 0x1f, 0xbe, 0x4d, 0xe2, 0x6a, 0xbc,
  0xf7, 0xe6, 0xc8, 0x3e, 0x08, 0xe3, 0x93, 0xbe, 0x36, 0xa2, 0xad, 0x3e,
  0x39, 0xcd, 0x64, 0x3d, 0x56, 0x09, 0x85, 0x3e, 0x9a, 0x2e, 0xb8, 0xbc,
  0xb1, 0x09, 0x64, 0xbe, 0xc1, 0xf6, 0xb4, 0xbd, 0xfd, 0xa4, 0x9f, 0x3d,
  0x17, 0xf2, 0x7c, 0x3e, 0xef, 0xe4, 0x27, 0x3d, 0x05, 0x09, 0xc8, 0xbd,
  0x4f, 0xa6, 0xba, 0x3d, 0x24, 0xdf, 0x44, 0x3f, 0xdf, 0xf1, 0x0d, 0x3e,
  0x3f, 0xdd, 0x2b, 0xbe, 0x75, 0x76, 0x3d, 0x3d, 0x6c, 0xe8, 0x2b, 0xbd,
  0x36, 0x91, 0x51, 0x3e, 0x28, 0xce, 0xdf, 0x3b, 0xf5, 0x58, 0xa2, 0x3d,
  0xd8, 0xd5, 0x7b, 0x3e, 0x33, 0x82, 0x4e, 0x3e, 0x2e, 0x5c, 0x16, 0xbe,
  0x72, 0xab, 0x20, 0x3e, 0xe0, 0xfa, 0x3d, 0xbe, 0xf1, 0xcc, 0x28, 0x3d,
  0x08, 0x00, 0x05, 0x3e, 0x90, 0x3f, 0xe9, 0xbd, 0x36, 0x8f, 0x81, 0xbe,
  0x44, 0xf1, 0x52, 0xbe, 0xd5, 0xb0, 0x84, 0x3e, 0x17, 0x16, 0x77, 0x3d,
  0xdc, 0x2e, 0x13, 0xbd, 0x6f, 0xf9, 0x1a, 0xbe, 0x45, 0x6e, 0xd1, 0xbd,
  0xa8, 0x80, 0x1f, 0xbd, 0xa1, 0xb0, 0xc4, 0x3e, 0x8f, 0x47, 0x46, 0xbe,
  0x1e, 0x9f, 0x80, 0xbd, 0x06, 0xff, 0x48, 0x3d, 0x7d, 0x71, 0x4f, 0x3e,
  0xf9, 0x06, 0x64, 0x3e, 0x8d, 0x49, 0x10, 0x3f, 0x3a, 0xc7, 0x37, 0xbe,
  0x68, 0xa2, 0x50, 0xbd, 0xfe, 0x67, 0x79, 0xbe, 0x35, 0xe0, 0x02, 0x3f,
  0xa1, 0x20, 0xc6, 0xbd, 0x1b, 0x0d, 0xde, 0xbd, 0xb8, 0x35, 0x3a, 0xbe,
  0x01, 0x0a, 0x6e, 0xbe, 0x67, 0xe9, 0x9d, 0xbe, 0xd3, 0x21, 0x6a, 0x3e,
  0x3f, 0xb1, 0x01, 0x3c, 0xb1, 0xb9, 0x98, 0x3d, 0xf7, 0xb8, 0x1c, 0xbe,
  0x78, 0x54, 0x14, 0x3d, 0x2a, 0x94, 0x5e, 0xbe, 0x82, 0x2e, 0x4e, 0x3d,
  0xb0, 0xe9, 0x06, 0xbe, 0xdd, 0x61, 0xcc, 0x3d, 0x71, 0x7b, 0x11, 0x3d,
  0x6f, 0xc7, 0x95, 0x3d, 0xe4, 0x88, 0xc5, 0x3d, 0xdb, 0xb1, 0x14, 0x3e,
  0xf7, 0xd8, 0x1e, 0xbe, 0x9f, 0xa6, 0xd9, 0x3e, 0x7b, 0x53, 0x3c, 0x3e,
  0xb2, 0x95, 0x7d, 0x3e, 0x33, 0x82, 0xfa, 0x3d, 0x75, 0xaf, 0x6b, 0x3e,
  0xcb, 0x53, 0x55, 0x3c, 0x61, 0xb6, 0xb6, 0x3e, 0x7a, 0xbc, 0xa9, 0x3d,
  0x8b, 0x7b, 0xe6, 0xbd, 0x26, 0x18, 0x69, 0x3e, 0x79, 0x76, 0x00, 0x3e,
  0x88, 0x83, 0x04, 0x3b, 0x15, 0x23, 0x08, 0xbe, 0x28, 0xd9, 0x4d, 0x3c,
  0xb5, 0x8e, 0xb9, 0xbc, 0x42, 0x81, 0xb1, 0xbb, 0x26, 0xab, 0x9f, 0x3e,
  0xd6, 0xa2, 0x20, 0x3d, 0xc9, 0xb1, 0xd1, 0x3d, 0xd9, 0x0c, 0xff, 0xbd,
  0xf3, 0x61, 0x5b, 0xbf, 0x9f, 0xaf, 0xa3, 0xbd, 0xf6, 0x6b, 0x3a, 0xbe,
  0x07, 0x2c, 0x0e, 0xbe, 0xfa, 0xba, 0x06, 0xbe, 0x8e, 0x13, 0x98, 0xbe,
  0x46, 0x20, 0xf0, 0x3d, 0x25, 0xd4, 0xf9, 0xbd, 0xc9, 0x7a, 0x71, 0xbd,
  0x9c, 0x1e, 0x30, 0x3e, 0xb7, 0xda, 0xc4, 0xbd, 0x6e, 0xa9, 0x89, 0x3e,
  0x05, 0x3d, 0xa2, 0xbe, 0xa4, 0x9d, 0xbe, 0xbd, 0x12, 0xcb, 0xcd, 0xbe,
  0xec, 0x0b, 0xa0, 0xbd, 0xa3, 0xdf, 0x56, 0xbe, 0x76, 0xd4, 0x15, 0xbe,
  0xd9, 0x64, 0xb9, 0xbe, 0xe1, 0xf2, 0xcb, 0x3e, 0x15, 0xda, 0x57, 0x3e,
  0x62, 0xb6, 0x84, 0x3e, 0xc6, 0x01, 0x1a, 0x3e, 0x5d, 0xe6, 0x2b, 0xbe,
  0xa5, 0x0b, 0x59, 0x3e, 0xda, 0xc5, 0xc2, 0xbd, 0x7e, 0x59, 0x6e, 0x3e,
  0xc0, 0x4a, 0x93, 0xbd, 0x96, 0xe1, 0x91, 0xbe, 0x2e, 0x55, 0xbb, 0x3d,
  0xb9, 0x4d, 0x91, 0xbd, 0x01, 0x60, 0x76, 0xbe, 0xe3, 0x31, 0xa9, 0xbc,
  0xdb, 0x63, 0xb6, 0x3d, 0x5c, 0xb6, 0x47, 0xbe, 0x54, 0x10, 0x56, 0xbe,
  0xd3, 0x24, 0x05, 0x3e, 0x06, 0x6e, 0x00, 0xbe, 0xaa, 0xe7, 0xf0, 0xbd,
  0xd9, 0x3d, 0x06, 0xbd, 0x45, 0xbb, 0x9c, 0x3e, 0xe5, 0x85, 0xae, 0x3e,
  0x90, 0xdc, 0x1e, 0xbc, 0x81, 0xbf, 0x75, 0xbe, 0x7e, 0xc2, 0x34, 0xbe,
  0xe8, 0x3d, 0x18, 0xbd, 0x22, 0x7d, 0x68, 0x3e, 0x22, 0x5d, 0xa3, 0x3e,
  0xd1, 0xc5, 0x8f, 0xbe, 0x47, 0x2e, 0x84, 0x3e, 0x71, 0x3e, 0x07, 0x3d,
  0x00, 0xcc, 0x36, 0xbd, 0x05, 0xae, 0x0d, 0xbe, 0x02, 0xaf, 0x9d, 0xbe,
  0xc2, 0xa3, 0xa9, 0xbc, 0x38, 0x19, 0xde, 0xbe, 0x2f, 0x46, 0xb0, 0xbc,
  0xec, 0x47, 0xd7, 0x3d, 0x0d, 0x45, 0xf7, 0x3d, 0x75, 0xee, 0x4d, 0x3e,
  0xb6, 0x53, 0x57, 0x3f, 0x1f, 0xc7, 0x62, 0x3e, 0x90, 0x7b, 0x3d, 0x3e,
  0x82, 0x37, 0x05, 0xbe, 0x9e, 0x80, 0x91, 0xbc, 0x84, 0x1e, 0x74, 0xbd,
  0x24, 0x19, 0xb9, 0xbd, 0xb4, 0x47, 0x74, 0xbe, 0x7e, 0xbb, 0x28, 0xbe,
  0x4b, 0x22, 0x1b, 0xbe, 0x75, 0x97, 0x74, 0xbe, 0xb9, 0x73, 0xab, 0xbe,
  0x83, 0xfb, 0xed, 0x3e, 0x73, 0xc2, 0x93, 0xbc, 0x83, 0xc8, 0xf8, 0x3e,
  0x5b, 0x58, 0x9a, 0xbd, 0x34, 0x7e, 0x7e, 0x3e, 0x42, 0x29, 0x3d, 0xbe,
  0xbc, 0xdb, 0x9f, 0xbd, 0x1d, 0x91, 0xf1, 0xbe, 0x9c, 0x8e, 0x7a, 0xbe,
  0x00, 0xf8, 0xdd, 0xbd, 0xb8, 0x09, 0xcc, 0xbc, 0x2f, 0xcc, 0x11, 0x3e,
  0x32, 0x8b, 0x92, 0xbd, 0x7c, 0x75, 0xa2, 0xbd, 0xdd, 0x13, 0xab, 0x3c,
  0xff, 0x39, 0xeb, 0x3c, 0x4c, 0x66, 0x49, 0xbe, 0x75, 0xd9, 0x5a, 0xbe,
  0x8f, 0xab, 0x09, 0xbd, 0xb2, 0xcb, 0x0c, 0x3e, 0xe2, 0x3a, 0x8a, 0xbe,
  0x1a, 0xf4, 0x8d, 0x3d, 0xe6, 0x37, 0xd9, 0x3d, 0x01, 0x58, 0x67, 0xbb,
  0x56, 0x05, 0x96, 0xbd, 0xda, 0xe4, 0x3b, 0xbc, 0xb2, 0x2a, 0x88, 0x3e,
  0x0b, 0xdb, 0x64, 0xbe, 0x61, 0x69, 0x29, 0xbe, 0x9f, 0x6a, 0x16, 0x3e,
  0x34, 0x3a, 0xa5, 0xbe, 0xc9, 0xe2, 0x1b, 0x3e, 0x22, 0xb1, 0xa3, 0x3d,
  0xad, 0xf1, 0x86, 0xbd, 0x91, 0x9a, 0xa5, 0xbe, 0xdc, 0x27, 0xb3, 0x3e,
  0xd5, 0x5b, 0x8f, 0xbe, 0x22, 0xbd, 0x27, 0xbe, 0x78, 0x5a, 0x41, 0xbd,
  0xb2, 0x28, 0x3e, 0x3e, 0x43, 0x54, 0xf7, 0xbc, 0xb1, 0xce, 0x82, 0xbd,
  0x70, 0xfe, 0x1c, 0xbd, 0xf5, 0x6e, 0x89, 0xbd, 0x0f, 0x1c, 0xa8, 0x3d,
  0xde, 0xb4, 0x1d, 0x3a, 0xae, 0xdc, 0x81, 0x3e, 0xaa, 0x83, 0xff, 0xbd,
  0x36, 0x61, 0xbb, 0xbd, 0x39, 0xaa, 0xcc, 0xbe, 0x18, 0x19, 0xf5, 0xbc,
  0x80, 0xc6, 0x61, 0xbe, 0x6c, 0x2d, 0x8d, 0xbd, 0xb0, 0x19, 0xce, 0x3d,
  0x39, 0xca, 0xdf, 0xbd, 0xb8, 0x03, 0x80, 0xbe, 0x12, 0x8a, 0x43, 0x3e,
  0xdf, 0xa7, 0xc9, 0x3d, 0x8c, 0x65, 0x52, 0x3e, 0xb6, 0x61, 0x0d, 0xbe,
  0x8b, 0xb3, 0xe1, 0x3e, 0xfd, 0xca, 0xce, 0xbd, 0x9d, 0x96, 0x91, 0x3d,
  0x0f, 0x45, 0xdf, 0x3e, 0xf5, 0x9e, 0x35, 0x3f, 0x01, 0x3f, 0x1c, 0x3e,
  0xad, 0x2b, 0x5e, 0x3e, 0x94, 0x9e, 0x9f, 0xbe, 0x9f, 0xcf, 0xc8, 0x3d,
  0x33, 0x90, 0x5a, 0xbe, 0x59, 0xcb, 0x49, 0xbe, 0xd8, 0x19, 0x1a, 0xbe,
  0x3a, 0x61, 0xa5, 0x3e, 0x0a, 0x3b, 0x37, 0x3e, 0xb0, 0xfd, 0x8d, 0x3e,
  0x91, 0x2c, 0xa1, 0x3c, 0xd9, 0x75, 0x0f, 0x3d, 0x36, 0x6a, 0x2e, 0xbe,
  0x42, 0xee, 0x92, 0xbe, 0x44, 0xdb, 0x2c, 0xbe, 0x4b, 0x0c, 0x37, 0x3d,
  0x61, 0x1d, 0x92, 0xbd, 0x19, 0xee, 0x8f, 0xbe, 0x61, 0x26, 0xe6, 0xbc,
  0x41, 0x55, 0x52, 0xbe, 0xa6, 0x5c, 0xf6, 0x3c, 0x4e, 0xa5, 0xd6, 0x3c,
  0xbf, 0x76, 0x86, 0xbe, 0x2c, 0xa0, 0x48, 0xbe, 0x85, 0xb7, 0x64, 0xbe,
  0x2d, 0x5d, 0xb3, 0xbe, 0x4a, 0x22, 0x9d, 0x3e, 0xac, 0xb1, 0x0e, 0xbd,
  0xc6, 0x0e, 0x2f, 0x3e, 0x5d, 0xae, 0x1c, 0xbe, 0x0b, 0x1b, 0xa5, 0x3d,
  0x4a, 0xe3, 0xc2, 0x3e, 0x43, 0xad, 0x07, 0x3e, 0x2f, 0xd5, 0xa5, 0xbe,
  0x27, 0x3b, 0x4b, 0x3e, 0x38, 0x1b, 0x7c, 0x3e, 0xe1, 0x30, 0x49, 0x3e,
  0xc9, 0x85, 0x5f, 0x3e, 0x0a, 0xb4, 0xad, 0x39, 0x92, 0x9c, 0x9e, 0x3e,
  0x9d, 0x41, 0xc9, 0x3d, 0x02, 0x58, 0x88, 0xbe, 0x23, 0x12, 0xfb, 0xbd,
  0x7d, 0x63, 0xd5, 0xbe, 0x2e, 0x7d, 0x15, 0x3e, 0xa7, 0xad, 0x91, 0x3e,
  0x17, 0x5a, 0x83, 0x3e, 0x3a, 0xf0, 0x22, 0x3e, 0x1b, 0xf7, 0x9d, 0xbd,
  0x50, 0xde, 0x60, 0xbe, 0xe1, 0xca, 0x5d, 0x3e, 0x22, 0x49, 0x95, 0x3e,
  0xa5, 0x27, 0x86, 0xbe, 0x39, 0xd9, 0x23, 0x3d, 0x9c, 0x5a, 0xd4, 0x3e,
  0x1a, 0xe5, 0x14, 0x3e, 0x77, 0x8e, 0x93, 0x3e, 0xda, 0xa0, 0xe5, 0xbe,
  0xe3, 0xda, 0xa5, 0x3e, 0x50, 0xf7, 0xe3, 0x3e, 0xfd, 0x91, 0xf9, 0x3d,
  0xa3, 0x46, 0x0c, 0x3e, 0x5f, 0xe9, 0x98, 0x3e, 0xe0, 0x51, 0x51, 0x3d,
  0xb9, 0x2a, 0x59, 0xbd, 0x2d, 0xff, 0x3c, 0x3d, 0x70, 0x1b, 0x83, 0xbc,
  0xd9, 0x56, 0xf3, 0xbd, 0x91, 0xb2, 0xb8, 0xbe, 0xcc, 0xe9, 0x3b, 0xbe,
  0x14, 0xa3, 0xa4, 0xbe, 0xfe, 0x07, 0x32, 0xbe, 0x8a, 0xe1, 0x17, 0xbe,
  0x12, 0xbd, 0x6a, 0xbe, 0xee, 0x56, 0x2d, 0x3e, 0x0a, 0x00, 0x9c, 0xbe,
  0x6a, 0x2f, 0x4c, 0xbe, 0x6e, 0x2d, 0x52, 0xbd, 0x7c, 0x50, 0xaa, 0xbe,
  0xec, 0x7e, 0x93, 0x3e, 0x8e, 0x2a, 0xac, 0xbe, 0xe7, 0x1a, 0xa0, 0x3e,
  0x2c, 0x74, 0xb4, 0x3e, 0xbc, 0x0e, 0x84, 0x3d, 0x95, 0x58, 0x39, 0x3e,
  0x47, 0x86, 0x23, 0x3e, 0xba, 0xb3, 0xa7, 0x3e, 0xd3, 0xbc, 0x87, 0xbd,
  0xbc, 0x5c, 0xba, 0xbe, 0x8d, 0xcd, 0xed, 0x3e, 0x97, 0xab, 0xe4, 0x3d,
  0x10, 0xb0, 0x5f, 0xbe, 0x01, 0xe7, 0xe0, 0x3d, 0xe9, 0x99, 0x1f, 0x3e,
  0x21, 0xd7, 0x8c, 0x3e, 0x87, 0x22, 0xa6, 0xbe, 0x98, 0xa5, 0x05, 0xbc,
  0xac, 0x77, 0x85, 0xbe, 0x8b, 0xa6, 0x6c, 0xbe, 0x38, 0x2e, 0x42, 0x3e,
  0x2d, 0x3e, 0xf4, 0x3d, 0xe5, 0x68, 0x0d, 0x3e, 0x30, 0x8f, 0x70, 0xbe,
  0x99, 0x04, 0x04, 0x3a, 0xf2, 0x84, 0xd2, 0xbd, 0xb5, 0xfa, 0x49, 0xbe,
  0x4f, 0xf7, 0xad, 0xbd, 0x4a, 0xc0, 0x30, 0xbd, 0xa6, 0xd4, 0x1c, 0xbe,
  0xfa, 0x28, 0xf2, 0xbd, 0xed, 0xfe, 0x38, 0xbe, 0xa7, 0xb6, 0x00, 0x3e,
  0x57, 0x7c, 0x91, 0x3d, 0x85, 0xca, 0x5a, 0xbe, 0x8f, 0xd6, 0xbb, 0x3d,
  0xb3, 0x1b, 0xd6, 0x3e, 0xe8, 0xb5, 0x47, 0xbd, 0x0a, 0xaa, 0x89, 0xbe,
  0xba, 0x9c, 0x0e, 0x3e, 0x25, 0x1e, 0xac, 0x3e, 0x0d, 0x18, 0x4c, 0xbc,
  0x14, 0x18, 0x3e, 0xbe, 0xb3, 0xcc, 0x31, 0x3d, 0x73, 0x40, 0xb1, 0x3d,
  0x0b, 0x51, 0x16, 0xbd, 0xc7, 0x9a, 0x98, 0xbd, 0xed, 0xc6, 0x43, 0xbe,
  0xbf, 0x8b, 0x06, 0xbd, 0x9e, 0xbd, 0x98, 0x3e, 0x14, 0xaa, 0x5e, 0x3e,
  0x58, 0x7a, 0x7e, 0x3d, 0x9c, 0xed, 0x15, 0xbd, 0x88, 0x1b, 0x97, 0xbe,
  0x48, 0x5d, 0xcf, 0xbd, 0xf1, 0x39, 0x77, 0x3d, 0x8f, 0x11, 0x7a, 0xbe,
  0x6d, 0x7d, 0xb1, 0xbd, 0x68, 0x25, 0xe2, 0x3d, 0xf0, 0x46, 0x0b, 0xbf,
  0x3f, 0x65, 0x7c, 0x3e, 0xc2, 0x6b, 0x7e, 0xbe, 0x65, 0xe2, 0x01, 0xbe,
  0xf3, 0xe7, 0x1f, 0x3e, 0xc4, 0xad, 0x2d, 0x3e, 0xe0, 0xb6, 0x75, 0x3e,
  0xcd, 0x14, 0xa4, 0x3e, 0x7f, 0xc2, 0x0e, 0xbe, 0xce, 0x94, 0x7a, 0xbe,
  0x3a, 0x78, 0x18, 0x3e, 0xe2, 0x97, 0x3a, 0x3e, 0xab, 0x56, 0x82, 0x3e,
  0x50, 0x61, 0x9b, 0x3e, 0xef, 0xaf, 0x45, 0x3e, 0x15, 0x47, 0xcd, 0x3e,
  0x59, 0xf3, 0xd3, 0x3e, 0xa0, 0x55, 0x97, 0x3e, 0x99, 0x67, 0x75, 0x3e,
  0xe6, 0xee, 0xa7, 0xbc, 0x48, 0x1c, 0x2a, 0x3e, 0xe4, 0xf4, 0x30, 0x3d,
  0x6d, 0xff, 0x23, 0xbe, 0x2b, 0x6a, 0x57, 0x3e, 0x21, 0xb8, 0x52, 0xbe,
  0x7f, 0x2a, 0x13, 0xbb, 0x34, 0xa2, 0xb0, 0x3e, 0x72, 0x9f, 0x4b, 0xbe,
  0xe4, 0x6e, 0xe6, 0x3e, 0x8f, 0xc2, 0xf5, 0xbd, 0x96, 0x26, 0x64, 0xbd,
  0x1b, 0xb7, 0x2c, 0xbd, 0xd8, 0x08, 0x13, 0xbe, 0xe6, 0x72, 0x6c, 0xbe,
  0x4c, 0x26, 0xe0, 0x3d, 0xe0, 0xf9, 0x34, 0x3e, 0x6c, 0xd7, 0xf5, 0xbe,
  0xf1, 0xd8, 0xd8, 0x3e, 0x17, 0x94, 0x9f, 0xbe, 0xb1, 0x9b, 0x6d, 0x3d,
  0xc4, 0x96, 0xee, 0x3c, 0xe5, 0x1f, 0x4f, 0x3f, 0x33, 0xcf, 0xab, 0xbe,
  0xe8, 0x86, 0x4c, 0x3e, 0xb8, 0xb8, 0x8b, 0x3e, 0x73, 0x97, 0xbb, 0x3e,
  0xd2, 0xc0, 0xd4, 0x3e, 0xb9, 0xce, 0x91, 0x3e, 0x03, 0xa0, 0x9f, 0xbe,
  0x88, 0xed, 0xe4, 0x3d, 0x78, 0x64, 0x92, 0x3e, 0x6e, 0xd1, 0xc6, 0x3d,
  0xd8, 0x48, 0x37, 0x3e, 0xe4, 0x9e, 0xad, 0x3e, 0x52, 0xc2, 0x78, 0x3d,
  0xb6, 0xd4, 0xd0, 0x3d, 0x04, 0x4a, 0x11, 0x3d, 0x7d, 0xc1, 0x84, 0xbb,
  0xd5, 0x80, 0x99, 0xbd, 0x03, 0xa4, 0x43, 0x3e, 0xdf, 0xab, 0x90, 0x3d,
  0x60, 0xd8, 0xd9, 0x3c, 0x59, 0x38, 0x92, 0x3e, 0xc6, 0xf3, 0x43, 0xbc,
  0x47, 0xc2, 0x39, 0x3e, 0xbb, 0x1a, 0x99, 0x3e, 0x7d, 0xef, 0x19, 0xbe,
  0x07, 0xe9, 0x1b, 0x3d, 0x74, 0xcd, 0x0c, 0xbe, 0x06, 0x0b, 0x4a, 0xbe,
  0x1b, 0x3e, 0x10, 0x3e, 0xd3, 0xe3, 0x38, 0xbd, 0xfe, 0xdb, 0x7b, 0x3d,
  0x5d, 0x89, 0x3d, 0xbe, 0xff, 0x7a, 0xd8, 0xbd, 0x96, 0xa8, 0xc5, 0x3c,
  0xa6, 0xdf, 0xda, 0x3d, 0xf5, 0x86, 0x0c, 0xbe, 0x6a, 0x94, 0x0a, 0xbe,
  0x8e, 0x55, 0x44, 0xbb, 0x73, 0x42, 0xc6, 0x3d, 0x71, 0xf2, 0x4f, 0xbd,
  0xb0, 0xaa, 0x02, 0x3e, 0xa7, 0xd9, 0x86, 0x3e, 0x19, 0x2a, 0x69, 0xbe,
  0xe7, 0x47, 0x8c, 0x3e, 0xf0, 0x5f, 0x61, 0xbe, 0x76, 0xed, 0x7e, 0xbe,
  0x34, 0x8b, 0x67, 0xbe, 0xf5, 0xc0, 0x81, 0x3e, 0x23, 0x2f, 0x95, 0x3e,
  0x97, 0xbf, 0x8e, 0xbe, 0xe1, 0xb8, 0x58, 0xbe, 0xc9, 0x33, 0x1c, 0xbe,
  0xbe, 0xf3, 0x81, 0x3e, 0xec, 0x45, 0x34, 0x3e, 0x18, 0x04, 0xa0, 0xbe,
  0xd1, 0x80, 0x0a, 0xbe, 0x25, 0xd5, 0x7c, 0x3d, 0xcc, 0xa7, 0x62, 0x3e,
  0x6a, 0xfd, 0x51, 0x3d, 0x12, 0xfa, 0x57, 0xbe, 0x3a, 0x57, 0x81, 0x3e,
  0xf0, 0xb1, 0x86, 0x3e, 0x6f, 0x84, 0x5d, 0xbe, 0xd3, 0xb1, 0xe7, 0xbe,
  0x8a, 0x8e, 0x67, 0xbc, 0x44, 0xaf, 0xc3, 0xbd, 0x59, 0xe8, 0x4c, 0x3e,
  0xff, 0x77, 0x88, 0x3b, 0x5a, 0xc7, 0x09, 0x3e, 0x48, 0xe3, 0x4c, 0x3e,
  0x79, 0x3d, 0x8e, 0xbe, 0x70, 0x05, 0x16, 0xbe, 0x3b, 0xcc, 0xf9, 0x3d,
  0x2f, 0xd1, 0x38, 0xbe, 0xb0, 0x6f, 0x46, 0xbe, 0xf3, 0xe2, 0x36, 0xbe,
  0x1f, 0x3d, 0x26, 0x3e, 0x35, 0x06, 0x46, 0xbe, 0x79, 0x5a, 0x26, 0xbe,
  0x00, 0x18, 0x26, 0x3e, 0xcc, 0xec, 0x25, 0xbe, 0x76, 0x90, 0xe9, 0xbd,
  0xe1, 0xc7, 0x0b, 0x3e, 0x96, 0x36, 0x1c, 0xbe, 0x3d, 0x59, 0xa1, 0x3e,
  0xdb, 0xa8, 0x64, 0x3e, 0x8c, 0x83, 0x7c, 0x3e, 0xc3, 0xe5, 0x42, 0x3e,
  0x4b, 0xf0, 0x99, 0x3d, 0x48, 0xe1, 0x02, 0x3f, 0x07, 0x19, 0x4f, 0xba,
  0x59, 0x96, 0x3c, 0x3e, 0x7f, 0x10, 0x93, 0x3d, 0x6d, 0x77, 0x15, 0x3e,
  0x3e, 0x5c, 0x68, 0x3b, 0xc1, 0x66, 0x2e, 0x3e, 0x88, 0x0c, 0xf9, 0x3d,
  0x80, 0x53, 0x50, 0xbe, 0xe8, 0xde, 0xd5, 0xbd, 0x81, 0x89, 0xae, 0x3e,
  0x8c, 0x2f, 0xc5, 0xbd, 0x76, 0xf2, 0xb9, 0xbe, 0x12, 0x60, 0xa9, 0x3e,
  0x55, 0x55, 0x96, 0x3e, 0xb4, 0xfe, 0xa0, 0x3e, 0x7c, 0x49, 0xab, 0x3d,
  0xc7, 0x54, 0x89, 0xbe, 0xd9, 0x5a, 0x5d, 0xbe, 0xe5, 0x86, 0x0d, 0x3e,
  0xcd, 0xc5, 0x4e, 0xbe, 0x70, 0x88, 0x2b, 0xbe, 0xa4, 0x93, 0x0d, 0xbd,
  0x9c, 0xdf, 0x20, 0xbd, 0x99, 0xa2, 0x99, 0xbc, 0x5d, 0xcc, 0x8b, 0xbe,
  0xf4, 0x9d, 0x2e, 0x3e, 0x1a, 0x66, 0x65, 0xbe, 0xc7, 0xec, 0xae, 0x3e,
  0x82, 0x65, 0xa9, 0xbe, 0xb0, 0x1c, 0xea, 0xbe, 0x71, 0xee, 0x37, 0xbd,
  0xdd, 0x9f, 0xbf, 0x3e, 0xbc, 0x05, 0x10, 0x3d, 0xd8, 0x82, 0xba, 0xbd,
  0x3d, 0x13, 0x92, 0x3e, 0x9e, 0x69, 0x9a, 0xbc, 0x57, 0x9e, 0x5a, 0xbd,
  0x3a, 0x84, 0x44, 0x3d, 0xa1, 0x54, 0x28, 0x3e, 0x91, 0x5d, 0x27, 0x3d,
  0x8b, 0x4f, 0xdf, 0xbd, 0x55, 0xcf, 0x51, 0xbe, 0xef, 0x20, 0x6e, 0xbe,
  0xf4, 0xfd, 0x0f, 0x3e, 0x5b, 0xab, 0xb5, 0xbe, 0x2f, 0xe9, 0x17, 0xbd,
  0x0c, 0x03, 0x75, 0xbe, 0x6b, 0xfa, 0xf0, 0xbc, 0xb0, 0x87, 0x32, 0x3e,
  0x87, 0xe5, 0x75, 0x3e, 0xbf, 0x5c, 0x73, 0x3e, 0x8b, 0xa4, 0x91, 0x3e,
  0xda, 0xea, 0x67, 0xbe, 0x7d, 0x05, 0x67, 0xbe, 0x84, 0xba, 0xa5, 0x3c,
  0x7f, 0xd6, 0x39, 0xbe, 0x6f, 0xa0, 0x86, 0xbd, 0x4c, 0x58, 0xec, 0xbd,
  0x15, 0x54, 0x7e, 0x3e, 0xab, 0x85, 0x06, 0xbf, 0x3a, 0x51, 0x5c, 0x3e,
  0xcd, 0x5a, 0x29, 0x3e, 0xa0, 0xa5, 0x94, 0x3e, 0x43, 0x61, 0x8b, 0xbe,
  0xa2, 0x46, 0x0c, 0xbe, 0x1c, 0x2c, 0xdc, 0x3c, 0x62, 0x00, 0x82, 0x3e,
  0x35, 0x17, 0xa8, 0x3e, 0x4b, 0xdf, 0x03, 0x3e, 0xea, 0xe6, 0x33, 0xbe,
  0xeb, 0x2d, 0xbe, 0x3d, 0xd4, 0xdd, 0xf3, 0xbd, 0x48, 0xa8, 0x1e, 0x3d,
  0xc1, 0x5c, 0x3c, 0x3e, 0xc0, 0xfd, 0xa7, 0x3e, 0x3b, 0x23, 0xb0, 0xbd,
  0xed, 0x95, 0x19, 0xbd, 0x56, 0xa8, 0xde, 0x3d, 0x7f, 0xe7, 0x16, 0x3d,
  0x6c, 0x2b, 0x6c, 0xbe, 0x32, 0x6b, 0x86, 0xbd, 0x79, 0x80, 0x0a, 0xbe,
  0xdc, 0xec, 0x9a, 0x3d, 0xcc, 0xd0, 0x0f, 0x3e, 0x48, 0xf4, 0xa9, 0xbd,
  0x10, 0x52, 0x71, 0xbd, 0xa2, 0x31, 0x8f, 0x3e, 0x18, 0x92, 0x05, 0xbe,
  0x1f, 0xd6, 0x71, 0x3d, 0xd9, 0x2c, 0xb6, 0xbd, 0xbd, 0x97, 0xf5, 0xbd,
  0x29, 0x08, 0x93, 0x3e, 0x14, 0x98, 0xb4, 0x3d, 0x03, 0x90, 0x9d, 0xbd,
  0x2a, 0x87, 0x87, 0xbd, 0xe3, 0x82, 0xfe, 0x3d, 0x36, 0x26, 0x52, 0xbe,
  0x0a, 0x42, 0x4b, 0xbe, 0x29, 0x1a, 0x05, 0x3e, 0x73, 0x0a, 0x4d, 0xbe,
  0xb6, 0xa0, 0x11, 0xbe, 0x0b, 0x89, 0x8f, 0xbe, 0x63, 0x66, 0x72, 0x3e,
  0x80, 0x70, 0x76, 0x3c, 0xec, 0xca, 0x48, 0x3e, 0x24, 0xb7, 0x5d, 0x3e,
  0x60, 0x4f, 0x53, 0xbe, 0x9e, 0xc5, 0x10, 0x3d, 0x40, 0xc6, 0xb5, 0x3e,
  0x45, 0x01, 0xae, 0x3e, 0x3d, 0x93, 0x66, 0x3e, 0xaf, 0xdd, 0x0b, 0x3c,
  0xfe, 0x2e, 0x97, 0xbe, 0xd9, 0x34, 0xc5, 0xbd, 0x9c, 0xa8, 0x89, 0xb8,
  0xa0, 0xbf, 0xb1, 0xbc, 0x9f, 0xcc, 0x97, 0x3e, 0x48, 0x29, 0x7e, 0x3e,
  0x9a, 0x13, 0x34, 0x3c, 0x1c, 0xe6, 0xe7, 0xbe, 0x2b, 0xea, 0xac, 0xbd,
  0x6b, 0x06, 0xb9, 0xbd, 0x58, 0x57, 0x51, 0x3e, 0x2f, 0x77, 0x40, 0xbe,
  0x98, 0x31, 0x01, 0xbe, 0xa7, 0x79, 0x83, 0x3d, 0x62, 0x7b, 0x2e, 0xbe,
  0xc7, 0x90, 0x92, 0x3c, 0xad, 0x27, 0x84, 0x3d, 0x66, 0xc2, 0x3f, 0x3e,
  0x7a, 0x68, 0x17, 0xbb, 0xb9, 0xcf, 0x10, 0xbe, 0xb0, 0x55, 0xf3, 0xbd,
  0x25, 0x39, 0x55, 0x3e, 0x3d, 0xf7, 0x1a, 0xbc, 0xef, 0xbc, 0x8b, 0xbc,
  0xbd, 0xd2, 0x56, 0xbc, 0x97, 0x56, 0xae, 0x3a, 0x4c, 0x38, 0xbd, 0x3e,
  0x8e, 0xbf, 0x3c, 0xbe, 0xf1, 0xac, 0x1f, 0x3e, 0xdb, 0x42, 0x75, 0xbc,
  0x5b, 0xc1, 0xea, 0xbd, 0x15, 0x35, 0xad, 0x3e, 0xd6, 0x4f, 0xc0, 0x3e,
  0xa8, 0x76, 0x02, 0xbf, 0xbd, 0xaf, 0x22, 0x3e, 0x1c, 0x3b, 0xfb, 0x3d,
  0xed, 0x55, 0x52, 0x3e, 0xf7, 0xea, 0x24, 0xbf, 0xba, 0xd9, 0xd1, 0xbc,
  0x61, 0x60, 0x32, 0x3e, 0x42, 0x98, 0x00, 0xbe, 0xdd, 0x1f, 0x9c, 0xbd,
  0x02, 0x96, 0x5a, 0xbe, 0x64, 0x8b, 0x54, 0x3e, 0xc5, 0xf5, 0x28, 0xbc,
  0xe0, 0x5b, 0x60, 0xbd, 0xe7, 0x6a, 0xe9, 0xbe, 0x61, 0x73, 0x08, 0x3e,
  0x43, 0xac, 0x83, 0x3c, 0x2d, 0x8c, 0x1b, 0x3e, 0xa9, 0xac, 0x56, 0x3e,
  0x02, 0x5a, 0xad, 0xbb, 0xdf, 0xe6, 0xaf, 0x3d, 0x3d, 0x30, 0x23, 0x3e,
  0x1f, 0x7d, 0x87, 0xbe, 0x6b, 0x92, 0x25, 0xbe, 0x5a, 0x48, 0xa7, 0x3d,
  0x7d, 0x7e, 0xe2, 0xbc, 0xc0, 0x41, 0x3f, 0x3e, 0x88, 0x8e, 0x29, 0x3e,
  0xc8, 0x12, 0x68, 0x3e, 0xc7, 0x25, 0x92, 0x3e, 0x21, 0x5c, 0xae, 0xbd,
  0xcf, 0xab, 0xa4, 0x3a, 0x99, 0xaf, 0x1f, 0xbe, 0xf0, 0x5a, 0xa2, 0x3e,
  0xe3, 0x2f, 0x19, 0xbe, 0x53, 0x98, 0x31, 0x3e, 0x0f, 0x92, 0x2e, 0xbe,
  0x27, 0x40, 0xd8, 0xbd, 0x94, 0x2d, 0xf5, 0xbd, 0x8d, 0x32, 0xba, 0x3e,
  0xc9, 0x27, 0x9a, 0x3e, 0xa1, 0xd4, 0x33, 0x3e, 0xdc, 0xab, 0x91, 0xbe,
  0x3d, 0xae, 0x4c, 0x3d, 0x24, 0x81, 0x2a, 0xbe, 0x62, 0xc1, 0x54, 0x3e,
  0x50, 0x6f, 0x2a, 0x3e, 0x0d, 0xe3, 0x4b, 0x3e, 0xb0, 0x65, 0x01, 0xbe,
  0xa4, 0xa6, 0x81, 0xbe, 0x2a, 0x4c, 0xb2, 0x3d, 0xad, 0xb3, 0x93, 0x3e,
  0xcf, 0x57, 0x5f, 0xbd, 0x54, 0xc0, 0x89, 0x3e, 0x62, 0x3f, 0x4e, 0x3e,
  0x62, 0xeb, 0x7b, 0x3e, 0x50, 0x1e, 0x97, 0xbe, 0x35, 0xf1, 0x50, 0x3c,
  0x56, 0xb2, 0x1b, 0xbc, 0x84, 0xf4, 0xc3, 0x3d, 0x3e, 0xac, 0x8f, 0xbe,
  0x4a, 0xdd, 0x41, 0x3e, 0x42, 0x25, 0xbb, 0xbd, 0xd1, 0x9d, 0x80, 0x3e,
  0x34, 0xfc, 0x99, 0xbe, 0xd7, 0x76, 0x82, 0x3e, 0x85, 0x06, 0xba, 0x3e,
  0xee, 0x27, 0x37, 0x3e, 0x03, 0xa2, 0x92, 0xbe, 0xdc, 0xbc, 0xaa, 0xbd,
  0xd6, 0xaf, 0xb1, 0x3d, 0xea, 0xf6, 0x8c, 0x3e, 0x50, 0x9f, 0xdd, 0x3b,
  0x07, 0x81, 0x0b, 0xbe, 0xf3, 0x89, 0xf5, 0x3d, 0x9b, 0x07, 0x4a, 0xbe,
  0x94, 0x5e, 0x71, 0xbd, 0x07, 0x0c, 0x52, 0x3c, 0x30, 0x12, 0x54, 0x3d,
  0x05, 0x1b, 0x8b, 0x3e, 0x5f, 0x99, 0x8c, 0xbe, 0xce, 0x37, 0xa2, 0xbc,
  0xfc, 0x7b, 0x43, 0x3e, 0x5b, 0xae, 0xea, 0x3d, 0x1a, 0xa9, 0x06, 0x3f,
  0x8d, 0x11, 0x31, 0xbe, 0x77, 0x2f, 0x96, 0x3c, 0x64, 0x0b, 0xb9, 0x3d,
  0x60, 0x94, 0x99, 0xbe, 0x45, 0x64, 0xa0, 0xbd, 0xbe, 0xdf, 0xcb, 0xbd,
  0xa5, 0x83, 0x82, 0xbd, 0x30, 0x49, 0x8d, 0x3c, 0x8b, 0x3d, 0x3b, 0x3d,
  0x40, 0x07, 0x1b, 0x3d, 0x98, 0x6e, 0x0e, 0xbe, 0xb1, 0xdd, 0x24, 0xbd,
  0x91, 0x2a, 0x82, 0x3e, 0xe8, 0xcf, 0x9e, 0x3e, 0xf2, 0x6c, 0x9b, 0xbe,
  0x21, 0x5e, 0xa1, 0x3e, 0x27, 0xe4, 0x54, 0xbe, 0x09, 0x7f, 0x83, 0x3e,
  0xdc, 0xf9, 0xf3, 0xbd, 0xea, 0xc2, 0x17, 0xbe, 0x25, 0x35, 0x83, 0x3e,
  0x17, 0x2e, 0x00, 0xbe, 0x45, 0x86, 0xd7, 0xbd, 0xc8, 0x18, 0x13, 0x3e,
  0x47, 0x89, 0xa7, 0x3d, 0x55, 0x86, 0xa1, 0xbc, 0x01, 0x21, 0x8c, 0x3d,
  0x09, 0x82, 0x95, 0x3e, 0x24, 0x24, 0x21, 0xbe, 0x6f, 0x5c, 0x20, 0xbe,
  0x57, 0xfe, 0x04, 0xbe, 0xff, 0x7e, 0x6c, 0x3e, 0x78, 0x6a, 0xf8, 0xbc,
  0xe8, 0x15, 0x77, 0xbe, 0xf9, 0x56, 0xa6, 0x3e, 0xb5, 0x6e, 0x30, 0x3d,
  0x11, 0xb2, 0x6c, 0xbd, 0x1d, 0xea, 0x27, 0x3c, 0xaa, 0xe7, 0x9e, 0xbe,
  0xc6, 0x78, 0x40, 0xbd, 0x01, 0xd1, 0xd1, 0x3e, 0x9f, 0x70, 0xa6, 0x3d,
  0xbf, 0x6d, 0x0c, 0x3e, 0xfe, 0x8f, 0x2d, 0xbd, 0xf4, 0x15, 0x32, 0x3e,
  0x7c, 0x09, 0x6e, 0xbe, 0x14, 0xfb, 0xff, 0xff, 0x18, 0xfb, 0xff, 0xff,
  0x0f, 0x00, 0x00, 0x00, 0x54, 0x4f, 0x43, 0x4f, 0x20, 0x43, 0x6f, 0x6e,
  0x76, 0x65, 0x72, 0x74, 0x65, 0x64, 0x2e, 0x00, 0x01, 0x00, 0x00, 0x00,
  0x10, 0x00, 0x00, 0x00, 0x0c, 0x00, 0x14, 0x00, 0x04, 0x00, 0x08, 0x00,
  0x0c, 0x00, 0x10, 0x00, 0x0c, 0x00, 0x00, 0x00, 0x24, 0x01, 0x00, 0x00,
  0x18, 0x01, 0x00, 0x00, 0x0c, 0x01, 0x00, 0x00, 0x04, 0x00, 0x00, 0x00,
  0x05, 0x00, 0x00, 0x00, 0xd0, 0x00, 0x00, 0x00, 0x9c, 0x00, 0x00, 0x00,
  0x5c, 0x00, 0x00, 0x00, 0x38, 0x00, 0x00, 0x00, 0x04, 0x00, 0x00, 0x00,
  0x52, 0xff, 0xff, 0xff, 0x00, 0x00, 0x00, 0x08, 0x18, 0x00, 0x00, 0x00,
  0x0c, 0x00, 0x00, 0x00, 0x04, 0x00, 0x00, 0x00, 0x84, 0xfb, 0xff, 0xff,
  0x01, 0x00, 0x00, 0x00, 0x00, 0x00, 0x00, 0x00, 0x03, 0x00, 0x00, 0x00,
  0x09, 0x00, 0x00, 0x00, 0x0a, 0x00, 0x00, 0x00, 0x0b, 0x00, 0x00, 0x00,
  0xae, 0xff, 0xff, 0xff, 0x01, 0x00, 0x00, 0x00, 0x10, 0x00, 0x00, 0x00,
  0x04, 0x00, 0x00, 0x00, 0x01, 0x00, 0x00, 0x00, 0x09, 0x00, 0x00, 0x00,
  0x01, 0x00, 0x00, 0x00, 0x06, 0x00, 0x00, 0x00, 0xa2, 0xff, 0xff, 0xff,
  0x00, 0x00, 0x00, 0x08, 0x18, 0x00, 0x00, 0x00, 0x0c, 0x00, 0x00, 0x00,
  0x04, 0x00, 0x00, 0x00, 0xd4, 0xfb, 0xff, 0xff, 0x01, 0x00, 0x00, 0x00,
  0x06, 0x00, 0x00, 0x00, 0x03, 0x00, 0x00, 0x00, 0x05, 0x00, 0x00, 0x00,
  0x07, 0x00, 0x00, 0x00, 0x08, 0x00, 0x00, 0x00, 0x00, 0x00, 0x0a, 0x00,
  0x10, 0x00, 0x04, 0x00, 0x08, 0x00, 0x0c, 0x00, 0x0a, 0x00, 0x00, 0x00,
  0x01, 0x00, 0x00, 0x00, 0x10, 0x00, 0x00, 0x00, 0x04, 0x00, 0x00, 0x00,
  0x01, 0x00, 0x00, 0x00, 0x05, 0x00, 0x00, 0x00, 0x01, 0x00, 0x00, 0x00,
  0x02, 0x00, 0x00, 0x00, 0x00, 0x00, 0x0e, 0x00, 0x14, 0x00, 0x00, 0x00,
  0x08, 0x00, 0x0c, 0x00, 0x07, 0x00, 0x10, 0x00, 0x0e, 0x00, 0x00, 0x00,
  0x00, 0x00, 0x00, 0x08, 0x18, 0x00, 0x00, 0x00, 0x0c, 0x00, 0x00, 0x00,
  0x04, 0x00, 0x00, 0x00, 0x40, 0xfc, 0xff, 0xff, 0x01, 0x00, 0x00, 0x00,
  0x02, 0x00, 0x00, 0x00, 0x03, 0x00, 0x00, 0x00, 0x01, 0x00, 0x00, 0x00,
  0x03, 0x00, 0x00, 0x00, 0x04, 0x00, 0x00, 0x00, 0x01, 0x00, 0x00, 0x00,
  0x00, 0x00, 0x00, 0x00, 0x01, 0x00, 0x00, 0x00, 0x01, 0x00, 0x00, 0x00,
  0x0c, 0x00, 0x00, 0x00, 0x7c, 0x03, 0x00, 0x00, 0x14, 0x03, 0x00, 0x00,
  0xcc, 0x02, 0x00, 0x00, 0x6c, 0x02, 0x00, 0x00, 0x24, 0x02, 0x00, 0x00,
  0xe0, 0x01, 0x00, 0x00, 0x98, 0x01, 0x00, 0x00, 0x38, 0x01, 0x00, 0x00,
  0xf0, 0x00, 0x00, 0x00, 0xac, 0x00, 0x00, 0x00, 0x4c, 0x00, 0x00, 0x00,
  0x04, 0x00, 0x00, 0x00, 0xc2, 0xfc, 0xff, 0xff, 0x38, 0x00, 0x00, 0x00,
  0x0c, 0x00, 0x00, 0x00, 0x0c, 0x00, 0x00, 0x00, 0x04, 0x00, 0x00, 0x00,
  0xb4, 0xfc, 0xff, 0xff, 0x1e, 0x00, 0x00, 0x00, 0x73, 0x65, 0x71, 0x75,
  0x65, 0x6e, 0x74, 0x69, 0x61, 0x6c, 0x2f, 0x64, 0x65, 0x6e, 0x73, 0x65,
  0x5f, 0x32, 0x2f, 0x4d, 0x61, 0x74, 0x4d, 0x75, 0x6c, 0x5f, 0x62, 0x69,
  0x61, 0x73, 0x00, 0x00, 0x01, 0x00, 0x00, 0x00, 0x05, 0x00, 0x00, 0x00,
  0x06, 0xfd, 0xff, 0xff, 0x4c, 0x00, 0x00, 0x00, 0x06, 0x00, 0x00, 0x00,
  0x0c, 0x00, 0x00, 0x00, 0x04, 0x00, 0x00, 0x00, 0xf8, 0xfc, 0xff, 0xff,
  0x32, 0x00, 0x00, 0x00, 0x73, 0x65, 0x71, 0x75, 0x65, 0x6e, 0x74, 0x69,
  0x61, 0x6c, 0x2f, 0x64, 0x65, 0x6e, 0x73, 0x65, 0x5f, 0x32, 0x2f, 0x4d,
  0x61, 0x74, 0x4d, 0x75, 0x6c, 0x2f, 0x52, 0x65, 0x61, 0x64, 0x56, 0x61,
  0x72, 0x69, 0x61, 0x62, 0x6c, 0x65, 0x4f, 0x70, 0x2f, 0x74, 0x72, 0x61,
  0x6e, 0x73, 0x70, 0x6f, 0x73, 0x65, 0x00, 0x00, 0x02, 0x00, 0x00, 0x00,
  0x05, 0x00, 0x00, 0x00, 0x1e, 0x00, 0x00, 0x00, 0x62, 0xfd, 0xff, 0xff,
  0x30, 0x00, 0x00, 0x00, 0x07, 0x00, 0x00, 0x00, 0x0c, 0x00, 0x00, 0x00,
  0x04, 0x00, 0x00, 0x00, 0x54, 0xfd, 0xff, 0xff, 0x17, 0x00, 0x00, 0x00,
  0x73, 0x65, 0x71, 0x75, 0x65, 0x6e, 0x74, 0x69, 0x61, 0x6c, 0x2f, 0x64,
  0x65, 0x6e, 0x73, 0x65, 0x5f, 0x31, 0x2f, 0x54, 0x61, 0x6e, 0x68, 0x00,
  0x02, 0x00, 0x00, 0x00, 0x01, 0x00, 0x00, 0x00, 0x1e, 0x00, 0x00, 0x00,
  0xa2, 0xfd, 0xff, 0xff, 0x38, 0x00, 0x00, 0x00, 0x0b, 0x00, 0x00, 0x00,
  0x0c, 0x00, 0x00, 0x00, 0x04, 0x00, 0x00, 0x00, 0x94, 0xfd, 0xff, 0xff,
  0x1e, 0x00, 0x00, 0x00, 0x73, 0x65, 0x71, 0x75, 0x65, 0x6e, 0x74, 0x69,
  0x61, 0x6c, 0x2f, 0x64, 0x65, 0x6e, 0x73, 0x65, 0x5f, 0x31, 0x2f, 0x4d,
  0x61, 0x74, 0x4d, 0x75, 0x6c, 0x5f, 0x62, 0x69, 0x61, 0x73, 0x00, 0x00,
  0x01, 0x00, 0x00, 0x00, 0x1e, 0x00, 0x00, 0x00, 0xe6, 0xfd, 0xff, 0xff,
  0x4c, 0x00, 0x00, 0x00, 0x02, 0x00, 0x00, 0x00, 0x0c, 0x00, 0x00, 0x00,
  0x04, 0x00, 0x00, 0x00, 0xd8, 0xfd, 0xff, 0xff, 0x32, 0x00, 0x00, 0x00,
  0x73, 0x65, 0x71, 0x75, 0x65, 0x6e, 0x74, 0x69, 0x61, 0x6c, 0x2f, 0x64,
  0x65, 0x6e, 0x73, 0x65, 0x5f, 0x31, 0x2f, 0x4d, 0x61, 0x74, 0x4d, 0x75,
  0x6c, 0x2f, 0x52, 0x65, 0x61, 0x64, 0x56, 0x61, 0x72, 0x69, 0x61, 0x62,
  0x6c, 0x65, 0x4f, 0x70, 0x2f, 0x74, 0x72, 0x61, 0x6e, 0x73, 0x70, 0x6f,
  0x73, 0x65, 0x00, 0x00, 0x02, 0x00, 0x00, 0x00, 0x1e, 0x00, 0x00, 0x00,
  0x1e, 0x00, 0x00, 0x00, 0x42, 0xfe, 0xff, 0xff, 0x34, 0x00, 0x00, 0x00,
  0x05, 0x00, 0x00, 0x00, 0x0c, 0x00, 0x00, 0x00, 0x04, 0x00, 0x00, 0x00,
  0x34, 0xfe, 0xff, 0xff, 0x1a, 0x00, 0x00, 0x00, 0x73, 0x65, 0x71, 0x75,
  0x65, 0x6e, 0x74, 0x69, 0x61, 0x6c, 0x2f, 0x64, 0x65, 0x6e, 0x73, 0x65,
  0x5f, 0x31, 0x2f, 0x42, 0x69, 0x61, 0x73, 0x41, 0x64, 0x64, 0x00, 0x00,
  0x02, 0x00, 0x00, 0x00, 0x01, 0x00, 0x00, 0x00, 0x1e, 0x00, 0x00, 0x00,
  0x86, 0xfe, 0xff, 0xff, 0x30, 0x00, 0x00, 0x00, 0x04, 0x00, 0x00, 0x00,
  0x0c, 0x00, 0x00, 0x00, 0x04, 0x00, 0x00, 0x00, 0x78, 0xfe, 0xff, 0xff,
  0x15, 0x00, 0x00, 0x00, 0x73, 0x65, 0x71, 0x75, 0x65, 0x6e, 0x74, 0x69,
  0x61, 0x6c, 0x2f, 0x64, 0x65, 0x6e, 0x73, 0x65, 0x2f, 0x54, 0x61, 0x6e,
  0x68, 0x00, 0x00, 0x00, 0x02, 0x00, 0x00, 0x00, 0x01, 0x00, 0x00, 0x00,
  0x1e, 0x00, 0x00, 0x00, 0xc6, 0xfe, 0xff, 0xff, 0x38, 0x00, 0x00, 0x00,
  0x0a, 0x00, 0x00, 0x00, 0x0c, 0x00, 0x00, 0x00, 0x04, 0x00, 0x00, 0x00,
  0xb8, 0xfe, 0xff, 0xff, 0x1c, 0x00, 0x00, 0x00, 0x73, 0x65, 0x71, 0x75,
  0x65, 0x6e, 0x74, 0x69, 0x61, 0x6c, 0x2f, 0x64, 0x65, 0x6e, 0x73, 0x65,
  0x2f, 0x4d, 0x61, 0x74, 0x4d, 0x75, 0x6c, 0x5f, 0x62, 0x69, 0x61, 0x73,
  0x00, 0x00, 0x00, 0x00, 0x01, 0x00, 0x00, 0x00, 0x1e, 0x00, 0x00, 0x00,
  0x0a, 0xff, 0xff, 0xff, 0x4c, 0x00, 0x00, 0x00, 0x09, 0x00, 0x00, 0x00,
  0x0c, 0x00, 0x00, 0x00, 0x04, 0x00, 0x00, 0x00, 0xfc, 0xfe, 0xff, 0xff,
  0x30, 0x00, 0x00, 0x00, 0x73, 0x65, 0x71, 0x75, 0x65, 0x6e, 0x74, 0x69,
  0x61, 0x6c, 0x2f, 0x64, 0x65, 0x6e, 0x73, 0x65, 0x2f, 0x4d, 0x61, 0x74,
  0x4d, 0x75, 0x6c, 0x2f, 0x52, 0x65, 0x61, 0x64, 0x56, 0x61, 0x72, 0x69,
  0x61, 0x62, 0x6c, 0x65, 0x4f, 0x70, 0x2f, 0x74, 0x72, 0x61, 0x6e, 0x73,
  0x70, 0x6f, 0x73, 0x65, 0x00, 0x00, 0x00, 0x00, 0x02, 0x00, 0x00, 0x00,
  0x1e, 0x00, 0x00, 0x00, 0x10, 0x00, 0x00, 0x00, 0x66, 0xff, 0xff, 0xff,
  0x34, 0x00, 0x00, 0x00, 0x03, 0x00, 0x00, 0x00, 0x0c, 0x00, 0x00, 0x00,
  0x04, 0x00, 0x00, 0x00, 0x58, 0xff, 0xff, 0xff, 0x18, 0x00, 0x00, 0x00,
  0x73, 0x65, 0x71, 0x75, 0x65, 0x6e, 0x74, 0x69, 0x61, 0x6c, 0x2f, 0x64,
  0x65, 0x6e, 0x73, 0x65, 0x2f, 0x42, 0x69, 0x61, 0x73, 0x41, 0x64, 0x64,
  0x00, 0x00, 0x00, 0x00, 0x02, 0x00, 0x00, 0x00, 0x01, 0x00, 0x00, 0x00,
  0x1e, 0x00, 0x00, 0x00, 0xaa, 0xff, 0xff, 0xff, 0x44, 0x00, 0x00, 0x00,
  0x01, 0x00, 0x00, 0x00, 0x2c, 0x00, 0x00, 0x00, 0x0c, 0x00, 0x00, 0x00,
  0x08, 0x00, 0x0c, 0x00, 0x04, 0x00, 0x08, 0x00, 0x08, 0x00, 0x00, 0x00,
  0x10, 0x00, 0x00, 0x00, 0x04, 0x00, 0x00, 0x00, 0x01, 0x00, 0x00, 0x00,
  0x00, 0x00, 0x7f, 0x43, 0x01, 0x00, 0x00, 0x00, 0x00, 0x00, 0x00, 0x00,
  0x0b, 0x00, 0x00, 0x00, 0x64, 0x65, 0x6e, 0x73, 0x65, 0x5f, 0x69, 0x6e,
  0x70, 0x75, 0x74, 0x00, 0x02, 0x00, 0x00, 0x00, 0x01, 0x00, 0x00, 0x00,
  0x10, 0x00, 0x00, 0x00, 0x00, 0x00, 0x0e, 0x00, 0x14, 0x00, 0x04, 0x00,
  0x00, 0x00, 0x08, 0x00, 0x0c, 0x00, 0x10, 0x00, 0x0e, 0x00, 0x00, 0x00,
  0x28, 0x00, 0x00, 0x00, 0x08, 0x00, 0x00, 0x00, 0x10, 0x00, 0x00, 0x00,
  0x08, 0x00, 0x00, 0x00, 0x04, 0x00, 0x04, 0x00, 0x04, 0x00, 0x00, 0x00,
  0x08, 0x00, 0x00, 0x00, 0x49, 0x64, 0x65, 0x6e, 0x74, 0x69, 0x74, 0x79,
  0x00, 0x00, 0x00, 0x00, 0x02, 0x00, 0x00, 0x00, 0x01, 0x00, 0x00, 0x00,
  0x05, 0x00, 0x00, 0x00, 0x02, 0x00, 0x00, 0x00, 0x20, 0x00, 0x00, 0x00,
  0x0c, 0x00, 0x00, 0x00, 0x00, 0x00, 0x06, 0x00, 0x06, 0x00, 0x05, 0x00,
  0x06, 0x00, 0x00, 0x00, 0x00, 0x1c, 0x0a, 0x00, 0x0c, 0x00, 0x07, 0x00,
  0x00, 0x00, 0x08, 0x00, 0x0a, 0x00, 0x00, 0x00, 0x00, 0x00, 0x00, 0x09,
  0x03, 0x00, 0x00, 0x00
};

