
#define TENSORFLOW_LITE_EXPERIMENTAL_MICRO_EXAMPLES_HELLO_WORLD_SINE_MODEL_DATA_H_
#ifdef __has_attribute
#define HAVE_ATTRIBUTE(x) __has_attribute(x)
#else
#define HAVE_ATTRIBUTE(x) 0
#endif
#if HAVE_ATTRIBUTE(aligned) || (defined(__GNUC__) && !defined(__clang__))
#define DATA_ALIGN_ATTRIBUTE __attribute__((aligned(4)))
#else
#define DATA_ALIGN_ATTRIBUTE
#endif

const int flight_model_len = 4468;
const unsigned char flight_model[] DATA_ALIGN_ATTRIBUTE = {
 0x1c, 0x00, 0x00, 0x00, 0x54, 0x46, 0x4c, 0x33, 0x00, 0x00, 0x12, 0x00,
  0x1c, 0x00, 0x04, 0x00, 0x08, 0x00, 0x0c, 0x00, 0x10, 0x00, 0x14, 0x00,
  0x00, 0x00, 0x18, 0x00, 0x12, 0x00, 0x00, 0x00, 0x03, 0x00, 0x00, 0x00,
  0x20, 0x11, 0x00, 0x00, 0x8c, 0x0c, 0x00, 0x00, 0x74, 0x0c, 0x00, 0x00,
  0x34, 0x00, 0x00, 0x00, 0x04, 0x00, 0x00, 0x00, 0x01, 0x00, 0x00, 0x00,
  0x04, 0x00, 0x00, 0x00, 0x84, 0xef, 0xff, 0xff, 0x08, 0x00, 0x00, 0x00,
  0x0c, 0x00, 0x00, 0x00, 0x13, 0x00, 0x00, 0x00, 0x6d, 0x69, 0x6e, 0x5f,
  0x72, 0x75, 0x6e, 0x74, 0x69, 0x6d, 0x65, 0x5f, 0x76, 0x65, 0x72, 0x73,
  0x69, 0x6f, 0x6e, 0x00, 0x0d, 0x00, 0x00, 0x00, 0x34, 0x0c, 0x00, 0x00,
  0x2c, 0x0c, 0x00, 0x00, 0xd4, 0x08, 0x00, 0x00, 0xc4, 0x08, 0x00, 0x00,
  0xb8, 0x08, 0x00, 0x00, 0xb0, 0x08, 0x00, 0x00, 0xa8, 0x08, 0x00, 0x00,
  0xb4, 0x01, 0x00, 0x00, 0x50, 0x01, 0x00, 0x00, 0x18, 0x01, 0x00, 0x00,
  0x40, 0x00, 0x00, 0x00, 0x1c, 0x00, 0x00, 0x00, 0x04, 0x00, 0x00, 0x00,
  0x5e, 0xf7, 0xff, 0xff, 0x04, 0x00, 0x00, 0x00, 0x06, 0x00, 0x00, 0x00,
  0x31, 0x2e, 0x31, 0x34, 0x2e, 0x30, 0x00, 0x00, 0x72, 0xf7, 0xff, 0xff,
  0x04, 0x00, 0x00, 0x00, 0x14, 0x00, 0x00, 0x00, 0x1e, 0x64, 0x1a, 0x3f,
  0x62, 0xd9, 0x00, 0x3f, 0x29, 0xc4, 0xd6, 0x3e, 0xf6, 0x26, 0xfd, 0x3e,
  0x7f, 0xa5, 0xe1, 0x3e, 0x92, 0xf7, 0xff, 0xff, 0x04, 0x00, 0x00, 0x00,
  0xc8, 0x00, 0x00, 0x00, 0xa1, 0x6c, 0x34, 0x3f, 0x7a, 0x9e, 0x34, 0x3e,
  0x9a, 0x23, 0x3f, 0x3e, 0x23, 0x15, 0xa4, 0x3e, 0xa4, 0x99, 0xe2, 0xbd,
  0x40, 0xa7, 0xa7, 0xbd, 0xdd, 0x2c, 0x25, 0xbf, 0x8d, 0x72, 0xc7, 0x3e,
  0x93, 0x94, 0x00, 0xbf, 0x91, 0x51, 0xc3, 0x3d, 0x1b, 0x52, 0x20, 0x3e,
  0xb6, 0xde, 0x83, 0xbe, 0x92, 0xb4, 0x26, 0x3e, 0xe3, 0x1c, 0xbc, 0x3e,
  0xeb, 0xa6, 0xad, 0x3e, 0x24, 0x0f, 0x1a, 0x3f, 0xca, 0x34, 0x29, 0x3e,
  0x99, 0x16, 0x37, 0x3e, 0x93, 0x4c, 0x87, 0xbe, 0x18, 0xbe, 0xa6, 0x3e,
  0x28, 0x96, 0xe3, 0x3d, 0xab, 0xf5, 0xed, 0xbd, 0x5a, 0x84, 0x4a, 0x3e,
  0x8a, 0x91, 0xb7, 0x3d, 0x82, 0x91, 0xff, 0x3e, 0x73, 0x1a, 0x1d, 0x3f,
  0x7c, 0x36, 0xbf, 0xbd, 0xc6, 0x80, 0x2e, 0xbe, 0x50, 0x51, 0x8b, 0xbe,
  0x1e, 0x0c, 0x79, 0x3e, 0x3f, 0xb3, 0x01, 0xbf, 0xbf, 0x8c, 0xd3, 0xbc,
  0xd0, 0x90, 0x21, 0x3f, 0x97, 0x1d, 0x92, 0x3e, 0x40, 0xfc, 0x30, 0x3e,
  0xcb, 0x98, 0xca, 0xbe, 0x0a, 0xb0, 0x8d, 0xbe, 0x52, 0x16, 0xa1, 0x3a,
  0x54, 0x95, 0x12, 0xbd, 0x60, 0x23, 0x29, 0x3e, 0x86, 0xbf, 0x08, 0x3f,
  0xbb, 0xb3, 0x28, 0xbf, 0x25, 0x64, 0x12, 0x3a, 0x82, 0x96, 0xbf, 0x3d,
  0x1d, 0xc0, 0x83, 0x3c, 0x22, 0xb4, 0x18, 0xbf, 0x85, 0xc9, 0x08, 0xbe,
  0x2e, 0x54, 0x08, 0xbf, 0xe3, 0x99, 0x8d, 0x3d, 0x4c, 0x29, 0x4e, 0x3e,
  0x66, 0xf8, 0xff, 0xff, 0x04, 0x00, 0x00, 0x00, 0x28, 0x00, 0x00, 0x00,
  0x63, 0x6c, 0xca, 0x3d, 0x1e, 0x6f, 0xfc, 0xbd, 0x98, 0xd0, 0xae, 0x3d,
  0xcd, 0x7d, 0x7e, 0x3d, 0x77, 0xde, 0xeb, 0x3d, 0x0b, 0xdb, 0x31, 0xbc,
  0x0b, 0x11, 0x34, 0xbd, 0x98, 0xa1, 0xa0, 0x3c, 0x60, 0x22, 0x91, 0xbd,
  0x3d, 0xdc, 0x2a, 0x3d, 0x9a, 0xf8, 0xff, 0xff, 0x04, 0x00, 0x00, 0x00,
  0x54, 0x00, 0x00, 0x00, 0xd4, 0xf6, 0x6d, 0xbd, 0x2b, 0x8d, 0x80, 0xbe,
  0x3c, 0x72, 0x36, 0xbe, 0xed, 0x64, 0xbe, 0xbd, 0xac, 0x69, 0xd2, 0xbe,
  0x11, 0x7d, 0x34, 0xbe, 0x61, 0x98, 0x37, 0xbe, 0xc2, 0x42, 0xc9, 0xbe,
  0x80, 0x68, 0x68, 0xbd, 0x66, 0xca, 0xd5, 0xbe, 0x12, 0xcb, 0xa5, 0xbe,
  0x4c, 0x4f, 0xdb, 0xbe, 0x18, 0xb5, 0x6b, 0xbd, 0x84, 0x32, 0xb4, 0xbd,
  0xc9, 0x50, 0xfe, 0xbd, 0xb1, 0x73, 0xbd, 0xbd, 0xb7, 0xbd, 0x4e, 0xbe,
  0xee, 0x8b, 0x11, 0xbe, 0x4f, 0x05, 0xd5, 0xbe, 0xa7, 0x39, 0xdc, 0xbd,
  0xf6, 0x43, 0x06, 0xbe, 0xfa, 0xf8, 0xff, 0xff, 0x04, 0x00, 0x00, 0x00,
  0xe4, 0x06, 0x00, 0x00, 0x63, 0xfa, 0xb1, 0xbe, 0x68, 0x15, 0xc8, 0xbe,
  0xeb, 0x34, 0xcc, 0xbe, 0x47, 0xaf, 0x2c, 0x3e, 0x4a, 0x0a, 0x97, 0x3e,
  0x17, 0x2c, 0xbf, 0x3d, 0x79, 0xab, 0x77, 0xbe, 0xc7, 0x23, 0x29, 0x3e,
  0xff, 0xbf, 0x17, 0xbd, 0x83, 0x7b, 0xd7, 0xbd, 0x35, 0x0e, 0x8e, 0xbe,
  0xc2, 0xbd, 0x16, 0xbe, 0xed, 0xdb, 0x22, 0x3e, 0x92, 0x0c, 0x50, 0xbe,
  0x27, 0xe5, 0xba, 0x3c, 0x05, 0x3f, 0x6f, 0x3d, 0x40, 0xc6, 0x2f, 0x3d,
  0x30, 0xce, 0xe8, 0xbe, 0xc3, 0x93, 0x23, 0xbf, 0x96, 0x35, 0x96, 0xbf,
  0xad, 0xfd, 0xdc, 0xbf, 0x64, 0xdc, 0x9f, 0xbe, 0xb0, 0xc1, 0x58, 0xbc,
  0x3e, 0x2a, 0x74, 0xbe, 0xb0, 0x43, 0x06, 0xbd, 0xe4, 0x78, 0xf7, 0xbc,
  0xec, 0x6b, 0xa2, 0xbe, 0x43, 0x54, 0xd8, 0xbd, 0xf0, 0x59, 0xe7, 0x3d,
  0x38, 0x6f, 0xbb, 0xbe, 0xe0, 0x53, 0xba, 0xbe, 0xfa, 0x83, 0x95, 0xbe,
  0x8c, 0xec, 0x26, 0x3e, 0x8a, 0x89, 0xef, 0xbe, 0x24, 0xa3, 0xb7, 0xbe,
  0x56, 0xf1, 0xf4, 0xbc, 0xa1, 0xaf, 0x14, 0x3e, 0x26, 0x26, 0xa3, 0xbf,
  0xd9, 0x21, 0x6b, 0xbf, 0xe8, 0xc3, 0x8f, 0xbf, 0xc5, 0xd3, 0xd4, 0xbe,
  0xc4, 0x3c, 0x14, 0x40, 0x47, 0x8c, 0x0d, 0x3d, 0xf2, 0x49, 0x20, 0xbe,
  0x33, 0x08, 0x9a, 0xbe, 0xbd, 0x10, 0xbf, 0xbe, 0x7b, 0xec, 0x9c, 0xbe,
  0x19, 0x07, 0x3d, 0xbe, 0xba, 0xa3, 0x4e, 0xbe, 0x31, 0xb9, 0xf3, 0xbe,
  0xb4, 0xfd, 0x2a, 0xbf, 0xf1, 0x07, 0x3c, 0x3d, 0x2a, 0xd6, 0x17, 0xbf,
  0x25, 0xf7, 0xa1, 0xbd, 0x78, 0xb6, 0x37, 0x3e, 0x93, 0xba, 0x2b, 0x3e,
  0x91, 0xb7, 0xcd, 0xbe, 0x37, 0xdd, 0xc2, 0xbe, 0xe5, 0x3c, 0xcd, 0xbd,
  0x07, 0x48, 0x74, 0x3f, 0x19, 0x38, 0x5c, 0x3f, 0x3c, 0xc7, 0x36, 0xbf,
  0x17, 0x0b, 0x34, 0xbf, 0xd8, 0x8c, 0x66, 0xbe, 0x9a, 0xfc, 0x62, 0xbd,
  0x33, 0x19, 0x4d, 0xbe, 0xb7, 0xc6, 0x18, 0xbd, 0xa6, 0xf3, 0x92, 0x3d,
  0x5e, 0x73, 0x29, 0xbe, 0xc2, 0x41, 0xaf, 0x3c, 0x84, 0xfc, 0x12, 0xbd,
  0x38, 0x30, 0x23, 0xbe, 0xdf, 0xb0, 0xb8, 0xbe, 0xaa, 0x18, 0xb3, 0xbd,
  0xa1, 0x9c, 0x16, 0xbd, 0x07, 0xe7, 0xc6, 0x3d, 0x9b, 0xac, 0xa3, 0xbe,
  0xe8, 0x33, 0xb9, 0xbe, 0x8d, 0x6f, 0xcb, 0x3d, 0xbe, 0x70, 0xdf, 0xbf,
  0x9e, 0xc9, 0x67, 0xbf, 0xd1, 0x9b, 0x28, 0xbf, 0x4f, 0xa9, 0x7a, 0x3e,
  0x86, 0xce, 0x85, 0x3f, 0xfe, 0x9a, 0x93, 0xbe, 0x97, 0x98, 0x85, 0xbe,
  0x34, 0xda, 0xa1, 0xbe, 0x86, 0xdd, 0xc3, 0xbe, 0x26, 0xdd, 0x99, 0xbe,
  0x48, 0x44, 0x63, 0xbe, 0x26, 0x73, 0x8b, 0xbe, 0xcf, 0x62, 0x0e, 0xbe,
  0x4c, 0xa8, 0x0b, 0xbf, 0xbd, 0x9a, 0xa7, 0xbc, 0x6d, 0xdf, 0xb3, 0xbe,
  0xba, 0x5b, 0x2e, 0xbe, 0x9f, 0x6d, 0x7b, 0xbe, 0x70, 0xfc, 0x7b, 0xbe,
  0x34, 0x29, 0x89, 0xbe, 0x37, 0x4b, 0xf8, 0xbd, 0xa7, 0x74, 0xf2, 0x3f,
  0x58, 0x78, 0x71, 0xbe, 0x28, 0xf5, 0xd4, 0xbe, 0xe6, 0xf4, 0x0b, 0x3f,
  0xe8, 0x51, 0x98, 0xbf, 0x0c, 0x1f, 0x32, 0xbe, 0x77, 0xc3, 0xf6, 0xbe,
  0x5d, 0xc7, 0xe4, 0xbc, 0x74, 0x3d, 0x95, 0x3c, 0x5a, 0xb3, 0xd7, 0xbe,
  0xce, 0x7b, 0x97, 0xbd, 0xd1, 0x39, 0x9a, 0xbe, 0x03, 0x88, 0xee, 0xbe,
  0x70, 0x3c, 0x73, 0x3d, 0x31, 0x24, 0x0d, 0x3e, 0xec, 0x32, 0xc6, 0xbe,
  0x57, 0x27, 0xbb, 0x3d, 0x06, 0xdd, 0xca, 0xbe, 0x98, 0x44, 0x1a, 0x3e,
  0x0c, 0x15, 0x0c, 0x3e, 0x43, 0x26, 0x7b, 0x3b, 0xb7, 0x6e, 0x95, 0xbf,
  0x28, 0xcd, 0x8a, 0xbe, 0xce, 0x5b, 0x35, 0x3d, 0x5f, 0x4c, 0xeb, 0xbd,
  0x02, 0xc2, 0x44, 0x3f, 0x82, 0x7b, 0x39, 0xbe, 0xd1, 0x2a, 0x29, 0xbd,
  0x76, 0xbd, 0x22, 0xbc, 0xe1, 0x14, 0x88, 0x3e, 0x0f, 0xda, 0x20, 0xbe,
  0x41, 0x5a, 0xb3, 0xbe, 0x1c, 0xc2, 0xe6, 0xbe, 0x2b, 0x85, 0x3a, 0x3d,
  0x52, 0x72, 0xc6, 0xbe, 0x64, 0x7f, 0x47, 0xbe, 0x9f, 0xe1, 0xf9, 0xbe,
  0xd0, 0x24, 0x57, 0xbe, 0xcc, 0x4b, 0x53, 0xbe, 0x15, 0x9d, 0x8a, 0xbd,
  0x49, 0x18, 0x8f, 0x3e, 0x36, 0x31, 0x16, 0x3d, 0x7c, 0x4e, 0xda, 0xbf,
  0xb0, 0xcb, 0x03, 0x3f, 0x99, 0xf1, 0x16, 0x3f, 0x61, 0xa8, 0xd8, 0x3e,
  0xba, 0x35, 0xee, 0xbf, 0xf7, 0x2f, 0x99, 0xbe, 0x76, 0xef, 0xac, 0xbe,
  0xc9, 0x96, 0xc4, 0xbe, 0xf0, 0xeb, 0x26, 0xbe, 0x66, 0x60, 0x2a, 0xbe,
  0x6d, 0x63, 0x9d, 0xbe, 0xf9, 0x0b, 0xb1, 0xbb, 0xb7, 0x4f, 0xdf, 0xbe,
  0x7b, 0x35, 0x54, 0xbf, 0x13, 0x2e, 0x95, 0xbd, 0x0d, 0xdc, 0x06, 0xbf,
  0xd7, 0x3a, 0x03, 0xbf, 0x3c, 0x58, 0x45, 0xbe, 0x6b, 0xe8, 0x0f, 0xbf,
  0x4a, 0xe4, 0x36, 0xbe, 0xe9, 0xe8, 0x66, 0xbe, 0xe5, 0xcb, 0xa4, 0x3f,
  0x3c, 0xff, 0xb1, 0x3c, 0xce, 0x88, 0x9f, 0x3e, 0x4d, 0xee, 0x98, 0xbd,
  0x80, 0x5f, 0x1e, 0x3f, 0x6d, 0xd2, 0xa6, 0xbc, 0x04, 0xcd, 0xa4, 0xbe,
  0x8c, 0xf0, 0x72, 0x3e, 0xd4, 0x8f, 0xd0, 0x3e, 0xab, 0xe6, 0x8d, 0xbe,
  0xe8, 0xc3, 0xe9, 0xbd, 0xb3, 0xc7, 0x95, 0xbe, 0xf9, 0xa1, 0x82, 0xbd,
  0x83, 0x7a, 0x9b, 0xbe, 0x57, 0x8c, 0x42, 0xbe, 0x7a, 0x8c, 0xba, 0xbe,
  0x18, 0x75, 0xeb, 0xbe, 0x2e, 0x2d, 0xab, 0xbe, 0xde, 0x5f, 0x8b, 0xbe,
  0x04, 0xb0, 0xfb, 0x3d, 0xe2, 0x94, 0x72, 0x3d, 0x52, 0x9c, 0x92, 0xbf,
  0x23, 0x91, 0x12, 0xbf, 0x9b, 0xea, 0xb5, 0xbe, 0x0e, 0x84, 0x48, 0x3f,
  0x13, 0x3d, 0x80, 0xbf, 0x9c, 0xd1, 0xd2, 0x3d, 0x63, 0x21, 0x1f, 0xbe,
  0x4c, 0x56, 0x8c, 0xbd, 0xad, 0x4f, 0x3f, 0xbf, 0x6a, 0x56, 0x15, 0xbf,
  0x83, 0x15, 0x94, 0x3c, 0xc6, 0x88, 0x26, 0xbb, 0x3e, 0x6e, 0x03, 0xbf,
  0xbd, 0x81, 0x82, 0xbe, 0x11, 0x0c, 0xf2, 0xbe, 0xa6, 0x9c, 0xd2, 0xbe,
  0x8a, 0x07, 0xe6, 0xbe, 0x81, 0x98, 0x9b, 0xbe, 0x87, 0x2d, 0x77, 0xbe,
  0x08, 0xe9, 0x7b, 0xbe, 0xda, 0x43, 0x91, 0xbe, 0xc2, 0xa5, 0x40, 0xbd,
  0x03, 0x16, 0xdc, 0x3d, 0x44, 0xea, 0xde, 0x3d, 0xc7, 0x30, 0x6e, 0xbf,
  0x26, 0xd9, 0xf6, 0x3f, 0x78, 0x72, 0x47, 0xbe, 0x24, 0x37, 0x87, 0xbe,
  0x25, 0x90, 0xe2, 0xbe, 0x75, 0xe8, 0x8f, 0xbe, 0xd6, 0x45, 0xf5, 0xbe,
  0xf4, 0x20, 0x10, 0xbe, 0x0c, 0xa3, 0x38, 0xbe, 0xac, 0xc3, 0x01, 0x3e,
  0xcb, 0x0d, 0xab, 0x3c, 0x8b, 0x0b, 0xc7, 0xbe, 0x08, 0x6d, 0x4b, 0x3d,
  0xd4, 0xf5, 0x80, 0xbe, 0x55, 0xf4, 0x90, 0xbe, 0x89, 0xd4, 0xf7, 0xbe,
  0x23, 0x33, 0xfd, 0xbe, 0x6d, 0x6b, 0x02, 0xbf, 0xf7, 0xe6, 0x95, 0x3f,
  0x40, 0x99, 0x50, 0xbf, 0x1d, 0x12, 0xd2, 0xbf, 0x61, 0x80, 0x2d, 0xbe,
  0x32, 0x90, 0xa7, 0x3f, 0x32, 0xad, 0x17, 0x3e, 0x5b, 0xc0, 0xc2, 0xbe,
  0x91, 0xa3, 0x51, 0x3e, 0x21, 0x62, 0xf8, 0xbe, 0xa7, 0x81, 0x81, 0x3e,
  0x46, 0x77, 0xd6, 0xbe, 0xae, 0xfb, 0xfc, 0xbe, 0x38, 0x5e, 0xdd, 0xbd,
  0xc6, 0x35, 0xd6, 0xbe, 0x4a, 0x36, 0x08, 0xbf, 0xa9, 0x23, 0xa7, 0xbe,
  0xf3, 0xd6, 0x3c, 0xbf, 0xe7, 0x2d, 0x1a, 0xbf, 0xde, 0xc8, 0x39, 0xbe,
  0x06, 0x25, 0x25, 0xbf, 0x8b, 0xa1, 0xb5, 0x3c, 0x45, 0xa2, 0x45, 0xbf,
  0xfb, 0xa6, 0xba, 0x3f, 0x16, 0x72, 0xf3, 0x3f, 0xe2, 0x28, 0x48, 0xbf,
  0x7e, 0xbd, 0xaf, 0xbb, 0xf1, 0x93, 0xd1, 0xbe, 0x42, 0x0b, 0x0f, 0xbe,
  0x8d, 0x1f, 0x82, 0xbe, 0xf2, 0xde, 0xe4, 0xbe, 0xb0, 0x7c, 0xbf, 0xbe,
  0x30, 0xb4, 0x9d, 0xbe, 0xf8, 0x18, 0x11, 0x3d, 0x20, 0xa3, 0x93, 0x3e,
  0x63, 0x97, 0x8f, 0xbd, 0x13, 0xa6, 0x35, 0xbe, 0x56, 0x59, 0x84, 0x3d,
  0xb3, 0x04, 0xc2, 0x3e, 0x59, 0x66, 0x38, 0xbd, 0x5c, 0x1a, 0x94, 0x3d,
  0xcb, 0xb2, 0xa7, 0xbe, 0x79, 0xfe, 0xa2, 0xbd, 0xc3, 0xa7, 0xb6, 0x3f,
  0xbc, 0xa3, 0xc0, 0xbf, 0x03, 0x01, 0xfb, 0xbf, 0x56, 0x10, 0xe2, 0xbe,
  0xe0, 0xea, 0x59, 0xbf, 0x34, 0x7e, 0x18, 0x3e, 0x94, 0x16, 0x8e, 0xbe,
  0x84, 0x58, 0x08, 0xbf, 0xae, 0x6d, 0xb6, 0x3e, 0xad, 0x6a, 0xb6, 0xbe,
  0x59, 0x83, 0x93, 0xbe, 0x66, 0x74, 0xe1, 0xbd, 0x41, 0x0c, 0x96, 0xbe,
  0x54, 0xd3, 0x8f, 0x3d, 0x2a, 0x34, 0xb2, 0x3e, 0xaa, 0x45, 0xb6, 0x3c,
  0x8e, 0x8a, 0xeb, 0x3c, 0x25, 0x36, 0xc2, 0xbe, 0xfc, 0x96, 0x82, 0xbe,
  0xbf, 0xa1, 0x31, 0xbe, 0x9a, 0xd1, 0xc4, 0xbd, 0x38, 0xf0, 0x10, 0xbf,
  0x99, 0xe1, 0x6a, 0x3d, 0xd8, 0x09, 0x34, 0xbe, 0x12, 0x41, 0x45, 0x3f,
  0x3b, 0x99, 0x47, 0xc0, 0x2f, 0x29, 0x92, 0x3d, 0x50, 0x56, 0x01, 0xbf,
  0xfd, 0xe3, 0x5c, 0x3d, 0xed, 0x13, 0x9d, 0xbe, 0x51, 0xb0, 0x86, 0xbe,
  0x4d, 0xf9, 0x9b, 0x3d, 0x0d, 0x74, 0x3e, 0xbc, 0x80, 0x38, 0x9f, 0xbe,
  0xd4, 0x94, 0xb5, 0xbe, 0xc6, 0x91, 0xd4, 0x3d, 0x20, 0x6f, 0x50, 0x3d,
  0xf1, 0x6d, 0x7a, 0xbd, 0xa5, 0x20, 0xca, 0x3e, 0xaa, 0xfc, 0x2c, 0x3e,
  0x7c, 0x38, 0xfa, 0x3b, 0xd5, 0x6a, 0x81, 0x3e, 0x70, 0x50, 0x53, 0x3e,
  0xfe, 0xd6, 0x5f, 0xbf, 0xf2, 0x7e, 0x49, 0xbf, 0xc8, 0x39, 0xac, 0xbf,
  0x65, 0x1f, 0x0d, 0xbe, 0x18, 0x9d, 0xf7, 0xbe, 0x82, 0x96, 0x85, 0xbd,
  0x99, 0x59, 0x78, 0xbe, 0xfc, 0x69, 0x60, 0xbe, 0x6a, 0x8a, 0x6d, 0x3e,
  0x3f, 0x4f, 0x7e, 0xbe, 0x4e, 0x11, 0xe6, 0xbd, 0xe4, 0xdc, 0xb9, 0xbe,
  0xee, 0x36, 0x53, 0xbe, 0xb8, 0x41, 0x3d, 0x3e, 0x62, 0x43, 0x0c, 0xbf,
  0x32, 0xd3, 0x73, 0x3d, 0x64, 0x25, 0x7f, 0xbd, 0x38, 0xff, 0x11, 0xbe,
  0x50, 0x96, 0xba, 0x3e, 0xc9, 0xbf, 0xad, 0xbd, 0x27, 0x04, 0xa7, 0xbf,
  0x90, 0x54, 0xd3, 0xbc, 0xf5, 0x3a, 0x00, 0x3e, 0x26, 0x29, 0x3e, 0xbf,
  0x87, 0x8e, 0x80, 0xbf, 0x95, 0xb1, 0x90, 0xbe, 0xe1, 0x0b, 0x85, 0xbe,
  0x52, 0x9f, 0x73, 0xbe, 0x18, 0xb0, 0x07, 0xbe, 0x6c, 0x54, 0x03, 0xbe,
  0xc2, 0xe6, 0x71, 0xbe, 0xf8, 0x87, 0x80, 0x3d, 0xc0, 0xa2, 0x89, 0xbe,
  0xb5, 0x77, 0x27, 0xbe, 0xc6, 0x74, 0xf8, 0x3c, 0xbb, 0x85, 0xb3, 0xbe,
  0xd8, 0x7d, 0x12, 0xbd, 0x38, 0x5b, 0x04, 0xbe, 0x95, 0x5b, 0x26, 0x3b,
  0x41, 0xa0, 0x3f, 0xbd, 0x32, 0xc6, 0xe8, 0xbe, 0xf3, 0x54, 0xb2, 0xbc,
  0x86, 0x7a, 0x2b, 0xbf, 0x77, 0xb4, 0xad, 0xbf, 0xaf, 0x63, 0x08, 0xbd,
  0x7d, 0x26, 0xb4, 0xbe, 0x8f, 0x5d, 0x17, 0xbf, 0x5f, 0x37, 0x19, 0xbf,
  0xf8, 0x26, 0x16, 0x3d, 0xea, 0xd1, 0xb9, 0xbe, 0x30, 0x1b, 0x4e, 0xbe,
  0xef, 0x9a, 0x00, 0xbf, 0xe6, 0xdb, 0x09, 0x3e, 0x80, 0x5e, 0xb8, 0xbe,
  0xba, 0x63, 0xa9, 0xbe, 0xdf, 0x70, 0xdf, 0xbe, 0x94, 0xdb, 0x62, 0x3a,
  0x2f, 0xcb, 0x06, 0xbf, 0xe8, 0xaf, 0x61, 0x3d, 0xa3, 0x8a, 0x2c, 0xbf,
  0x2e, 0xe1, 0xa2, 0xbe, 0x9f, 0x0c, 0x54, 0x3e, 0xc2, 0xf5, 0x2b, 0x3f,
  0x88, 0x8d, 0x24, 0xbf, 0xe9, 0xd0, 0x54, 0xbf, 0xe3, 0x6f, 0xb1, 0x3f,
  0x31, 0xbc, 0x02, 0xbd, 0xbb, 0x34, 0x52, 0xbd, 0x5a, 0x2f, 0x09, 0xbf,
  0xe7, 0x02, 0xc3, 0x3e, 0x85, 0xfe, 0xce, 0xbe, 0xc1, 0x04, 0x08, 0xbf,
  0x7c, 0x4b, 0x84, 0xbe, 0x78, 0xb2, 0xc5, 0x3c, 0xa6, 0x01, 0x36, 0xbf,
  0x2b, 0x38, 0x33, 0xbf, 0x5f, 0xfd, 0x33, 0xbf, 0xa9, 0x03, 0xd4, 0xbe,
  0xe4, 0x1e, 0x20, 0xbf, 0xa2, 0x34, 0xcb, 0xbe, 0xe9, 0x05, 0xdd, 0xbe,
  0x00, 0xf2, 0x4a, 0xbc, 0xc2, 0x23, 0x6e, 0xbe, 0x11, 0xe3, 0xae, 0x3e,
  0xad, 0xb9, 0x80, 0x3f, 0xc7, 0x1b, 0xec, 0x3f, 0x71, 0x68, 0x56, 0xbf,
  0x3f, 0x73, 0x51, 0x3d, 0x9c, 0xea, 0x30, 0x3e, 0x5d, 0x28, 0xb7, 0x3d,
  0xcc, 0x05, 0xa6, 0x3d, 0x0a, 0x8c, 0x0c, 0xbc, 0x5d, 0x88, 0xa7, 0xbe,
  0x50, 0x0b, 0x20, 0x3e, 0x3a, 0xcb, 0x8c, 0xbe, 0xd5, 0xbb, 0x71, 0xbd,
  0xe1, 0xd1, 0x04, 0xbe, 0xa0, 0x2e, 0xe9, 0xbd, 0xf3, 0xc7, 0x27, 0x3e,
  0xca, 0x43, 0x5d, 0x3d, 0x69, 0xa5, 0xc0, 0xbd, 0xf4, 0x6e, 0x47, 0xbe,
  0xe7, 0x03, 0xc4, 0xbe, 0x8b, 0x81, 0x98, 0xbe, 0xfc, 0x6a, 0x32, 0xbf,
  0xd3, 0x7e, 0x12, 0xbf, 0xe7, 0x20, 0xcd, 0xbe, 0x8e, 0xb3, 0x4d, 0xbf,
  0x23, 0x63, 0xbe, 0xbf, 0xcb, 0xd2, 0x2a, 0xbe, 0x12, 0x97, 0x60, 0x3e,
  0xfc, 0x37, 0xaf, 0x3d, 0x54, 0x52, 0x9a, 0x3e, 0x18, 0x0b, 0xad, 0xbd,
  0xe2, 0xd4, 0x24, 0xbe, 0x00, 0x50, 0x8e, 0xbe, 0xd1, 0x8e, 0x3c, 0xbe,
  0xc1, 0x55, 0x99, 0xbe, 0xea, 0x82, 0x78, 0xbe, 0x16, 0x9f, 0x1f, 0x3e,
  0xc5, 0xb3, 0x11, 0xbb, 0xef, 0xef, 0x14, 0x3e, 0xb4, 0x58, 0x2f, 0x3e,
  0x63, 0x8d, 0x2e, 0xbe, 0xa4, 0xac, 0x11, 0x3e, 0x0a, 0xfe, 0x95, 0xbf,
  0x92, 0xf2, 0x4b, 0xbf, 0xe6, 0x8f, 0x73, 0xbf, 0x4c, 0xb2, 0x51, 0xbd,
  0x9d, 0x6b, 0xcb, 0xbf, 0x08, 0xf8, 0xff, 0xff, 0x0c, 0xf8, 0xff, 0xff,
  0x10, 0xf8, 0xff, 0xff, 0x04, 0x00, 0x06, 0x00, 0x04, 0x00, 0x00, 0x00,
  0x00, 0x00, 0x06, 0x00, 0x08, 0x00, 0x04, 0x00, 0x06, 0x00, 0x00, 0x00,
  0x04, 0x00, 0x00, 0x00, 0x48, 0x03, 0x00, 0x00, 0x71, 0xdf, 0x0f, 0x3e,
  0xa0, 0x99, 0xff, 0xbd, 0x91, 0xba, 0x61, 0x3d, 0xaf, 0x52, 0xc2, 0xbe,
  0xaf, 0x19, 0xc3, 0x3d, 0x1e, 0x07, 0x01, 0x3e, 0x0d, 0x07, 0xca, 0xbe,
  0xf9, 0x94, 0x8b, 0xbb, 0x0b, 0xe3, 0x21, 0xbf, 0x08, 0xf1, 0xff, 0x3d,
  0xf7, 0xce, 0x2f, 0x3e, 0xde, 0x85, 0xd5, 0xbd, 0x67, 0x52, 0x30, 0x3d,
  0x07, 0x7b, 0xe3, 0xbe, 0x16, 0xc5, 0x6a, 0x3e, 0x3b, 0x53, 0x91, 0xbd,
  0x5a, 0x13, 0x14, 0x3e, 0x2b, 0xa3, 0xed, 0xbc, 0xa4, 0xa1, 0x3a, 0x3e,
  0xef, 0x69, 0x1b, 0xbe, 0x9c, 0x9c, 0x07, 0xbf, 0xfb, 0x00, 0xea, 0x3e,
  0xf6, 0x4c, 0xc8, 0xbe, 0x70, 0xdf, 0x82, 0xbd, 0x60, 0xb0, 0xa9, 0xbe,
  0xc7, 0xef, 0xc6, 0x3e, 0x27, 0x43, 0x49, 0xbe, 0x6f, 0xd2, 0x1f, 0x3e,
  0x94, 0x53, 0xd5, 0xbd, 0x7d, 0x3c, 0x16, 0x3e, 0x65, 0xff, 0xc6, 0xbe,
  0xfa, 0x32, 0x21, 0xbe, 0xce, 0x18, 0xe5, 0xbd, 0xc1, 0xea, 0x06, 0x3f,
  0xb0, 0x76, 0xbd, 0x3e, 0xe8, 0xe1, 0x71, 0x3c, 0x74, 0xab, 0x1c, 0xbe,
  0x2a, 0x90, 0x11, 0x3e, 0x7f, 0x9c, 0x95, 0x3e, 0xdb, 0x28, 0x35, 0x3e,
  0xf1, 0x2a, 0xbe, 0x3e, 0x6c, 0xfa, 0xd4, 0x3e, 0xe1, 0xea, 0xaf, 0xbe,
  0x1b, 0x84, 0xe3, 0xbe, 0x30, 0x75, 0x46, 0xbd, 0x79, 0xd2, 0x33, 0xbe,
  0xae, 0x30, 0x66, 0x3e, 0x26, 0x08, 0xac, 0x3e, 0x70, 0x1b, 0xd4, 0x3e,
  0x40, 0xb1, 0xf2, 0xbd, 0x19, 0xe4, 0xf3, 0xbd, 0x8e, 0xee, 0xd2, 0xbd,
  0x14, 0xe0, 0x95, 0xbd, 0x8f, 0xb4, 0xc7, 0xbe, 0x13, 0x51, 0xbb, 0xbe,
  0x58, 0x49, 0xfb, 0x3d, 0xb7, 0x43, 0xb4, 0xbd, 0x4b, 0xd7, 0x34, 0x3d,
  0x99, 0x13, 0x99, 0x3e, 0xdb, 0xff, 0xd0, 0x3e, 0x90, 0xa6, 0x0b, 0xbd,
  0xaa, 0xc9, 0x9e, 0xbe, 0xc5, 0x7b, 0xab, 0xbe, 0x42, 0x4f, 0x35, 0xbe,
  0xda, 0x3e, 0xcd, 0x3c, 0x27, 0xc1, 0x64, 0xbe, 0x68, 0x64, 0xbf, 0x3d,
  0xf5, 0x44, 0x7c, 0x3e, 0x01, 0xc2, 0x14, 0xbf, 0x85, 0xb3, 0x64, 0xbe,
  0x05, 0x23, 0x7e, 0x3e, 0xaa, 0xfd, 0xc3, 0x3e, 0x11, 0x60, 0x26, 0xbb,
  0xf3, 0xf6, 0xa4, 0xbe, 0xc4, 0x11, 0xb1, 0x3e, 0x1d, 0xb1, 0x8f, 0xbe,
  0x4d, 0x55, 0x9a, 0x3d, 0x5c, 0x5f, 0x78, 0xbc, 0xae, 0xc6, 0xd6, 0xbd,
  0x7f, 0x68, 0xb8, 0xbe, 0xee, 0x5b, 0xe9, 0x3d, 0x73, 0x70, 0x4e, 0x3e,
  0x51, 0xbf, 0x8a, 0xbe, 0x83, 0x69, 0xe7, 0x3d, 0x7d, 0x35, 0xbd, 0xbc,
  0x7f, 0x6e, 0x68, 0xbd, 0xbc, 0x55, 0x1a, 0x3e, 0xad, 0x12, 0x01, 0xbe,
  0x69, 0xa8, 0xb6, 0xbe, 0x6f, 0x58, 0xd0, 0xbc, 0x54, 0x09, 0x78, 0x3d,
  0x6a, 0xa3, 0xdc, 0xbd, 0xdc, 0xca, 0xc4, 0x3d, 0xeb, 0x89, 0x57, 0xbe,
  0x6a, 0x2c, 0xb2, 0xbe, 0xbb, 0xb2, 0xf1, 0x3e, 0x10, 0xc9, 0x07, 0xbf,
  0xef, 0x32, 0x09, 0x3e, 0xf1, 0xfb, 0x83, 0xbe, 0x36, 0x82, 0x6b, 0xbe,
  0xce, 0x04, 0xe0, 0x3d, 0x82, 0x2b, 0x80, 0x3e, 0xdb, 0x5f, 0xe5, 0x3d,
  0x13, 0x7b, 0x5d, 0xbd, 0x93, 0xf0, 0x6f, 0xbe, 0x8e, 0xc9, 0x53, 0x3e,
  0x88, 0x36, 0x13, 0xbf, 0x7f, 0x68, 0x00, 0x3e, 0xa6, 0xb1, 0x3a, 0xbe,
  0x44, 0x0c, 0x0f, 0x3e, 0xac, 0xe7, 0xc3, 0xbc, 0xc6, 0x67, 0x9a, 0x3e,
  0x85, 0xa2, 0x81, 0x3d, 0xe1, 0x76, 0x4b, 0xbe, 0x95, 0xba, 0x9c, 0xbb,
  0xe5, 0x1f, 0x96, 0xbe, 0x9a, 0x44, 0xab, 0x3e, 0x11, 0x6a, 0xd7, 0xbe,
  0x7c, 0x89, 0x01, 0x3e, 0x83, 0xaa, 0x4c, 0x3e, 0xe3, 0x41, 0xd1, 0x3e,
  0x64, 0x00, 0x87, 0xbe, 0xee, 0x25, 0xeb, 0xbe, 0x5e, 0xee, 0x50, 0x3e,
  0x04, 0x47, 0xc8, 0x3d, 0x8f, 0x61, 0xe7, 0x3d, 0x11, 0x66, 0x3e, 0xbc,
  0xf7, 0x13, 0xca, 0x3e, 0xdd, 0xbf, 0xf4, 0x3d, 0x2d, 0xc1, 0xda, 0x3d,
  0x20, 0x74, 0xd5, 0xbe, 0xa7, 0xdc, 0x50, 0x3e, 0x91, 0xef, 0xf3, 0x3e,
  0xf3, 0xce, 0x72, 0xbe, 0x4f, 0xa2, 0x91, 0x3e, 0x95, 0x37, 0xbc, 0x3d,
  0x57, 0x3a, 0x72, 0xbe, 0x9b, 0x50, 0xac, 0xbd, 0xac, 0x4a, 0x87, 0xbe,
  0x5e, 0xaf, 0x11, 0xbe, 0x2f, 0x77, 0x18, 0xbe, 0xcc, 0xff, 0xb4, 0x3e,
  0x17, 0xe9, 0x97, 0x3c, 0xb1, 0x2d, 0x1f, 0xbe, 0x37, 0xb2, 0x43, 0x3e,
  0x83, 0x2a, 0x9c, 0x3e, 0x14, 0xcd, 0xe6, 0x3d, 0xf9, 0x97, 0x4b, 0x3e,
  0x47, 0x11, 0x05, 0xbf, 0x96, 0x7e, 0x40, 0x3e, 0x6f, 0xc4, 0xbf, 0xbe,
  0xe9, 0x6e, 0xdf, 0x3d, 0x6b, 0xce, 0x1f, 0x3e, 0x09, 0x0f, 0x01, 0xbe,
  0x02, 0xa5, 0xb8, 0xbd, 0xee, 0xbe, 0x96, 0xbe, 0x2f, 0x97, 0x9a, 0xbe,
  0xda, 0xf5, 0x77, 0x3d, 0xe4, 0xe4, 0x49, 0xbe, 0x8f, 0xf1, 0xbf, 0x3e,
  0x16, 0xca, 0xf7, 0x3e, 0xdf, 0x43, 0xb7, 0xbb, 0x28, 0xd6, 0x1f, 0xbd,
  0x3b, 0x60, 0x97, 0x3e, 0x03, 0x78, 0x43, 0x3e, 0x3e, 0x3e, 0x8a, 0xbe,
  0xf1, 0xdc, 0xf2, 0x3b, 0x07, 0x6c, 0x31, 0xbe, 0x21, 0x52, 0x07, 0x3e,
  0x4a, 0x1b, 0x53, 0x3e, 0x7e, 0x76, 0x46, 0xbe, 0x58, 0x67, 0x8d, 0x3e,
  0x84, 0xbb, 0x04, 0x3e, 0x51, 0xd0, 0x89, 0x3e, 0x3b, 0x7b, 0x08, 0x3c,
  0xd8, 0x08, 0x7b, 0xbe, 0x33, 0x54, 0xaf, 0xbe, 0x07, 0xc5, 0x9b, 0xbe,
  0xab, 0xa5, 0x4a, 0xbe, 0xba, 0xeb, 0xe2, 0x3d, 0x8b, 0x6a, 0x79, 0xbe,
  0x3b, 0xc6, 0x6d, 0x3e, 0xb0, 0x3f, 0x9b, 0x3e, 0x3c, 0x11, 0x9a, 0x3e,
  0x2f, 0x03, 0xb5, 0x3e, 0x2a, 0x5d, 0x62, 0x3e, 0xeb, 0x15, 0xb1, 0xbe,
  0xc8, 0x73, 0x00, 0xbe, 0x24, 0xd4, 0x74, 0x3e, 0xa0, 0x01, 0x73, 0xbe,
  0xcb, 0x52, 0xfc, 0x3d, 0x21, 0x5d, 0xdf, 0x3d, 0xd9, 0xd1, 0x6a, 0xbd,
  0xd5, 0x2a, 0xcf, 0x3d, 0x48, 0x10, 0x8d, 0x3e, 0xad, 0x27, 0x37, 0x3e,
  0x05, 0x7e, 0x39, 0xbe, 0x78, 0x31, 0x6f, 0xbe, 0xa1, 0xe1, 0xdf, 0xbd,
  0x13, 0x43, 0x42, 0xbd, 0xd9, 0xa2, 0x68, 0x3e, 0xe4, 0x0c, 0x34, 0x3e,
  0xba, 0xd2, 0x97, 0xbd, 0xa4, 0x0e, 0xb2, 0xbe, 0x01, 0x48, 0xc3, 0xbe,
  0x5c, 0x5b, 0xc6, 0xbe, 0x54, 0x71, 0xf2, 0x3c, 0xff, 0xc4, 0xab, 0x3e,
  0x52, 0xbc, 0xc9, 0xbd, 0xf0, 0x17, 0x2e, 0xbd, 0x78, 0xfb, 0xff, 0xff,
  0x7c, 0xfb, 0xff, 0xff, 0x0f, 0x00, 0x00, 0x00, 0x54, 0x4f, 0x43, 0x4f,
  0x20, 0x43, 0x6f, 0x6e, 0x76, 0x65, 0x72, 0x74, 0x65, 0x64, 0x2e, 0x00,
  0x01, 0x00, 0x00, 0x00, 0x10, 0x00, 0x00, 0x00, 0x0c, 0x00, 0x14, 0x00,
  0x04, 0x00, 0x08, 0x00, 0x0c, 0x00, 0x10, 0x00, 0x0c, 0x00, 0x00, 0x00,
  0x00, 0x01, 0x00, 0x00, 0xf4, 0x00, 0x00, 0x00, 0xe8, 0x00, 0x00, 0x00,
  0x04, 0x00, 0x00, 0x00, 0x04, 0x00, 0x00, 0x00, 0xac, 0x00, 0x00, 0x00,
  0x78, 0x00, 0x00, 0x00, 0x38, 0x00, 0x00, 0x00, 0x04, 0x00, 0x00, 0x00,
  0x72, 0xff, 0xff, 0xff, 0x00, 0x00, 0x00, 0x08, 0x18, 0x00, 0x00, 0x00,
  0x0c, 0x00, 0x00, 0x00, 0x04, 0x00, 0x00, 0x00, 0xe4, 0xfb, 0xff, 0xff,
  0x01, 0x00, 0x00, 0x00, 0x00, 0x00, 0x00, 0x00, 0x03, 0x00, 0x00, 0x00,
  0x06, 0x00, 0x00, 0x00, 0x09, 0x00, 0x00, 0x00, 0x0a, 0x00, 0x00, 0x00,
  0xa2, 0xff, 0xff, 0xff, 0x00, 0x00, 0x00, 0x08, 0x18, 0x00, 0x00, 0x00,
  0x0c, 0x00, 0x00, 0x00, 0x04, 0x00, 0x00, 0x00, 0x14, 0xfc, 0xff, 0xff,
  0x01, 0x00, 0x00, 0x00, 0x06, 0x00, 0x00, 0x00, 0x03, 0x00, 0x00, 0x00,
  0x05, 0x00, 0x00, 0x00, 0x07, 0x00, 0x00, 0x00, 0x08, 0x00, 0x00, 0x00,
  0x00, 0x00, 0x0a, 0x00, 0x10, 0x00, 0x04, 0x00, 0x08, 0x00, 0x0c, 0x00,
  0x0a, 0x00, 0x00, 0x00, 0x01, 0x00, 0x00, 0x00, 0x10, 0x00, 0x00, 0x00,
  0x04, 0x00, 0x00, 0x00, 0x01, 0x00, 0x00, 0x00, 0x05, 0x00, 0x00, 0x00,
  0x01, 0x00, 0x00, 0x00, 0x02, 0x00, 0x00, 0x00, 0x00, 0x00, 0x0e, 0x00,
  0x14, 0x00, 0x00, 0x00, 0x08, 0x00, 0x0c, 0x00, 0x07, 0x00, 0x10, 0x00,
  0x0e, 0x00, 0x00, 0x00, 0x00, 0x00, 0x00, 0x08, 0x18, 0x00, 0x00, 0x00,
  0x0c, 0x00, 0x00, 0x00, 0x04, 0x00, 0x00, 0x00, 0x80, 0xfc, 0xff, 0xff,
  0x01, 0x00, 0x00, 0x00, 0x02, 0x00, 0x00, 0x00, 0x03, 0x00, 0x00, 0x00,
  0x01, 0x00, 0x00, 0x00, 0x03, 0x00, 0x00, 0x00, 0x04, 0x00, 0x00, 0x00,
  0x01, 0x00, 0x00, 0x00, 0x00, 0x00, 0x00, 0x00, 0x01, 0x00, 0x00, 0x00,
  0x01, 0x00, 0x00, 0x00, 0x0b, 0x00, 0x00, 0x00, 0x3c, 0x03, 0x00, 0x00,
  0xd4, 0x02, 0x00, 0x00, 0x8c, 0x02, 0x00, 0x00, 0x2c, 0x02, 0x00, 0x00,
  0xe4, 0x01, 0x00, 0x00, 0x9c, 0x01, 0x00, 0x00, 0x54, 0x01, 0x00, 0x00,
  0xf4, 0x00, 0x00, 0x00, 0xac, 0x00, 0x00, 0x00, 0x4c, 0x00, 0x00, 0x00,
  0x04, 0x00, 0x00, 0x00, 0xfe, 0xfc, 0xff, 0xff, 0x38, 0x00, 0x00, 0x00,
  0x0b, 0x00, 0x00, 0x00, 0x0c, 0x00, 0x00, 0x00, 0x04, 0x00, 0x00, 0x00,
  0xf0, 0xfc, 0xff, 0xff, 0x1e, 0x00, 0x00, 0x00, 0x73, 0x65, 0x71, 0x75,
  0x65, 0x6e, 0x74, 0x69, 0x61, 0x6c, 0x2f, 0x64, 0x65, 0x6e, 0x73, 0x65,
  0x5f, 0x32, 0x2f, 0x4d, 0x61, 0x74, 0x4d, 0x75, 0x6c, 0x5f, 0x62, 0x69,
  0x61, 0x73, 0x00, 0x00, 0x01, 0x00, 0x00, 0x00, 0x05, 0x00, 0x00, 0x00,
  0x42, 0xfd, 0xff, 0xff, 0x4c, 0x00, 0x00, 0x00, 0x0a, 0x00, 0x00, 0x00,
  0x0c, 0x00, 0x00, 0x00, 0x04, 0x00, 0x00, 0x00, 0x34, 0xfd, 0xff, 0xff,
  0x32, 0x00, 0x00, 0x00, 0x73, 0x65, 0x71, 0x75, 0x65, 0x6e, 0x74, 0x69,
  0x61, 0x6c, 0x2f, 0x64, 0x65, 0x6e, 0x73, 0x65, 0x5f, 0x32, 0x2f, 0x4d,
  0x61, 0x74, 0x4d, 0x75, 0x6c, 0x2f, 0x52, 0x65, 0x61, 0x64, 0x56, 0x61,
  0x72, 0x69, 0x61, 0x62, 0x6c, 0x65, 0x4f, 0x70, 0x2f, 0x74, 0x72, 0x61,
  0x6e, 0x73, 0x70, 0x6f, 0x73, 0x65, 0x00, 0x00, 0x02, 0x00, 0x00, 0x00,
  0x05, 0x00, 0x00, 0x00, 0x0a, 0x00, 0x00, 0x00, 0x9e, 0xfd, 0xff, 0xff,
  0x38, 0x00, 0x00, 0x00, 0x09, 0x00, 0x00, 0x00, 0x0c, 0x00, 0x00, 0x00,
  0x04, 0x00, 0x00, 0x00, 0x90, 0xfd, 0xff, 0xff, 0x1e, 0x00, 0x00, 0x00,
  0x73, 0x65, 0x71, 0x75, 0x65, 0x6e, 0x74, 0x69, 0x61, 0x6c, 0x2f, 0x64,
  0x65, 0x6e, 0x73, 0x65, 0x5f, 0x31, 0x2f, 0x4d, 0x61, 0x74, 0x4d, 0x75,
  0x6c, 0x5f, 0x62, 0x69, 0x61, 0x73, 0x00, 0x00, 0x01, 0x00, 0x00, 0x00,
  0x0a, 0x00, 0x00, 0x00, 0xe2, 0xfd, 0xff, 0xff, 0x4c, 0x00, 0x00, 0x00,
  0x02, 0x00, 0x00, 0x00, 0x0c, 0x00, 0x00, 0x00, 0x04, 0x00, 0x00, 0x00,
  0xd4, 0xfd, 0xff, 0xff, 0x32, 0x00, 0x00, 0x00, 0x73, 0x65, 0x71, 0x75,
  0x65, 0x6e, 0x74, 0x69, 0x61, 0x6c, 0x2f, 0x64, 0x65, 0x6e, 0x73, 0x65,
  0x5f, 0x31, 0x2f, 0x4d, 0x61, 0x74, 0x4d, 0x75, 0x6c, 0x2f, 0x52, 0x65,
  0x61, 0x64, 0x56, 0x61, 0x72, 0x69, 0x61, 0x62, 0x6c, 0x65, 0x4f, 0x70,
  0x2f, 0x74, 0x72, 0x61, 0x6e, 0x73, 0x70, 0x6f, 0x73, 0x65, 0x00, 0x00,
  0x02, 0x00, 0x00, 0x00, 0x0a, 0x00, 0x00, 0x00, 0x15, 0x00, 0x00, 0x00,
  0x3e, 0xfe, 0xff, 0xff, 0x34, 0x00, 0x00, 0x00, 0x04, 0x00, 0x00, 0x00,
  0x0c, 0x00, 0x00, 0x00, 0x04, 0x00, 0x00, 0x00, 0x30, 0xfe, 0xff, 0xff,
  0x1a, 0x00, 0x00, 0x00, 0x73, 0x65, 0x71, 0x75, 0x65, 0x6e, 0x74, 0x69,
  0x61, 0x6c, 0x2f, 0x64, 0x65, 0x6e, 0x73, 0x65, 0x5f, 0x31, 0x2f, 0x42,
  0x69, 0x61, 0x73, 0x41, 0x64, 0x64, 0x00, 0x00, 0x02, 0x00, 0x00, 0x00,
  0x01, 0x00, 0x00, 0x00, 0x0a, 0x00, 0x00, 0x00, 0x82, 0xfe, 0xff, 0xff,
  0x34, 0x00, 0x00, 0x00, 0x05, 0x00, 0x00, 0x00, 0x0c, 0x00, 0x00, 0x00,
  0x04, 0x00, 0x00, 0x00, 0x74, 0xfe, 0xff, 0xff, 0x18, 0x00, 0x00, 0x00,
  0x73, 0x65, 0x71, 0x75, 0x65, 0x6e, 0x74, 0x69, 0x61, 0x6c, 0x2f, 0x64,
  0x65, 0x6e, 0x73, 0x65, 0x2f, 0x53, 0x69, 0x67, 0x6d, 0x6f, 0x69, 0x64,
  0x00, 0x00, 0x00, 0x00, 0x02, 0x00, 0x00, 0x00, 0x01, 0x00, 0x00, 0x00,
  0x15, 0x00, 0x00, 0x00, 0xc6, 0xfe, 0xff, 0xff, 0x38, 0x00, 0x00, 0x00,
  0x08, 0x00, 0x00, 0x00, 0x0c, 0x00, 0x00, 0x00, 0x04, 0x00, 0x00, 0x00,
  0xb8, 0xfe, 0xff, 0xff, 0x1c, 0x00, 0x00, 0x00, 0x73, 0x65, 0x71, 0x75,
  0x65, 0x6e, 0x74, 0x69, 0x61, 0x6c, 0x2f, 0x64, 0x65, 0x6e, 0x73, 0x65,
  0x2f, 0x4d, 0x61, 0x74, 0x4d, 0x75, 0x6c, 0x5f, 0x62, 0x69, 0x61, 0x73,
  0x00, 0x00, 0x00, 0x00, 0x01, 0x00, 0x00, 0x00, 0x15, 0x00, 0x00, 0x00,
  0x0a, 0xff, 0xff, 0xff, 0x4c, 0x00, 0x00, 0x00, 0x07, 0x00, 0x00, 0x00,
  0x0c, 0x00, 0x00, 0x00, 0x04, 0x00, 0x00, 0x00, 0xfc, 0xfe, 0xff, 0xff,
  0x30, 0x00, 0x00, 0x00, 0x73, 0x65, 0x71, 0x75, 0x65, 0x6e, 0x74, 0x69,
  0x61, 0x6c, 0x2f, 0x64, 0x65, 0x6e, 0x73, 0x65, 0x2f, 0x4d, 0x61, 0x74,
  0x4d, 0x75, 0x6c, 0x2f, 0x52, 0x65, 0x61, 0x64, 0x56, 0x61, 0x72, 0x69,
  0x61, 0x62, 0x6c, 0x65, 0x4f, 0x70, 0x2f, 0x74, 0x72, 0x61, 0x6e, 0x73,
  0x70, 0x6f, 0x73, 0x65, 0x00, 0x00, 0x00, 0x00, 0x02, 0x00, 0x00, 0x00,
  0x15, 0x00, 0x00, 0x00, 0x15, 0x00, 0x00, 0x00, 0x66, 0xff, 0xff, 0xff,
  0x34, 0x00, 0x00, 0x00, 0x03, 0x00, 0x00, 0x00, 0x0c, 0x00, 0x00, 0x00,
  0x04, 0x00, 0x00, 0x00, 0x58, 0xff, 0xff, 0xff, 0x18, 0x00, 0x00, 0x00,
  0x73, 0x65, 0x71, 0x75, 0x65, 0x6e, 0x74, 0x69, 0x61, 0x6c, 0x2f, 0x64,
  0x65, 0x6e, 0x73, 0x65, 0x2f, 0x42, 0x69, 0x61, 0x73, 0x41, 0x64, 0x64,
  0x00, 0x00, 0x00, 0x00, 0x02, 0x00, 0x00, 0x00, 0x01, 0x00, 0x00, 0x00,
  0x15, 0x00, 0x00, 0x00, 0xaa, 0xff, 0xff, 0xff, 0x44, 0x00, 0x00, 0x00,
  0x01, 0x00, 0x00, 0x00, 0x2c, 0x00, 0x00, 0x00, 0x0c, 0x00, 0x00, 0x00,
  0x08, 0x00, 0x0c, 0x00, 0x04, 0x00, 0x08, 0x00, 0x08, 0x00, 0x00, 0x00,
  0x10, 0x00, 0x00, 0x00, 0x04, 0x00, 0x00, 0x00, 0x01, 0x00, 0x00, 0x00,
  0x00, 0x00, 0x7f, 0x43, 0x01, 0x00, 0x00, 0x00, 0x00, 0x00, 0x00, 0x00,
  0x0b, 0x00, 0x00, 0x00, 0x64, 0x65, 0x6e, 0x73, 0x65, 0x5f, 0x69, 0x6e,
  0x70, 0x75, 0x74, 0x00, 0x02, 0x00, 0x00, 0x00, 0x01, 0x00, 0x00, 0x00,
  0x15, 0x00, 0x00, 0x00, 0x00, 0x00, 0x0e, 0x00, 0x14, 0x00, 0x04, 0x00,
  0x00, 0x00, 0x08, 0x00, 0x0c, 0x00, 0x10, 0x00, 0x0e, 0x00, 0x00, 0x00,
  0x28, 0x00, 0x00, 0x00, 0x06, 0x00, 0x00, 0x00, 0x10, 0x00, 0x00, 0x00,
  0x08, 0x00, 0x00, 0x00, 0x04, 0x00, 0x04, 0x00, 0x04, 0x00, 0x00, 0x00,
  0x08, 0x00, 0x00, 0x00, 0x49, 0x64, 0x65, 0x6e, 0x74, 0x69, 0x74, 0x79,
  0x00, 0x00, 0x00, 0x00, 0x02, 0x00, 0x00, 0x00, 0x01, 0x00, 0x00, 0x00,
  0x05, 0x00, 0x00, 0x00, 0x02, 0x00, 0x00, 0x00, 0x20, 0x00, 0x00, 0x00,
  0x0c, 0x00, 0x00, 0x00, 0x00, 0x00, 0x06, 0x00, 0x06, 0x00, 0x05, 0x00,
  0x06, 0x00, 0x00, 0x00, 0x00, 0x0e, 0x0a, 0x00, 0x0c, 0x00, 0x07, 0x00,
  0x00, 0x00, 0x08, 0x00, 0x0a, 0x00, 0x00, 0x00, 0x00, 0x00, 0x00, 0x09,
  0x03, 0x00, 0x00, 0x00
};
