
#define TENSORFLOW_LITE_EXPERIMENTAL_MICRO_EXAMPLES_HELLO_WORLD_SINE_MODEL_DATA_H_
#ifdef __has_attribute
#define HAVE_ATTRIBUTE(x) __has_attribute(x)
#else
#define HAVE_ATTRIBUTE(x) 0
#endif
#if HAVE_ATTRIBUTE(aligned) || (defined(__GNUC__) && !defined(__clang__))
#define DATA_ALIGN_ATTRIBUTE __attribute__((aligned(4)))
#else
#define DATA_ALIGN_ATTRIBUTE
#endif

const int flight_model_len = 9976;
const unsigned char flight_model[] DATA_ALIGN_ATTRIBUTE = {
 0x20, 0x00, 0x00, 0x00, 0x54, 0x46, 0x4c, 0x33, 0x00, 0x00, 0x00, 0x00,
  0x00, 0x00, 0x12, 0x00, 0x1c, 0x00, 0x04, 0x00, 0x08, 0x00, 0x0c, 0x00,
  0x10, 0x00, 0x14, 0x00, 0x00, 0x00, 0x18, 0x00, 0x12, 0x00, 0x00, 0x00,
  0x03, 0x00, 0x00, 0x00, 0xb0, 0x26, 0x00, 0x00, 0x1c, 0x21, 0x00, 0x00,
  0x04, 0x21, 0x00, 0x00, 0x34, 0x00, 0x00, 0x00, 0x04, 0x00, 0x00, 0x00,
  0x01, 0x00, 0x00, 0x00, 0x04, 0x00, 0x00, 0x00, 0xf4, 0xd9, 0xff, 0xff,
  0x08, 0x00, 0x00, 0x00, 0x0e, 0x00, 0x00, 0x00, 0x13, 0x00, 0x00, 0x00,
  0x6d, 0x69, 0x6e, 0x5f, 0x72, 0x75, 0x6e, 0x74, 0x69, 0x6d, 0x65, 0x5f,
  0x76, 0x65, 0x72, 0x73, 0x69, 0x6f, 0x6e, 0x00, 0x0f, 0x00, 0x00, 0x00,
  0xc4, 0x20, 0x00, 0x00, 0xbc, 0x20, 0x00, 0x00, 0x6c, 0x1a, 0x00, 0x00,
  0x5c, 0x1a, 0x00, 0x00, 0x50, 0x1a, 0x00, 0x00, 0x48, 0x1a, 0x00, 0x00,
  0x40, 0x1a, 0x00, 0x00, 0x30, 0x10, 0x00, 0x00, 0x80, 0x0f, 0x00, 0x00,
  0xd0, 0x0e, 0x00, 0x00, 0x40, 0x02, 0x00, 0x00, 0xe0, 0x01, 0x00, 0x00,
  0x40, 0x00, 0x00, 0x00, 0x1c, 0x00, 0x00, 0x00, 0x04, 0x00, 0x00, 0x00,
  0xce, 0xe5, 0xff, 0xff, 0x04, 0x00, 0x00, 0x00, 0x05, 0x00, 0x00, 0x00,
  0x31, 0x2e, 0x35, 0x2e, 0x30, 0x00, 0x00, 0x00, 0xe2, 0xe5, 0xff, 0xff,
  0x04, 0x00, 0x00, 0x00, 0x14, 0x00, 0x00, 0x00, 0xae, 0xba, 0xe8, 0x3d,
  0x58, 0x10, 0xac, 0x3d, 0xd5, 0x94, 0xa4, 0x3d, 0x29, 0xea, 0x1c, 0x3e,
  0x67, 0x15, 0xe9, 0x3d, 0x02, 0xe6, 0xff, 0xff, 0x04, 0x00, 0x00, 0x00,
  0x90, 0x01, 0x00, 0x00, 0xb7, 0x70, 0x69, 0x3d, 0x87, 0xaf, 0xc4, 0x3e,
  0x9a, 0x12, 0x88, 0xbe, 0x6b, 0xe0, 0xf9, 0xbe, 0xe8, 0xe5, 0xb9, 0xbe,
  0x5e, 0xc8, 0x64, 0xbf, 0xb6, 0x2c, 0xc5, 0xbe, 0x54, 0x4a, 0x7b, 0x3c,
  0x98, 0xc6, 0x20, 0x3f, 0x05, 0xaf, 0xc0, 0xbe, 0x3e, 0x3a, 0x3e, 0x3e,
  0xff, 0x2c, 0x19, 0xbe, 0x10, 0x1f, 0x76, 0x3e, 0xa0, 0x16, 0xa8, 0xbd,
  0x2a, 0x6f, 0x46, 0x3e, 0xa2, 0xf6, 0x8a, 0x3e, 0x2c, 0x2d, 0x74, 0xbe,
  0x74, 0xca, 0x15, 0xbe, 0x61, 0x72, 0x23, 0xbe, 0xdb, 0xd7, 0xd5, 0xbe,
  0x52, 0x7d, 0x55, 0xbf, 0x53, 0x0a, 0x04, 0x3f, 0x49, 0x66, 0xab, 0xbd,
  0x9c, 0x5f, 0xee, 0x3e, 0xb5, 0x77, 0xf0, 0x3e, 0x7c, 0xb5, 0x22, 0x3f,
  0x72, 0x12, 0x4d, 0xbe, 0x2d, 0x33, 0x81, 0x3c, 0xe7, 0x8e, 0x67, 0xbe,
  0xcb, 0xdd, 0xd0, 0xbe, 0xbd, 0x5a, 0x4f, 0xbe, 0x9f, 0xd9, 0xc4, 0x3d,
  0x4d, 0x3f, 0x06, 0x3f, 0xca, 0xe6, 0x29, 0x3e, 0xa0, 0x90, 0x75, 0x3c,
  0x3c, 0xe2, 0xb0, 0x3e, 0xe3, 0x3e, 0x2b, 0x3d, 0x68, 0x21, 0x09, 0x3e,
  0x3a, 0xd2, 0x88, 0xbe, 0x0c, 0xf2, 0xd9, 0x3e, 0xdd, 0x6b, 0x54, 0xbf,
  0x62, 0x7b, 0x95, 0x3e, 0xcd, 0xa6, 0xc1, 0xbc, 0xfb, 0xef, 0xe6, 0x3e,
  0x6f, 0x0c, 0x0e, 0x3e, 0x51, 0xb6, 0x02, 0x3f, 0xcb, 0x29, 0x98, 0x3e,
  0x85, 0x93, 0x3a, 0xbe, 0x40, 0x98, 0x81, 0x3d, 0xfc, 0x94, 0xc5, 0xbe,
  0x3c, 0xbc, 0xaa, 0x3e, 0x28, 0xae, 0x0c, 0x3f, 0x6b, 0x65, 0x20, 0x3f,
  0x11, 0x50, 0x13, 0x3e, 0x56, 0x5c, 0xf9, 0xbe, 0x62, 0x55, 0x8d, 0x3d,
  0x20, 0xeb, 0x2e, 0x3e, 0xfb, 0x55, 0x89, 0xbe, 0xf4, 0x97, 0xf3, 0x3e,
  0x2a, 0x43, 0xd6, 0x3e, 0x18, 0xd9, 0x84, 0x3e, 0xee, 0x70, 0xc3, 0x3e,
  0xfb, 0x61, 0xaa, 0xbd, 0x07, 0xe0, 0x03, 0x3e, 0x16, 0xb7, 0xe2, 0xbd,
  0x99, 0x58, 0x8b, 0xbe, 0x16, 0xa7, 0x12, 0xbe, 0x0f, 0x45, 0x04, 0x3e,
  0x9c, 0x96, 0x1b, 0x3e, 0xee, 0xdf, 0x50, 0x3f, 0x97, 0x8e, 0x03, 0xbe,
  0xb9, 0xff, 0xbc, 0xbe, 0xac, 0x5f, 0x0d, 0x3f, 0x34, 0x3e, 0xe8, 0xbd,
  0x08, 0xba, 0x84, 0xbd, 0xe5, 0x9c, 0x30, 0x3d, 0x9e, 0x46, 0xf6, 0xbe,
  0xe0, 0x35, 0x62, 0x3e, 0xa7, 0xf1, 0x4e, 0x3c, 0x51, 0xc3, 0x97, 0xbe,
  0xba, 0x90, 0x76, 0x3e, 0x9b, 0x0f, 0x96, 0x3d, 0xfa, 0x6b, 0x8e, 0x3e,
  0xce, 0x5d, 0x6e, 0xbe, 0x52, 0x72, 0xf0, 0x3d, 0x19, 0x60, 0x68, 0xbe,
  0x43, 0x03, 0xd6, 0x3e, 0xb2, 0x60, 0x03, 0x3f, 0x90, 0x94, 0xde, 0xbd,
  0xd2, 0x4e, 0x77, 0xbf, 0xd8, 0xb0, 0xa9, 0xbe, 0xb9, 0x87, 0x09, 0x3f,
  0xf4, 0x74, 0x75, 0xbe, 0x6a, 0xc1, 0xfc, 0xbe, 0x0a, 0x51, 0x1e, 0xbe,
  0xbc, 0xec, 0xb6, 0x3e, 0x1b, 0xe6, 0xb6, 0xbe, 0xef, 0x3b, 0x3c, 0x3e,
  0xff, 0xbf, 0x15, 0xbc, 0x47, 0xa9, 0xbe, 0x3e, 0x9e, 0xe7, 0xff, 0xff,
  0x04, 0x00, 0x00, 0x00, 0x50, 0x00, 0x00, 0x00, 0x21, 0xd8, 0x46, 0x3d,
  0x67, 0x02, 0x03, 0x3e, 0x13, 0x5f, 0x31, 0xbc, 0xd9, 0x35, 0x0a, 0xbc,
  0x19, 0x8a, 0xf6, 0xbc, 0x51, 0xe5, 0x88, 0xba, 0x00, 0x00, 0x00, 0x00,
  0xbe, 0xcc, 0xb9, 0x3d, 0x75, 0xd3, 0xe9, 0x3d, 0xf8, 0x63, 0xe3, 0xbc,
  0x0a, 0x87, 0xc4, 0xbb, 0x36, 0x0a, 0xac, 0x3d, 0xae, 0xb5, 0x02, 0x3e,
  0xef, 0xbf, 0x1d, 0xbd, 0x00, 0x00, 0x00, 0x00, 0xac, 0x05, 0x54, 0x3e,
  0x21, 0xb6, 0xfa, 0xbc, 0xc8, 0x03, 0xe2, 0xbc, 0x12, 0xca, 0x76, 0xbc,
  0x45, 0x53, 0x07, 0xbd, 0xfa, 0xe7, 0xff, 0xff, 0x04, 0x00, 0x00, 0x00,
  0x80, 0x0c, 0x00, 0x00, 0x41, 0x28, 0x76, 0xbe, 0x41, 0x59, 0x3e, 0xbe,
  0xda, 0xe2, 0x05, 0xbf, 0x91, 0xf2, 0x88, 0x3d, 0x86, 0xf5, 0x20, 0x3e,
  0x6a, 0x62, 0xfd, 0xbe, 0x35, 0x5b, 0x30, 0xbe, 0xc0, 0xf8, 0x8a, 0x3c,
  0x40, 0x0c, 0x75, 0xbd, 0xf0, 0x7f, 0x73, 0xbd, 0xe3, 0x47, 0xb1, 0x3e,
  0x7b, 0x76, 0xb8, 0xbc, 0x80, 0x33, 0x1a, 0xbb, 0x78, 0xc0, 0x76, 0x3d,
  0x3b, 0x09, 0x02, 0xbd, 0x9b, 0xe3, 0x36, 0x3e, 0xef, 0xb0, 0x1c, 0xbe,
  0x9d, 0x77, 0x03, 0x3e, 0xc3, 0x07, 0xd4, 0x3e, 0xef, 0xb0, 0x76, 0xbe,
  0x3a, 0xa4, 0x2e, 0xbe, 0xc0, 0x62, 0xeb, 0xbe, 0x69, 0x95, 0xfe, 0xbe,
  0xc2, 0xa3, 0x77, 0x3e, 0x00, 0xca, 0xa0, 0x3b, 0xd1, 0x38, 0x0d, 0xbe,
  0xc8, 0x25, 0x06, 0xbd, 0x66, 0x11, 0x45, 0x3e, 0x64, 0x85, 0xe6, 0x3e,
  0xe5, 0x89, 0x7c, 0xbe, 0xda, 0x48, 0x7c, 0x3e, 0x5a, 0x43, 0x34, 0x3e,
  0xc6, 0xe4, 0x69, 0x3e, 0x3e, 0x9c, 0x2f, 0xbe, 0xe8, 0xc7, 0x8a, 0xbe,
  0x34, 0x97, 0xf0, 0x3d, 0x26, 0x68, 0x29, 0x3e, 0xf4, 0xdc, 0x2b, 0xbe,
  0x78, 0x99, 0xb3, 0x3e, 0xc2, 0x38, 0x9b, 0x3d, 0xb7, 0x9a, 0x73, 0x3e,
  0x24, 0x83, 0x10, 0x3e, 0x87, 0xd3, 0xc2, 0xbe, 0x09, 0x81, 0x9c, 0x3e,
  0x75, 0x79, 0x31, 0xbe, 0x8f, 0xc3, 0x86, 0x3a, 0xe9, 0x01, 0x8b, 0xbc,
  0x10, 0xf0, 0xd9, 0x3d, 0x74, 0x3c, 0x81, 0x3d, 0x43, 0x6d, 0x98, 0xbe,
  0xf0, 0x32, 0xa4, 0x3e, 0x1b, 0x3d, 0xb2, 0x3e, 0x67, 0xf7, 0xd5, 0xbc,
  0x96, 0x21, 0x62, 0xbe, 0x7d, 0xa3, 0x16, 0xbe, 0x30, 0x26, 0x23, 0xbe,
  0xfe, 0x01, 0x19, 0xbe, 0xf1, 0xe5, 0x52, 0x3e, 0x33, 0xc6, 0xa8, 0x3e,
  0x6f, 0x6e, 0x6d, 0x3e, 0xaa, 0x4a, 0x3a, 0xbe, 0xed, 0x6c, 0x58, 0x3e,
  0xa6, 0x74, 0xa0, 0xbe, 0xa9, 0x88, 0x09, 0x3e, 0xe5, 0x25, 0x9c, 0x3e,
  0xea, 0xd9, 0x64, 0x3e, 0x60, 0x1e, 0x88, 0xbc, 0x3c, 0xd8, 0x20, 0xbe,
  0x3a, 0x99, 0x90, 0xbc, 0x25, 0xcc, 0x82, 0x3e, 0x0c, 0xdd, 0x29, 0xbd,
  0x10, 0x0b, 0x54, 0xbe, 0x0a, 0x70, 0x96, 0xbd, 0xf0, 0x4c, 0xf5, 0x3d,
  0x47, 0x7a, 0x88, 0xbe, 0x7a, 0x10, 0x74, 0x3e, 0x9f, 0x17, 0x80, 0xbe,
  0x1e, 0x5c, 0x78, 0xbe, 0xf6, 0x01, 0xd6, 0x3d, 0x7f, 0x8a, 0x89, 0x3e,
  0xb9, 0xea, 0x80, 0xbd, 0x9a, 0x84, 0x5e, 0x3e, 0xda, 0xa8, 0x15, 0xbe,
  0x53, 0x55, 0x75, 0xbe, 0x86, 0xed, 0x77, 0x3e, 0x38, 0x6d, 0x36, 0xbe,
  0x16, 0x19, 0x78, 0x3e, 0xd1, 0xd6, 0x6e, 0xbe, 0x7d, 0x69, 0x99, 0x3e,
  0xe2, 0x4b, 0x98, 0xbd, 0x3c, 0xe1, 0x91, 0x3e, 0xdd, 0xaf, 0x44, 0x3e,
  0x10, 0x4e, 0x4f, 0xbd, 0x20, 0x24, 0x48, 0xbc, 0xe4, 0x93, 0x75, 0x3e,
  0x77, 0xb8, 0x09, 0x3e, 0x49, 0x7e, 0x84, 0xbe, 0x3f, 0x3a, 0x82, 0x3e,
  0xcc, 0xab, 0xa5, 0x3d, 0x5e, 0xe7, 0x61, 0xbe, 0xc5, 0x18, 0xe7, 0x3d,
  0x29, 0x57, 0x9d, 0x3c, 0x45, 0xe6, 0x79, 0x3e, 0xa3, 0x69, 0x93, 0x3e,
  0x18, 0x9f, 0x5b, 0x3d, 0x42, 0x5d, 0x7d, 0xbe, 0x08, 0x0f, 0x79, 0x3d,
  0x50, 0x16, 0x2a, 0x3e, 0xb4, 0xec, 0x46, 0x3d, 0x46, 0xec, 0x13, 0xbe,
  0x4b, 0xa5, 0xa0, 0xbe, 0xd2, 0xbe, 0x7d, 0x3e, 0x39, 0x9f, 0x28, 0xbe,
  0x42, 0x1e, 0x48, 0x3e, 0xfe, 0x5d, 0x9b, 0xbe, 0x62, 0xa7, 0x81, 0xbe,
  0x53, 0x4a, 0x99, 0xbd, 0xb0, 0x22, 0xaa, 0xbc, 0xdf, 0x5d, 0x34, 0xbe,
  0xab, 0x72, 0xba, 0x3c, 0xfb, 0x45, 0x34, 0x3e, 0x99, 0x68, 0x20, 0xbd,
  0xe0, 0x1a, 0x65, 0x3e, 0x27, 0xe7, 0x0c, 0xbe, 0x30, 0x3a, 0x29, 0x3d,
  0x69, 0x57, 0xac, 0xbe, 0xec, 0xbe, 0x93, 0x3e, 0xa4, 0xb7, 0xc9, 0x3d,
  0x68, 0x31, 0x74, 0xbd, 0x43, 0xa1, 0x2b, 0xbb, 0xac, 0x1d, 0x55, 0x3d,
  0x77, 0xf0, 0x1b, 0x3e, 0x25, 0xc0, 0xd2, 0xbd, 0x08, 0x2b, 0x09, 0x3d,
  0x76, 0xf4, 0x22, 0xbe, 0x3f, 0x3f, 0x8a, 0xbd, 0xef, 0xbb, 0x2e, 0x3e,
  0x0e, 0xd8, 0x04, 0x3e, 0x52, 0x7b, 0x89, 0xbe, 0x1c, 0x8f, 0x7e, 0x3e,
  0xe2, 0x06, 0xd6, 0xbe, 0xab, 0xb6, 0x99, 0x3e, 0xb7, 0xd3, 0x96, 0x3d,
  0xf1, 0xd3, 0x5d, 0x3e, 0x41, 0x22, 0x83, 0x3e, 0xa8, 0x12, 0xa1, 0xbe,
  0x5d, 0xbb, 0x9f, 0x3e, 0xcf, 0xe0, 0x96, 0x3e, 0xa7, 0xae, 0xc3, 0x3d,
  0x40, 0xd6, 0x03, 0x3d, 0x27, 0xdb, 0x89, 0xbd, 0x6c, 0xde, 0x30, 0x3e,
  0xa9, 0x4a, 0x1c, 0xbe, 0xc0, 0x38, 0x2d, 0xbe, 0x5e, 0x17, 0x38, 0x3d,
  0x08, 0x8f, 0xf0, 0x3d, 0x48, 0x3f, 0x32, 0x3e, 0x2d, 0x73, 0xe8, 0x3c,
  0xbf, 0xb5, 0x8a, 0x3c, 0x16, 0x8f, 0x8b, 0xbe, 0xa9, 0x42, 0x32, 0xbe,
  0xe8, 0xa8, 0x2b, 0xbd, 0x2d, 0x64, 0x7a, 0x3e, 0x94, 0xd0, 0x77, 0xbb,
  0xb0, 0xd4, 0xde, 0x3d, 0x5b, 0x48, 0x0e, 0x3e, 0x7e, 0x28, 0x90, 0xbe,
  0x60, 0xd6, 0x00, 0x3e, 0xec, 0x1c, 0x8f, 0x3d, 0x18, 0x9c, 0x1b, 0xbd,
  0x6e, 0xc6, 0x01, 0x3e, 0xff, 0x07, 0xda, 0xbc, 0x9b, 0x47, 0x8f, 0x3e,
  0xd5, 0x02, 0x2f, 0xbe, 0x20, 0xe1, 0xa2, 0x3d, 0x7d, 0x0d, 0xa8, 0xbc,
  0xf0, 0x07, 0x1b, 0xbd, 0xbe, 0x1d, 0x4a, 0xbe, 0x84, 0xd1, 0x4f, 0x3d,
  0x3a, 0xd8, 0x5b, 0xbe, 0xee, 0x7a, 0x86, 0xbe, 0x7d, 0xf3, 0x89, 0x3d,
  0x89, 0x20, 0x96, 0xbe, 0x8c, 0x38, 0xac, 0x3d, 0xdc, 0x17, 0xc4, 0x3d,
  0x92, 0xd3, 0xe7, 0xbd, 0x60, 0x1f, 0x78, 0x3c, 0x40, 0x23, 0x97, 0x3d,
  0x2d, 0xef, 0xa9, 0x3d, 0xda, 0x49, 0x8c, 0x3e, 0xc3, 0xda, 0x81, 0xbe,
  0x65, 0xf8, 0x0d, 0xbe, 0x4d, 0xc8, 0x94, 0x3e, 0x06, 0x5b, 0xc0, 0xbd,
  0x1b, 0x61, 0x90, 0xbe, 0x00, 0x53, 0xbc, 0x3a, 0xa9, 0xa5, 0x0a, 0xbe,
  0xe0, 0x1f, 0x2a, 0x3e, 0x1e, 0x26, 0x24, 0xbe, 0xba, 0xc5, 0x88, 0xbe,
  0x0e, 0xb7, 0x23, 0x3e, 0x9c, 0x52, 0xc9, 0x3d, 0xd0, 0x64, 0x27, 0x3e,
  0x80, 0x07, 0xfe, 0xbc, 0x5b, 0x71, 0x88, 0x3e, 0xc5, 0xf6, 0x03, 0xbf,
  0x7a, 0xe5, 0x5a, 0x3d, 0x9f, 0x6a, 0x30, 0xbe, 0x20, 0x1b, 0x92, 0x3c,
  0xf0, 0x04, 0xf7, 0xbd, 0x34, 0x2d, 0x2b, 0x3c, 0xee, 0x93, 0x82, 0xbe,
  0x06, 0xbf, 0x08, 0x3e, 0x80, 0xe1, 0xee, 0x3b, 0x9b, 0xd9, 0x89, 0xbe,
  0x8a, 0x93, 0x96, 0xbe, 0xf2, 0xc2, 0x80, 0xbe, 0xb7, 0x4b, 0xee, 0xbd,
  0xca, 0x48, 0x9b, 0xbe, 0x84, 0x3b, 0x39, 0x3e, 0xbe, 0x42, 0x75, 0xbe,
  0x0f, 0x31, 0x47, 0xbe, 0x8a, 0x23, 0x98, 0x3d, 0x00, 0x7a, 0x2d, 0x3b,
  0x2f, 0x22, 0x9b, 0x3e, 0x2c, 0x53, 0x1b, 0xbe, 0xf9, 0x74, 0x9c, 0x3e,
  0x74, 0xcb, 0x14, 0x3e, 0x78, 0x51, 0xa7, 0xbe, 0x22, 0x56, 0x44, 0x3e,
  0xe3, 0xed, 0x97, 0x3e, 0xcc, 0xc0, 0x95, 0xbe, 0xb0, 0xcb, 0x72, 0x3d,
  0x13, 0x97, 0xb6, 0xbe, 0x81, 0x08, 0x36, 0x3e, 0x0e, 0x2d, 0x29, 0x3e,
  0x55, 0xca, 0x0d, 0x3d, 0x7c, 0x8a, 0xb0, 0x3d, 0xea, 0xe3, 0x87, 0x3e,
  0x6b, 0x48, 0x62, 0x3a, 0xa4, 0xb8, 0xe8, 0xbd, 0x10, 0x50, 0xd3, 0x3d,
  0x62, 0x84, 0x1b, 0xbe, 0xdc, 0xa9, 0x6c, 0xbe, 0x76, 0x7c, 0x42, 0xbe,
  0x4a, 0x25, 0x4a, 0x3e, 0x50, 0x2f, 0x6b, 0x3d, 0x7c, 0x72, 0x9f, 0xbd,
  0xa8, 0x66, 0x1a, 0xbd, 0x8a, 0xea, 0x87, 0xbe, 0xb5, 0xa4, 0x29, 0xbe,
  0xce, 0xb0, 0x67, 0xbe, 0x51, 0xc3, 0x22, 0xbe, 0xd5, 0xbb, 0x8e, 0xbe,
  0x42, 0x50, 0xcd, 0xbd, 0x94, 0xb1, 0xcd, 0xbd, 0xe0, 0x15, 0x06, 0x3e,
  0x1b, 0xfd, 0x88, 0x3e, 0x7e, 0x4a, 0x74, 0x3e, 0x54, 0x8b, 0x69, 0xbe,
  0x10, 0x5f, 0x93, 0x3c, 0x40, 0x81, 0xff, 0xbb, 0x90, 0xcc, 0xcb, 0xbd,
  0x52, 0xc0, 0x17, 0x3e, 0xac, 0xca, 0xad, 0x3d, 0x28, 0xfe, 0x41, 0xbd,
  0x82, 0x6f, 0x4d, 0x3e, 0x00, 0xc7, 0x27, 0xbd, 0x22, 0x62, 0x3c, 0x3e,
  0x96, 0x4c, 0x77, 0x3e, 0x6a, 0xa3, 0x41, 0x3e, 0x12, 0xf0, 0x3a, 0x3e,
  0x94, 0xaa, 0xaa, 0x3d, 0x88, 0x70, 0x55, 0x3d, 0x2e, 0x6c, 0x39, 0x3e,
  0x42, 0x07, 0x25, 0xbe, 0xc0, 0x2d, 0x13, 0xbd, 0x24, 0x8f, 0x9c, 0x3d,
  0x86, 0x03, 0x98, 0xbe, 0x01, 0xea, 0x9d, 0x3e, 0x27, 0x0c, 0x8f, 0x3c,
  0xb8, 0x37, 0x7f, 0xbe, 0x80, 0xfe, 0x38, 0xbe, 0x5c, 0xc3, 0xba, 0x3d,
  0x0a, 0xa6, 0x7e, 0x3e, 0xec, 0x5e, 0xb9, 0x3e, 0x05, 0x1a, 0x26, 0xbe,
  0x08, 0xde, 0x7d, 0xbd, 0x64, 0xbb, 0x2e, 0xbe, 0x63, 0x70, 0xb8, 0x3d,
  0x6e, 0x88, 0xfe, 0xbd, 0xfd, 0x87, 0x4a, 0xbe, 0xc1, 0xae, 0xf7, 0x3d,
  0xf2, 0x72, 0x20, 0x3e, 0xab, 0x58, 0x8e, 0x3b, 0x5c, 0x86, 0xc0, 0x3e,
  0xbd, 0x41, 0x50, 0xbe, 0xf9, 0x44, 0x23, 0x3e, 0x75, 0xbe, 0x0d, 0x3e,
  0x54, 0x5a, 0xcd, 0x3c, 0xd1, 0x8f, 0xa6, 0x3d, 0xd4, 0xc4, 0xdd, 0x3e,
  0x3a, 0x2a, 0x37, 0x3f, 0x9b, 0x9d, 0x88, 0x3d, 0xe0, 0xdd, 0xd9, 0x3d,
  0x02, 0xe0, 0x48, 0xbe, 0xf8, 0x6d, 0x56, 0x3d, 0x6b, 0xe8, 0x26, 0xbe,
  0x27, 0x83, 0x7c, 0x3e, 0x1a, 0xb0, 0x6a, 0x3d, 0xc2, 0x3a, 0x96, 0x3e,
  0xd7, 0xce, 0x3f, 0xbe, 0xd2, 0x1b, 0x56, 0xbe, 0xcd, 0xff, 0x95, 0x3e,
  0xfc, 0xe4, 0xdf, 0xbc, 0x4a, 0x91, 0x32, 0x3e, 0x0c, 0xd6, 0x0d, 0x3e,
  0xaa, 0xb0, 0x14, 0xbd, 0x9b, 0x32, 0xb1, 0x3d, 0x05, 0xda, 0xb9, 0x3d,
  0x07, 0x34, 0x4e, 0xbd, 0x53, 0x62, 0x8e, 0x3e, 0x06, 0x9e, 0x32, 0x3e,
  0xe8, 0x5d, 0x3b, 0xbe, 0x64, 0xb6, 0xaa, 0xbd, 0x31, 0xfe, 0x57, 0xbc,
  0xfe, 0xa2, 0x6a, 0xbe, 0x3e, 0x99, 0xfd, 0xbd, 0x5d, 0x89, 0xa2, 0xbd,
  0x13, 0x68, 0x4e, 0xbe, 0x31, 0x61, 0x70, 0x3d, 0x9e, 0x3b, 0x9d, 0x3e,
  0x16, 0xfa, 0x52, 0x3e, 0x22, 0xb0, 0x00, 0x3e, 0xe8, 0x2c, 0x06, 0x3e,
  0xca, 0xc0, 0xe7, 0x3e, 0xb4, 0xd9, 0x54, 0xbe, 0xb1, 0xf9, 0x8c, 0xbe,
  0x8b, 0x5a, 0x25, 0x3d, 0x25, 0x3b, 0x2a, 0x3e, 0xdd, 0x32, 0xa8, 0x3e,
  0x99, 0x20, 0x41, 0xbf, 0xad, 0x57, 0x2e, 0x3f, 0xcf, 0x73, 0x99, 0xbd,
  0xa3, 0xee, 0x8d, 0x3e, 0x0b, 0x5a, 0x9a, 0x3e, 0xe0, 0x83, 0x0e, 0x3c,
  0x90, 0x58, 0x04, 0x3d, 0x5d, 0xf0, 0x1b, 0xbf, 0x8c, 0x93, 0x8d, 0xbd,
  0x68, 0xb6, 0xa9, 0xbd, 0x9a, 0x25, 0x19, 0xbe, 0x09, 0xc5, 0x95, 0xbe,
  0x12, 0x64, 0xc5, 0xbe, 0x89, 0x7d, 0x39, 0xbe, 0xfb, 0xe1, 0x82, 0xbe,
  0xd6, 0xc5, 0xb0, 0x3d, 0x81, 0xa3, 0x8f, 0x3e, 0x13, 0x54, 0xdf, 0x3e,
  0xf1, 0x2f, 0x03, 0x3e, 0xe7, 0x80, 0x6b, 0x3e, 0xc3, 0xc5, 0x9e, 0xbe,
  0x36, 0x67, 0xdf, 0x3d, 0xf2, 0xdd, 0x34, 0x3e, 0x38, 0xdf, 0x35, 0x3e,
  0x77, 0xa7, 0x09, 0xbf, 0x94, 0xdd, 0x30, 0xbd, 0x8d, 0xb8, 0x95, 0x3e,
  0x80, 0xe9, 0x31, 0x3d, 0x00, 0x22, 0x95, 0x3c, 0x8e, 0xd0, 0xa3, 0xbd,
  0x83, 0xaf, 0x80, 0x3d, 0x31, 0x96, 0x7a, 0xbe, 0x80, 0x3c, 0x54, 0xbd,
  0xa5, 0xe9, 0x4c, 0x3d, 0xd0, 0xf9, 0xe2, 0xbd, 0xb2, 0x0d, 0x2b, 0xbe,
  0x96, 0xd2, 0x4f, 0x3e, 0x95, 0x67, 0x90, 0x3e, 0xa4, 0x68, 0x63, 0x3c,
  0x29, 0x1a, 0x10, 0xbf, 0xfd, 0x2a, 0x9a, 0xbe, 0x57, 0x02, 0x8e, 0xbf,
  0x91, 0x41, 0x94, 0xbe, 0xc4, 0x83, 0x9e, 0x3d, 0xe4, 0xaf, 0xd2, 0x3d,
  0xe4, 0x7c, 0x81, 0xbe, 0xd4, 0x07, 0x94, 0x3d, 0x01, 0x1c, 0x54, 0x3e,
  0x30, 0x34, 0x52, 0xbf, 0x67, 0x7b, 0x3b, 0xbe, 0x78, 0xc6, 0xb1, 0xbd,
  0xb8, 0xbf, 0x98, 0xbe, 0x98, 0x14, 0x84, 0x3e, 0x08, 0x7f, 0x52, 0xbd,
  0xf7, 0x37, 0x8b, 0xbe, 0x59, 0x88, 0xb7, 0xbe, 0xf7, 0x6a, 0x83, 0x3e,
  0x81, 0xff, 0xac, 0xbd, 0x81, 0xc9, 0x92, 0xbe, 0x2b, 0xe9, 0x07, 0xbe,
  0xe7, 0x44, 0x9d, 0x3e, 0x6e, 0x25, 0x95, 0xbe, 0xfa, 0xad, 0x65, 0x3e,
  0xcd, 0x21, 0x85, 0x3e, 0x52, 0x5d, 0x4e, 0xbe, 0x4d, 0xb6, 0xfc, 0x3d,
  0x42, 0x88, 0x2b, 0x3e, 0xf4, 0x38, 0xc6, 0x3d, 0xd2, 0x6e, 0x6f, 0x3e,
  0xf0, 0x56, 0x89, 0xbe, 0x77, 0x7a, 0x9a, 0xbe, 0x0a, 0x1e, 0x71, 0x3e,
  0x5e, 0x9e, 0x60, 0x3e, 0x45, 0xd5, 0x16, 0xbe, 0xe3, 0x76, 0x2d, 0xbe,
  0x70, 0xc6, 0x10, 0x3e, 0x78, 0x6e, 0x77, 0xbd, 0x3e, 0x8d, 0x77, 0x3e,
  0xf8, 0x04, 0x2e, 0x3d, 0x5f, 0x55, 0x4c, 0x3e, 0x5f, 0xa9, 0x6a, 0xbe,
  0x48, 0x4e, 0xb6, 0x3d, 0x05, 0x3b, 0x5f, 0xbe, 0xe8, 0x0d, 0x2e, 0xbd,
  0x70, 0x6d, 0x1b, 0xbd, 0x30, 0xaa, 0x94, 0x3c, 0x8a, 0x1e, 0x62, 0xbe,
  0x36, 0x68, 0xa6, 0x3b, 0x42, 0xbc, 0xce, 0xbd, 0x27, 0xc1, 0x1c, 0x3e,
  0xb4, 0x82, 0x9b, 0xbd, 0xbb, 0xa7, 0x8c, 0xbe, 0x00, 0xde, 0x4d, 0xbe,
  0x40, 0x8b, 0x2b, 0xbd, 0x4e, 0x5c, 0x0f, 0x3e, 0x22, 0xf1, 0xf2, 0x3d,
  0x6e, 0xe7, 0xfa, 0xbd, 0x60, 0xa6, 0x8c, 0xbe, 0x21, 0x9f, 0x69, 0xbe,
  0x83, 0xd2, 0x58, 0x3e, 0x33, 0xd1, 0x0e, 0xbd, 0x88, 0xe3, 0x0c, 0xbf,
  0x5a, 0x29, 0x54, 0xbd, 0x20, 0x0b, 0xf2, 0xbd, 0x92, 0x30, 0xdc, 0x3d,
  0x38, 0x6a, 0x22, 0xbe, 0xd1, 0x98, 0x99, 0xbe, 0x11, 0x14, 0xb4, 0x3d,
  0x0d, 0x58, 0xc4, 0xbd, 0x0b, 0x0c, 0x76, 0x3e, 0x9b, 0xcd, 0x94, 0x3e,
  0x8f, 0x52, 0x70, 0xbe, 0x06, 0x41, 0x48, 0x3e, 0x44, 0x98, 0x42, 0xbe,
  0x9f, 0x17, 0xb5, 0xbd, 0x50, 0x76, 0xc6, 0xbc, 0xe1, 0x9c, 0x3e, 0x3e,
  0xf9, 0xe4, 0xaf, 0x3d, 0xb3, 0xa8, 0xaa, 0xbc, 0xc1, 0x55, 0x84, 0xbd,
  0x39, 0xb5, 0xc1, 0x3e, 0xfb, 0x78, 0xbb, 0xbe, 0xb0, 0xaa, 0x26, 0x3d,
  0xa0, 0xed, 0xd8, 0xbd, 0x4d, 0x9e, 0x39, 0xbe, 0x08, 0xf5, 0x00, 0xbe,
  0x9b, 0x1c, 0x8b, 0x3e, 0xe5, 0x17, 0x08, 0x3e, 0x6b, 0xe2, 0xe6, 0x3e,
  0x9c, 0x33, 0x71, 0x3e, 0x41, 0x39, 0xa0, 0x3e, 0x60, 0xa5, 0x50, 0xbc,
  0x3a, 0xe6, 0x53, 0x3f, 0x02, 0xca, 0xfd, 0x3d, 0xe8, 0xad, 0x11, 0x3e,
  0x20, 0x45, 0x77, 0xbe, 0xcc, 0xd6, 0x5a, 0xbe, 0x5a, 0x09, 0xc7, 0xbe,
  0xb8, 0x58, 0x0b, 0x3e, 0x74, 0xc8, 0xbd, 0x3d, 0x1d, 0x99, 0x84, 0xbe,
  0x3d, 0x3d, 0x58, 0x3b, 0x04, 0xbf, 0xff, 0x3d, 0x7b, 0xe2, 0x69, 0xbd,
  0x6c, 0xef, 0xe5, 0x3d, 0x5c, 0x43, 0x93, 0x3e, 0x24, 0x44, 0x83, 0x3d,
  0x18, 0xae, 0x5f, 0x3d, 0xc1, 0x45, 0x15, 0xbe, 0xe9, 0xa7, 0xfb, 0x3d,
  0xea, 0x66, 0x8d, 0xbe, 0xc3, 0xe5, 0x22, 0x3e, 0x9a, 0xfa, 0xda, 0xbd,
  0xf4, 0xae, 0x82, 0xbe, 0x24, 0x50, 0x8a, 0x3d, 0x55, 0x6c, 0x87, 0x3e,
  0x93, 0xf4, 0xf3, 0xbd, 0x99, 0x4e, 0x3c, 0x3d, 0x33, 0xc8, 0x27, 0x3e,
  0xc5, 0xc9, 0xed, 0xbd, 0x24, 0x62, 0x83, 0x3e, 0x99, 0xbd, 0x23, 0xbf,
  0x7a, 0x5a, 0x6a, 0x3e, 0x70, 0x3f, 0xaa, 0x3c, 0x00, 0x61, 0xee, 0x3d,
  0xe8, 0x87, 0x5c, 0xbd, 0x06, 0xa4, 0x3c, 0x3e, 0xd2, 0x59, 0x90, 0x3d,
  0x01, 0x1a, 0x2e, 0x3e, 0xf2, 0x14, 0x47, 0xbe, 0xf1, 0xbf, 0x81, 0xbe,
  0xad, 0x17, 0x82, 0x3e, 0x6d, 0xd6, 0xf1, 0x3e, 0xa7, 0xec, 0xf6, 0xbb,
  0x88, 0x9c, 0x8e, 0xbd, 0x95, 0x7e, 0x80, 0xbe, 0xb1, 0x8e, 0x7c, 0xbd,
  0x5b, 0xd4, 0x0b, 0xbd, 0xbe, 0x86, 0xd8, 0xbd, 0x89, 0xd2, 0x96, 0xbc,
  0x91, 0xe3, 0xab, 0xbd, 0xa5, 0xe2, 0xb2, 0xbf, 0x46, 0xdc, 0x97, 0x3c,
  0x47, 0xe3, 0x49, 0x3e, 0x59, 0x24, 0x7c, 0xbd, 0xf4, 0x2c, 0x6d, 0xbd,
  0xdc, 0x1d, 0x4d, 0xbe, 0x2e, 0x34, 0xaf, 0xbd, 0x1f, 0x9e, 0x21, 0x3e,
  0x05, 0xa6, 0xf7, 0xbd, 0x7b, 0x54, 0xff, 0x3d, 0x6c, 0x25, 0x1a, 0xbd,
  0xa9, 0x4b, 0x35, 0xbe, 0x4f, 0xb6, 0xd8, 0x3e, 0xd6, 0x7f, 0x0c, 0x3e,
  0x13, 0x5a, 0x0d, 0x3d, 0x7c, 0x96, 0x88, 0x3e, 0x91, 0x2e, 0xc7, 0xbe,
  0xa7, 0xc0, 0x9b, 0x3e, 0xff, 0x96, 0x3e, 0x3e, 0xe7, 0xe9, 0xdc, 0x3e,
  0x8f, 0x04, 0x83, 0xbf, 0x36, 0xf6, 0xd5, 0xbd, 0xe0, 0x8a, 0x35, 0xbd,
  0xa3, 0x33, 0x26, 0xbe, 0x28, 0x1a, 0xf4, 0x3d, 0x12, 0xc9, 0x42, 0x3e,
  0x4a, 0x55, 0xb8, 0xbe, 0x79, 0xa3, 0x2a, 0xbe, 0x71, 0x5d, 0x95, 0x3d,
  0x1e, 0x90, 0x1d, 0xbe, 0x92, 0xa2, 0x15, 0x3e, 0x64, 0xcc, 0xa9, 0xbc,
  0xde, 0xda, 0x8b, 0xbe, 0xc9, 0x7d, 0x86, 0x3e, 0xf4, 0x7c, 0x28, 0xbf,
  0xd4, 0x7c, 0x07, 0x3e, 0x41, 0x4a, 0x35, 0x3d, 0x54, 0xd6, 0x43, 0x3e,
  0x06, 0xfb, 0x94, 0xbe, 0x75, 0x23, 0x9c, 0xbe, 0xf8, 0xbb, 0x76, 0xbd,
  0xc8, 0xb0, 0x33, 0xbe, 0x18, 0x51, 0xdb, 0x3d, 0x00, 0x2e, 0x1b, 0xbb,
  0xe2, 0x72, 0xb0, 0xbd, 0x00, 0x2d, 0x61, 0xbd, 0x3d, 0x6d, 0x2e, 0xbe,
  0x22, 0x62, 0x04, 0x3e, 0x40, 0xe6, 0xc3, 0xbc, 0x38, 0xd4, 0x1c, 0xbe,
  0x59, 0x66, 0x96, 0x3e, 0xb7, 0x6b, 0x93, 0x3e, 0xd7, 0xbb, 0x99, 0xbe,
  0xb8, 0x1f, 0x50, 0xbd, 0xa6, 0xcb, 0x97, 0xbe, 0xb3, 0x37, 0x8a, 0x3e,
  0x90, 0x56, 0xe6, 0x3d, 0x1f, 0x1d, 0x49, 0xbe, 0xcc, 0x62, 0xb9, 0x3d,
  0xc6, 0x86, 0xe1, 0xbd, 0xc4, 0x0d, 0x73, 0xbe, 0x96, 0xb6, 0x9b, 0xbe,
  0x93, 0x3f, 0x8e, 0xbe, 0x4d, 0x62, 0x3d, 0xbe, 0x26, 0x1a, 0x4b, 0xbe,
  0xb2, 0xa6, 0x2b, 0xbe, 0xf4, 0x88, 0xcc, 0x3d, 0x80, 0xb1, 0xa8, 0x3c,
  0x9a, 0x8a, 0x17, 0x3e, 0x32, 0x62, 0x4f, 0x3e, 0x26, 0x4c, 0xc7, 0xbd,
  0xef, 0x4b, 0x97, 0xbe, 0x8c, 0x20, 0x7e, 0xbe, 0x20, 0x8b, 0xc6, 0x3d,
  0x30, 0xfa, 0xb6, 0xbd, 0xa1, 0x09, 0x8d, 0x3e, 0xc0, 0x59, 0x67, 0xbd,
  0x7c, 0x6e, 0xce, 0xbd, 0x9c, 0xa9, 0x72, 0x3d, 0x02, 0xc3, 0x91, 0x3d,
  0xfb, 0x55, 0xd7, 0xbe, 0xee, 0x28, 0x0f, 0xbe, 0x0e, 0x5b, 0x83, 0xbd,
  0xb0, 0x8d, 0x90, 0x3e, 0x5f, 0xbe, 0xa6, 0x3e, 0xa0, 0xe5, 0xd8, 0xbc,
  0xea, 0x17, 0x95, 0x3d, 0x22, 0x44, 0x0d, 0x3e, 0xae, 0x20, 0x93, 0x3e,
  0x0b, 0xdf, 0x94, 0xbd, 0x76, 0x02, 0xad, 0xbd, 0x00, 0x41, 0x8b, 0xbe,
  0xf9, 0x36, 0xb0, 0x3e, 0x53, 0xb7, 0x14, 0xbe, 0xe6, 0x89, 0xd3, 0xbd,
  0x29, 0x42, 0x5b, 0x3e, 0x9b, 0xb5, 0xcc, 0x3e, 0x67, 0xbe, 0x81, 0x3e,
  0x3a, 0x66, 0x89, 0xbe, 0xd8, 0x7e, 0xca, 0xbe, 0xb3, 0x74, 0x22, 0xbc,
  0x8f, 0xaa, 0x6b, 0x3e, 0xf6, 0x28, 0x65, 0x3e, 0x1e, 0x6e, 0xe9, 0xbd,
  0x0e, 0x57, 0x6b, 0x3e, 0x0d, 0xe0, 0x8c, 0x3e, 0xd8, 0x1f, 0xb4, 0xbe,
  0x96, 0xa4, 0xc4, 0x3e, 0xc0, 0x01, 0xdc, 0xba, 0xde, 0x98, 0xd9, 0xbd,
  0x00, 0x02, 0xd2, 0xbd, 0x57, 0x2c, 0x92, 0x3f, 0x14, 0xa6, 0x18, 0xbe,
  0x09, 0x24, 0x80, 0x3e, 0x37, 0x84, 0xaf, 0xbe, 0x04, 0x2e, 0x15, 0x3d,
  0xe5, 0x0d, 0x1a, 0xbe, 0xc3, 0x21, 0xb3, 0xbc, 0x0b, 0x01, 0xb6, 0x3c,
  0x9e, 0x8e, 0x4d, 0x3e, 0xe4, 0xa1, 0xf8, 0xbd, 0xce, 0x5e, 0x16, 0x3d,
  0xc3, 0x85, 0x2a, 0xbe, 0x5c, 0x8d, 0x4f, 0xbe, 0xc8, 0x46, 0xef, 0x3d,
  0x40, 0xb9, 0xd3, 0x3c, 0x78, 0x02, 0x9e, 0xbd, 0x8f, 0x40, 0x9c, 0x3e,
  0x69, 0x23, 0x19, 0xbc, 0x75, 0x77, 0x95, 0x3d, 0x9b, 0x08, 0x8f, 0x3e,
  0x94, 0xc9, 0x38, 0xbe, 0x85, 0xfc, 0x8b, 0x3e, 0xfb, 0x48, 0x88, 0xbe,
  0xd3, 0xab, 0x98, 0x3e, 0xa6, 0xd4, 0x32, 0x3e, 0x7c, 0xd2, 0x9c, 0xbe,
  0xad, 0x8f, 0xa1, 0xbe, 0x92, 0x16, 0x17, 0xbd, 0xf8, 0xfd, 0x2b, 0x3d,
  0xa3, 0x42, 0x2e, 0xbd, 0xe8, 0x1b, 0x51, 0xbe, 0x98, 0x2f, 0x25, 0x3e,
  0xc0, 0x56, 0x3f, 0xbe, 0x20, 0xee, 0x0e, 0x3c, 0x98, 0x15, 0x61, 0x3d,
  0xcc, 0xf1, 0x62, 0x3e, 0x9b, 0x60, 0xfb, 0xbd, 0x68, 0x53, 0x11, 0xbd,
  0x72, 0x6d, 0x70, 0xbe, 0xc0, 0xa1, 0xd0, 0xbc, 0x80, 0x2c, 0xf4, 0x3d,
  0xe8, 0x1f, 0x3f, 0xbe, 0xfa, 0xb8, 0xd2, 0xbd, 0xfc, 0x70, 0x50, 0xbe,
  0x64, 0x83, 0xd1, 0x3d, 0x0a, 0x95, 0x56, 0x3e, 0xf5, 0x8b, 0x66, 0xbe,
  0x77, 0xac, 0xa6, 0xbd, 0xc0, 0xd4, 0x5b, 0xbd, 0x40, 0x11, 0xf4, 0xbc,
  0xe7, 0x57, 0x08, 0xbd, 0xee, 0xaf, 0x1c, 0x3e, 0x79, 0x5e, 0xc4, 0x3d,
  0x16, 0x12, 0x23, 0x3e, 0x74, 0x04, 0x92, 0x3d, 0xa0, 0x94, 0x8d, 0x3c,
  0xc8, 0xd3, 0x49, 0xbe, 0x65, 0xb7, 0x27, 0x3e, 0x66, 0x2e, 0x9c, 0xbe,
  0x21, 0x9b, 0x9f, 0xbe, 0x35, 0x68, 0x84, 0xbe, 0x02, 0x6c, 0x8e, 0x3d,
  0xc0, 0x1d, 0xb0, 0x3d, 0x0f, 0x7d, 0xc1, 0xbd, 0xe8, 0x2e, 0xdf, 0x3c,
  0x9f, 0x11, 0x13, 0x3e, 0x15, 0xe5, 0xf6, 0x3b, 0xf2, 0x57, 0x90, 0xbd,
  0x17, 0x9c, 0x6d, 0xbc, 0xba, 0xcd, 0xe2, 0xbe, 0xeb, 0x97, 0x02, 0x3e,
  0xbc, 0xac, 0x50, 0xbe, 0x00, 0xb0, 0xef, 0x38, 0x68, 0x98, 0xa4, 0x3d,
  0xe4, 0x3e, 0xbf, 0x3d, 0x36, 0x42, 0x51, 0xbd, 0xad, 0xc4, 0x47, 0xbe,
  0x82, 0x8f, 0x04, 0x3c, 0x40, 0xc1, 0x32, 0xbd, 0xd0, 0xa3, 0xf3, 0x3d,
  0x33, 0x88, 0x69, 0xbe, 0xcd, 0x4e, 0x1a, 0x3e, 0x60, 0x88, 0x15, 0x3e,
  0xc9, 0x71, 0xe0, 0x3d, 0x01, 0x1e, 0x38, 0xbe, 0xd3, 0x22, 0x76, 0xbe,
  0x16, 0xe9, 0xf9, 0xbd, 0x46, 0x85, 0x58, 0x3e, 0x09, 0x04, 0x8c, 0x3e,
  0xee, 0xed, 0x67, 0x3e, 0x5b, 0x7e, 0x7d, 0xbe, 0x88, 0x79, 0x0a, 0x3e,
  0x52, 0xc9, 0x05, 0xbe, 0xea, 0xc1, 0x2d, 0xbd, 0x88, 0xb4, 0x2b, 0x3d,
  0x2f, 0xb2, 0x86, 0x3e, 0xa9, 0x90, 0x85, 0x3e, 0x3a, 0x7d, 0x10, 0x3e,
  0xfe, 0x00, 0x3a, 0x3e, 0x80, 0xa2, 0x2f, 0x3c, 0xdc, 0xf8, 0xdb, 0x3d,
  0x90, 0x8c, 0xe7, 0xbc, 0x0e, 0x6c, 0x72, 0xbe, 0x9a, 0x91, 0x5a, 0x3d,
  0x50, 0x32, 0x8e, 0xbe, 0x90, 0x10, 0x4d, 0xbd, 0x4a, 0xd6, 0x91, 0x3d,
  0x8f, 0xf1, 0x13, 0xbe, 0xd9, 0x31, 0x80, 0x3e, 0x98, 0x5b, 0x9c, 0xbd,
  0xfe, 0x16, 0x3c, 0x3e, 0x28, 0x3b, 0x0a, 0x3d, 0x26, 0x7d, 0x6b, 0x3e,
  0xde, 0x68, 0x2d, 0x3e, 0x00, 0x4f, 0x89, 0xbe, 0x26, 0xf9, 0x3e, 0xbe,
  0xae, 0x37, 0x02, 0xbe, 0xd1, 0x85, 0x79, 0xbe, 0x69, 0xc4, 0x20, 0xbe,
  0x2a, 0x68, 0x02, 0x3e, 0xb1, 0x9d, 0x65, 0xbe, 0x31, 0x9b, 0x99, 0x3e,
  0x75, 0xe6, 0x98, 0xbe, 0xe5, 0x23, 0x8e, 0x3c, 0x14, 0xe0, 0x83, 0x3d,
  0x1e, 0x4b, 0x83, 0xbe, 0x21, 0xdf, 0x15, 0xbe, 0x0e, 0x04, 0x93, 0x3e,
  0x24, 0x08, 0x0d, 0x3e, 0x46, 0x71, 0xc7, 0x3d, 0x83, 0xfa, 0x88, 0xbe,
  0xb0, 0x6c, 0x70, 0xbd, 0x28, 0x27, 0x05, 0xbe, 0x98, 0x02, 0xff, 0xbd,
  0xe2, 0x14, 0x13, 0x3e, 0xca, 0x3d, 0x4d, 0x3e, 0x7e, 0x6f, 0x81, 0x3e,
  0x12, 0x77, 0x27, 0x3e, 0xa2, 0xbc, 0xb4, 0x3e, 0x7e, 0xb2, 0x21, 0xbd,
  0x3d, 0xeb, 0x8d, 0x3e, 0xa2, 0xe3, 0x97, 0xbe, 0x12, 0xfd, 0x80, 0xbe,
  0xbb, 0x11, 0x6f, 0xbe, 0xef, 0x94, 0x0c, 0x3c, 0x52, 0x36, 0x26, 0x3e,
  0xd2, 0x29, 0xba, 0xbd, 0x6f, 0xd3, 0x8d, 0xbe, 0x25, 0x86, 0x0b, 0xbf,
  0x5d, 0x69, 0x66, 0x3c, 0x19, 0x77, 0x0c, 0xbe, 0x60, 0xc2, 0xe7, 0xbd,
  0x0e, 0x34, 0x85, 0xbe, 0x54, 0x01, 0x3b, 0x3e, 0xf6, 0xfc, 0x6f, 0x3e,
  0x89, 0x6f, 0x4b, 0x3d, 0x11, 0x95, 0xb0, 0x3e, 0x54, 0x98, 0x63, 0xbe,
  0x98, 0xc2, 0xdd, 0xbd, 0x70, 0x94, 0x75, 0x3d, 0x73, 0x0b, 0xd7, 0x3d,
  0xf1, 0xf2, 0xe6, 0xbd, 0x80, 0xca, 0x19, 0xbd, 0x78, 0xb3, 0xc0, 0xbe,
  0x66, 0xea, 0xb9, 0x3d, 0x5b, 0xf0, 0xb1, 0xbc, 0xdc, 0x13, 0x7b, 0x3d,
  0x86, 0xf4, 0xff, 0xff, 0x04, 0x00, 0x00, 0x00, 0xa0, 0x00, 0x00, 0x00,
  0x15, 0xcb, 0x11, 0x3e, 0x62, 0x6c, 0x28, 0xbd, 0x8f, 0x52, 0xf4, 0xbc,
  0xd1, 0xef, 0xc6, 0x3d, 0x96, 0xff, 0x39, 0xbc, 0x42, 0x3f, 0xf6, 0x3d,
  0x0e, 0x84, 0xe0, 0xbc, 0x00, 0x00, 0x00, 0x00, 0xcc, 0x42, 0xd2, 0xbc,
  0x45, 0x08, 0xaf, 0xbc, 0x8b, 0xf1, 0x13, 0x3e, 0x56, 0x42, 0x05, 0x3e,
  0x4c, 0x4d, 0x19, 0xbc, 0x00, 0x00, 0x00, 0x00, 0xbd, 0xfb, 0xa3, 0xbc,
  0x94, 0xc5, 0x58, 0x3d, 0x03, 0xcf, 0x15, 0xbd, 0x3c, 0x3b, 0x02, 0xbd,
  0x4e, 0xab, 0x1a, 0x3e, 0x2d, 0xd3, 0x1c, 0x3e, 0xfe, 0xa5, 0xfc, 0xbd,
  0x05, 0x17, 0x02, 0xbd, 0x86, 0xe4, 0x8d, 0xbd, 0x1c, 0x16, 0x24, 0xbd,
  0x00, 0x00, 0x00, 0x00, 0x00, 0x00, 0x00, 0x00, 0x00, 0x00, 0x00, 0x00,
  0x00, 0x00, 0x00, 0x00, 0x07, 0x3b, 0x67, 0xbd, 0xb1, 0x7f, 0x31, 0x3b,
  0x02, 0xcd, 0x99, 0xbc, 0x00, 0x00, 0x00, 0x00, 0x00, 0x00, 0x00, 0x00,
  0xa0, 0xae, 0xd4, 0xbd, 0x13, 0x6d, 0x6f, 0xbc, 0x00, 0x00, 0x00, 0x00,
  0xd2, 0x0f, 0xc0, 0xbd, 0x76, 0x09, 0xed, 0xbc, 0x5b, 0x6e, 0x57, 0x3d,
  0x5d, 0x52, 0xc6, 0x3d, 0x32, 0xf5, 0xff, 0xff, 0x04, 0x00, 0x00, 0x00,
  0xa0, 0x00, 0x00, 0x00, 0xa3, 0x87, 0xb5, 0xbb, 0xf2, 0xa4, 0x55, 0x3d,
  0xe0, 0xda, 0x37, 0xbe, 0xdf, 0x61, 0xba, 0xbc, 0x6b, 0x61, 0x0e, 0x3d,
  0x4f, 0x21, 0x16, 0xbc, 0x2d, 0x63, 0xc4, 0x3d, 0xc9, 0x0a, 0xf8, 0x3d,
  0xf8, 0x9e, 0xea, 0xbc, 0x00, 0x00, 0x00, 0x00, 0x00, 0x00, 0x00, 0x00,
  0x00, 0x00, 0x00, 0x00, 0x00, 0x00, 0x00, 0x00, 0xf8, 0x56, 0x2e, 0x3b,
  0x00, 0x00, 0x00, 0x00, 0x00, 0x00, 0x00, 0x00, 0xa6, 0x48, 0x40, 0x3d,
  0x00, 0x00, 0x00, 0x00, 0x00, 0x00, 0x00, 0x00, 0x00, 0x00, 0x00, 0x00,
  0x00, 0x00, 0x00, 0x00, 0xf4, 0x5a, 0xd6, 0x3d, 0xb7, 0x01, 0xe2, 0xbd,
  0x00, 0x00, 0x00, 0x00, 0x0c, 0xca, 0x01, 0x3e, 0x75, 0x76, 0x7d, 0x3c,
  0x00, 0x00, 0x00, 0x00, 0x80, 0x82, 0x73, 0xbd, 0x49, 0xd2, 0x8f, 0xbc,
  0x64, 0x5c, 0x40, 0x3d, 0xe9, 0x76, 0x06, 0x3d, 0x8f, 0xb0, 0x29, 0x3e,
  0x00, 0x00, 0x00, 0x00, 0x74, 0x5a, 0x34, 0xbc, 0x8e, 0x89, 0x76, 0x3d,
  0xd9, 0xf6, 0x61, 0xbc, 0x1a, 0xe8, 0xff, 0x3c, 0x15, 0x4c, 0x3d, 0xbc,
  0x00, 0x00, 0x00, 0x00, 0xbd, 0x93, 0x08, 0x3e, 0xde, 0xf5, 0xff, 0xff,
  0x04, 0x00, 0x00, 0x00, 0x00, 0x0a, 0x00, 0x00, 0xe2, 0x7f, 0x9e, 0x3e,
  0x9e, 0xfd, 0x28, 0x3e, 0x45, 0x14, 0x9b, 0xbb, 0x28, 0x2c, 0x98, 0xbe,
  0xdc, 0x53, 0xb8, 0xbd, 0x5e, 0xd2, 0x9e, 0xbe, 0xef, 0x8e, 0x17, 0x3e,
  0x69, 0xad, 0x33, 0x39, 0xc8, 0x0b, 0xa2, 0xbe, 0xed, 0xc9, 0x90, 0xbc,
  0x56, 0xff, 0x52, 0x3e, 0xf6, 0xdf, 0x8a, 0x3c, 0x10, 0xc6, 0x6c, 0x3d,
  0xcd, 0x27, 0x44, 0x3d, 0xca, 0xb0, 0x37, 0xbe, 0xba, 0x0e, 0x27, 0xbe,
  0x09, 0xf3, 0x27, 0xbc, 0x7c, 0xb6, 0x9b, 0x3e, 0xc4, 0x00, 0xb2, 0xbe,
  0x69, 0x59, 0xac, 0x3b, 0x54, 0xd0, 0x8d, 0xbd, 0x4d, 0x76, 0x74, 0x39,
  0xf9, 0x51, 0xa9, 0x3e, 0x08, 0x68, 0x95, 0x3e, 0x4b, 0x7d, 0xec, 0xbd,
  0x85, 0x2b, 0x33, 0x3c, 0x3e, 0xd7, 0x1e, 0x3e, 0xa8, 0x73, 0x18, 0x3e,
  0x2d, 0xcd, 0x1a, 0xbe, 0x8a, 0x28, 0x4d, 0xbe, 0x0b, 0x59, 0x14, 0xbe,
  0xd5, 0x42, 0x6c, 0x3e, 0x5a, 0xf7, 0x12, 0xbd, 0x38, 0x1f, 0xec, 0xbd,
  0xef, 0x0d, 0xde, 0xbe, 0x7b, 0xd6, 0x72, 0xbe, 0xd6, 0xd5, 0x93, 0xbd,
  0xaa, 0x98, 0x21, 0xbe, 0x76, 0x34, 0x48, 0x3e, 0xa3, 0x5b, 0x9d, 0x3e,
  0xb7, 0x7a, 0x92, 0x3e, 0x12, 0xd0, 0xa4, 0xbe, 0x87, 0x30, 0x9c, 0x3e,
  0xfd, 0x14, 0x87, 0x3e, 0xd5, 0x29, 0x64, 0x3e, 0x18, 0xb3, 0x80, 0x3e,
  0x9c, 0x09, 0x42, 0x3e, 0x1e, 0x11, 0x7a, 0xbd, 0xbd, 0x5f, 0x87, 0xbd,
  0xa9, 0xf5, 0x0e, 0x3e, 0x96, 0x01, 0x06, 0xbe, 0x37, 0x4e, 0xe0, 0x3c,
  0x3e, 0x10, 0x12, 0xbe, 0x2a, 0x96, 0x2a, 0x3e, 0xb8, 0x33, 0xe9, 0x3d,
  0x83, 0xc5, 0x97, 0x39, 0x81, 0x9c, 0x07, 0x3d, 0x0c, 0xe9, 0x62, 0xbe,
  0xeb, 0xd5, 0xb6, 0xbd, 0x03, 0x21, 0x81, 0xbb, 0xa6, 0xc1, 0xb9, 0x3d,
  0x0c, 0x6a, 0xae, 0xbe, 0xc1, 0x74, 0x8f, 0x3e, 0x9f, 0xdb, 0x3b, 0xbc,
  0xbb, 0x1a, 0x87, 0x3d, 0x3b, 0xa1, 0x91, 0x3d, 0xe5, 0x20, 0x9d, 0x3e,
  0xab, 0x09, 0x1a, 0xbe, 0x6a, 0x9c, 0x05, 0x3e, 0x69, 0xb5, 0x71, 0xbb,
  0x07, 0x77, 0xd5, 0xbd, 0x42, 0x14, 0x3d, 0x3d, 0xb2, 0xa3, 0x7d, 0x3e,
  0xaa, 0x72, 0x1a, 0x3e, 0xc3, 0xea, 0xe2, 0xbe, 0x5f, 0x18, 0x0c, 0xbe,
  0xc6, 0x30, 0x27, 0x3d, 0x44, 0x7a, 0x8c, 0x3e, 0x28, 0x60, 0x7a, 0x3e,
  0x4c, 0xd0, 0x24, 0xbe, 0x5b, 0xf8, 0x28, 0x3e, 0xff, 0xd6, 0x83, 0xbe,
  0x5b, 0xf5, 0x86, 0xbe, 0xfd, 0x0d, 0x49, 0x3e, 0x08, 0x77, 0xc2, 0x3d,
  0x74, 0x3d, 0x1b, 0xbe, 0xab, 0xe3, 0xbf, 0x3d, 0xc3, 0xf0, 0xcf, 0x3d,
  0xd4, 0xab, 0x8a, 0xbe, 0xd4, 0xe1, 0x8c, 0x3d, 0x4e, 0x22, 0x89, 0x3e,
  0x65, 0x4e, 0xe6, 0xbd, 0xd5, 0x43, 0x6d, 0x3e, 0x0b, 0xfc, 0xd8, 0xbd,
  0x6d, 0x75, 0x90, 0xbe, 0xde, 0x3c, 0x54, 0xbe, 0x51, 0x93, 0x0a, 0xbe,
  0x94, 0x9c, 0xf8, 0x3d, 0x7e, 0x2f, 0x46, 0x3d, 0xf4, 0xec, 0xa5, 0xbe,
  0xd6, 0x56, 0x01, 0xbe, 0x85, 0xd4, 0x86, 0x3c, 0xde, 0x37, 0x19, 0x3e,
  0xcd, 0x7e, 0xc6, 0x3d, 0x55, 0x06, 0x19, 0xbe, 0xa5, 0x1a, 0x9c, 0x3e,
  0xa9, 0x7e, 0xbd, 0xbd, 0x6d, 0x7c, 0x5e, 0x3d, 0x34, 0x3d, 0xda, 0x3d,
  0x13, 0x65, 0x48, 0xbe, 0x4b, 0x03, 0x6a, 0x3c, 0x29, 0x9b, 0xa4, 0x3c,
  0xd4, 0x9d, 0x47, 0x3e, 0x60, 0x92, 0xb4, 0xbd, 0xbe, 0x68, 0xb2, 0xbe,
  0xbb, 0x3b, 0x5e, 0xbe, 0xfa, 0xf7, 0x03, 0xbd, 0x8f, 0xab, 0x31, 0x3e,
  0x50, 0xe5, 0x11, 0xbe, 0x48, 0x02, 0xfe, 0x3b, 0x1a, 0x8d, 0xa5, 0x3c,
  0x0e, 0xb0, 0x56, 0x3e, 0x7f, 0x7d, 0x8a, 0x3c, 0x4e, 0xdb, 0xe1, 0x3d,
  0x26, 0x6c, 0xcb, 0x3e, 0x45, 0xd6, 0x5f, 0xbe, 0x86, 0x14, 0xb0, 0xbc,
  0x21, 0x12, 0x82, 0xbe, 0xd6, 0x2d, 0xc0, 0xbd, 0x66, 0xbf, 0x83, 0x3d,
  0x32, 0xd0, 0x65, 0xbc, 0x66, 0x75, 0x7d, 0xbe, 0x95, 0xc4, 0x9c, 0xbd,
  0xce, 0x13, 0x0f, 0x3d, 0xb9, 0x5d, 0x32, 0xbe, 0x09, 0x1a, 0x4f, 0x3d,
  0xbd, 0xb9, 0x87, 0xbe, 0x2b, 0x02, 0x1c, 0xbe, 0xa5, 0x35, 0x48, 0x3e,
  0x96, 0x95, 0xa7, 0x3c, 0x1b, 0x52, 0xb5, 0xbe, 0x58, 0xf8, 0x52, 0x3e,
  0x0d, 0x21, 0x8d, 0x3e, 0xf1, 0x2a, 0x44, 0x3e, 0x00, 0x3a, 0x09, 0x3b,
  0x38, 0x2f, 0x60, 0xbe, 0xb0, 0x6c, 0xdc, 0xbd, 0x38, 0xd5, 0x42, 0x3e,
  0xc4, 0xee, 0x45, 0xbe, 0x28, 0x9a, 0x8d, 0xbe, 0x74, 0xc2, 0x4b, 0x3e,
  0x0c, 0xd6, 0x77, 0xbe, 0x00, 0x0b, 0x95, 0x3c, 0xd0, 0x44, 0xef, 0x3c,
  0x30, 0xb5, 0xe3, 0xbd, 0x30, 0x8d, 0x78, 0x3e, 0x1f, 0x5d, 0x58, 0xbe,
  0x00, 0xaf, 0xe6, 0xbb, 0x7d, 0x84, 0x9b, 0xbe, 0xdc, 0xdb, 0x71, 0x3e,
  0xfc, 0xbc, 0x85, 0xbe, 0xf1, 0x65, 0x64, 0xbe, 0xfe, 0xd3, 0x91, 0x3e,
  0xb0, 0x4a, 0x02, 0x3d, 0x2d, 0x24, 0x8b, 0xbe, 0x60, 0x97, 0xde, 0xbc,
  0xa6, 0xa6, 0xab, 0xbd, 0xe4, 0xfa, 0x86, 0x3e, 0xb2, 0xa3, 0x3e, 0xbe,
  0x14, 0x8b, 0xea, 0x3d, 0x58, 0x4b, 0x86, 0xbe, 0x08, 0xbc, 0x1f, 0xbd,
  0x66, 0x29, 0xca, 0xbd, 0xc6, 0xbd, 0xa0, 0x3e, 0xb3, 0x56, 0x14, 0xbe,
  0xf8, 0xce, 0x51, 0xbd, 0xd2, 0xe1, 0x8b, 0xbe, 0x76, 0xcb, 0x72, 0xbe,
  0x48, 0x42, 0x9c, 0xbd, 0xbc, 0xbd, 0x8f, 0xbe, 0x28, 0x1e, 0x20, 0xbd,
  0xe0, 0xd1, 0x37, 0xbc, 0xa0, 0x80, 0x0c, 0x3c, 0xb8, 0x31, 0xdf, 0xbd,
  0x32, 0x7e, 0x69, 0xbe, 0x91, 0x29, 0x77, 0xbe, 0xa0, 0x26, 0x8c, 0xbd,
  0x14, 0x47, 0x9c, 0x3d, 0xa8, 0x9c, 0xa0, 0x3e, 0xfc, 0xfb, 0xcd, 0xbd,
  0xfc, 0x6d, 0x9a, 0x3e, 0x74, 0x3d, 0x90, 0xbe, 0x9a, 0xa7, 0xbc, 0xbd,
  0x60, 0xb2, 0xc1, 0xbd, 0x40, 0x92, 0x43, 0x3c, 0x60, 0x8e, 0xe3, 0x3c,
  0x00, 0xf7, 0x3b, 0xbd, 0x64, 0x05, 0x4a, 0x3e, 0x65, 0xca, 0xa6, 0xbe,
  0xb6, 0x78, 0x09, 0x3e, 0x3a, 0x22, 0x18, 0xbe, 0xf2, 0x0f, 0x30, 0xbe,
  0xa0, 0x64, 0x46, 0xbe, 0x36, 0xef, 0x06, 0x3e, 0xa0, 0xad, 0x74, 0xbc,
  0x00, 0x84, 0x70, 0xbe, 0xbe, 0x74, 0x69, 0xbe, 0xd0, 0x3d, 0x8d, 0xbc,
  0x95, 0x4e, 0xba, 0xbe, 0xdb, 0xf5, 0xd1, 0x3d, 0x9b, 0xe2, 0xb5, 0xbe,
  0x5b, 0x70, 0x8a, 0x3e, 0xdf, 0xf1, 0xb4, 0x3d, 0xb8, 0x40, 0x94, 0x3e,
  0x83, 0xad, 0xea, 0xbd, 0x8b, 0xa4, 0xd4, 0xbd, 0xda, 0xfb, 0x5a, 0x3d,
  0xc2, 0xe6, 0x56, 0xbe, 0x17, 0x56, 0x32, 0xbe, 0x61, 0x0d, 0x0a, 0xbd,
  0x4d, 0x04, 0xca, 0x3d, 0x6c, 0x08, 0xe1, 0x3d, 0xa0, 0xd5, 0x34, 0x3e,
  0x4a, 0x35, 0xa8, 0xbd, 0xe0, 0xb3, 0x06, 0x3d, 0x53, 0x77, 0x29, 0xbe,
  0xf8, 0xec, 0x14, 0x3d, 0xd0, 0x5c, 0xb5, 0xbd, 0x3e, 0x9b, 0xcb, 0xbd,
  0x90, 0x49, 0x7b, 0x3e, 0xb4, 0xfb, 0xd1, 0x3d, 0x05, 0x45, 0x2b, 0xbe,
  0xdc, 0x97, 0x8e, 0xbd, 0x14, 0x13, 0xa5, 0x3d, 0x10, 0x1c, 0xdb, 0x3c,
  0x9e, 0xed, 0xd4, 0xbd, 0x84, 0x8c, 0x98, 0xbe, 0x28, 0x8a, 0x35, 0x3e,
  0xf2, 0xb5, 0x00, 0xbe, 0x28, 0x19, 0x1d, 0xbe, 0xf0, 0xf8, 0x3f, 0x3d,
  0x98, 0x19, 0x45, 0xbd, 0xcb, 0xa2, 0x34, 0xbe, 0xda, 0xb6, 0x96, 0x3e,
  0x38, 0xb3, 0x82, 0x3e, 0xaf, 0x7f, 0x26, 0xbe, 0x8f, 0x36, 0x7d, 0xbe,
  0xf4, 0x32, 0x94, 0x3e, 0xfd, 0xc7, 0x69, 0xbe, 0x47, 0x4e, 0x26, 0xbe,
  0x80, 0x58, 0x13, 0xbc, 0xbc, 0x71, 0xb2, 0xbd, 0x2e, 0x8d, 0x56, 0xbe,
  0x9f, 0x13, 0x68, 0xbe, 0xd0, 0x5f, 0x2e, 0x3e, 0xe8, 0x1b, 0x81, 0xbd,
  0xc7, 0xea, 0xd7, 0xbd, 0x3c, 0x45, 0xf9, 0xbd, 0x3a, 0xcf, 0xaa, 0xbe,
  0xf4, 0x6d, 0x26, 0x3d, 0x66, 0x25, 0xfc, 0xbb, 0x04, 0xaf, 0x36, 0x3e,
  0x95, 0xb1, 0xa4, 0x3e, 0x91, 0x10, 0xe9, 0xbd, 0x1c, 0x6f, 0x2c, 0x3e,
  0x6c, 0xfe, 0x3b, 0xbe, 0xa5, 0x99, 0x90, 0x3e, 0x35, 0x44, 0x0a, 0xbd,
  0x24, 0x5c, 0x59, 0xbe, 0x8f, 0x66, 0x4f, 0x3e, 0x6c, 0xfa, 0x08, 0x3e,
  0xd4, 0x2b, 0x49, 0xbd, 0x5c, 0x16, 0x82, 0xbd, 0x1a, 0xf6, 0x83, 0xbe,
  0x5a, 0xff, 0x79, 0xbe, 0x24, 0xf6, 0xe9, 0xbd, 0xa0, 0x24, 0x4e, 0xbd,
  0xa0, 0x79, 0xd5, 0x3d, 0x70, 0x7c, 0xea, 0x3c, 0xe8, 0x0d, 0x65, 0x3e,
  0xea, 0x4a, 0x06, 0xbe, 0x1a, 0xfc, 0x18, 0xbe, 0x3e, 0x82, 0x87, 0x3e,
  0xf8, 0x05, 0x7a, 0x3d, 0xe0, 0x80, 0x3a, 0xbe, 0x74, 0xfd, 0xc1, 0x3d,
  0x3c, 0x47, 0x89, 0x3d, 0xa8, 0x9c, 0x6c, 0xbd, 0xe7, 0x16, 0x9b, 0xbe,
  0xe6, 0xbb, 0xa2, 0xbe, 0x74, 0xee, 0x68, 0x3e, 0x72, 0x21, 0x50, 0xbe,
  0x82, 0x22, 0x71, 0xbe, 0xbb, 0xaa, 0x99, 0xbe, 0xd0, 0xda, 0xb1, 0x3c,
  0x44, 0x18, 0x2a, 0x3e, 0x53, 0xb2, 0x44, 0xbe, 0x6a, 0x05, 0x1b, 0xbe,
  0x40, 0x05, 0x1c, 0x3d, 0xf4, 0x3c, 0x4e, 0x3e, 0xf0, 0xaa, 0xf6, 0x3c,
  0xe0, 0x63, 0x43, 0xbd, 0xd2, 0x01, 0x89, 0x3e, 0x10, 0x93, 0x09, 0x3d,
  0x73, 0x6e, 0x8a, 0xbe, 0x94, 0xd1, 0x30, 0xbe, 0x30, 0xb8, 0xef, 0xbc,
  0xa8, 0x56, 0x04, 0xbd, 0x8e, 0xe1, 0x8c, 0x3e, 0xe3, 0xd7, 0x71, 0xbe,
  0x68, 0x78, 0x0b, 0xbd, 0xec, 0x89, 0x89, 0x3e, 0x82, 0xf4, 0x8d, 0x3e,
  0xe2, 0x23, 0x1a, 0xbe, 0x8e, 0x01, 0x90, 0xbe, 0x3a, 0xad, 0x8c, 0xbe,
  0x00, 0x01, 0x8c, 0x3e, 0x58, 0x91, 0x77, 0x3d, 0x53, 0x6b, 0x6c, 0xbe,
  0x14, 0x4d, 0xf9, 0x3d, 0xf4, 0x02, 0x3e, 0x3e, 0x70, 0x2a, 0x71, 0x3d,
  0x58, 0xfd, 0x52, 0x3d, 0x0e, 0x65, 0x6b, 0xbe, 0x3c, 0x47, 0x37, 0x3e,
  0x18, 0x82, 0x62, 0xbe, 0x78, 0x14, 0x5a, 0xbd, 0x18, 0xa4, 0x2c, 0x3d,
  0x58, 0x73, 0x5d, 0x3e, 0x88, 0x3d, 0x46, 0x3e, 0xfb, 0xd3, 0x75, 0xbe,
  0x50, 0xc0, 0x59, 0xbe, 0x65, 0xc7, 0x9c, 0xbe, 0xec, 0xb8, 0xb9, 0x3d,
  0x16, 0xd3, 0x68, 0xbe, 0x38, 0x52, 0x3f, 0x3e, 0xe3, 0x2d, 0xde, 0xbd,
  0xa4, 0x18, 0x6f, 0x3e, 0x82, 0x30, 0xe1, 0x3d, 0xbc, 0x15, 0xad, 0xbe,
  0x7d, 0xf9, 0x41, 0x3e, 0x96, 0x19, 0x4d, 0xbe, 0x81, 0xd3, 0x88, 0xbe,
  0xf7, 0xe4, 0x12, 0xbe, 0x4c, 0x8b, 0xf5, 0x3d, 0xda, 0xb9, 0x75, 0x3e,
  0xf7, 0xd0, 0xac, 0xbd, 0x62, 0xd6, 0x9e, 0xbe, 0x2f, 0xca, 0x0c, 0x3e,
  0x6e, 0xce, 0xfa, 0x3d, 0x4e, 0x1a, 0x06, 0x3e, 0x2c, 0xf6, 0x99, 0x3d,
  0x67, 0xc8, 0x79, 0x3e, 0x93, 0x3a, 0x3f, 0x3e, 0xb4, 0x87, 0xf6, 0x3e,
  0x10, 0xe7, 0x9c, 0xbe, 0xa1, 0x48, 0xd6, 0x3d, 0x4a, 0x61, 0x0d, 0x3b,
  0x30, 0x94, 0xe1, 0xbc, 0x9f, 0x20, 0x41, 0x3d, 0x93, 0xba, 0x16, 0x3e,
  0x18, 0x49, 0x1f, 0xbd, 0x88, 0x2b, 0x90, 0x3e, 0x63, 0x97, 0x96, 0x3d,
  0x8e, 0x81, 0x86, 0xbe, 0x22, 0xd7, 0x77, 0xbd, 0x77, 0xad, 0x5d, 0xbe,
  0x3f, 0xf3, 0x88, 0x3d, 0xf6, 0x8d, 0x9f, 0xbe, 0x42, 0x8a, 0x26, 0xbe,
  0x31, 0xa1, 0x6c, 0xbe, 0x8c, 0xec, 0x95, 0x3d, 0xb2, 0xd8, 0xf6, 0xbd,
  0x9e, 0xd7, 0x46, 0xbe, 0x66, 0x3f, 0xa0, 0x3e, 0x5a, 0xd1, 0x70, 0xbe,
  0xd0, 0x39, 0xac, 0x3d, 0x2e, 0x00, 0x06, 0x3e, 0x84, 0x73, 0xb8, 0xbd,
  0x5a, 0xee, 0x29, 0x3e, 0xd2, 0x5c, 0xc1, 0xbd, 0xa7, 0x1d, 0x17, 0xbe,
  0x60, 0x29, 0x93, 0x3c, 0x48, 0x77, 0x86, 0xbd, 0xac, 0x27, 0xc3, 0x3d,
  0x18, 0x51, 0xbd, 0x3d, 0x0d, 0xf9, 0x50, 0x3e, 0x87, 0xa6, 0x55, 0xbe,
  0x7d, 0x75, 0x2b, 0x3d, 0x3f, 0xac, 0xa7, 0x3d, 0xe2, 0x1c, 0x0d, 0x3e,
  0xd5, 0x0c, 0x4c, 0xbe, 0x19, 0x21, 0x8b, 0x3e, 0x4a, 0xd1, 0x74, 0x3e,
  0x42, 0xd2, 0xab, 0xbe, 0x7e, 0x51, 0x80, 0x3e, 0x3e, 0x7b, 0x1d, 0xbe,
  0x05, 0x8f, 0x3c, 0x3e, 0xdd, 0x96, 0x42, 0xbe, 0xb4, 0xac, 0x1c, 0xbb,
  0x2c, 0x8e, 0x45, 0x3e, 0x8e, 0xf9, 0xcb, 0x3d, 0x54, 0x2d, 0x8d, 0xbe,
  0xb6, 0x10, 0x1d, 0xbe, 0x96, 0x9e, 0x93, 0xbe, 0x18, 0x1b, 0x49, 0x3e,
  0x0b, 0x9d, 0x72, 0x3e, 0x06, 0xfe, 0xd6, 0xbd, 0x85, 0x1e, 0xa4, 0x3d,
  0xe0, 0x8c, 0x26, 0x3e, 0x6d, 0x68, 0xfc, 0x3d, 0xe3, 0xf1, 0x42, 0x3c,
  0x53, 0x3e, 0x1b, 0xbe, 0xc9, 0x3e, 0x62, 0x3d, 0x76, 0x33, 0xe9, 0x3d,
  0x0b, 0x0a, 0x68, 0x3e, 0x55, 0x3c, 0x9f, 0xbe, 0xe2, 0xc4, 0x7f, 0xbe,
  0x56, 0x1f, 0x08, 0x3e, 0xd4, 0x28, 0x41, 0x3e, 0x5d, 0x08, 0x08, 0xbe,
  0x68, 0x7e, 0x76, 0xbd, 0x78, 0xd7, 0x7f, 0x3d, 0xe0, 0xb4, 0xf0, 0xbd,
  0x50, 0x3c, 0x2f, 0xbd, 0x20, 0x11, 0x8b, 0xbd, 0xb0, 0x78, 0xea, 0x3c,
  0xf6, 0x7e, 0xfd, 0xbd, 0xd2, 0x03, 0x52, 0xbe, 0x98, 0x18, 0x9f, 0x3e,
  0x5d, 0xd5, 0x88, 0xbe, 0xdc, 0x23, 0x35, 0xbe, 0x77, 0xae, 0xef, 0xbe,
  0x7f, 0xf0, 0x9b, 0x3c, 0x7d, 0x34, 0x6e, 0xbe, 0x5f, 0xb3, 0x88, 0xbe,
  0x16, 0x46, 0xcd, 0x3e, 0x66, 0xba, 0xef, 0xbd, 0x3d, 0x5d, 0x51, 0x3e,
  0xe7, 0xdf, 0xc7, 0x3e, 0x0c, 0x9a, 0x33, 0xbd, 0xee, 0xa4, 0x5d, 0xbe,
  0x08, 0x19, 0xd8, 0xbd, 0x09, 0x75, 0x84, 0x3e, 0x9f, 0x83, 0xd2, 0xbd,
  0xd5, 0x79, 0xac, 0x3e, 0x0a, 0xe3, 0x28, 0x3e, 0x31, 0xd8, 0x2f, 0xbe,
  0x3b, 0x07, 0x79, 0x3c, 0x6d, 0x28, 0x85, 0xbe, 0x19, 0x2d, 0x10, 0x3c,
  0x05, 0x55, 0xa9, 0xbd, 0x67, 0x5e, 0xbc, 0x3a, 0xde, 0xbb, 0x91, 0x3e,
  0x52, 0x16, 0xb0, 0x3e, 0x53, 0xcf, 0xcd, 0x3c, 0x15, 0x95, 0x95, 0xbd,
  0x13, 0xa9, 0x92, 0xbe, 0xe6, 0xe7, 0xc1, 0x3e, 0x93, 0x47, 0xaf, 0xbd,
  0xcf, 0x7f, 0xd1, 0x3d, 0x57, 0xd4, 0xc9, 0xbd, 0x16, 0xd9, 0x52, 0xbd,
  0x24, 0xfc, 0x66, 0x3e, 0xa9, 0x80, 0x2c, 0xbe, 0xba, 0x1b, 0x59, 0x3e,
  0x70, 0xc9, 0x83, 0xbe, 0x26, 0xc3, 0x85, 0xbe, 0xb2, 0x4d, 0xaa, 0xbd,
  0xca, 0x04, 0x37, 0xbd, 0x04, 0x48, 0x2a, 0xbe, 0x2b, 0xf5, 0x9f, 0x3e,
  0xa0, 0x72, 0x67, 0xbe, 0xca, 0x5f, 0x7e, 0x3e, 0x71, 0x8e, 0xb4, 0xbe,
  0x5c, 0x90, 0xd9, 0x3d, 0xaf, 0x4a, 0xf5, 0xbc, 0xe8, 0x78, 0xfd, 0x3e,
  0x2a, 0xfe, 0xbf, 0x3e, 0xb4, 0x85, 0x11, 0xbe, 0x07, 0xa9, 0x2b, 0x3e,
  0x5b, 0xcd, 0xf0, 0xbc, 0x7b, 0x66, 0xb2, 0xbe, 0x70, 0x47, 0x44, 0xbe,
  0xe4, 0xae, 0x62, 0xbb, 0x44, 0xca, 0xf6, 0x3d, 0x33, 0x90, 0x05, 0x3e,
  0x71, 0x81, 0x27, 0x3e, 0xac, 0xce, 0xa2, 0x3e, 0xc0, 0xc2, 0x2d, 0x3e,
  0x0c, 0x5b, 0x49, 0x3d, 0xd0, 0x16, 0x4d, 0xbd, 0x16, 0x52, 0x23, 0x3b,
  0x6a, 0x33, 0xb1, 0xbe, 0x16, 0x66, 0xa5, 0x3d, 0x7b, 0xbd, 0x86, 0xbe,
  0x0f, 0x7c, 0x49, 0x3e, 0xf4, 0xe3, 0xcb, 0x3c, 0xb5, 0xbf, 0x8b, 0x3d,
  0x72, 0xfe, 0xb4, 0x3d, 0x75, 0x2a, 0x81, 0x3d, 0x4a, 0x82, 0xb7, 0xbd,
  0x6c, 0xb3, 0xdd, 0x3d, 0xe4, 0x89, 0xa8, 0x3d, 0x2f, 0xe8, 0xda, 0xbd,
  0x7b, 0x7f, 0xa1, 0x3e, 0xa3, 0x99, 0xaa, 0xbd, 0x72, 0x2c, 0x35, 0xbe,
  0x30, 0x6a, 0x0d, 0xbe, 0xaa, 0x54, 0xd5, 0x3d, 0x24, 0x94, 0x61, 0xbe,
  0xbf, 0x84, 0xa6, 0xbe, 0x84, 0x22, 0x01, 0x3e, 0xde, 0xd9, 0x8b, 0x3e,
  0x72, 0xcd, 0x07, 0x3e, 0x28, 0xaf, 0x1b, 0x3d, 0xe2, 0x75, 0xd3, 0xbd,
  0x7d, 0xa9, 0x50, 0xbe, 0xd3, 0x31, 0x93, 0xbe, 0xa4, 0x0f, 0x91, 0xbe,
  0x00, 0x96, 0x51, 0xbb, 0x58, 0xe2, 0x75, 0xbe, 0xb4, 0x78, 0x43, 0x3e,
  0x74, 0xac, 0x7d, 0x3e, 0xa0, 0xa3, 0x9d, 0xbc, 0x49, 0x18, 0xa3, 0xbe,
  0x10, 0x28, 0x9d, 0xbc, 0xfe, 0x9f, 0x9d, 0xbe, 0x23, 0x25, 0xa9, 0xbe,
  0x3e, 0xa9, 0xe6, 0xbd, 0x81, 0xa3, 0xae, 0x3e, 0xb4, 0xb8, 0xa7, 0xbd,
  0x58, 0x08, 0x2a, 0x3e, 0x38, 0x24, 0xf2, 0x3d, 0xc4, 0x8d, 0x8a, 0x3d,
  0x2b, 0xf0, 0x84, 0xbe, 0xbf, 0x76, 0xf6, 0xbd, 0xc3, 0xc7, 0xcd, 0xbb,
  0x42, 0x01, 0x26, 0xbe, 0x51, 0x22, 0x5b, 0x3e, 0x5a, 0x26, 0x46, 0x3e,
  0x97, 0x4e, 0xaa, 0x3d, 0xdd, 0xf6, 0x86, 0x3e, 0xe5, 0x54, 0x73, 0xbe,
  0x8b, 0x80, 0xcb, 0x3c, 0xa4, 0xae, 0xa3, 0x3e, 0xba, 0xa9, 0x93, 0xbe,
  0x58, 0x09, 0xa6, 0x3e, 0x05, 0xcc, 0xc3, 0x3d, 0x5e, 0x1c, 0xa7, 0xbe,
  0x93, 0x37, 0x9a, 0xbd, 0x4f, 0xdb, 0x1c, 0x3e, 0x92, 0x53, 0x6a, 0x3e,
  0xcf, 0x54, 0x3d, 0x3e, 0x84, 0xd7, 0x0b, 0xbd, 0x78, 0x87, 0xd3, 0xbb,
  0x75, 0xd3, 0x23, 0x3e, 0x0b, 0x25, 0xd1, 0xbe, 0x33, 0x40, 0x16, 0x3e,
  0x9e, 0x6f, 0x0b, 0xbe, 0xee, 0xa1, 0x30, 0x3e, 0x9e, 0x8f, 0x08, 0x3e,
  0xa3, 0x3a, 0x4a, 0xbe, 0xf3, 0x54, 0x60, 0xbd, 0xb9, 0x0f, 0xad, 0xbe,
  0x72, 0x7e, 0x45, 0x3e, 0x55, 0xef, 0xe3, 0xbd, 0xc6, 0xdf, 0xa0, 0xbe,
  0x5a, 0xd4, 0x92, 0xbe, 0xd8, 0xfc, 0x7e, 0x3e, 0x0b, 0x05, 0x0b, 0xbe,
  0xf6, 0x0c, 0x07, 0x3e, 0xc2, 0x24, 0x14, 0xbe, 0x80, 0xad, 0x7f, 0xbc,
  0x91, 0x40, 0xa3, 0x3d, 0x54, 0x8e, 0x13, 0x3e, 0x04, 0x0d, 0xfb, 0x3d,
  0xa0, 0xba, 0x48, 0xbe, 0xb6, 0x92, 0xd5, 0x3e, 0xf9, 0xcd, 0x8b, 0xbe,
  0xb9, 0xee, 0x27, 0xbd, 0xab, 0xcb, 0xfb, 0x3d, 0x5b, 0xcc, 0xdb, 0x3d,
  0x4d, 0xec, 0xeb, 0xbd, 0xbb, 0x25, 0x05, 0xbe, 0x9e, 0x18, 0x0f, 0x3e,
  0x3c, 0xd6, 0xc3, 0xbe, 0x4c, 0x03, 0x94, 0x3e, 0xc0, 0x4a, 0x01, 0x3e,
  0x25, 0x0a, 0x29, 0x3e, 0xca, 0x93, 0x48, 0xbe, 0xba, 0xa2, 0xe8, 0xbc,
  0x79, 0x3f, 0x5e, 0x3d, 0xbd, 0x6e, 0x29, 0xbd, 0x00, 0xcf, 0x7c, 0xbe,
  0x74, 0x75, 0x9a, 0xbe, 0xcc, 0x07, 0x88, 0x3e, 0x9f, 0x14, 0x19, 0x3e,
  0xa2, 0x5e, 0xa6, 0xbe, 0x8f, 0xe4, 0x47, 0xbc, 0x23, 0xe5, 0x4f, 0x3e,
  0xd4, 0xd4, 0x65, 0x3e, 0x4a, 0xa7, 0xe2, 0xbd, 0x76, 0xdf, 0x58, 0xbe,
  0xc1, 0x3c, 0x64, 0x3c, 0x6a, 0x82, 0x55, 0xbe, 0xb1, 0x56, 0x13, 0xbe,
  0xee, 0x77, 0x6a, 0x3d, 0x80, 0x99, 0xc1, 0x3d, 0x58, 0x5b, 0x64, 0x3d,
  0x66, 0x28, 0x04, 0xbe, 0x00, 0x43, 0x2a, 0xbb, 0x60, 0x5f, 0x50, 0x3e,
  0xd6, 0x88, 0x29, 0xbe, 0xdc, 0x2c, 0x02, 0x3e, 0x88, 0x5a, 0x6c, 0x3e,
  0x15, 0x19, 0x14, 0xbe, 0x7d, 0xaa, 0x46, 0xbe, 0x00, 0x36, 0xc4, 0x3a,
  0xef, 0xa1, 0x8f, 0xbe, 0xce, 0x5a, 0x65, 0xbe, 0xb4, 0x38, 0xa1, 0xbe,
  0xc0, 0x08, 0xd6, 0xbd, 0xb0, 0xf7, 0xeb, 0x3c, 0x9f, 0x4e, 0xfb, 0x3d,
  0x06, 0xb3, 0x86, 0x3e, 0x80, 0xaa, 0xaf, 0x3d, 0xb5, 0x7f, 0x60, 0xbe,
  0x4c, 0xe8, 0xed, 0xbe, 0x3d, 0xc8, 0x6d, 0x3e, 0x0d, 0xf2, 0x30, 0x3e,
  0xf1, 0x57, 0xb9, 0x3d, 0xad, 0xc8, 0x73, 0xbd, 0xae, 0x3a, 0xf0, 0x3d,
  0x09, 0x54, 0xd4, 0xbc, 0x37, 0x0c, 0xf1, 0xbc, 0x0f, 0x14, 0x90, 0xbd,
  0xec, 0x2a, 0x00, 0x3e, 0xd8, 0x2a, 0xf3, 0x3c, 0x8f, 0x8d, 0xf5, 0xbe,
  0x10, 0xf4, 0xff, 0xff, 0x14, 0xf4, 0xff, 0xff, 0x18, 0xf4, 0xff, 0xff,
  0x04, 0x00, 0x06, 0x00, 0x04, 0x00, 0x00, 0x00, 0x00, 0x00, 0x06, 0x00,
  0x08, 0x00, 0x04, 0x00, 0x06, 0x00, 0x00, 0x00, 0x04, 0x00, 0x00, 0x00,
  0x40, 0x06, 0x00, 0x00, 0xf4, 0xe2, 0xd8, 0x17, 0x26, 0xe9, 0xda, 0xfd,
  0xf0, 0xea, 0xe9, 0x16, 0xde, 0xde, 0x02, 0x0c, 0x18, 0x21, 0xe0, 0xdd,
  0xe6, 0x11, 0x27, 0x07, 0x16, 0xe8, 0xfe, 0x06, 0xea, 0xf4, 0x1a, 0xf7,
  0xe1, 0x1f, 0x10, 0xed, 0x0b, 0x01, 0xfa, 0x10, 0x1e, 0xf4, 0xd5, 0x25,
  0xfe, 0xf2, 0x09, 0xdc, 0xdc, 0xe8, 0xfe, 0xf2, 0xfb, 0x16, 0xf3, 0xe0,
  0xf8, 0x1f, 0xfe, 0x26, 0x00, 0xfa, 0x11, 0x05, 0xda, 0xda, 0xec, 0xf6,
  0x14, 0x0d, 0xf7, 0xff, 0x07, 0xfc, 0x08, 0x25, 0x21, 0x13, 0x1a, 0xdb,
  0x01, 0x21, 0xa9, 0x14, 0xef, 0xf8, 0x11, 0x1c, 0x17, 0x20, 0x24, 0x20,
  0x1e, 0x01, 0xdf, 0xed, 0x0c, 0xe1, 0xda, 0x1e, 0xff, 0xdd, 0x13, 0x1a,
  0xdd, 0x38, 0xf7, 0x2e, 0x1c, 0xf0, 0xfe, 0xc7, 0x28, 0xeb, 0xcd, 0xd8,
  0x17, 0xe8, 0xea, 0x05, 0x07, 0xfe, 0xd7, 0x08, 0x23, 0x00, 0x09, 0xff,
  0xfd, 0xd9, 0xde, 0x27, 0xe2, 0xf4, 0x15, 0xdd, 0x21, 0xe4, 0xe0, 0x28,
  0xf1, 0xf4, 0x16, 0x28, 0x22, 0x00, 0xe3, 0xf1, 0x24, 0xe7, 0x1a, 0x14,
  0xfd, 0xfa, 0x27, 0xf5, 0xe2, 0x24, 0x22, 0x06, 0x28, 0x03, 0x14, 0xd9,
  0xdd, 0x20, 0x08, 0x1c, 0xf8, 0x15, 0xf5, 0x24, 0x1f, 0xf6, 0xe2, 0x0b,
  0xfa, 0xf4, 0x26, 0x16, 0xed, 0x1a, 0xeb, 0xea, 0x15, 0xf4, 0x0f, 0x08,
  0x0a, 0xe7, 0xfc, 0xef, 0x28, 0x19, 0xdf, 0xea, 0xe2, 0xd8, 0x22, 0x01,
  0xe9, 0x05, 0x11, 0xdd, 0xe8, 0x03, 0x15, 0x1e, 0xfb, 0x0f, 0xee, 0x16,
  0xe7, 0xc3, 0xeb, 0x05, 0xe9, 0xd9, 0x14, 0xf7, 0x05, 0xd5, 0x22, 0xe6,
  0x23, 0xe4, 0xfe, 0x1a, 0xf8, 0x09, 0xfb, 0x11, 0xf5, 0x14, 0xd9, 0x1d,
  0x37, 0xe4, 0xec, 0x32, 0x0b, 0xf3, 0xea, 0xe5, 0xe7, 0xe0, 0xf1, 0xff,
  0x02, 0x0b, 0xf0, 0x1b, 0xe1, 0xfb, 0xfb, 0x19, 0xe4, 0xe5, 0x06, 0x13,
  0xf0, 0xdb, 0x15, 0xe6, 0x12, 0x06, 0x24, 0x1c, 0xfa, 0xe5, 0xf2, 0x00,
  0x0d, 0x1f, 0xd8, 0x0c, 0xf7, 0x1d, 0x13, 0x22, 0x1d, 0x05, 0x14, 0x13,
  0xe6, 0x28, 0xf1, 0xea, 0x0b, 0xe9, 0xe3, 0xf2, 0x09, 0x22, 0xe3, 0xe4,
  0x0c, 0x19, 0x09, 0xf7, 0xe6, 0xf8, 0xe7, 0xfa, 0x10, 0xdf, 0x01, 0x08,
  0xf2, 0xde, 0xf2, 0xe2, 0xda, 0x1e, 0xed, 0x1a, 0xd8, 0xe2, 0xe2, 0x12,
  0x0b, 0xe3, 0x19, 0xe4, 0xeb, 0xec, 0xdf, 0xf4, 0x0f, 0xe6, 0x19, 0x10,
  0x05, 0xf5, 0xd9, 0xe5, 0xe0, 0x1b, 0x19, 0xd8, 0xf7, 0x0a, 0xf4, 0xfd,
  0x18, 0xde, 0xf5, 0x20, 0x1f, 0x15, 0x08, 0xf7, 0xf0, 0x19, 0xea, 0xe5,
  0x0f, 0xe7, 0xf0, 0xe1, 0x0f, 0x0d, 0xfe, 0x02, 0xe5, 0xf1, 0x11, 0xe9,
  0x20, 0x08, 0x11, 0xea, 0xfb, 0xe6, 0x17, 0xe2, 0x0f, 0x26, 0xdb, 0xf9,
  0x05, 0xf5, 0xd5, 0xda, 0xd6, 0x21, 0xf8, 0xe5, 0x0d, 0x09, 0x13, 0x0d,
  0xdb, 0x13, 0x14, 0x0f, 0xde, 0x0d, 0x27, 0x11, 0xe3, 0x22, 0xc2, 0x01,
  0x03, 0xe5, 0x25, 0x00, 0x16, 0x1a, 0xe5, 0xdb, 0x19, 0xdf, 0xef, 0xfe,
  0x21, 0xed, 0xdd, 0x05, 0xfc, 0xee, 0xe4, 0x0f, 0xff, 0xe8, 0xed, 0x0f,
  0x2a, 0xe1, 0xf2, 0x28, 0x06, 0xf0, 0x18, 0x16, 0x27, 0xde, 0xea, 0xf1,
  0x01, 0xfa, 0xa1, 0x1e, 0x16, 0xfe, 0x19, 0x00, 0xe2, 0xe1, 0xe7, 0xf1,
  0x15, 0xba, 0xdc, 0x1e, 0x19, 0xea, 0x05, 0xdb, 0x0d, 0xe9, 0xd1, 0xf3,
  0x1e, 0x1c, 0x20, 0xf3, 0x2a, 0xcf, 0x1a, 0xee, 0x23, 0xf9, 0x05, 0xdd,
  0xfb, 0xeb, 0x03, 0xfb, 0x1b, 0x25, 0x0c, 0xdb, 0xdf, 0xe2, 0xdc, 0xfd,
  0xdb, 0x22, 0x01, 0x19, 0x1e, 0xf4, 0xeb, 0x03, 0xeb, 0xda, 0x0e, 0x06,
  0xea, 0xe9, 0x18, 0x27, 0xf6, 0xe6, 0xf6, 0xeb, 0xdd, 0x17, 0xf3, 0xdb,
  0x18, 0x20, 0xfa, 0x05, 0x14, 0xee, 0xdc, 0x09, 0x0f, 0x11, 0x1d, 0xe1,
  0x06, 0xef, 0xf4, 0xfe, 0xe1, 0xed, 0xe4, 0xe9, 0x0b, 0xee, 0xe8, 0x09,
  0xe9, 0x14, 0xed, 0x0e, 0x21, 0x06, 0xf8, 0x1b, 0xec, 0xf1, 0x1f, 0x20,
  0xf4, 0xdc, 0xfb, 0x09, 0x07, 0xef, 0xfb, 0xfd, 0xf5, 0x13, 0xd9, 0x03,
  0x05, 0x0f, 0x24, 0xee, 0x14, 0xd9, 0x0b, 0x07, 0x1a, 0x09, 0xe0, 0x10,
  0x16, 0xf4, 0xfa, 0x19, 0x0a, 0x02, 0x1e, 0xec, 0xf9, 0xd5, 0xd4, 0xe2,
  0x1f, 0x00, 0xd8, 0xd7, 0x03, 0x11, 0x35, 0x0a, 0xf4, 0xed, 0xfe, 0x27,
  0xd5, 0x18, 0x0f, 0x1c, 0x1f, 0x28, 0x24, 0xe0, 0xcf, 0xef, 0xf2, 0x16,
  0x1f, 0xe1, 0x13, 0x0e, 0xeb, 0x9d, 0xe6, 0xf9, 0x1c, 0x01, 0x15, 0x0f,
  0x11, 0x0a, 0x0a, 0xe7, 0x01, 0x1f, 0xef, 0x02, 0xf0, 0x26, 0x42, 0x11,
  0x0e, 0xe7, 0xfe, 0x17, 0xf0, 0x13, 0x0f, 0x1f, 0xf3, 0xfb, 0xeb, 0x16,
  0xfd, 0xf8, 0xe9, 0x1e, 0x0f, 0x21, 0x0c, 0x0c, 0x17, 0x19, 0x1f, 0x24,
  0xfd, 0xda, 0x14, 0xdd, 0x24, 0x17, 0xe3, 0xe8, 0x04, 0xdf, 0xfa, 0xf0,
  0x16, 0x04, 0xf7, 0x11, 0xdc, 0x03, 0xd8, 0xe5, 0x1d, 0xfb, 0x1e, 0x1c,
  0x10, 0x0d, 0xdd, 0x13, 0xd4, 0xf0, 0xfd, 0xeb, 0x04, 0x16, 0x13, 0x1d,
  0x00, 0x17, 0x0d, 0xfc, 0xf9, 0x12, 0xe0, 0x20, 0xf0, 0x1f, 0x1f, 0xe1,
  0x08, 0xd8, 0x13, 0xe4, 0x10, 0xdf, 0x19, 0x1d, 0xfc, 0xf3, 0xd9, 0xf5,
  0x04, 0x22, 0xed, 0xda, 0xf3, 0x20, 0xd4, 0xfa, 0xd6, 0x19, 0x1b, 0x0a,
  0x1a, 0xef, 0xdb, 0xda, 0xde, 0xc6, 0x1a, 0xfb, 0xea, 0x19, 0x21, 0xf1,
  0x17, 0x0d, 0xd6, 0x28, 0x06, 0x15, 0x0c, 0x2f, 0x1f, 0xc3, 0x10, 0xfb,
  0xef, 0xfa, 0x16, 0xf6, 0xe7, 0xe1, 0x0c, 0x16, 0xe4, 0xf8, 0x03, 0x2b,
  0x28, 0x12, 0x00, 0xfa, 0x14, 0x1d, 0x14, 0xf2, 0xe8, 0xce, 0x08, 0xd9,
  0xf7, 0x28, 0xe0, 0xfa, 0xeb, 0x11, 0x22, 0x1e, 0x18, 0x23, 0x0d, 0xef,
  0xea, 0x1d, 0xf2, 0xd9, 0xdf, 0x2a, 0xef, 0xe2, 0xf8, 0x07, 0x07, 0x25,
  0x06, 0x2b, 0x46, 0xdc, 0x19, 0xf7, 0x15, 0x2b, 0xfe, 0x25, 0x1b, 0xf1,
  0x14, 0xd4, 0xf4, 0xef, 0x1d, 0x00, 0xdc, 0x0b, 0xf0, 0xd7, 0x1e, 0x0e,
  0xd9, 0x16, 0x0a, 0xf9, 0x0e, 0xfd, 0x30, 0x04, 0xf7, 0x17, 0x03, 0x13,
  0xeb, 0xec, 0xf4, 0x25, 0x22, 0x28, 0x06, 0xe9, 0xed, 0xe4, 0xf8, 0xc3,
  0x0a, 0x14, 0xe0, 0xee, 0xf0, 0x24, 0x21, 0xf8, 0xb1, 0x11, 0xf3, 0x03,
  0x09, 0xb0, 0x3a, 0xe0, 0xdb, 0xff, 0x28, 0xd7, 0x2b, 0x29, 0xc9, 0xf9,
  0x10, 0xaf, 0x21, 0xec, 0x18, 0xf5, 0xe0, 0x04, 0xee, 0x06, 0x40, 0x12,
  0xdb, 0x1d, 0xf0, 0x13, 0xf8, 0xf1, 0xeb, 0x0c, 0x04, 0xb4, 0xf2, 0xdb,
  0x27, 0x20, 0xe1, 0xea, 0xfc, 0xda, 0x16, 0x1e, 0x02, 0x39, 0x1b, 0x1d,
  0x37, 0xc9, 0x2d, 0xea, 0x0e, 0xe0, 0x1b, 0xfa, 0xfe, 0x28, 0xdf, 0x19,
  0x18, 0xed, 0xe5, 0xfd, 0xd6, 0x0d, 0xd7, 0xf8, 0x1a, 0xe7, 0xfb, 0xe9,
  0x21, 0xf9, 0x0f, 0x07, 0xd7, 0xe7, 0xe8, 0xdf, 0xe1, 0xe2, 0x1d, 0xe7,
  0x12, 0x1e, 0xf2, 0xf7, 0x05, 0xff, 0x0b, 0xe8, 0xf2, 0x11, 0xf5, 0xf3,
  0xdc, 0x07, 0xd8, 0xd8, 0xf8, 0xdb, 0x13, 0xfe, 0xd9, 0xff, 0xfd, 0xe0,
  0xec, 0x05, 0xf3, 0x0a, 0x27, 0xff, 0x1c, 0x25, 0xe8, 0xe7, 0x12, 0xdf,
  0x23, 0x24, 0x20, 0x0e, 0x1c, 0xea, 0x24, 0x16, 0xdf, 0x09, 0x14, 0xec,
  0x0d, 0xe7, 0xfa, 0xea, 0x06, 0xdf, 0xdb, 0xf3, 0xfa, 0xf0, 0x0d, 0xdd,
  0xf6, 0x13, 0x06, 0xdd, 0xf0, 0xe0, 0xe9, 0x00, 0x22, 0xd9, 0x20, 0xf3,
  0xf2, 0xe9, 0xdc, 0xf1, 0xee, 0xfd, 0xe4, 0x17, 0xdc, 0xf1, 0xe8, 0xd8,
  0xe7, 0xec, 0xf3, 0x07, 0x07, 0xfd, 0xee, 0x23, 0xf4, 0xe0, 0x03, 0x0a,
  0xe9, 0x1d, 0xd8, 0xdd, 0xf1, 0x00, 0xe0, 0x11, 0xfc, 0x27, 0xdc, 0x13,
  0xff, 0x20, 0x15, 0xd9, 0x14, 0xfa, 0x23, 0xeb, 0xf8, 0xf9, 0xfc, 0xdb,
  0x01, 0xe3, 0xe6, 0xe9, 0xf3, 0xfe, 0xe4, 0xe9, 0xe1, 0xe4, 0xf6, 0xe6,
  0xea, 0xde, 0x27, 0x11, 0xe9, 0xed, 0xfe, 0x1d, 0x06, 0xdf, 0x25, 0xd9,
  0x02, 0xe2, 0x0e, 0x06, 0xf1, 0xf4, 0xdf, 0xda, 0xf2, 0x06, 0x14, 0x02,
  0x0f, 0x1b, 0xf3, 0xf5, 0x18, 0xda, 0xd9, 0xf7, 0x08, 0xea, 0xf7, 0x04,
  0x17, 0xfb, 0xda, 0xfe, 0xd8, 0x14, 0xf7, 0xe1, 0xfa, 0x30, 0xcc, 0xd6,
  0x2b, 0xe0, 0xd1, 0xef, 0x18, 0x1c, 0xde, 0xe7, 0x11, 0x3b, 0xf7, 0xe4,
  0xf8, 0x14, 0xff, 0x24, 0x28, 0xcf, 0x04, 0x17, 0x02, 0x09, 0x22, 0x50,
  0xfb, 0xbf, 0xe3, 0xe8, 0xe3, 0xff, 0x2e, 0x19, 0xe5, 0xe7, 0xe5, 0xfe,
  0xda, 0xed, 0x30, 0x2a, 0x1b, 0xeb, 0xfa, 0xfb, 0x22, 0xf3, 0xfb, 0xe8,
  0x0e, 0xff, 0x16, 0xd9, 0x31, 0xed, 0x10, 0x19, 0x1b, 0x15, 0x13, 0xe4,
  0xf0, 0x0e, 0x14, 0x7f, 0x1c, 0xe6, 0xf0, 0xcb, 0x08, 0x27, 0xdc, 0xe5,
  0xed, 0x20, 0x0d, 0xcf, 0xfd, 0xdb, 0xe8, 0xed, 0xdf, 0x10, 0x19, 0x16,
  0x1c, 0x12, 0xde, 0x05, 0x27, 0x28, 0xf1, 0x10, 0xe2, 0x03, 0x05, 0xdb,
  0x11, 0x08, 0xfe, 0x20, 0x19, 0xdf, 0xd9, 0xf8, 0xd5, 0xf4, 0xfe, 0x1c,
  0x0f, 0x0a, 0xfa, 0xe8, 0x13, 0xdd, 0x04, 0xf8, 0x26, 0xf9, 0x0b, 0xd8,
  0x00, 0x1a, 0xfd, 0x21, 0xe2, 0xf0, 0x04, 0xe2, 0xe8, 0xe4, 0x23, 0x04,
  0x00, 0xe3, 0xe0, 0x0b, 0xfd, 0xe9, 0xe7, 0xf5, 0x02, 0xd9, 0x00, 0xe5,
  0xe4, 0xe0, 0x26, 0x20, 0x18, 0xe0, 0xe4, 0x18, 0x24, 0x10, 0xff, 0xeb,
  0xdc, 0x1c, 0x18, 0x25, 0xff, 0x07, 0xec, 0xfd, 0x00, 0x20, 0x1e, 0xe6,
  0x24, 0xfa, 0xec, 0xed, 0xf8, 0xed, 0x13, 0xf8, 0xd9, 0xe2, 0x08, 0x08,
  0xd8, 0x02, 0xe4, 0xe4, 0xda, 0xf0, 0x15, 0xf7, 0x23, 0xda, 0xf7, 0xe2,
  0xf5, 0x14, 0x12, 0x1b, 0xfd, 0xdb, 0x52, 0x11, 0x18, 0x05, 0xf2, 0x06,
  0xfa, 0x1b, 0xda, 0x10, 0x1b, 0xda, 0xe6, 0xdf, 0xf0, 0x12, 0x26, 0xe6,
  0x26, 0xdf, 0x04, 0x1d, 0x0f, 0xe0, 0xe4, 0xd1, 0x15, 0x32, 0xc7, 0xd1,
  0x0a, 0x28, 0xef, 0x24, 0xf5, 0xf8, 0x16, 0x18, 0xef, 0x0a, 0xd8, 0xe7,
  0xd7, 0x02, 0xf4, 0x17, 0x12, 0xff, 0xde, 0x0b, 0xfc, 0xf5, 0xfa, 0x1f,
  0x22, 0xdc, 0xfe, 0xe5, 0xf9, 0x12, 0x0a, 0xee, 0xe3, 0xf0, 0x07, 0x08,
  0x1e, 0x02, 0xe2, 0xe5, 0x04, 0x23, 0x16, 0xe7, 0xe7, 0x27, 0x00, 0xf6,
  0x13, 0xe8, 0xf0, 0xf2, 0xfb, 0x22, 0x02, 0x08, 0xe3, 0xd8, 0xe3, 0x15,
  0xdc, 0xf3, 0xe0, 0xe7, 0x20, 0x24, 0xde, 0x22, 0xeb, 0xef, 0xf4, 0xf9,
  0x09, 0xd8, 0xef, 0x10, 0x0d, 0x05, 0x0e, 0xe6, 0x19, 0xf5, 0xeb, 0x23,
  0x00, 0xe4, 0x0d, 0x07, 0x1d, 0xf8, 0x36, 0x08, 0x17, 0x1e, 0x18, 0x29,
  0x02, 0x16, 0x00, 0xf4, 0x1f, 0xc5, 0x08, 0xe1, 0xf8, 0xed, 0xee, 0x1d,
  0xdb, 0xde, 0x13, 0xd8, 0xfe, 0x29, 0x14, 0x06, 0xe0, 0xd8, 0x16, 0x12,
  0xfe, 0xe2, 0x16, 0x0c, 0xf3, 0xef, 0xf1, 0x04, 0x02, 0x12, 0xd7, 0x10,
  0x19, 0xfd, 0xd8, 0xe6, 0xdc, 0xe5, 0x10, 0xef, 0xee, 0x00, 0xfc, 0xe4,
  0x06, 0xe1, 0xf7, 0x1d, 0xda, 0xfa, 0x05, 0x03, 0xe7, 0x0d, 0xe7, 0xf4,
  0xd8, 0xf5, 0xed, 0x10, 0x15, 0xf4, 0xea, 0x18, 0x11, 0xde, 0x0a, 0x1f,
  0x03, 0x34, 0x50, 0x25, 0xf7, 0xf9, 0xff, 0x1d, 0x10, 0x03, 0xe0, 0x25,
  0x09, 0xf0, 0x06, 0xd8, 0x02, 0x08, 0x27, 0x0f, 0x17, 0x29, 0xce, 0xf9,
  0x1f, 0x13, 0xfe, 0xc4, 0xfc, 0x30, 0x25, 0x18, 0x20, 0xe5, 0xf4, 0xdc,
  0xe4, 0x15, 0x08, 0xc7, 0xf6, 0xfb, 0xc7, 0xf0, 0x08, 0x0c, 0x26, 0x1c,
  0xe1, 0x01, 0x00, 0xf8, 0x1a, 0xe7, 0x07, 0x14, 0xfc, 0x15, 0xf7, 0x27,
  0xf7, 0xf9, 0xea, 0xf6, 0x02, 0xe1, 0xdf, 0x0c, 0xfd, 0xe7, 0x35, 0x00,
  0xe9, 0xf8, 0x15, 0x14, 0x05, 0x23, 0x0c, 0x07, 0x78, 0xfa, 0xff, 0xff,
  0x7c, 0xfa, 0xff, 0xff, 0x0f, 0x00, 0x00, 0x00, 0x54, 0x4f, 0x43, 0x4f,
  0x20, 0x43, 0x6f, 0x6e, 0x76, 0x65, 0x72, 0x74, 0x65, 0x64, 0x2e, 0x00,
  0x01, 0x00, 0x00, 0x00, 0x10, 0x00, 0x00, 0x00, 0x0c, 0x00, 0x14, 0x00,
  0x04, 0x00, 0x08, 0x00, 0x0c, 0x00, 0x10, 0x00, 0x0c, 0x00, 0x00, 0x00,
  0x28, 0x01, 0x00, 0x00, 0x1c, 0x01, 0x00, 0x00, 0x10, 0x01, 0x00, 0x00,
  0x04, 0x00, 0x00, 0x00, 0x04, 0x00, 0x00, 0x00, 0xc8, 0x00, 0x00, 0x00,
  0x80, 0x00, 0x00, 0x00, 0x38, 0x00, 0x00, 0x00, 0x04, 0x00, 0x00, 0x00,
  0x9a, 0xff, 0xff, 0xff, 0x00, 0x00, 0x00, 0x08, 0x18, 0x00, 0x00, 0x00,
  0x0c, 0x00, 0x00, 0x00, 0x04, 0x00, 0x00, 0x00, 0xe4, 0xfa, 0xff, 0xff,
  0x01, 0x00, 0x00, 0x00, 0x00, 0x00, 0x00, 0x00, 0x03, 0x00, 0x00, 0x00,
  0x0a, 0x00, 0x00, 0x00, 0x0b, 0x00, 0x00, 0x00, 0x0c, 0x00, 0x00, 0x00,
  0xca, 0xff, 0xff, 0xff, 0x00, 0x00, 0x00, 0x08, 0x1c, 0x00, 0x00, 0x00,
  0x10, 0x00, 0x00, 0x00, 0x04, 0x00, 0x00, 0x00, 0x76, 0xff, 0xff, 0xff,
  0x00, 0x00, 0x00, 0x01, 0x01, 0x00, 0x00, 0x00, 0x0a, 0x00, 0x00, 0x00,
  0x03, 0x00, 0x00, 0x00, 0x07, 0x00, 0x00, 0x00, 0x08, 0x00, 0x00, 0x00,
  0x09, 0x00, 0x00, 0x00, 0x00, 0x00, 0x0e, 0x00, 0x14, 0x00, 0x00, 0x00,
  0x08, 0x00, 0x0c, 0x00, 0x07, 0x00, 0x10, 0x00, 0x0e, 0x00, 0x00, 0x00,
  0x00, 0x00, 0x00, 0x08, 0x1c, 0x00, 0x00, 0x00, 0x10, 0x00, 0x00, 0x00,
  0x04, 0x00, 0x00, 0x00, 0xba, 0xff, 0xff, 0xff, 0x00, 0x00, 0x00, 0x01,
  0x01, 0x00, 0x00, 0x00, 0x07, 0x00, 0x00, 0x00, 0x03, 0x00, 0x00, 0x00,
  0x04, 0x00, 0x00, 0x00, 0x05, 0x00, 0x00, 0x00, 0x06, 0x00, 0x00, 0x00,
  0x00, 0x00, 0x0e, 0x00, 0x16, 0x00, 0x00, 0x00, 0x08, 0x00, 0x0c, 0x00,
  0x07, 0x00, 0x10, 0x00, 0x0e, 0x00, 0x00, 0x00, 0x00, 0x00, 0x00, 0x08,
  0x24, 0x00, 0x00, 0x00, 0x18, 0x00, 0x00, 0x00, 0x0c, 0x00, 0x00, 0x00,
  0x00, 0x00, 0x06, 0x00, 0x08, 0x00, 0x07, 0x00, 0x06, 0x00, 0x00, 0x00,
  0x00, 0x00, 0x00, 0x01, 0x01, 0x00, 0x00, 0x00, 0x04, 0x00, 0x00, 0x00,
  0x03, 0x00, 0x00, 0x00, 0x01, 0x00, 0x00, 0x00, 0x02, 0x00, 0x00, 0x00,
  0x03, 0x00, 0x00, 0x00, 0x01, 0x00, 0x00, 0x00, 0x00, 0x00, 0x00, 0x00,
  0x01, 0x00, 0x00, 0x00, 0x01, 0x00, 0x00, 0x00, 0x0d, 0x00, 0x00, 0x00,
  0x14, 0x04, 0x00, 0x00, 0xac, 0x03, 0x00, 0x00, 0x4c, 0x03, 0x00, 0x00,
  0x04, 0x03, 0x00, 0x00, 0xc0, 0x02, 0x00, 0x00, 0x34, 0x02, 0x00, 0x00,
  0xdc, 0x01, 0x00, 0x00, 0x98, 0x01, 0x00, 0x00, 0x38, 0x01, 0x00, 0x00,
  0xf0, 0x00, 0x00, 0x00, 0xac, 0x00, 0x00, 0x00, 0x4c, 0x00, 0x00, 0x00,
  0x04, 0x00, 0x00, 0x00, 0x2e, 0xfc, 0xff, 0xff, 0x38, 0x00, 0x00, 0x00,
  0x0d, 0x00, 0x00, 0x00, 0x0c, 0x00, 0x00, 0x00, 0x04, 0x00, 0x00, 0x00,
  0x20, 0xfc, 0xff, 0xff, 0x1e, 0x00, 0x00, 0x00, 0x73, 0x65, 0x71, 0x75,
  0x65, 0x6e, 0x74, 0x69, 0x61, 0x6c, 0x2f, 0x64, 0x65, 0x6e, 0x73, 0x65,
  0x5f, 0x33, 0x2f, 0x4d, 0x61, 0x74, 0x4d, 0x75, 0x6c, 0x5f, 0x62, 0x69,
  0x61, 0x73, 0x00, 0x00, 0x01, 0x00, 0x00, 0x00, 0x05, 0x00, 0x00, 0x00,
  0x72, 0xfc, 0xff, 0xff, 0x4c, 0x00, 0x00, 0x00, 0x0c, 0x00, 0x00, 0x00,
  0x0c, 0x00, 0x00, 0x00, 0x04, 0x00, 0x00, 0x00, 0x64, 0xfc, 0xff, 0xff,
  0x32, 0x00, 0x00, 0x00, 0x73, 0x65, 0x71, 0x75, 0x65, 0x6e, 0x74, 0x69,
  0x61, 0x6c, 0x2f, 0x64, 0x65, 0x6e, 0x73, 0x65, 0x5f, 0x33, 0x2f, 0x4d,
  0x61, 0x74, 0x4d, 0x75, 0x6c, 0x2f, 0x52, 0x65, 0x61, 0x64, 0x56, 0x61,
  0x72, 0x69, 0x61, 0x62, 0x6c, 0x65, 0x4f, 0x70, 0x2f, 0x74, 0x72, 0x61,
  0x6e, 0x73, 0x70, 0x6f, 0x73, 0x65, 0x00, 0x00, 0x02, 0x00, 0x00, 0x00,
  0x05, 0x00, 0x00, 0x00, 0x14, 0x00, 0x00, 0x00, 0xce, 0xfc, 0xff, 0xff,
  0x30, 0x00, 0x00, 0x00, 0x05, 0x00, 0x00, 0x00, 0x0c, 0x00, 0x00, 0x00,
  0x04, 0x00, 0x00, 0x00, 0xc0, 0xfc, 0xff, 0xff, 0x17, 0x00, 0x00, 0x00,
  0x73, 0x65, 0x71, 0x75, 0x65, 0x6e, 0x74, 0x69, 0x61, 0x6c, 0x2f, 0x64,
  0x65, 0x6e, 0x73, 0x65, 0x5f, 0x32, 0x2f, 0x52, 0x65, 0x6c, 0x75, 0x00,
  0x02, 0x00, 0x00, 0x00, 0x01, 0x00, 0x00, 0x00, 0x14, 0x00, 0x00, 0x00,
  0x0e, 0xfd, 0xff, 0xff, 0x38, 0x00, 0x00, 0x00, 0x0b, 0x00, 0x00, 0x00,
  0x0c, 0x00, 0x00, 0x00, 0x04, 0x00, 0x00, 0x00, 0x00, 0xfd, 0xff, 0xff,
  0x1e, 0x00, 0x00, 0x00, 0x73, 0x65, 0x71, 0x75, 0x65, 0x6e, 0x74, 0x69,
  0x61, 0x6c, 0x2f, 0x64, 0x65, 0x6e, 0x73, 0x65, 0x5f, 0x32, 0x2f, 0x4d,
  0x61, 0x74, 0x4d, 0x75, 0x6c, 0x5f, 0x62, 0x69, 0x61, 0x73, 0x00, 0x00,
  0x01, 0x00, 0x00, 0x00, 0x14, 0x00, 0x00, 0x00, 0x52, 0xfd, 0xff, 0xff,
  0x4c, 0x00, 0x00, 0x00, 0x0a, 0x00, 0x00, 0x00, 0x0c, 0x00, 0x00, 0x00,
  0x04, 0x00, 0x00, 0x00, 0x44, 0xfd, 0xff, 0xff, 0x32, 0x00, 0x00, 0x00,
  0x73, 0x65, 0x71, 0x75, 0x65, 0x6e, 0x74, 0x69, 0x61, 0x6c, 0x2f, 0x64,
  0x65, 0x6e, 0x73, 0x65, 0x5f, 0x32, 0x2f, 0x4d, 0x61, 0x74, 0x4d, 0x75,
  0x6c, 0x2f, 0x52, 0x65, 0x61, 0x64, 0x56, 0x61, 0x72, 0x69, 0x61, 0x62,
  0x6c, 0x65, 0x4f, 0x70, 0x2f, 0x74, 0x72, 0x61, 0x6e, 0x73, 0x70, 0x6f,
  0x73, 0x65, 0x00, 0x00, 0x02, 0x00, 0x00, 0x00, 0x14, 0x00, 0x00, 0x00,
  0x28, 0x00, 0x00, 0x00, 0xae, 0xfd, 0xff, 0xff, 0x30, 0x00, 0x00, 0x00,
  0x04, 0x00, 0x00, 0x00, 0x0c, 0x00, 0x00, 0x00, 0x04, 0x00, 0x00, 0x00,
  0xa0, 0xfd, 0xff, 0xff, 0x17, 0x00, 0x00, 0x00, 0x73, 0x65, 0x71, 0x75,
  0x65, 0x6e, 0x74, 0x69, 0x61, 0x6c, 0x2f, 0x64, 0x65, 0x6e, 0x73, 0x65,
  0x5f, 0x31, 0x2f, 0x52, 0x65, 0x6c, 0x75, 0x00, 0x02, 0x00, 0x00, 0x00,
  0x01, 0x00, 0x00, 0x00, 0x28, 0x00, 0x00, 0x00, 0xee, 0xfd, 0xff, 0xff,
  0x38, 0x00, 0x00, 0x00, 0x09, 0x00, 0x00, 0x00, 0x0c, 0x00, 0x00, 0x00,
  0x04, 0x00, 0x00, 0x00, 0xe0, 0xfd, 0xff, 0xff, 0x1e, 0x00, 0x00, 0x00,
  0x73, 0x65, 0x71, 0x75, 0x65, 0x6e, 0x74, 0x69, 0x61, 0x6c, 0x2f, 0x64,
  0x65, 0x6e, 0x73, 0x65, 0x5f, 0x31, 0x2f, 0x4d, 0x61, 0x74, 0x4d, 0x75,
  0x6c, 0x5f, 0x62, 0x69, 0x61, 0x73, 0x00, 0x00, 0x01, 0x00, 0x00, 0x00,
  0x28, 0x00, 0x00, 0x00, 0x00, 0x00, 0x0e, 0x00, 0x18, 0x00, 0x08, 0x00,
  0x07, 0x00, 0x0c, 0x00, 0x10, 0x00, 0x14, 0x00, 0x0e, 0x00, 0x00, 0x00,
  0x00, 0x00, 0x00, 0x09, 0x74, 0x00, 0x00, 0x00, 0x02, 0x00, 0x00, 0x00,
  0x34, 0x00, 0x00, 0x00, 0x10, 0x00, 0x00, 0x00, 0x0c, 0x00, 0x0c, 0x00,
  0x00, 0x00, 0x00, 0x00, 0x04, 0x00, 0x08, 0x00, 0x0c, 0x00, 0x00, 0x00,
  0x14, 0x00, 0x00, 0x00, 0x04, 0x00, 0x00, 0x00, 0x01, 0x00, 0x00, 0x00,
  0x00, 0x00, 0x00, 0x00, 0x00, 0x00, 0x00, 0x00, 0x01, 0x00, 0x00, 0x00,
  0x52, 0xaa, 0xdd, 0x3b, 0x32, 0x00, 0x00, 0x00, 0x73, 0x65, 0x71, 0x75,
  0x65, 0x6e, 0x74, 0x69, 0x61, 0x6c, 0x2f, 0x64, 0x65, 0x6e, 0x73, 0x65,
  0x5f, 0x31, 0x2f, 0x4d, 0x61, 0x74, 0x4d, 0x75, 0x6c, 0x2f, 0x52, 0x65,
  0x61, 0x64, 0x56, 0x61, 0x72, 0x69, 0x61, 0x62, 0x6c, 0x65, 0x4f, 0x70,
  0x2f, 0x74, 0x72, 0x61, 0x6e, 0x73, 0x70, 0x6f, 0x73, 0x65, 0x00, 0x00,
  0x02, 0x00, 0x00, 0x00, 0x28, 0x00, 0x00, 0x00, 0x28, 0x00, 0x00, 0x00,
  0xca, 0xfe, 0xff, 0xff, 0x30, 0x00, 0x00, 0x00, 0x03, 0x00, 0x00, 0x00,
  0x0c, 0x00, 0x00, 0x00, 0x04, 0x00, 0x00, 0x00, 0xbc, 0xfe, 0xff, 0xff,
  0x15, 0x00, 0x00, 0x00, 0x73, 0x65, 0x71, 0x75, 0x65, 0x6e, 0x74, 0x69,
  0x61, 0x6c, 0x2f, 0x64, 0x65, 0x6e, 0x73, 0x65, 0x2f, 0x52, 0x65, 0x6c,
  0x75, 0x00, 0x00, 0x00, 0x02, 0x00, 0x00, 0x00, 0x01, 0x00, 0x00, 0x00,
  0x28, 0x00, 0x00, 0x00, 0x0a, 0xff, 0xff, 0xff, 0x38, 0x00, 0x00, 0x00,
  0x08, 0x00, 0x00, 0x00, 0x0c, 0x00, 0x00, 0x00, 0x04, 0x00, 0x00, 0x00,
  0xfc, 0xfe, 0xff, 0xff, 0x1c, 0x00, 0x00, 0x00, 0x73, 0x65, 0x71, 0x75,
  0x65, 0x6e, 0x74, 0x69, 0x61, 0x6c, 0x2f, 0x64, 0x65, 0x6e, 0x73, 0x65,
  0x2f, 0x4d, 0x61, 0x74, 0x4d, 0x75, 0x6c, 0x5f, 0x62, 0x69, 0x61, 0x73,
  0x00, 0x00, 0x00, 0x00, 0x01, 0x00, 0x00, 0x00, 0x28, 0x00, 0x00, 0x00,
  0x4e, 0xff, 0xff, 0xff, 0x4c, 0x00, 0x00, 0x00, 0x07, 0x00, 0x00, 0x00,
  0x0c, 0x00, 0x00, 0x00, 0x04, 0x00, 0x00, 0x00, 0x40, 0xff, 0xff, 0xff,
  0x30, 0x00, 0x00, 0x00, 0x73, 0x65, 0x71, 0x75, 0x65, 0x6e, 0x74, 0x69,
  0x61, 0x6c, 0x2f, 0x64, 0x65, 0x6e, 0x73, 0x65, 0x2f, 0x4d, 0x61, 0x74,
  0x4d, 0x75, 0x6c, 0x2f, 0x52, 0x65, 0x61, 0x64, 0x56, 0x61, 0x72, 0x69,
  0x61, 0x62, 0x6c, 0x65, 0x4f, 0x70, 0x2f, 0x74, 0x72, 0x61, 0x6e, 0x73,
  0x70, 0x6f, 0x73, 0x65, 0x00, 0x00, 0x00, 0x00, 0x02, 0x00, 0x00, 0x00,
  0x28, 0x00, 0x00, 0x00, 0x10, 0x00, 0x00, 0x00, 0xaa, 0xff, 0xff, 0xff,
  0x44, 0x00, 0x00, 0x00, 0x01, 0x00, 0x00, 0x00, 0x2c, 0x00, 0x00, 0x00,
  0x0c, 0x00, 0x00, 0x00, 0x08, 0x00, 0x0c, 0x00, 0x04, 0x00, 0x08, 0x00,
  0x08, 0x00, 0x00, 0x00, 0x10, 0x00, 0x00, 0x00, 0x04, 0x00, 0x00, 0x00,
  0x01, 0x00, 0x00, 0x00, 0x00, 0x00, 0x7f, 0x43, 0x01, 0x00, 0x00, 0x00,
  0x00, 0x00, 0x00, 0x00, 0x0b, 0x00, 0x00, 0x00, 0x64, 0x65, 0x6e, 0x73,
  0x65, 0x5f, 0x69, 0x6e, 0x70, 0x75, 0x74, 0x00, 0x02, 0x00, 0x00, 0x00,
  0x01, 0x00, 0x00, 0x00, 0x10, 0x00, 0x00, 0x00, 0x00, 0x00, 0x0e, 0x00,
  0x14, 0x00, 0x04, 0x00, 0x00, 0x00, 0x08, 0x00, 0x0c, 0x00, 0x10, 0x00,
  0x0e, 0x00, 0x00, 0x00, 0x28, 0x00, 0x00, 0x00, 0x06, 0x00, 0x00, 0x00,
  0x10, 0x00, 0x00, 0x00, 0x08, 0x00, 0x00, 0x00, 0x04, 0x00, 0x04, 0x00,
  0x04, 0x00, 0x00, 0x00, 0x08, 0x00, 0x00, 0x00, 0x49, 0x64, 0x65, 0x6e,
  0x74, 0x69, 0x74, 0x79, 0x00, 0x00, 0x00, 0x00, 0x02, 0x00, 0x00, 0x00,
  0x01, 0x00, 0x00, 0x00, 0x05, 0x00, 0x00, 0x00, 0x01, 0x00, 0x00, 0x00,
  0x10, 0x00, 0x00, 0x00, 0x00, 0x00, 0x0a, 0x00, 0x0c, 0x00, 0x07, 0x00,
  0x00, 0x00, 0x08, 0x00, 0x0a, 0x00, 0x00, 0x00, 0x00, 0x00, 0x00, 0x09,
  0x03, 0x00, 0x00, 0x00
};

