
#define TENSORFLOW_LITE_EXPERIMENTAL_MICRO_EXAMPLES_HELLO_WORLD_SINE_MODEL_DATA_H_
#ifdef __has_attribute
#define HAVE_ATTRIBUTE(x) __has_attribute(x)
#else
#define HAVE_ATTRIBUTE(x) 0
#endif
#if HAVE_ATTRIBUTE(aligned) || (defined(__GNUC__) && !defined(__clang__))
#define DATA_ALIGN_ATTRIBUTE __attribute__((aligned(4)))
#else
#define DATA_ALIGN_ATTRIBUTE
#endif

const int flight_model_len = 3476;
const unsigned char flight_model[] DATA_ALIGN_ATTRIBUTE = {
 0x1c, 0x00, 0x00, 0x00, 0x54, 0x46, 0x4c, 0x33, 0x00, 0x00, 0x12, 0x00,
  0x1c, 0x00, 0x04, 0x00, 0x08, 0x00, 0x0c, 0x00, 0x10, 0x00, 0x14, 0x00,
  0x00, 0x00, 0x18, 0x00, 0x12, 0x00, 0x00, 0x00, 0x03, 0x00, 0x00, 0x00,
  0x40, 0x0d, 0x00, 0x00, 0xd0, 0x09, 0x00, 0x00, 0xb8, 0x09, 0x00, 0x00,
  0x34, 0x00, 0x00, 0x00, 0x04, 0x00, 0x00, 0x00, 0x01, 0x00, 0x00, 0x00,
  0x04, 0x00, 0x00, 0x00, 0x64, 0xf3, 0xff, 0xff, 0x08, 0x00, 0x00, 0x00,
  0x09, 0x00, 0x00, 0x00, 0x13, 0x00, 0x00, 0x00, 0x6d, 0x69, 0x6e, 0x5f,
  0x72, 0x75, 0x6e, 0x74, 0x69, 0x6d, 0x65, 0x5f, 0x76, 0x65, 0x72, 0x73,
  0x69, 0x6f, 0x6e, 0x00, 0x0a, 0x00, 0x00, 0x00, 0x78, 0x09, 0x00, 0x00,
  0x70, 0x09, 0x00, 0x00, 0xbc, 0x07, 0x00, 0x00, 0xac, 0x07, 0x00, 0x00,
  0xa0, 0x07, 0x00, 0x00, 0x98, 0x07, 0x00, 0x00, 0xa4, 0x00, 0x00, 0x00,
  0x40, 0x00, 0x00, 0x00, 0x1c, 0x00, 0x00, 0x00, 0x04, 0x00, 0x00, 0x00,
  0x6a, 0xf8, 0xff, 0xff, 0x04, 0x00, 0x00, 0x00, 0x06, 0x00, 0x00, 0x00,
  0x31, 0x2e, 0x31, 0x34, 0x2e, 0x30, 0x00, 0x00, 0x7e, 0xf8, 0xff, 0xff,
  0x04, 0x00, 0x00, 0x00, 0x14, 0x00, 0x00, 0x00, 0xf6, 0x63, 0x16, 0x3f,
  0xb7, 0xeb, 0xf7, 0x3e, 0x76, 0xfa, 0xc9, 0x3e, 0x59, 0xe9, 0x00, 0x3f,
  0xef, 0x56, 0x00, 0x3f, 0x9e, 0xf8, 0xff, 0xff, 0x04, 0x00, 0x00, 0x00,
  0x54, 0x00, 0x00, 0x00, 0xf8, 0x78, 0x0e, 0x3d, 0xec, 0x5c, 0xef, 0xbe,
  0x6f, 0x23, 0x5f, 0xbe, 0x73, 0x82, 0x11, 0xbf, 0x6d, 0x18, 0xb9, 0xbe,
  0x1d, 0x2f, 0x1d, 0x3e, 0xca, 0xa7, 0xfc, 0x3d, 0x64, 0x85, 0x84, 0xbc,
  0xa0, 0x86, 0x37, 0xbe, 0x74, 0xfb, 0x70, 0xbe, 0xba, 0x17, 0x04, 0xbf,
  0x27, 0x93, 0x0a, 0xbf, 0x9a, 0x32, 0x81, 0x3a, 0xf0, 0xb7, 0x58, 0xbf,
  0x15, 0x89, 0xfd, 0xbe, 0xd5, 0xaa, 0x16, 0xbe, 0x9a, 0x15, 0xac, 0xbd,
  0x8a, 0xb3, 0xeb, 0xbe, 0xed, 0x81, 0x02, 0xbf, 0xe4, 0xf3, 0x4e, 0xbf,
  0x84, 0x82, 0x71, 0xbd, 0xfe, 0xf8, 0xff, 0xff, 0x04, 0x00, 0x00, 0x00,
  0xe4, 0x06, 0x00, 0x00, 0xea, 0x50, 0xbd, 0xbe, 0x0d, 0x64, 0x98, 0x3d,
  0x98, 0x29, 0x97, 0xbe, 0x44, 0x7b, 0x52, 0xbc, 0xed, 0x89, 0xa9, 0xbe,
  0x1d, 0xd3, 0xa0, 0xbd, 0x20, 0x55, 0xbb, 0xbe, 0x58, 0x71, 0x88, 0x3e,
  0x0a, 0x1e, 0x81, 0xbd, 0x4a, 0xb4, 0x51, 0xbe, 0x0f, 0x1d, 0x82, 0xbe,
  0xe1, 0x3c, 0xf5, 0xbd, 0x1c, 0x86, 0x85, 0xbe, 0xc1, 0xbb, 0x43, 0x3d,
  0x13, 0x87, 0xb9, 0xbe, 0x9f, 0x75, 0xdb, 0x3d, 0x2f, 0xba, 0xda, 0xbf,
  0x50, 0xa3, 0x51, 0xbf, 0xa7, 0x75, 0x5e, 0xbf, 0x7d, 0x07, 0x93, 0x3f,
  0x09, 0x13, 0x7b, 0xbf, 0x9b, 0xb1, 0x25, 0x3e, 0xec, 0x51, 0x23, 0xbe,
  0xea, 0x2c, 0xa9, 0xbd, 0xe2, 0x90, 0xf8, 0xbe, 0xfb, 0x52, 0x96, 0xbd,
  0xf8, 0xc1, 0x43, 0x3e, 0x65, 0xc5, 0x15, 0x3e, 0xc8, 0x8f, 0x11, 0xbe,
  0xae, 0xa8, 0xf5, 0xbe, 0x22, 0x8c, 0x35, 0xbf, 0x94, 0x8a, 0x5a, 0xbe,
  0x8e, 0x1f, 0x99, 0xbd, 0xb4, 0x83, 0x47, 0xbe, 0x07, 0x9b, 0xb0, 0xbd,
  0x7b, 0x6e, 0x22, 0xbe, 0xce, 0x0c, 0x00, 0x3d, 0x27, 0x9a, 0xab, 0x3e,
  0x5e, 0x9f, 0xaf, 0x3e, 0x06, 0x12, 0x3d, 0x3f, 0x45, 0x4c, 0x5a, 0x3c,
  0xbf, 0x6f, 0x85, 0x3e, 0x4c, 0x31, 0xb8, 0xbd, 0x6f, 0x06, 0x01, 0xbf,
  0x9d, 0x26, 0xca, 0xbe, 0xf4, 0x21, 0x0b, 0xbf, 0x29, 0xef, 0x02, 0xbf,
  0x5a, 0x7f, 0x0d, 0xbe, 0x07, 0x8e, 0xd4, 0x3e, 0xc4, 0x1f, 0x70, 0x3b,
  0x2d, 0x1b, 0xbc, 0xbe, 0xe2, 0x0d, 0x17, 0xbf, 0xc4, 0x2c, 0x24, 0xbd,
  0xda, 0x22, 0x0f, 0xbd, 0x76, 0x4a, 0x61, 0xbe, 0x3a, 0x68, 0xff, 0x3d,
  0x33, 0x72, 0x7e, 0xbe, 0x60, 0xa6, 0x0b, 0xbe, 0x5b, 0x3f, 0x83, 0x3f,
  0x2d, 0xaf, 0xd5, 0xbf, 0xdf, 0x9a, 0x09, 0xc0, 0x07, 0xbb, 0xf6, 0x3d,
  0x1b, 0x0e, 0xdb, 0x3f, 0x41, 0x27, 0x55, 0x3e, 0x14, 0xb0, 0x61, 0xbc,
  0xc6, 0x4f, 0xae, 0x3e, 0x15, 0x40, 0x87, 0xbd, 0xfd, 0x1c, 0x94, 0x3e,
  0x90, 0xda, 0x10, 0xbe, 0xea, 0x55, 0xa4, 0xbe, 0x5b, 0x54, 0xfd, 0xbe,
  0x8a, 0xce, 0x45, 0xbf, 0x8f, 0xd1, 0x27, 0xbf, 0xcc, 0x07, 0x15, 0xbf,
  0xc2, 0xd8, 0x04, 0xbf, 0x7b, 0xdd, 0x14, 0xbf, 0xf6, 0x7a, 0xa0, 0xbe,
  0x52, 0xca, 0x90, 0xbe, 0x84, 0xbd, 0x61, 0x3e, 0xb2, 0xfa, 0x9b, 0xbf,
  0x69, 0xe6, 0x99, 0x3f, 0x3d, 0x67, 0xfc, 0x3f, 0xb6, 0x20, 0x3b, 0xbf,
  0x1c, 0xe5, 0x3b, 0x3f, 0xaa, 0x73, 0x25, 0xbe, 0xbf, 0x4d, 0x07, 0xbf,
  0xba, 0xe0, 0x53, 0x3e, 0x43, 0x67, 0x95, 0xbe, 0xab, 0x41, 0x78, 0x3d,
  0x43, 0xd7, 0x96, 0xbe, 0xf1, 0x4b, 0xb2, 0xbe, 0xd0, 0x25, 0x02, 0xbf,
  0x62, 0xf8, 0xed, 0x3b, 0xb3, 0xa7, 0x9d, 0xbe, 0xfb, 0x15, 0xc7, 0xbe,
  0x5a, 0x0c, 0x0f, 0xbf, 0x41, 0x22, 0x07, 0xbf, 0xe0, 0x01, 0x82, 0xbe,
  0xda, 0xdb, 0x11, 0xbf, 0xdc, 0x7d, 0x11, 0xbe, 0xea, 0x6c, 0x72, 0xbd,
  0xbc, 0xf1, 0x67, 0xbe, 0x67, 0xef, 0x43, 0x3e, 0x79, 0x4a, 0xf2, 0x3f,
  0xa0, 0x80, 0x74, 0xbf, 0x18, 0xf2, 0xea, 0xbb, 0x10, 0x88, 0x9f, 0x3e,
  0x7c, 0x93, 0x07, 0xbf, 0xca, 0x51, 0x51, 0x3e, 0x35, 0x11, 0xca, 0xbe,
  0x41, 0x82, 0xcd, 0xbd, 0x83, 0xeb, 0xb5, 0xbe, 0xdd, 0xc8, 0xb6, 0xbe,
  0x7e, 0x83, 0x7c, 0xbe, 0x6d, 0xf2, 0x5f, 0x3d, 0xea, 0xbf, 0x92, 0xbe,
  0x97, 0x21, 0x92, 0xbd, 0xe1, 0x30, 0x65, 0x3c, 0x6b, 0x51, 0x1f, 0xbe,
  0x38, 0x08, 0x87, 0x3e, 0xc3, 0xb4, 0x6c, 0x3d, 0x67, 0x12, 0xff, 0xbe,
  0x95, 0x93, 0x17, 0xbf, 0xd1, 0x9a, 0x75, 0xbe, 0xc0, 0x96, 0x8f, 0xbf,
  0xba, 0x78, 0x17, 0xc0, 0xc2, 0x53, 0xfd, 0xbe, 0x0c, 0x85, 0x9c, 0xbd,
  0x2d, 0xd1, 0x09, 0xbf, 0x1e, 0x2f, 0x86, 0x3e, 0x9b, 0x38, 0xdc, 0xbe,
  0x13, 0xab, 0xb3, 0x3c, 0xd6, 0x59, 0x8e, 0xbe, 0x4d, 0x35, 0x87, 0xbe,
  0x8f, 0xc2, 0xda, 0xbd, 0x81, 0xaa, 0x35, 0x3e, 0x64, 0xbe, 0xe8, 0xbe,
  0x46, 0xd5, 0x56, 0x3e, 0x06, 0x86, 0x0c, 0x3e, 0x9c, 0x8e, 0x04, 0x3e,
  0x06, 0xa4, 0x5f, 0xbe, 0x75, 0xb1, 0x90, 0x3c, 0xdb, 0xdf, 0xe3, 0xbf,
  0xa6, 0x6d, 0xa8, 0xbe, 0xf6, 0x21, 0x7e, 0xbf, 0xce, 0x79, 0x6e, 0x3f,
  0x07, 0x7c, 0xc4, 0xbf, 0x1f, 0x2d, 0x17, 0xbf, 0xa3, 0x60, 0x97, 0xbe,
  0x14, 0x90, 0x18, 0xbe, 0x5f, 0xa2, 0x60, 0x3e, 0xbf, 0x05, 0x8e, 0xbe,
  0x6a, 0x67, 0x02, 0xbf, 0x5e, 0x73, 0x0e, 0xbf, 0xda, 0x67, 0xca, 0xbe,
  0xf2, 0xf6, 0xba, 0xbd, 0xaa, 0x25, 0x14, 0x3e, 0x75, 0x88, 0xc2, 0x3d,
  0x2c, 0x88, 0xab, 0xbd, 0x82, 0x01, 0x25, 0x3c, 0xa2, 0x8f, 0xdb, 0xbe,
  0xb0, 0x28, 0x33, 0xbe, 0x59, 0x64, 0xd7, 0x3d, 0x4b, 0xd8, 0x5b, 0xbe,
  0x02, 0xc5, 0x33, 0xbe, 0xbd, 0x5e, 0x2d, 0xbf, 0x55, 0x70, 0xa3, 0xbf,
  0xa0, 0x6c, 0xa4, 0xbe, 0xed, 0x71, 0x27, 0xbe, 0xee, 0x82, 0xc1, 0xbe,
  0xac, 0x37, 0x3a, 0xbf, 0x3e, 0xf7, 0x9e, 0xbe, 0x3f, 0x93, 0x4e, 0xbe,
  0xa1, 0x3b, 0x4e, 0x3d, 0xd8, 0xb2, 0x73, 0xbd, 0xe5, 0x9b, 0xa5, 0xbe,
  0xb1, 0x9c, 0x16, 0x3e, 0x25, 0x68, 0xe2, 0xbd, 0xc0, 0x81, 0x39, 0xbb,
  0x79, 0x90, 0x79, 0xbe, 0xfc, 0x02, 0xca, 0x3d, 0xa7, 0xef, 0x67, 0xbe,
  0x1b, 0xde, 0xb0, 0xbe, 0x27, 0xdc, 0xb8, 0x3d, 0x5e, 0xad, 0xab, 0xbf,
  0xda, 0x37, 0x20, 0xbf, 0x7b, 0xeb, 0xe3, 0xbe, 0x5f, 0xf2, 0x6d, 0xbf,
  0xe1, 0x19, 0x10, 0x40, 0x99, 0x74, 0x2a, 0xbe, 0x9c, 0xf5, 0x0e, 0xbf,
  0x32, 0xd2, 0xc6, 0xbe, 0x2c, 0xf2, 0x15, 0xbf, 0x0a, 0x43, 0xe1, 0xbe,
  0xce, 0x03, 0x09, 0xbe, 0x17, 0x2a, 0x9d, 0xbc, 0x56, 0x19, 0xff, 0x3d,
  0x8f, 0xaf, 0x83, 0xbe, 0xf7, 0xd2, 0x02, 0x3e, 0x4e, 0xc6, 0x26, 0xbd,
  0xd6, 0x98, 0xb6, 0xbd, 0xfc, 0x59, 0x34, 0xbe, 0x7b, 0xff, 0xe9, 0xbe,
  0x93, 0xa5, 0xe6, 0x3d, 0x6e, 0x49, 0xf1, 0xbe, 0x63, 0x01, 0x18, 0x3f,
  0x8b, 0x43, 0x7c, 0xbf, 0x39, 0x7a, 0x9d, 0xbf, 0x24, 0x45, 0xa2, 0x3d,
  0x68, 0xf3, 0x12, 0x3d, 0xd1, 0x8b, 0x7d, 0x3d, 0x94, 0x52, 0x03, 0xbf,
  0xfa, 0x81, 0x90, 0xbe, 0x53, 0x99, 0xff, 0xbe, 0x57, 0x89, 0xc4, 0xbe,
  0xc9, 0x64, 0xd9, 0xbe, 0x01, 0x32, 0x97, 0xbd, 0x9e, 0xae, 0xf4, 0xbe,
  0x00, 0xb6, 0x1c, 0xbf, 0x9a, 0x22, 0xb2, 0xbe, 0x82, 0xbc, 0xb6, 0xbe,
  0x2f, 0xb1, 0x29, 0xbd, 0xd2, 0xb4, 0x71, 0x3d, 0xa6, 0xd1, 0x64, 0xbd,
  0xc8, 0x55, 0x8f, 0xbe, 0x05, 0x04, 0xfd, 0xbd, 0xc8, 0x95, 0xd2, 0x3f,
  0x47, 0xc0, 0x63, 0x3f, 0x29, 0x7d, 0x77, 0x3f, 0x65, 0x1c, 0xea, 0xbe,
  0xa5, 0xfc, 0x95, 0xbf, 0xc7, 0xb0, 0x80, 0xbd, 0x66, 0x31, 0x9a, 0xbe,
  0x0c, 0x80, 0x64, 0xbe, 0x20, 0xc9, 0x43, 0xbf, 0x3a, 0xc3, 0xc2, 0xbe,
  0xf5, 0x86, 0x62, 0x3d, 0xab, 0xa2, 0x54, 0x3e, 0xf9, 0x3e, 0x4f, 0xbd,
  0xb5, 0xef, 0x01, 0xbe, 0x03, 0x97, 0x21, 0xbf, 0xd3, 0x0b, 0x1f, 0xbf,
  0xa2, 0x91, 0xac, 0xbe, 0x6c, 0x52, 0xea, 0xbe, 0xe9, 0x42, 0x5b, 0x3e,
  0x8a, 0x2e, 0xfa, 0xbd, 0xbd, 0x1f, 0xed, 0x3b, 0x0b, 0x1f, 0x62, 0x3f,
  0x19, 0x99, 0x32, 0x3f, 0x34, 0x8a, 0x8b, 0x3f, 0xbb, 0x3f, 0xb6, 0x3d,
  0x53, 0x5e, 0xb2, 0xbe, 0x9f, 0xa5, 0x18, 0xbe, 0xab, 0x52, 0x30, 0xbe,
  0x37, 0x8a, 0xbd, 0x3e, 0x8d, 0x86, 0x9c, 0x3e, 0xda, 0xf1, 0x22, 0x3e,
  0xb8, 0x22, 0xe3, 0xbe, 0x5a, 0xf6, 0x35, 0xbe, 0x1d, 0xc3, 0x07, 0xbe,
  0xa9, 0x5b, 0xc2, 0xbe, 0xec, 0x3f, 0xa9, 0x3e, 0x07, 0x2e, 0xe5, 0xbd,
  0x7e, 0x97, 0x02, 0xbf, 0xf9, 0xda, 0x72, 0xbe, 0x50, 0xa3, 0x2b, 0x3d,
  0x51, 0x09, 0xfe, 0x3d, 0x45, 0xe8, 0x1f, 0xbc, 0xc7, 0x40, 0x34, 0xc0,
  0x7e, 0x2e, 0x96, 0x3d, 0x6c, 0x50, 0xdb, 0x3e, 0xb5, 0xf1, 0x97, 0x3d,
  0x6a, 0xc7, 0x83, 0xbf, 0x97, 0x85, 0xaa, 0xbe, 0xf9, 0x20, 0x7c, 0xbf,
  0xdd, 0xee, 0xd7, 0xbe, 0x04, 0x6a, 0x26, 0xbf, 0xd7, 0x48, 0x84, 0xbe,
  0xd2, 0x1c, 0x09, 0xbe, 0x1d, 0x6a, 0x83, 0x3e, 0x59, 0x54, 0x0f, 0xbe,
  0xb8, 0xda, 0xc3, 0xbe, 0x09, 0x55, 0x2c, 0xbf, 0x09, 0xce, 0x22, 0x3d,
  0x88, 0xa9, 0xe4, 0xbd, 0x7b, 0x85, 0xf8, 0xbe, 0x99, 0x81, 0x06, 0xbf,
  0x01, 0xe2, 0xd5, 0xbe, 0xaf, 0x33, 0xff, 0xbb, 0x08, 0xc4, 0xd3, 0x3f,
  0xa5, 0x88, 0x7b, 0x3d, 0xc4, 0x55, 0xf6, 0xbe, 0x6a, 0xbe, 0x93, 0xbf,
  0x4a, 0x7b, 0x3a, 0x40, 0xbe, 0x50, 0xd3, 0xbc, 0x26, 0xb0, 0xe1, 0xbe,
  0x32, 0x95, 0x94, 0x3e, 0xef, 0x5a, 0x01, 0xbf, 0x06, 0x7a, 0xef, 0x3e,
  0x3a, 0x33, 0x0a, 0xbf, 0x49, 0x97, 0x86, 0xbe, 0xa7, 0x95, 0x77, 0xbe,
  0xa3, 0x05, 0x11, 0xbf, 0xb0, 0x56, 0x5f, 0xbf, 0xcd, 0x89, 0x4e, 0xbf,
  0x7f, 0xfc, 0x1b, 0xbe, 0x0f, 0x38, 0x0d, 0xbf, 0x9d, 0x36, 0x8c, 0xbd,
  0x79, 0x19, 0xa5, 0xbe, 0x9c, 0x33, 0x57, 0x3d, 0x52, 0xc0, 0xe1, 0xbf,
  0xe9, 0xaa, 0x75, 0x3f, 0xba, 0xb6, 0xb9, 0x3f, 0xc1, 0x42, 0x83, 0x3d,
  0x48, 0xe2, 0x8f, 0x3f, 0xe1, 0x08, 0xcd, 0xbe, 0x72, 0x10, 0x10, 0xbf,
  0x77, 0xae, 0x23, 0xbb, 0xda, 0x0f, 0x81, 0xbe, 0x95, 0x73, 0xe0, 0xbd,
  0x5a, 0x15, 0x76, 0x3c, 0xd4, 0x29, 0x14, 0xbc, 0x37, 0xdd, 0x9d, 0x3c,
  0xf2, 0xe5, 0x61, 0xbe, 0xeb, 0xe3, 0x2a, 0x3d, 0xa6, 0xc4, 0x97, 0xbe,
  0x99, 0x2e, 0x87, 0x3c, 0x5e, 0x42, 0x03, 0xbc, 0x90, 0xaa, 0x90, 0x3b,
  0xd0, 0x1e, 0xae, 0xbd, 0x45, 0x0c, 0x80, 0xbd, 0x03, 0xce, 0xda, 0x3f,
  0x6a, 0x9a, 0xd3, 0xbe, 0x3b, 0xd9, 0x30, 0xbb, 0xe2, 0x39, 0x7d, 0xbf,
  0x99, 0x0a, 0x72, 0xc0, 0x7b, 0xbe, 0x20, 0xbf, 0xc0, 0x0c, 0x2c, 0x3e,
  0x2d, 0x99, 0xa9, 0xbe, 0x12, 0xeb, 0xed, 0xbe, 0x52, 0x99, 0xb5, 0xbe,
  0xa6, 0xca, 0x85, 0xbe, 0xc2, 0x7a, 0x1f, 0xbe, 0x8f, 0x4a, 0x9e, 0x3e,
  0x5a, 0xc2, 0x9f, 0xbe, 0xef, 0xea, 0x9e, 0xbd, 0x10, 0x45, 0xde, 0xbe,
  0x01, 0xb9, 0x80, 0x3d, 0x49, 0x27, 0xa6, 0xbe, 0x38, 0x3f, 0xaf, 0xbe,
  0x41, 0x5b, 0x5f, 0xbe, 0xbf, 0x4b, 0x89, 0x3e, 0xb9, 0xa1, 0x14, 0xbf,
  0xa8, 0xcc, 0x80, 0xbf, 0x81, 0x7c, 0xca, 0xbf, 0xb5, 0x11, 0x9c, 0x3f,
  0xc3, 0xeb, 0xa6, 0x3b, 0xa5, 0xa6, 0xf2, 0xbd, 0x5a, 0x2a, 0x37, 0xbe,
  0x4d, 0x11, 0xe3, 0x3d, 0x0c, 0x60, 0x14, 0xbf, 0x25, 0xa3, 0x28, 0xbe,
  0x02, 0xae, 0xdb, 0xbd, 0x7b, 0xa8, 0xa0, 0xbe, 0x9e, 0x89, 0xa4, 0xbe,
  0xd9, 0x18, 0x36, 0xbf, 0x8a, 0x9d, 0xbf, 0xbd, 0x45, 0x9d, 0xc7, 0xbe,
  0xcf, 0xc7, 0x05, 0xbf, 0x6e, 0x5a, 0x7b, 0xbe, 0xae, 0x78, 0x8a, 0x3e,
  0xc3, 0x88, 0x83, 0xbd, 0x06, 0x74, 0x59, 0xbe, 0x0d, 0x3d, 0xc5, 0xbe,
  0xaa, 0x5a, 0x97, 0x3f, 0xc4, 0x8e, 0x04, 0x40, 0x77, 0x8d, 0xdb, 0xbe,
  0x3c, 0x51, 0xdb, 0xbf, 0xc7, 0x2f, 0xaf, 0xbe, 0x15, 0xaf, 0x9f, 0xbe,
  0x8b, 0xa5, 0x14, 0xbe, 0xf3, 0x52, 0x58, 0xbf, 0x77, 0x0b, 0x62, 0xbe,
  0x45, 0x26, 0x3c, 0xbf, 0xae, 0x1a, 0x8d, 0x3e, 0x0b, 0x38, 0xab, 0xbe,
  0x59, 0xf8, 0xbb, 0xbe, 0x87, 0x99, 0xe5, 0xbe, 0x8e, 0x05, 0x06, 0xbe,
  0xe8, 0x7d, 0xee, 0xbe, 0xa4, 0xa0, 0x9b, 0xbe, 0x0f, 0x2d, 0x01, 0xbe,
  0x7b, 0x6f, 0x1b, 0xbe, 0x1a, 0x1e, 0x64, 0x3e, 0x54, 0x64, 0xc0, 0x3f,
  0xf3, 0x8e, 0x8c, 0xbe, 0x7a, 0x43, 0x30, 0xbf, 0x09, 0x53, 0xf7, 0x3f,
  0x73, 0x5b, 0xbd, 0xbf, 0x07, 0x56, 0x35, 0x3e, 0x68, 0xe6, 0xe7, 0xbe,
  0xec, 0x1f, 0xc4, 0xbd, 0x44, 0x49, 0x4d, 0xbf, 0x1e, 0xb7, 0x06, 0xbf,
  0x0f, 0x3e, 0x93, 0x3d, 0xf8, 0x99, 0x98, 0xbd, 0x17, 0xca, 0xfd, 0xbe,
  0xeb, 0x70, 0x13, 0xbf, 0x0f, 0x98, 0x7a, 0xbf, 0x2e, 0x8f, 0x40, 0xbe,
  0x63, 0x41, 0xf8, 0xbd, 0x2c, 0xa0, 0xdc, 0xbb, 0x2e, 0x2a, 0xc6, 0xbd,
  0xdf, 0x05, 0x0a, 0xbe, 0x67, 0x92, 0x9d, 0xbe, 0x86, 0xfe, 0x49, 0x3f,
  0x65, 0x8f, 0x25, 0x3f, 0x9e, 0xd9, 0xc7, 0x3f, 0x45, 0xf4, 0x60, 0xbf,
  0x9f, 0x9e, 0xac, 0x3f, 0x09, 0xfe, 0x40, 0xbf, 0x39, 0xab, 0xfe, 0xbe,
  0x47, 0x17, 0xcc, 0x3c, 0x83, 0xb7, 0xa2, 0xbe, 0xfa, 0x20, 0xaf, 0xbe,
  0x9f, 0x68, 0x8a, 0xbe, 0xdb, 0xaa, 0x58, 0x3e, 0xc9, 0xd6, 0x11, 0x3d,
  0xa4, 0xde, 0x61, 0xbe, 0x08, 0xb6, 0xa5, 0x3e, 0xb5, 0x0d, 0xaf, 0x3e,
  0x82, 0x37, 0x55, 0x3e, 0x70, 0xb5, 0xb0, 0xbe, 0x2f, 0x85, 0xa9, 0xbe,
  0xf1, 0x31, 0xcf, 0xbe, 0xf6, 0xc1, 0xdf, 0xbc, 0x7e, 0xbd, 0xae, 0x3e,
  0x43, 0x2a, 0x96, 0xbf, 0x7b, 0xb9, 0xca, 0xbf, 0xed, 0x2e, 0x28, 0xbf,
  0x0d, 0xde, 0x80, 0x3c, 0xd4, 0xfa, 0xff, 0xff, 0xd8, 0xfa, 0xff, 0xff,
  0x04, 0x00, 0x06, 0x00, 0x04, 0x00, 0x00, 0x00, 0x00, 0x00, 0x06, 0x00,
  0x08, 0x00, 0x04, 0x00, 0x06, 0x00, 0x00, 0x00, 0x04, 0x00, 0x00, 0x00,
  0xa4, 0x01, 0x00, 0x00, 0x19, 0x45, 0x29, 0xbf, 0xfe, 0xb2, 0x61, 0x3d,
  0x07, 0x33, 0x92, 0x3e, 0x16, 0xb4, 0x15, 0xbe, 0x2b, 0x27, 0x64, 0x3d,
  0xc7, 0x0e, 0xa8, 0xbe, 0x03, 0x87, 0x14, 0xbf, 0x9f, 0xdc, 0xf8, 0xbd,
  0x83, 0x0b, 0x9d, 0xbe, 0x75, 0x9e, 0x4d, 0x3e, 0xd4, 0xd6, 0x88, 0x3e,
  0x29, 0xdf, 0xf8, 0x3d, 0x27, 0xe3, 0x5f, 0xbf, 0x8b, 0x8f, 0xac, 0x3e,
  0xb4, 0xa1, 0xaf, 0xbe, 0x10, 0x6a, 0xe8, 0x3e, 0x98, 0xf9, 0x5e, 0xbe,
  0x80, 0x98, 0xd4, 0xbc, 0x94, 0xe7, 0xda, 0x3e, 0x07, 0x92, 0x16, 0x3e,
  0x0f, 0xa2, 0x1c, 0x3e, 0xfb, 0xc4, 0x46, 0xbe, 0x67, 0x35, 0x3b, 0x3d,
  0xb6, 0xca, 0xe9, 0xbe, 0x4d, 0x01, 0x7f, 0x3e, 0xf3, 0xcc, 0x3d, 0x3d,
  0x9d, 0xd1, 0x8d, 0xbe, 0xa0, 0x95, 0x37, 0xbe, 0xb4, 0x47, 0xc6, 0xbd,
  0xd2, 0x7f, 0x98, 0xbd, 0xf6, 0xf3, 0x9a, 0xbe, 0x61, 0x18, 0x13, 0x3e,
  0x51, 0x6a, 0xdd, 0x3d, 0xfd, 0xe9, 0xbe, 0x3d, 0xd2, 0x09, 0x94, 0xbc,
  0x72, 0x45, 0x93, 0x3e, 0x08, 0x1e, 0x7a, 0xbc, 0xb6, 0x3e, 0xda, 0xbe,
  0x26, 0xc9, 0x9b, 0x3e, 0x53, 0x16, 0xd6, 0xbc, 0x4a, 0x6d, 0x12, 0x3e,
  0xa4, 0x07, 0x19, 0xbf, 0xcf, 0x29, 0xad, 0xbe, 0xd7, 0xc2, 0x40, 0x3d,
  0x05, 0x97, 0xd0, 0xbe, 0x65, 0x54, 0x7e, 0x3e, 0x57, 0x41, 0xcd, 0x3d,
  0xaa, 0x3e, 0xbe, 0xbc, 0xfb, 0x3f, 0x64, 0xbe, 0x87, 0x7c, 0x48, 0xbe,
  0xe5, 0xa0, 0xdd, 0xbd, 0x92, 0xe6, 0xb2, 0xbe, 0x7c, 0x9f, 0x13, 0x3e,
  0x0e, 0x25, 0xe2, 0x3d, 0xda, 0xcb, 0x01, 0x3e, 0xcc, 0x4e, 0x6a, 0xbc,
  0xde, 0x3a, 0x97, 0x3e, 0x54, 0xba, 0x69, 0xbd, 0xb5, 0x86, 0xb1, 0xbe,
  0x1c, 0x06, 0x92, 0x3e, 0x7e, 0x44, 0x7b, 0xbd, 0x1d, 0x06, 0x12, 0x3e,
  0xe6, 0x21, 0x05, 0xbf, 0xb5, 0xfa, 0xda, 0x3e, 0xb0, 0xed, 0xd0, 0x3c,
  0x0a, 0x50, 0x97, 0xbc, 0x1a, 0x91, 0x74, 0xbd, 0xad, 0x0a, 0xf6, 0x3e,
  0x31, 0xeb, 0x2b, 0xbf, 0x8e, 0xea, 0x8e, 0x3e, 0x59, 0x72, 0x18, 0xbf,
  0x60, 0x0e, 0x96, 0xbe, 0x0f, 0xcc, 0x1d, 0xbd, 0x44, 0x02, 0xc6, 0xbc,
  0x3b, 0xd5, 0xe2, 0x3c, 0xaf, 0x00, 0x0e, 0xbd, 0x6c, 0x01, 0x04, 0xbe,
  0x79, 0x3f, 0xe5, 0x3c, 0x7b, 0xd2, 0xab, 0xbe, 0x0c, 0xb6, 0xde, 0x3e,
  0x47, 0x2f, 0x24, 0xbd, 0xd4, 0x75, 0xfe, 0x3e, 0x96, 0x67, 0x69, 0xbc,
  0xa9, 0x4b, 0xdb, 0xbe, 0x1c, 0x81, 0x84, 0xbe, 0x77, 0x69, 0x0d, 0x3d,
  0xd4, 0xc5, 0x96, 0x3e, 0x60, 0x9a, 0xce, 0x3d, 0x39, 0x9e, 0x90, 0xbd,
  0xa5, 0x7a, 0x53, 0xbf, 0x28, 0x33, 0xc5, 0xbe, 0x51, 0xdf, 0xc2, 0xbd,
  0x9d, 0xe0, 0xe6, 0x3e, 0x2e, 0x8b, 0x25, 0x3b, 0xf7, 0x39, 0xe0, 0xbd,
  0x4d, 0x58, 0x65, 0xbb, 0xd5, 0xc4, 0x86, 0xbe, 0x9c, 0xbe, 0xd1, 0x3e,
  0x81, 0xfe, 0x71, 0x3e, 0xf9, 0xcb, 0x54, 0xbf, 0x57, 0xdf, 0xa3, 0x3d,
  0x2a, 0xea, 0x81, 0xbe, 0xa8, 0x88, 0x38, 0xbe, 0xc0, 0xd2, 0x0d, 0x3e,
  0xec, 0x45, 0x60, 0xbd, 0x9c, 0xfc, 0xff, 0xff, 0xa0, 0xfc, 0xff, 0xff,
  0x0f, 0x00, 0x00, 0x00, 0x54, 0x4f, 0x43, 0x4f, 0x20, 0x43, 0x6f, 0x6e,
  0x76, 0x65, 0x72, 0x74, 0x65, 0x64, 0x2e, 0x00, 0x01, 0x00, 0x00, 0x00,
  0x10, 0x00, 0x00, 0x00, 0x0c, 0x00, 0x14, 0x00, 0x04, 0x00, 0x08, 0x00,
  0x0c, 0x00, 0x10, 0x00, 0x0c, 0x00, 0x00, 0x00, 0xcc, 0x00, 0x00, 0x00,
  0xc0, 0x00, 0x00, 0x00, 0xb4, 0x00, 0x00, 0x00, 0x04, 0x00, 0x00, 0x00,
  0x03, 0x00, 0x00, 0x00, 0x78, 0x00, 0x00, 0x00, 0x44, 0x00, 0x00, 0x00,
  0x04, 0x00, 0x00, 0x00, 0xa2, 0xff, 0xff, 0xff, 0x00, 0x00, 0x00, 0x08,
  0x18, 0x00, 0x00, 0x00, 0x0c, 0x00, 0x00, 0x00, 0x04, 0x00, 0x00, 0x00,
  0x04, 0xfd, 0xff, 0xff, 0x01, 0x00, 0x00, 0x00, 0x00, 0x00, 0x00, 0x00,
  0x03, 0x00, 0x00, 0x00, 0x05, 0x00, 0x00, 0x00, 0x06, 0x00, 0x00, 0x00,
  0x07, 0x00, 0x00, 0x00, 0x00, 0x00, 0x0a, 0x00, 0x10, 0x00, 0x04, 0x00,
  0x08, 0x00, 0x0c, 0x00, 0x0a, 0x00, 0x00, 0x00, 0x01, 0x00, 0x00, 0x00,
  0x10, 0x00, 0x00, 0x00, 0x04, 0x00, 0x00, 0x00, 0x01, 0x00, 0x00, 0x00,
  0x05, 0x00, 0x00, 0x00, 0x01, 0x00, 0x00, 0x00, 0x02, 0x00, 0x00, 0x00,
  0x00, 0x00, 0x0e, 0x00, 0x14, 0x00, 0x00, 0x00, 0x08, 0x00, 0x0c, 0x00,
  0x07, 0x00, 0x10, 0x00, 0x0e, 0x00, 0x00, 0x00, 0x00, 0x00, 0x00, 0x08,
  0x18, 0x00, 0x00, 0x00, 0x0c, 0x00, 0x00, 0x00, 0x04, 0x00, 0x00, 0x00,
  0x70, 0xfd, 0xff, 0xff, 0x01, 0x00, 0x00, 0x00, 0x02, 0x00, 0x00, 0x00,
  0x03, 0x00, 0x00, 0x00, 0x01, 0x00, 0x00, 0x00, 0x03, 0x00, 0x00, 0x00,
  0x04, 0x00, 0x00, 0x00, 0x01, 0x00, 0x00, 0x00, 0x00, 0x00, 0x00, 0x00,
  0x01, 0x00, 0x00, 0x00, 0x01, 0x00, 0x00, 0x00, 0x08, 0x00, 0x00, 0x00,
  0x4c, 0x02, 0x00, 0x00, 0xe4, 0x01, 0x00, 0x00, 0x9c, 0x01, 0x00, 0x00,
  0x3c, 0x01, 0x00, 0x00, 0xf4, 0x00, 0x00, 0x00, 0xac, 0x00, 0x00, 0x00,
  0x4c, 0x00, 0x00, 0x00, 0x04, 0x00, 0x00, 0x00, 0xe2, 0xfd, 0xff, 0xff,
  0x38, 0x00, 0x00, 0x00, 0x08, 0x00, 0x00, 0x00, 0x0c, 0x00, 0x00, 0x00,
  0x04, 0x00, 0x00, 0x00, 0xd4, 0xfd, 0xff, 0xff, 0x1e, 0x00, 0x00, 0x00,
  0x73, 0x65, 0x71, 0x75, 0x65, 0x6e, 0x74, 0x69, 0x61, 0x6c, 0x2f, 0x64,
  0x65, 0x6e, 0x73, 0x65, 0x5f, 0x31, 0x2f, 0x4d, 0x61, 0x74, 0x4d, 0x75,
  0x6c, 0x5f, 0x62, 0x69, 0x61, 0x73, 0x00, 0x00, 0x01, 0x00, 0x00, 0x00,
  0x05, 0x00, 0x00, 0x00, 0x26, 0xfe, 0xff, 0xff, 0x4c, 0x00, 0x00, 0x00,
  0x02, 0x00, 0x00, 0x00, 0x0c, 0x00, 0x00, 0x00, 0x04, 0x00, 0x00, 0x00,
  0x18, 0xfe, 0xff, 0xff, 0x32, 0x00, 0x00, 0x00, 0x73, 0x65, 0x71, 0x75,
  0x65, 0x6e, 0x74, 0x69, 0x61, 0x6c, 0x2f, 0x64, 0x65, 0x6e, 0x73, 0x65,
  0x5f, 0x31, 0x2f, 0x4d, 0x61, 0x74, 0x4d, 0x75, 0x6c, 0x2f, 0x52, 0x65,
  0x61, 0x64, 0x56, 0x61, 0x72, 0x69, 0x61, 0x62, 0x6c, 0x65, 0x4f, 0x70,
  0x2f, 0x74, 0x72, 0x61, 0x6e, 0x73, 0x70, 0x6f, 0x73, 0x65, 0x00, 0x00,
  0x02, 0x00, 0x00, 0x00, 0x05, 0x00, 0x00, 0x00, 0x15, 0x00, 0x00, 0x00,
  0x82, 0xfe, 0xff, 0xff, 0x34, 0x00, 0x00, 0x00, 0x03, 0x00, 0x00, 0x00,
  0x0c, 0x00, 0x00, 0x00, 0x04, 0x00, 0x00, 0x00, 0x74, 0xfe, 0xff, 0xff,
  0x18, 0x00, 0x00, 0x00, 0x73, 0x65, 0x71, 0x75, 0x65, 0x6e, 0x74, 0x69,
  0x61, 0x6c, 0x2f, 0x64, 0x65, 0x6e, 0x73, 0x65, 0x2f, 0x53, 0x69, 0x67,
  0x6d, 0x6f, 0x69, 0x64, 0x00, 0x00, 0x00, 0x00, 0x02, 0x00, 0x00, 0x00,
  0x01, 0x00, 0x00, 0x00, 0x15, 0x00, 0x00, 0x00, 0xc6, 0xfe, 0xff, 0xff,
  0x38, 0x00, 0x00, 0x00, 0x07, 0x00, 0x00, 0x00, 0x0c, 0x00, 0x00, 0x00,
  0x04, 0x00, 0x00, 0x00, 0xb8, 0xfe, 0xff, 0xff, 0x1c, 0x00, 0x00, 0x00,
  0x73, 0x65, 0x71, 0x75, 0x65, 0x6e, 0x74, 0x69, 0x61, 0x6c, 0x2f, 0x64,
  0x65, 0x6e, 0x73, 0x65, 0x2f, 0x4d, 0x61, 0x74, 0x4d, 0x75, 0x6c, 0x5f,
  0x62, 0x69, 0x61, 0x73, 0x00, 0x00, 0x00, 0x00, 0x01, 0x00, 0x00, 0x00,
  0x15, 0x00, 0x00, 0x00, 0x0a, 0xff, 0xff, 0xff, 0x4c, 0x00, 0x00, 0x00,
  0x06, 0x00, 0x00, 0x00, 0x0c, 0x00, 0x00, 0x00, 0x04, 0x00, 0x00, 0x00,
  0xfc, 0xfe, 0xff, 0xff, 0x30, 0x00, 0x00, 0x00, 0x73, 0x65, 0x71, 0x75,
  0x65, 0x6e, 0x74, 0x69, 0x61, 0x6c, 0x2f, 0x64, 0x65, 0x6e, 0x73, 0x65,
  0x2f, 0x4d, 0x61, 0x74, 0x4d, 0x75, 0x6c, 0x2f, 0x52, 0x65, 0x61, 0x64,
  0x56, 0x61, 0x72, 0x69, 0x61, 0x62, 0x6c, 0x65, 0x4f, 0x70, 0x2f, 0x74,
  0x72, 0x61, 0x6e, 0x73, 0x70, 0x6f, 0x73, 0x65, 0x00, 0x00, 0x00, 0x00,
  0x02, 0x00, 0x00, 0x00, 0x15, 0x00, 0x00, 0x00, 0x15, 0x00, 0x00, 0x00,
  0x66, 0xff, 0xff, 0xff, 0x34, 0x00, 0x00, 0x00, 0x04, 0x00, 0x00, 0x00,
  0x0c, 0x00, 0x00, 0x00, 0x04, 0x00, 0x00, 0x00, 0x58, 0xff, 0xff, 0xff,
  0x18, 0x00, 0x00, 0x00, 0x73, 0x65, 0x71, 0x75, 0x65, 0x6e, 0x74, 0x69,
  0x61, 0x6c, 0x2f, 0x64, 0x65, 0x6e, 0x73, 0x65, 0x2f, 0x42, 0x69, 0x61,
  0x73, 0x41, 0x64, 0x64, 0x00, 0x00, 0x00, 0x00, 0x02, 0x00, 0x00, 0x00,
  0x01, 0x00, 0x00, 0x00, 0x15, 0x00, 0x00, 0x00, 0xaa, 0xff, 0xff, 0xff,
  0x44, 0x00, 0x00, 0x00, 0x01, 0x00, 0x00, 0x00, 0x2c, 0x00, 0x00, 0x00,
  0x0c, 0x00, 0x00, 0x00, 0x08, 0x00, 0x0c, 0x00, 0x04, 0x00, 0x08, 0x00,
  0x08, 0x00, 0x00, 0x00, 0x10, 0x00, 0x00, 0x00, 0x04, 0x00, 0x00, 0x00,
  0x01, 0x00, 0x00, 0x00, 0x00, 0x00, 0x7f, 0x43, 0x01, 0x00, 0x00, 0x00,
  0x00, 0x00, 0x00, 0x00, 0x0b, 0x00, 0x00, 0x00, 0x64, 0x65, 0x6e, 0x73,
  0x65, 0x5f, 0x69, 0x6e, 0x70, 0x75, 0x74, 0x00, 0x02, 0x00, 0x00, 0x00,
  0x01, 0x00, 0x00, 0x00, 0x15, 0x00, 0x00, 0x00, 0x00, 0x00, 0x0e, 0x00,
  0x14, 0x00, 0x04, 0x00, 0x00, 0x00, 0x08, 0x00, 0x0c, 0x00, 0x10, 0x00,
  0x0e, 0x00, 0x00, 0x00, 0x28, 0x00, 0x00, 0x00, 0x05, 0x00, 0x00, 0x00,
  0x10, 0x00, 0x00, 0x00, 0x08, 0x00, 0x00, 0x00, 0x04, 0x00, 0x04, 0x00,
  0x04, 0x00, 0x00, 0x00, 0x08, 0x00, 0x00, 0x00, 0x49, 0x64, 0x65, 0x6e,
  0x74, 0x69, 0x74, 0x79, 0x00, 0x00, 0x00, 0x00, 0x02, 0x00, 0x00, 0x00,
  0x01, 0x00, 0x00, 0x00, 0x05, 0x00, 0x00, 0x00, 0x02, 0x00, 0x00, 0x00,
  0x20, 0x00, 0x00, 0x00, 0x0c, 0x00, 0x00, 0x00, 0x00, 0x00, 0x06, 0x00,
  0x06, 0x00, 0x05, 0x00, 0x06, 0x00, 0x00, 0x00, 0x00, 0x0e, 0x0a, 0x00,
  0x0c, 0x00, 0x07, 0x00, 0x00, 0x00, 0x08, 0x00, 0x0a, 0x00, 0x00, 0x00,
  0x00, 0x00, 0x00, 0x09, 0x03, 0x00, 0x00, 0x00
};

