
#define TENSORFLOW_LITE_EXPERIMENTAL_MICRO_EXAMPLES_HELLO_WORLD_SINE_MODEL_DATA_H_
#ifdef __has_attribute
#define HAVE_ATTRIBUTE(x) __has_attribute(x)
#else
#define HAVE_ATTRIBUTE(x) 0
#endif
#if HAVE_ATTRIBUTE(aligned) || (defined(__GNUC__) && !defined(__clang__))
#define DATA_ALIGN_ATTRIBUTE __attribute__((aligned(4)))
#else
#define DATA_ALIGN_ATTRIBUTE
#endif

const int flight_model_len = 15296;
const unsigned char flight_model[] DATA_ALIGN_ATTRIBUTE = {
 0x1c, 0x00, 0x00, 0x00, 0x54, 0x46, 0x4c, 0x33, 0x00, 0x00, 0x12, 0x00,
  0x1c, 0x00, 0x04, 0x00, 0x08, 0x00, 0x0c, 0x00, 0x10, 0x00, 0x14, 0x00,
  0x00, 0x00, 0x18, 0x00, 0x12, 0x00, 0x00, 0x00, 0x03, 0x00, 0x00, 0x00,
  0x7c, 0x3b, 0x00, 0x00, 0x70, 0x30, 0x00, 0x00, 0x58, 0x30, 0x00, 0x00,
  0x34, 0x00, 0x00, 0x00, 0x04, 0x00, 0x00, 0x00, 0x01, 0x00, 0x00, 0x00,
  0x04, 0x00, 0x00, 0x00, 0x28, 0xc5, 0xff, 0xff, 0x08, 0x00, 0x00, 0x00,
  0x1d, 0x00, 0x00, 0x00, 0x13, 0x00, 0x00, 0x00, 0x6d, 0x69, 0x6e, 0x5f,
  0x72, 0x75, 0x6e, 0x74, 0x69, 0x6d, 0x65, 0x5f, 0x76, 0x65, 0x72, 0x73,
  0x69, 0x6f, 0x6e, 0x00, 0x1e, 0x00, 0x00, 0x00, 0x18, 0x30, 0x00, 0x00,
  0x10, 0x30, 0x00, 0x00, 0x00, 0x2b, 0x00, 0x00, 0xa8, 0x24, 0x00, 0x00,
  0xa0, 0x24, 0x00, 0x00, 0x40, 0x24, 0x00, 0x00, 0x38, 0x24, 0x00, 0x00,
  0xd8, 0x23, 0x00, 0x00, 0x78, 0x23, 0x00, 0x00, 0x18, 0x23, 0x00, 0x00,
  0x10, 0x23, 0x00, 0x00, 0x08, 0x23, 0x00, 0x00, 0x00, 0x23, 0x00, 0x00,
  0xf8, 0x22, 0x00, 0x00, 0xf0, 0x22, 0x00, 0x00, 0xb8, 0x22, 0x00, 0x00,
  0xb0, 0x22, 0x00, 0x00, 0xa0, 0x1e, 0x00, 0x00, 0x98, 0x1e, 0x00, 0x00,
  0x48, 0x1e, 0x00, 0x00, 0xf8, 0x17, 0x00, 0x00, 0x98, 0x17, 0x00, 0x00,
  0x48, 0x11, 0x00, 0x00, 0xe8, 0x10, 0x00, 0x00, 0x98, 0x0a, 0x00, 0x00,
  0x48, 0x04, 0x00, 0x00, 0x18, 0x01, 0x00, 0x00, 0x40, 0x00, 0x00, 0x00,
  0x1c, 0x00, 0x00, 0x00, 0x04, 0x00, 0x00, 0x00, 0x76, 0xd5, 0xff, 0xff,
  0x04, 0x00, 0x00, 0x00, 0x05, 0x00, 0x00, 0x00, 0x31, 0x2e, 0x35, 0x2e,
  0x30, 0x00, 0x00, 0x00, 0x8a, 0xd5, 0xff, 0xff, 0x04, 0x00, 0x00, 0x00,
  0x14, 0x00, 0x00, 0x00, 0x6e, 0x11, 0x23, 0x3f, 0xd6, 0x3c, 0xee, 0xbd,
  0xc4, 0x6d, 0x10, 0xbe, 0xab, 0x65, 0x05, 0x3f, 0xd1, 0xbc, 0xa2, 0x3d,
  0xaa, 0xd5, 0xff, 0xff, 0x04, 0x00, 0x00, 0x00, 0xc8, 0x00, 0x00, 0x00,
  0x3c, 0x78, 0x01, 0xbe, 0x18, 0xc4, 0xbd, 0x3d, 0x55, 0x44, 0x68, 0x3e,
  0x38, 0x4f, 0xcb, 0xbd, 0x95, 0x40, 0x8e, 0xbe, 0x05, 0x90, 0x8b, 0x3e,
  0x02, 0xc2, 0xe9, 0x3e, 0x9c, 0x03, 0x50, 0x3e, 0xc3, 0x64, 0xb5, 0x3e,
  0xc0, 0x70, 0x9f, 0x3c, 0x30, 0xdc, 0xe8, 0x3d, 0x01, 0xb2, 0x0f, 0x3f,
  0xca, 0x97, 0xc0, 0xbd, 0x60, 0x55, 0x81, 0x3d, 0x04, 0x50, 0x39, 0x3f,
  0xde, 0xae, 0x1f, 0xbf, 0xda, 0x75, 0x2d, 0xbe, 0xf4, 0x4b, 0x24, 0x3e,
  0x75, 0x86, 0x85, 0xbe, 0x12, 0x2b, 0xd2, 0xbe, 0x74, 0x75, 0x0d, 0xbe,
  0xfe, 0xcb, 0xda, 0xbe, 0xee, 0xee, 0x39, 0x3e, 0x58, 0x91, 0xf4, 0xbe,
  0x0c, 0xf0, 0xb1, 0x3e, 0x2c, 0xba, 0xf3, 0x3d, 0xab, 0xa7, 0x0a, 0xbf,
  0x5a, 0xaf, 0xdb, 0x3e, 0x7e, 0xe4, 0x02, 0xbf, 0x24, 0x72, 0x0e, 0xbf,
  0x40, 0x7c, 0xf7, 0xbc, 0xf9, 0xa4, 0xe5, 0xbe, 0xbb, 0x97, 0xde, 0xbd,
  0x6c, 0x82, 0xb1, 0xbe, 0xa2, 0xbb, 0xd8, 0x3d, 0xc5, 0x2e, 0x56, 0xbe,
  0x94, 0x1e, 0x16, 0xbf, 0x38, 0xc1, 0x95, 0x3e, 0x86, 0x16, 0xa0, 0xbe,
  0xc7, 0x6c, 0x08, 0xbf, 0x5a, 0xa6, 0xe4, 0xbe, 0xdc, 0x52, 0x81, 0xbe,
  0xb4, 0x22, 0x34, 0x3f, 0x80, 0x0c, 0x3f, 0x3e, 0xa1, 0x75, 0xed, 0xbe,
  0x8d, 0xab, 0xa9, 0xbe, 0xf5, 0x45, 0xb0, 0xbe, 0x98, 0xe7, 0xec, 0x3d,
  0x33, 0x97, 0x2f, 0xbd, 0xb2, 0xa0, 0xc0, 0x3e, 0x7e, 0xd6, 0xff, 0xff,
  0x04, 0x00, 0x00, 0x00, 0x20, 0x03, 0x00, 0x00, 0xdc, 0xa4, 0x8b, 0xbe,
  0xa6, 0xe5, 0x93, 0x3e, 0xfa, 0x36, 0x98, 0x3e, 0x00, 0x60, 0xc0, 0x3b,
  0x48, 0x7d, 0x59, 0xbe, 0x9c, 0x8e, 0xf6, 0xbd, 0xd8, 0xc5, 0xc7, 0xbd,
  0xde, 0xcb, 0x33, 0xbe, 0x42, 0xa7, 0x8b, 0x3e, 0x7c, 0x56, 0xbc, 0xbd,
  0x44, 0x56, 0x3c, 0x3e, 0x7c, 0x70, 0xbd, 0xbe, 0xa0, 0x69, 0x03, 0xbc,
  0xa4, 0xee, 0x43, 0x3e, 0xba, 0x03, 0xaf, 0x3e, 0x40, 0xdf, 0x86, 0xbe,
  0x5c, 0x47, 0xd7, 0xbe, 0xca, 0x80, 0xa9, 0x3e, 0x80, 0x26, 0xaa, 0x3b,
  0xbc, 0xfd, 0xcd, 0xbe, 0xe0, 0x1e, 0xb1, 0xbd, 0x98, 0xa2, 0x84, 0xbe,
  0x67, 0x7a, 0x43, 0x3e, 0x04, 0xb7, 0x3e, 0xbe, 0xe0, 0x7b, 0x24, 0x3c,
  0xfb, 0xd2, 0x9d, 0x3e, 0xc8, 0x98, 0x89, 0x3d, 0xb0, 0xd1, 0x49, 0xbd,
  0x5c, 0x34, 0x8e, 0xbe, 0x14, 0xfc, 0x84, 0xbe, 0x00, 0x2c, 0xba, 0x3c,
  0x40, 0xbe, 0x5b, 0x3e, 0xc2, 0xbe, 0xd6, 0xbe, 0xb2, 0x83, 0x06, 0xbe,
  0x3d, 0xf5, 0xb4, 0x3e, 0xfc, 0xa8, 0x32, 0xbe, 0x32, 0x74, 0xd5, 0xbe,
  0x2b, 0x3d, 0xb0, 0xbe, 0xfe, 0xab, 0x87, 0x3e, 0x6b, 0x82, 0x5f, 0x3e,
  0x4c, 0xab, 0x5f, 0x3e, 0x65, 0x70, 0xba, 0xbc, 0x3d, 0x5d, 0x10, 0xbd,
  0x95, 0xe7, 0xe9, 0x3e, 0x2a, 0x8f, 0x08, 0xbf, 0xb6, 0x7e, 0xec, 0x3e,
  0xfc, 0x27, 0x43, 0x3e, 0x34, 0xed, 0xa0, 0x3e, 0x18, 0xcf, 0xcc, 0x3d,
  0x50, 0xb2, 0x64, 0x3d, 0xf0, 0x01, 0x93, 0x3c, 0xb8, 0x2b, 0xb7, 0xbe,
  0xd4, 0xfa, 0xd1, 0x3d, 0xd7, 0x47, 0x02, 0x3d, 0xd5, 0x9b, 0x80, 0xbf,
  0xed, 0x49, 0x36, 0xbd, 0xa3, 0x3c, 0xc3, 0x3e, 0xd6, 0xdb, 0xe3, 0x3e,
  0x45, 0x59, 0xfb, 0x3e, 0x8f, 0xaa, 0x64, 0xbe, 0x8a, 0xd2, 0xbd, 0x3e,
  0xd3, 0x0a, 0x86, 0xbe, 0x20, 0xf3, 0x0d, 0xbe, 0xd4, 0x2b, 0x48, 0xbe,
  0xc4, 0xe0, 0x9e, 0x3e, 0xc2, 0xb5, 0x9c, 0xbe, 0xca, 0xaa, 0x9c, 0x3e,
  0xfc, 0x4d, 0x91, 0xbe, 0xa0, 0xc6, 0x85, 0x3e, 0x28, 0xf8, 0x54, 0xbd,
  0xdc, 0xd6, 0x38, 0xbe, 0xb7, 0x2e, 0x5b, 0xbe, 0x20, 0x59, 0x16, 0x3e,
  0xaa, 0x80, 0xb9, 0x3e, 0x98, 0x32, 0x8b, 0x3e, 0x18, 0x5c, 0x98, 0xbe,
  0x88, 0x65, 0xeb, 0xbd, 0xf2, 0x59, 0x97, 0x3e, 0x90, 0x74, 0x89, 0x3c,
  0x69, 0x79, 0xe0, 0xbe, 0x48, 0xd6, 0x49, 0x3d, 0x10, 0x54, 0x24, 0x3e,
  0xbc, 0x37, 0x84, 0xbe, 0x8b, 0x38, 0xa8, 0xbe, 0x19, 0xe9, 0x34, 0xbe,
  0x40, 0x95, 0xbe, 0x3e, 0x88, 0xc5, 0x84, 0xbe, 0x33, 0xb1, 0xeb, 0x3d,
  0x4e, 0xed, 0x91, 0xbe, 0x4a, 0xbc, 0xd6, 0x3e, 0x62, 0xf7, 0xbf, 0x3e,
  0x64, 0x62, 0xb3, 0x3e, 0x01, 0xb5, 0x5f, 0xbe, 0x38, 0x89, 0x0b, 0xbe,
  0xc5, 0x6a, 0x2e, 0xbf, 0x0a, 0x55, 0xd3, 0xbe, 0x65, 0xa2, 0xfa, 0x3e,
  0xa9, 0xc9, 0x83, 0xbd, 0x98, 0x24, 0xfc, 0x3e, 0x1c, 0x08, 0xb7, 0x3e,
  0xaa, 0xe3, 0xb9, 0x3e, 0xf1, 0x9f, 0x22, 0xbe, 0x54, 0x07, 0x53, 0x3e,
  0x78, 0x2a, 0xc1, 0x3e, 0xd1, 0xad, 0xa1, 0xbe, 0xa2, 0x1e, 0xbc, 0x3e,
  0xe4, 0x7c, 0x85, 0xbe, 0xe0, 0x99, 0xae, 0x3d, 0x32, 0xb8, 0xb8, 0xbe,
  0xc9, 0x94, 0x77, 0xbe, 0xf6, 0xdb, 0xa8, 0x3e, 0x2f, 0x17, 0x17, 0xbe,
  0x90, 0x45, 0x79, 0x3d, 0x19, 0xfa, 0x42, 0x3e, 0xbe, 0x2e, 0xb5, 0x3d,
  0x8d, 0x55, 0xfd, 0xbd, 0x8a, 0x93, 0x51, 0xbd, 0xb4, 0x09, 0x2e, 0xbe,
  0xc5, 0x85, 0xee, 0xbe, 0xe1, 0xe0, 0x87, 0xbe, 0xf4, 0x4b, 0xc4, 0xbe,
  0xba, 0x8f, 0x85, 0x3e, 0x3e, 0xd0, 0x80, 0xbe, 0x68, 0x54, 0x87, 0xbe,
  0x6e, 0xe0, 0x8a, 0xbe, 0xb5, 0x36, 0xbb, 0xbe, 0xcd, 0x44, 0xaf, 0xbe,
  0x6a, 0x0d, 0xcd, 0xbe, 0x07, 0x53, 0x89, 0xbe, 0xe7, 0x5b, 0xcf, 0xbe,
  0x0a, 0xac, 0xc8, 0xbe, 0xf4, 0x28, 0x1c, 0x3e, 0x08, 0xbd, 0x88, 0xbe,
  0xa2, 0x81, 0xcc, 0x3e, 0x90, 0x70, 0x2c, 0x3d, 0x84, 0x75, 0x5a, 0x3e,
  0x78, 0x20, 0x9a, 0xbe, 0x60, 0x26, 0x93, 0x3d, 0x34, 0xf4, 0x51, 0x3e,
  0xea, 0x20, 0x23, 0xbe, 0x1f, 0x11, 0xc7, 0xbe, 0xc6, 0x97, 0xde, 0xbe,
  0x40, 0x1e, 0xab, 0xbd, 0x48, 0x12, 0xe4, 0x3e, 0xa6, 0xab, 0xc9, 0xbe,
  0x58, 0x18, 0x88, 0xbe, 0xb6, 0x55, 0x7c, 0xbe, 0x50, 0x86, 0x97, 0xbe,
  0xc3, 0xf8, 0x65, 0xbe, 0xd0, 0x54, 0x2d, 0x3e, 0xe0, 0x38, 0xfa, 0xbc,
  0x84, 0xc7, 0xe9, 0xbd, 0x40, 0x2b, 0x61, 0xbd, 0x8e, 0x93, 0x8a, 0x3e,
  0x90, 0x3a, 0x81, 0xbd, 0x12, 0xa8, 0xde, 0x3e, 0xf0, 0xf7, 0x1c, 0xbd,
  0x00, 0x12, 0xb3, 0xbb, 0x78, 0x0c, 0x89, 0xbd, 0x4e, 0x69, 0x90, 0xbe,
  0xe8, 0x6c, 0xe9, 0x3d, 0xc9, 0x3f, 0x68, 0x3e, 0x53, 0x18, 0x99, 0xbd,
  0x41, 0x00, 0x9a, 0x3d, 0xfd, 0xa2, 0x30, 0x3e, 0x09, 0xfc, 0x65, 0xbc,
  0x93, 0x8e, 0xb6, 0xbe, 0x3c, 0x8a, 0x83, 0xbe, 0x34, 0x5f, 0x67, 0xbe,
  0xb8, 0xc1, 0x6b, 0xbd, 0x22, 0x0e, 0xc7, 0x3e, 0x34, 0xa2, 0x46, 0x3e,
  0xf7, 0xcb, 0xe1, 0xbe, 0x10, 0x5b, 0x5f, 0xbd, 0xfc, 0xdf, 0x21, 0x3e,
  0x1a, 0xcb, 0x95, 0xbe, 0xf3, 0xf6, 0x39, 0x3e, 0xbc, 0xa2, 0xba, 0xbe,
  0xbc, 0xb6, 0xf3, 0x3d, 0xf8, 0x04, 0x8c, 0xbe, 0x78, 0x94, 0x25, 0x3e,
  0x30, 0xa6, 0xc5, 0xbd, 0x08, 0xbd, 0x2f, 0x3d, 0xfe, 0x32, 0xad, 0xbe,
  0x00, 0x31, 0x31, 0x3d, 0x5c, 0x4e, 0x11, 0xbe, 0x31, 0xfe, 0x68, 0xbe,
  0xb2, 0xa7, 0xb2, 0xbe, 0xcc, 0x55, 0x7c, 0x3e, 0x00, 0xa3, 0x8d, 0xbe,
  0x36, 0x01, 0xdb, 0x3e, 0xe4, 0x72, 0xde, 0xbd, 0x3c, 0xc1, 0x3e, 0x3e,
  0xa1, 0x8d, 0x76, 0xbe, 0x50, 0xa7, 0x2f, 0xbd, 0x99, 0xac, 0xb0, 0xbe,
  0x78, 0x8e, 0x31, 0x3d, 0xca, 0x1a, 0xa5, 0x3e, 0xf8, 0xb0, 0xce, 0xbe,
  0x6a, 0xe3, 0xd9, 0xbe, 0xaa, 0xd9, 0xff, 0xff, 0x04, 0x00, 0x00, 0x00,
  0x40, 0x06, 0x00, 0x00, 0xcb, 0x7b, 0xc4, 0xbe, 0xc4, 0x48, 0x89, 0x3d,
  0xad, 0xd3, 0x6a, 0xbe, 0x28, 0x80, 0x2e, 0x3d, 0xe8, 0x2c, 0x16, 0x3e,
  0x40, 0xa5, 0x48, 0x3e, 0x8c, 0x45, 0x82, 0x3e, 0xbc, 0x82, 0x82, 0x3d,
  0x25, 0xa5, 0xb8, 0xbe, 0x88, 0x61, 0x15, 0x3e, 0x1d, 0xc0, 0x75, 0xbe,
  0x72, 0x4b, 0x20, 0xbe, 0xf2, 0x87, 0xb0, 0xbe, 0xb2, 0xf9, 0xa1, 0x3e,
  0xee, 0xde, 0x96, 0xbe, 0x88, 0x41, 0x0c, 0xbe, 0xde, 0x20, 0x9d, 0x3e,
  0x28, 0x8a, 0x77, 0x3d, 0x63, 0xe6, 0x0e, 0xbe, 0xe6, 0xcb, 0x40, 0xbe,
  0xc8, 0xc9, 0x5d, 0xbe, 0xe8, 0xe8, 0x66, 0xbd, 0x48, 0xca, 0x82, 0x3d,
  0xd0, 0xb3, 0x49, 0xbe, 0xc7, 0x3b, 0x69, 0xbe, 0xb8, 0x05, 0xf3, 0x3d,
  0x3c, 0xc1, 0xac, 0x3e, 0x94, 0xed, 0xd4, 0x3d, 0xdf, 0x27, 0x8e, 0xbd,
  0x50, 0x01, 0x3c, 0x3e, 0x0e, 0xfb, 0x68, 0xbe, 0xf3, 0xdc, 0x43, 0xbe,
  0x6b, 0x02, 0xcb, 0x3d, 0x2a, 0xb2, 0xd1, 0xbd, 0xf6, 0xb2, 0x09, 0x3c,
  0xcd, 0xc5, 0x2f, 0x3e, 0x4c, 0xf4, 0xba, 0x3e, 0x49, 0xa6, 0xaa, 0x3d,
  0xa2, 0x6b, 0x8b, 0x3e, 0xd5, 0x86, 0x3d, 0x3e, 0xc8, 0xda, 0x07, 0x3d,
  0x9b, 0x05, 0x36, 0x3e, 0xe0, 0xfa, 0x69, 0xbd, 0xcf, 0x27, 0x8a, 0xbe,
  0xcb, 0xd7, 0x4e, 0xbe, 0xa8, 0xcb, 0x8d, 0x3e, 0xc1, 0xfd, 0x18, 0x3e,
  0x00, 0xbf, 0xfc, 0xbc, 0x90, 0x0b, 0xa2, 0x3e, 0x47, 0xf3, 0x30, 0x3d,
  0xd1, 0x2c, 0x71, 0x3e, 0x06, 0x29, 0x91, 0xbe, 0x14, 0x43, 0x8c, 0xbe,
  0xa5, 0x78, 0x67, 0xbd, 0x6d, 0xda, 0x7d, 0x3e, 0x4f, 0x5a, 0x90, 0xbe,
  0xe1, 0xfa, 0x62, 0xbe, 0x2a, 0x4c, 0x3d, 0x3e, 0xd1, 0x8d, 0x11, 0xbd,
  0x6f, 0x4e, 0x9d, 0x3e, 0x93, 0xcd, 0x25, 0x3e, 0x7d, 0x6d, 0x95, 0xbe,
  0x76, 0x99, 0x1a, 0xbe, 0xc3, 0x47, 0x63, 0xbf, 0x00, 0xb8, 0x35, 0xba,
  0xc3, 0xfe, 0x6a, 0xbe, 0x22, 0xe1, 0x21, 0xbe, 0x55, 0x15, 0x62, 0xbe,
  0x38, 0xea, 0x46, 0xbe, 0x9f, 0x5a, 0xba, 0x3d, 0xde, 0x68, 0x5c, 0x3e,
  0x72, 0xb9, 0x39, 0xbe, 0x14, 0xcf, 0x35, 0xba, 0x39, 0xc0, 0x8d, 0x3e,
  0x1c, 0x4f, 0x4e, 0x3e, 0x6a, 0x79, 0xcf, 0x3d, 0x13, 0x99, 0x3d, 0xbe,
  0xa1, 0xbd, 0x43, 0xbe, 0xc8, 0xf1, 0x4c, 0x3e, 0xe7, 0xe8, 0xac, 0xbe,
  0xd9, 0xb8, 0x8e, 0x3e, 0x7b, 0x5b, 0xa1, 0xbe, 0x34, 0xd7, 0x74, 0x3e,
  0x54, 0xe5, 0x26, 0xbf, 0xe0, 0xf7, 0x2c, 0x3e, 0x3c, 0xf5, 0x00, 0x3e,
  0x17, 0xbb, 0x40, 0xbf, 0x78, 0xf3, 0x50, 0xbe, 0x1a, 0x51, 0xa6, 0x3e,
  0x1d, 0xb3, 0xc9, 0x3e, 0x98, 0x11, 0xf3, 0xbd, 0xb4, 0xfc, 0x6a, 0xbe,
  0x54, 0x38, 0xf5, 0x3e, 0x2e, 0x47, 0x95, 0xbe, 0x86, 0xd8, 0xc8, 0x3c,
  0xbe, 0x05, 0x86, 0x3d, 0x52, 0x37, 0xbd, 0xbe, 0x50, 0xfc, 0xb7, 0xbd,
  0x14, 0x29, 0x29, 0xbf, 0xed, 0x8d, 0x5a, 0xbe, 0x9c, 0xfa, 0xa5, 0xbe,
  0xbf, 0xf9, 0xba, 0x3e, 0x48, 0x44, 0x04, 0x3e, 0x68, 0xfe, 0xa9, 0xbe,
  0x50, 0x8d, 0x3d, 0xbe, 0x20, 0x1d, 0xed, 0xbd, 0xce, 0xe3, 0x1e, 0x3e,
  0x48, 0x77, 0xe6, 0x3d, 0xdb, 0x2d, 0x81, 0x3e, 0x2d, 0x54, 0xca, 0x3e,
  0xad, 0x53, 0x84, 0xbe, 0xa0, 0x9c, 0xde, 0xbc, 0xb3, 0xd0, 0x56, 0x3e,
  0x67, 0xaa, 0xec, 0xbd, 0x6b, 0x0a, 0xb2, 0x3e, 0x76, 0xc0, 0x90, 0x3e,
  0x34, 0xea, 0xef, 0xbd, 0xef, 0x82, 0x27, 0xbd, 0xaa, 0x31, 0x84, 0x3e,
  0x5f, 0xb0, 0x9f, 0xbd, 0xfc, 0x34, 0x4f, 0x3e, 0x80, 0x3c, 0xe2, 0xbb,
  0x1c, 0xe4, 0x13, 0x3e, 0x88, 0x31, 0x4c, 0x3e, 0x3d, 0x5b, 0x94, 0xbe,
  0xb0, 0xef, 0x84, 0xbe, 0x90, 0x4c, 0x3d, 0x3e, 0x6c, 0xab, 0x82, 0x3e,
  0x10, 0xd2, 0xb3, 0xbc, 0xf7, 0xbc, 0x9e, 0xbe, 0x80, 0xc6, 0x8c, 0xbd,
  0x68, 0x17, 0x20, 0x3e, 0x3c, 0x9d, 0x51, 0x3e, 0x58, 0x7e, 0x79, 0xbd,
  0x00, 0x59, 0xa1, 0x3c, 0x4c, 0xee, 0x24, 0xbe, 0x43, 0xdd, 0x76, 0xbe,
  0x74, 0xe0, 0xf4, 0xbd, 0x00, 0xf1, 0x4f, 0x3c, 0x48, 0x8a, 0xf7, 0xbd,
  0x28, 0x02, 0x6a, 0x3d, 0xcf, 0x87, 0x32, 0x3e, 0xac, 0xd2, 0x63, 0x3e,
  0x3d, 0x1c, 0xb8, 0x3e, 0x88, 0xa2, 0xdd, 0xbd, 0x6a, 0x10, 0x9f, 0xbe,
  0x03, 0x90, 0xa9, 0xbe, 0xe4, 0x04, 0x57, 0x3e, 0x4c, 0xae, 0x8e, 0x3e,
  0x2c, 0xe0, 0x7e, 0x3d, 0x9c, 0x47, 0x8b, 0xbd, 0xf5, 0xad, 0xa7, 0xbe,
  0x2b, 0x38, 0x53, 0xbe, 0x94, 0xc8, 0x12, 0x3e, 0x55, 0x6d, 0x9e, 0xbe,
  0x5d, 0x0f, 0x63, 0x3d, 0xec, 0x6f, 0xac, 0x3d, 0x28, 0xc8, 0x04, 0xbe,
  0x15, 0x5b, 0xdd, 0x3d, 0xb1, 0x5e, 0xb5, 0xbe, 0xd0, 0x38, 0xed, 0xbd,
  0xe0, 0xa4, 0x45, 0x3e, 0x58, 0x3d, 0xa2, 0xbe, 0x96, 0xe4, 0xa3, 0x3e,
  0x10, 0x10, 0x6f, 0xbe, 0xba, 0xf5, 0xad, 0x3e, 0xc3, 0x32, 0x99, 0xbe,
  0x86, 0x73, 0x9b, 0x3e, 0x9b, 0xcd, 0x55, 0xbe, 0x20, 0x3e, 0x4c, 0xbe,
  0x70, 0x44, 0x90, 0xbd, 0x58, 0x39, 0x88, 0x3e, 0xdc, 0x80, 0xa1, 0xbe,
  0xc1, 0xf6, 0x65, 0xbe, 0xfb, 0x66, 0x4b, 0xbe, 0xe9, 0x67, 0x97, 0xbe,
  0xc0, 0x34, 0x19, 0x3d, 0x50, 0x28, 0x2b, 0x3d, 0x00, 0x9c, 0xfe, 0x3b,
  0x9c, 0x22, 0x8c, 0x3e, 0x9c, 0xbe, 0x42, 0x3e, 0x84, 0xf5, 0x85, 0xbe,
  0x12, 0x26, 0x0e, 0xbe, 0x3a, 0x8a, 0xa6, 0xbe, 0x1c, 0x68, 0x1b, 0x3e,
  0xdd, 0x84, 0xb1, 0xbe, 0x20, 0x1a, 0x64, 0x3d, 0x70, 0x0d, 0x5b, 0x3e,
  0x41, 0x19, 0xa0, 0xbe, 0xd9, 0x11, 0xac, 0xbe, 0x54, 0xe1, 0x14, 0xbe,
  0x8a, 0x80, 0x2e, 0xbe, 0xf0, 0xd0, 0x25, 0x3e, 0x10, 0x24, 0x95, 0xbd,
  0x00, 0x8d, 0xcb, 0xbd, 0x26, 0x67, 0xa3, 0xbe, 0x28, 0xcd, 0x9e, 0xbe,
  0xb0, 0x9c, 0xc9, 0x3d, 0x09, 0x51, 0xa2, 0xbe, 0xbc, 0xf4, 0x87, 0xbe,
  0x80, 0xde, 0x89, 0x3b, 0x85, 0x27, 0x25, 0xbe, 0xfa, 0xb6, 0xa2, 0xbe,
  0x50, 0x9b, 0x25, 0x3d, 0x63, 0xa8, 0x68, 0xbe, 0xd8, 0x7a, 0x28, 0x3e,
  0xdf, 0x47, 0xa8, 0xbe, 0x4f, 0xbc, 0x3a, 0xbe, 0x01, 0xd0, 0x72, 0xbe,
  0xf0, 0xf4, 0xd2, 0x3d, 0x9a, 0x92, 0x84, 0x3e, 0xb8, 0x5b, 0x6c, 0x3e,
  0xd4, 0x0f, 0x2b, 0x3e, 0xee, 0x06, 0x8c, 0xbe, 0x00, 0x9d, 0x18, 0xbd,
  0x20, 0x29, 0xac, 0xbe, 0xa8, 0xc1, 0xdc, 0x3d, 0xd4, 0x41, 0xef, 0xbd,
  0x38, 0x0f, 0x2c, 0x3e, 0x37, 0x90, 0x20, 0xbe, 0x13, 0x97, 0x97, 0x3e,
  0x78, 0x75, 0x7b, 0x3e, 0xca, 0x23, 0x9f, 0x3e, 0xe2, 0x9c, 0x9e, 0x3e,
  0x1a, 0xd8, 0x8d, 0xbe, 0xac, 0xe2, 0x29, 0x3e, 0xd0, 0x99, 0xf0, 0x3d,
  0x96, 0xda, 0x4a, 0xbe, 0xbf, 0x7d, 0x5c, 0x3e, 0xb4, 0x9a, 0x07, 0xbe,
  0x24, 0x2b, 0x06, 0x3e, 0x58, 0x7e, 0xc4, 0x3e, 0x5a, 0xe7, 0x8d, 0x3e,
  0x04, 0xa8, 0x4f, 0x3e, 0xa1, 0x13, 0x83, 0x3e, 0xc7, 0xde, 0xc3, 0xbe,
  0x40, 0x72, 0x2b, 0x3e, 0xce, 0x70, 0x8b, 0x3e, 0xec, 0xdf, 0x74, 0x3e,
  0x83, 0x8e, 0x91, 0xbe, 0x58, 0x6e, 0x2d, 0x3e, 0x1e, 0x4a, 0x24, 0x3e,
  0xac, 0x55, 0x69, 0x3e, 0x2d, 0x4a, 0x06, 0xbd, 0x09, 0x6b, 0x92, 0xbe,
  0x54, 0x2f, 0x55, 0x3e, 0xb7, 0xe6, 0xd7, 0xbe, 0xce, 0x6a, 0x8b, 0x3e,
  0x0e, 0x5d, 0x1d, 0xbe, 0x15, 0x50, 0x42, 0xbe, 0x29, 0x45, 0xb0, 0xbe,
  0x50, 0x35, 0xcb, 0xbc, 0xda, 0x5e, 0x43, 0x3e, 0x6e, 0xfa, 0x9f, 0xbe,
  0x10, 0x6f, 0x70, 0x3e, 0x1f, 0x5d, 0x24, 0x3e, 0x38, 0x0f, 0x21, 0x3e,
  0x7f, 0x51, 0x0e, 0xbe, 0x2e, 0x46, 0xa7, 0x3e, 0x6e, 0x63, 0x8a, 0x3d,
  0xbc, 0x9f, 0x21, 0xbe, 0x97, 0xf2, 0xa1, 0x3e, 0xe5, 0x29, 0x1a, 0xbe,
  0xeb, 0xa3, 0x8f, 0x3e, 0x18, 0xe8, 0x36, 0x3d, 0xea, 0x88, 0xa0, 0x3e,
  0x70, 0xc9, 0x68, 0xbe, 0xc4, 0x95, 0x34, 0x3e, 0xff, 0x52, 0x2b, 0xbe,
  0xa0, 0xe9, 0x33, 0x3e, 0x88, 0xbc, 0x0b, 0xbd, 0xf6, 0xc5, 0x78, 0xbe,
  0x23, 0xec, 0x16, 0x3e, 0x33, 0xff, 0x14, 0xbe, 0xc7, 0xb8, 0x95, 0x3e,
  0x6c, 0x4e, 0xda, 0xbe, 0xae, 0x3a, 0x9c, 0xbe, 0x75, 0x4a, 0x2c, 0xbe,
  0x61, 0xc0, 0x9d, 0xbd, 0x45, 0xa4, 0xaf, 0xbe, 0x8a, 0x9d, 0x6d, 0xbe,
  0x79, 0x6b, 0xf8, 0xbe, 0xff, 0xab, 0x5d, 0xbe, 0xd7, 0xc1, 0x16, 0xbe,
  0x94, 0x66, 0xbc, 0x3e, 0xab, 0x96, 0x57, 0xbe, 0x83, 0x05, 0xb4, 0xbe,
  0x44, 0x62, 0x79, 0x3e, 0x33, 0x78, 0x88, 0xbe, 0x0a, 0x16, 0xfc, 0x3d,
  0xe5, 0x18, 0x9f, 0xbe, 0xb0, 0x5e, 0x63, 0xbd, 0xde, 0x0b, 0x97, 0x3d,
  0x51, 0x26, 0x8f, 0xbe, 0x17, 0x15, 0x8a, 0x3e, 0x2b, 0x8d, 0x79, 0xbd,
  0xb1, 0x4f, 0xae, 0xbe, 0x9c, 0xc2, 0x5e, 0xbc, 0xb3, 0x1d, 0x10, 0xbe,
  0xaf, 0x99, 0x2f, 0x3f, 0x7b, 0xe2, 0x13, 0xbe, 0xda, 0x97, 0x5a, 0xbe,
  0xf4, 0x88, 0x4f, 0x3e, 0x9c, 0xbc, 0x48, 0x3e, 0xb8, 0x7b, 0x05, 0xbd,
  0x00, 0x61, 0xd6, 0xbb, 0xe3, 0x61, 0x2c, 0xbe, 0xf4, 0x81, 0x9c, 0xbe,
  0xfd, 0xde, 0x8f, 0x3d, 0xed, 0x0d, 0x55, 0x3e, 0x77, 0x7d, 0x1d, 0x3e,
  0xb6, 0xe4, 0xa1, 0xbe, 0xfb, 0x0e, 0x30, 0x3e, 0x62, 0x79, 0x0d, 0x3e,
  0x41, 0x02, 0xa3, 0xbe, 0xa7, 0xfb, 0xd7, 0x3d, 0xa5, 0x84, 0x31, 0xbe,
  0x51, 0xc4, 0x36, 0x3e, 0x3e, 0x31, 0x39, 0xbe, 0x1a, 0x09, 0xab, 0x3e,
  0x87, 0x1e, 0x1e, 0x3e, 0x53, 0x49, 0x48, 0x3e, 0x56, 0xfc, 0xbb, 0x3e,
  0x98, 0x9a, 0xef, 0xbc, 0x20, 0xba, 0xad, 0x3e, 0x70, 0xe1, 0x3c, 0x3d,
  0xa5, 0x65, 0xf6, 0x3d, 0x73, 0x03, 0x90, 0xbe, 0x81, 0xf8, 0xdf, 0xbd,
  0x37, 0x70, 0x92, 0x3e, 0x74, 0x98, 0xd8, 0x3d, 0x68, 0xcc, 0xbb, 0xbd,
  0xfc, 0xbf, 0x95, 0x3e, 0xb5, 0xa9, 0xa1, 0x3e, 0x1d, 0xb0, 0x80, 0x3e,
  0x16, 0x5a, 0x87, 0x3e, 0xc2, 0xcf, 0xc0, 0x3e, 0xd4, 0x90, 0x5c, 0xbe,
  0x20, 0xc1, 0x71, 0xbe, 0xa1, 0xf8, 0x93, 0x3e, 0x1f, 0xe9, 0x24, 0x3e,
  0xe2, 0xfb, 0xa2, 0x3e, 0xf0, 0x9c, 0x83, 0x3e, 0x11, 0xe8, 0x23, 0xbf,
  0xb0, 0xb3, 0xb6, 0x3c, 0x60, 0x15, 0x44, 0x3e, 0xc5, 0xaa, 0xa2, 0xbe,
  0x22, 0xe6, 0x6d, 0xbe, 0x74, 0x4b, 0x14, 0x3e, 0xcd, 0xdb, 0x44, 0xbe,
  0x0e, 0xda, 0x80, 0x3e, 0xbe, 0xb4, 0x42, 0xbe, 0xda, 0xda, 0x47, 0xbd,
  0x2f, 0xff, 0x91, 0x3e, 0xc4, 0x0b, 0x40, 0x3e, 0xa1, 0x0a, 0x92, 0x3d,
  0x10, 0xcc, 0xde, 0x3c, 0xd9, 0x56, 0x8f, 0x3e, 0xca, 0x89, 0x0f, 0x3e,
  0xb2, 0x63, 0x71, 0xbd, 0x48, 0xda, 0x8a, 0xbd, 0xd5, 0x75, 0x15, 0xbe,
  0x82, 0x4c, 0x02, 0xbe, 0x6f, 0xb8, 0x49, 0xbf, 0xa4, 0x48, 0x66, 0xbe,
  0x98, 0xc4, 0x92, 0x3d, 0x0c, 0x7b, 0x5c, 0x3d, 0x34, 0x3b, 0x8a, 0x3d,
  0x90, 0x3d, 0xe0, 0x3c, 0x03, 0x97, 0x4d, 0x3d, 0x4a, 0x4a, 0xc7, 0x3d,
  0x14, 0x28, 0x85, 0xbe, 0x97, 0xf0, 0x17, 0x3d, 0xec, 0x8b, 0x47, 0xbe,
  0x77, 0x07, 0xc0, 0x3e, 0x77, 0x18, 0xac, 0x3e, 0xd3, 0xc6, 0xc5, 0xbe,
  0xb8, 0x11, 0x1c, 0x3e, 0x58, 0x91, 0x1f, 0xbc, 0xd6, 0xd6, 0x9b, 0x3a,
  0x15, 0x10, 0x50, 0x3e, 0xe2, 0x16, 0x86, 0xbb, 0xd0, 0xd6, 0xc8, 0xbc,
  0x08, 0x09, 0xda, 0x3e, 0x80, 0x64, 0x09, 0xbd, 0xab, 0x07, 0x97, 0xbe,
  0xab, 0x72, 0xb1, 0x3d, 0x9c, 0x0b, 0x53, 0x3e, 0x32, 0x6b, 0x5d, 0xbe,
  0x41, 0xd0, 0x9a, 0xbe, 0x3a, 0x67, 0x5a, 0xbd, 0x20, 0x72, 0x52, 0x3e,
  0xb4, 0x87, 0xca, 0x3e, 0xd7, 0xbf, 0x65, 0x3e, 0xf1, 0x3e, 0xe0, 0x3e,
  0xa5, 0x86, 0xae, 0x3e, 0x28, 0x19, 0x51, 0xbe, 0xfb, 0x4e, 0x1e, 0xbe,
  0x4e, 0x1b, 0xb8, 0xbe, 0x2c, 0xf9, 0x4f, 0xbc, 0xf6, 0xdf, 0xff, 0xff,
  0x04, 0x00, 0x00, 0x00, 0x40, 0x06, 0x00, 0x00, 0xd3, 0x85, 0x8c, 0xbe,
  0x6f, 0x84, 0xbe, 0xbe, 0xd9, 0x42, 0x92, 0x3e, 0xe6, 0x09, 0xa3, 0xbe,
  0xe5, 0xe0, 0x81, 0x3e, 0x40, 0x25, 0xb6, 0x3b, 0x01, 0xc3, 0x57, 0x3e,
  0xcf, 0x7b, 0xb9, 0x3e, 0x4e, 0xbd, 0x8d, 0x3e, 0x79, 0x8e, 0x9b, 0x3e,
  0x14, 0x22, 0x80, 0x3e, 0xf8, 0x20, 0x1b, 0xbe, 0xb8, 0x79, 0x1e, 0xbe,
  0xf5, 0x13, 0x54, 0x3e, 0x7f, 0xe0, 0xef, 0xbd, 0x50, 0x69, 0x3f, 0xbd,
  0x2f, 0x6d, 0xd0, 0xbe, 0xba, 0x1b, 0x3d, 0x3d, 0x69, 0xb6, 0x59, 0xbe,
  0xb8, 0x6f, 0x64, 0xbe, 0x79, 0x95, 0xef, 0x3d, 0x14, 0xfe, 0x75, 0x3e,
  0x8b, 0xd8, 0x8b, 0xbd, 0xf2, 0x6a, 0x98, 0x3e, 0xb7, 0xf3, 0x52, 0xbe,
  0x55, 0x45, 0x91, 0xbe, 0x37, 0xe3, 0x11, 0xbf, 0x4c, 0xae, 0xf4, 0xbd,
  0x53, 0x14, 0xde, 0x3e, 0xe4, 0xc4, 0x91, 0xbe, 0x32, 0x68, 0xb2, 0x3e,
  0x88, 0xd5, 0x01, 0x3e, 0x7a, 0xca, 0xa8, 0xbe, 0xdf, 0x0b, 0xa1, 0xbe,
  0x3f, 0xcb, 0xa0, 0xbe, 0xfd, 0x2c, 0x20, 0xbe, 0xaf, 0xae, 0xac, 0x3e,
  0x41, 0xed, 0x21, 0xbe, 0x10, 0xe3, 0x67, 0xbd, 0x49, 0xa6, 0xc7, 0x3e,
  0xfc, 0xc0, 0xd3, 0xbd, 0x4c, 0x49, 0xdb, 0xbd, 0x77, 0x4b, 0xb9, 0xbe,
  0xe4, 0xdd, 0x41, 0x3e, 0x82, 0x35, 0xbe, 0xbe, 0x88, 0xbf, 0xa4, 0x3d,
  0x62, 0x5e, 0x78, 0xbe, 0xa2, 0xde, 0x7f, 0xbe, 0xb9, 0xd0, 0x42, 0xbe,
  0x2c, 0x0d, 0x15, 0x3e, 0x8c, 0x2f, 0xae, 0xbd, 0x5e, 0xb8, 0x87, 0x3e,
  0x79, 0xe8, 0xbd, 0xbe, 0x60, 0x20, 0x91, 0xbd, 0x40, 0xe8, 0xdb, 0x3b,
  0x58, 0x1f, 0x47, 0x3d, 0x40, 0x4c, 0x1e, 0x3c, 0xf7, 0x92, 0x4c, 0xbe,
  0x82, 0xd3, 0x5f, 0xbe, 0x74, 0x4c, 0xb2, 0xbe, 0x5d, 0xc5, 0xff, 0x3d,
  0x62, 0xdb, 0x8d, 0x3e, 0xec, 0xaf, 0x9a, 0xbe, 0x60, 0xd9, 0xba, 0x3e,
  0xb8, 0xee, 0x89, 0xbe, 0xc3, 0x30, 0xbb, 0xbe, 0x9e, 0xef, 0x06, 0xbf,
  0x18, 0xf0, 0xb6, 0xbe, 0xa3, 0xd7, 0xa1, 0x3e, 0x5b, 0xa7, 0x53, 0x3e,
  0x94, 0x54, 0xa1, 0xbe, 0x00, 0x35, 0xb1, 0x3b, 0x7c, 0xe3, 0xfc, 0xbd,
  0x4c, 0xc9, 0xb0, 0x3d, 0x47, 0x4f, 0xb9, 0x3e, 0x83, 0xa2, 0x6b, 0x3d,
  0x7d, 0xe4, 0xce, 0xbe, 0x77, 0xf2, 0x2e, 0x3f, 0x52, 0x83, 0xc5, 0x3e,
  0xe1, 0x81, 0x88, 0xbe, 0x71, 0x7d, 0xc2, 0xbe, 0x2c, 0xbf, 0xac, 0x3d,
  0x1c, 0x94, 0xc7, 0xbd, 0xe8, 0x16, 0x2d, 0x3d, 0xec, 0x9b, 0x6a, 0x3e,
  0x80, 0x3f, 0x90, 0x3d, 0xdc, 0x7e, 0x2d, 0x3e, 0x78, 0x3a, 0x07, 0x3e,
  0x96, 0xbf, 0xb7, 0xbe, 0x34, 0x43, 0xa6, 0xbe, 0x1c, 0x43, 0xc7, 0xbd,
  0x86, 0xb7, 0x0e, 0xbe, 0x41, 0x12, 0x9c, 0xbe, 0x80, 0xf8, 0xe6, 0xbd,
  0xb9, 0xa8, 0x97, 0xbe, 0xce, 0x84, 0xaf, 0xbe, 0x81, 0x9f, 0xb5, 0xbe,
  0x8a, 0x0e, 0x82, 0xbe, 0x28, 0x0a, 0xab, 0xbd, 0x18, 0x2c, 0x5f, 0x3e,
  0xc0, 0x1b, 0x72, 0x3c, 0xf8, 0xfa, 0xb8, 0x3d, 0x55, 0x2e, 0x82, 0xbe,
  0x80, 0xf9, 0x86, 0xbe, 0x9c, 0xaa, 0x33, 0xbe, 0xa4, 0xd4, 0x82, 0x3d,
  0x00, 0x66, 0x52, 0xbc, 0x50, 0x13, 0x84, 0xbc, 0x08, 0xd5, 0xbf, 0xbe,
  0x38, 0x13, 0x57, 0x3d, 0xc0, 0x6e, 0x6d, 0x3e, 0x04, 0xe7, 0x95, 0xbd,
  0xa7, 0x33, 0x20, 0xbe, 0x82, 0x94, 0xbf, 0xbe, 0x31, 0x4d, 0x98, 0xbe,
  0xa8, 0xed, 0xa7, 0x3e, 0x81, 0x1e, 0x8e, 0xbe, 0x09, 0x96, 0x1d, 0xbe,
  0xcc, 0xae, 0x69, 0x3e, 0x94, 0xf6, 0x8b, 0x3e, 0x2f, 0xfb, 0xcf, 0x3e,
  0xde, 0x27, 0x55, 0xbe, 0x7f, 0x80, 0x8d, 0x3e, 0xe5, 0x8e, 0x86, 0x3e,
  0x50, 0xe3, 0x72, 0xbe, 0xf0, 0x58, 0x98, 0xbd, 0xbb, 0xfb, 0xa2, 0xbf,
  0x40, 0xdc, 0x26, 0xbe, 0x1f, 0xc2, 0xa3, 0x3e, 0x43, 0xe3, 0xa8, 0xbc,
  0xa0, 0xe2, 0x41, 0x3c, 0x22, 0xb8, 0x8f, 0x3e, 0x24, 0x8f, 0x70, 0x3e,
  0xb7, 0xd6, 0xea, 0x3d, 0xf6, 0x25, 0x01, 0x3e, 0xcd, 0x94, 0x15, 0xbe,
  0x7f, 0xe4, 0xfe, 0xbd, 0xdd, 0xc0, 0xf8, 0x3d, 0xc4, 0xdb, 0x3c, 0x3e,
  0x68, 0x6e, 0x08, 0xbe, 0x00, 0x53, 0xcc, 0x3a, 0x20, 0x54, 0x03, 0xbd,
  0x66, 0x12, 0xa2, 0xbe, 0xc0, 0x7b, 0xc0, 0xbc, 0x70, 0x7b, 0x33, 0x3e,
  0xf7, 0xc5, 0x0c, 0xbe, 0xac, 0x28, 0x8b, 0xbe, 0x92, 0x99, 0xb9, 0x3e,
  0xa4, 0xe3, 0x2a, 0x3e, 0x06, 0x75, 0xbe, 0xbe, 0xe0, 0xee, 0x23, 0x3d,
  0xc4, 0xda, 0x25, 0xbe, 0xf0, 0xd3, 0x4c, 0xbe, 0xac, 0xe9, 0xcc, 0x3d,
  0xe8, 0x6c, 0x04, 0x3e, 0xe0, 0x3b, 0x12, 0x3e, 0x00, 0x38, 0x5e, 0x3b,
  0x48, 0xb0, 0xfe, 0x3d, 0x0c, 0xee, 0x0f, 0x3e, 0xa2, 0xea, 0xb9, 0xbe,
  0xf0, 0x12, 0x1d, 0xbe, 0x00, 0x57, 0x6d, 0xbe, 0x51, 0xb2, 0x7b, 0x3e,
  0x13, 0x14, 0x78, 0xbe, 0xa8, 0xa2, 0x70, 0x3e, 0xa4, 0x23, 0x8f, 0xbe,
  0x3e, 0xec, 0x3f, 0xbe, 0x25, 0xb3, 0x21, 0x3e, 0xbb, 0x64, 0x91, 0xbe,
  0x85, 0x73, 0x1e, 0x3d, 0xfc, 0xe1, 0xe4, 0xbc, 0x74, 0xdf, 0x6e, 0x3e,
  0x3c, 0xb1, 0x03, 0x3e, 0x3e, 0xd3, 0x90, 0x3e, 0x72, 0x9b, 0xae, 0x3e,
  0xaf, 0x86, 0x1d, 0x3d, 0x4c, 0x7b, 0x73, 0xbe, 0x0a, 0x18, 0xaa, 0xbe,
  0xd2, 0x6f, 0x99, 0xbe, 0xef, 0xe2, 0xc5, 0xbe, 0x8e, 0x47, 0x0c, 0x3e,
  0x74, 0x52, 0xdd, 0x3d, 0x2f, 0x3a, 0x93, 0xbe, 0x7c, 0x66, 0x46, 0x3e,
  0xd5, 0xfe, 0xaa, 0x3d, 0x90, 0x27, 0x2f, 0x3d, 0x8d, 0xa6, 0xe6, 0xbd,
  0x42, 0xf5, 0xac, 0x3e, 0x28, 0x6e, 0x14, 0x3e, 0x11, 0x68, 0x60, 0x3e,
  0xf9, 0x96, 0x2c, 0xbe, 0x54, 0x1f, 0xf4, 0xbd, 0x62, 0x01, 0x99, 0x3e,
  0x69, 0x4a, 0x19, 0x3e, 0xe7, 0xf1, 0xee, 0x3d, 0x5c, 0x6c, 0xca, 0x3d,
  0xee, 0x9d, 0xa4, 0x3e, 0xe1, 0x13, 0xde, 0x3e, 0x3c, 0x9a, 0x6b, 0x3e,
  0x75, 0xa9, 0x8e, 0xbe, 0x31, 0xa8, 0x6e, 0xbe, 0xa4, 0xc7, 0x2e, 0x3e,
  0x62, 0xbf, 0x1d, 0xbe, 0xec, 0xc1, 0x94, 0xbe, 0x4e, 0xa9, 0xb1, 0xbe,
  0xef, 0x9f, 0x33, 0xbe, 0x5c, 0xea, 0x87, 0x3e, 0x48, 0xfe, 0xc8, 0xbe,
  0x33, 0x13, 0x6b, 0xbe, 0x7f, 0x88, 0x4d, 0x3e, 0x84, 0x2f, 0x4a, 0xbd,
  0xa0, 0x8e, 0xa4, 0x3e, 0xd4, 0xa5, 0x14, 0xbe, 0xff, 0x4c, 0xef, 0x3d,
  0x6e, 0xdf, 0x48, 0xbd, 0x66, 0x06, 0x05, 0xbe, 0x91, 0xa4, 0x56, 0xbe,
  0xc9, 0xf6, 0xda, 0xbd, 0xd8, 0x07, 0xaf, 0x3e, 0x12, 0x55, 0xa2, 0x3e,
  0x56, 0x27, 0x10, 0xbe, 0x63, 0x18, 0x18, 0xbe, 0x60, 0x54, 0x83, 0xbc,
  0x14, 0xcb, 0x3b, 0xbe, 0xf7, 0xfb, 0x39, 0xbe, 0xc0, 0xd4, 0xac, 0x3c,
  0x9c, 0xed, 0x8d, 0x3e, 0xff, 0x15, 0x42, 0xbe, 0x00, 0xc4, 0x38, 0xbc,
  0x40, 0xd7, 0xba, 0x3d, 0x5d, 0x02, 0xbc, 0xbe, 0xc2, 0x50, 0x1d, 0xbe,
  0x08, 0x8a, 0xa3, 0x3e, 0x38, 0xb6, 0x25, 0x3e, 0x1e, 0x9d, 0x8c, 0xbe,
  0xb8, 0x76, 0x93, 0x3e, 0x6f, 0x2e, 0xa8, 0xbe, 0xce, 0x23, 0xb4, 0x3e,
  0xc4, 0x36, 0xa4, 0x3d, 0xe8, 0x57, 0xe4, 0x3d, 0x67, 0xc2, 0x3e, 0xbe,
  0x76, 0x48, 0xb9, 0x3e, 0x21, 0xca, 0x0a, 0x3d, 0xeb, 0x46, 0xc0, 0x3c,
  0x14, 0x2d, 0xe3, 0x3d, 0x38, 0x1a, 0xb4, 0x3e, 0x7b, 0x22, 0x75, 0xbe,
  0x08, 0xc3, 0xdc, 0x3d, 0x64, 0xa7, 0x86, 0xbe, 0x3b, 0x88, 0x3c, 0xbe,
  0x54, 0xe3, 0x91, 0xbe, 0x26, 0x3d, 0x61, 0xbe, 0x0d, 0x6c, 0x97, 0xbe,
  0x64, 0xfe, 0xb2, 0x3e, 0xb1, 0xa8, 0x91, 0xbb, 0x7a, 0xbb, 0xa6, 0xbd,
  0x1a, 0x74, 0x93, 0x3e, 0x7e, 0xe3, 0x83, 0xbe, 0xbd, 0x77, 0x13, 0xbe,
  0x2c, 0x37, 0x86, 0xbc, 0x96, 0x23, 0x86, 0xbe, 0x70, 0x4e, 0xa1, 0xbe,
  0x76, 0xba, 0x75, 0xbe, 0xc5, 0x9d, 0xb7, 0xbd, 0xb9, 0x78, 0x71, 0xbe,
  0xa8, 0x76, 0x83, 0x3e, 0x5d, 0xc7, 0x0d, 0x3e, 0x03, 0x0e, 0x23, 0x3e,
  0xb7, 0x4a, 0xc0, 0xbe, 0xce, 0x63, 0x1b, 0x3d, 0xd1, 0xa0, 0xa6, 0x3e,
  0xa8, 0x90, 0x99, 0x3e, 0x40, 0xb6, 0x17, 0x3c, 0x06, 0x5c, 0x93, 0xbd,
  0x94, 0x3d, 0x70, 0xbe, 0x04, 0x77, 0x06, 0x3d, 0x63, 0x2a, 0x07, 0x3e,
  0x8a, 0x89, 0x90, 0xbe, 0xc8, 0x12, 0xe7, 0xbd, 0xff, 0xcd, 0x43, 0xbd,
  0x93, 0xb0, 0xab, 0x3d, 0x6e, 0x6a, 0x89, 0x3e, 0xc9, 0xe7, 0xd8, 0x3e,
  0xf6, 0xe4, 0xab, 0x3e, 0x14, 0xe1, 0x99, 0x3d, 0x06, 0xdf, 0x41, 0xbe,
  0x23, 0x36, 0x3f, 0xbf, 0x7b, 0xc7, 0x5e, 0xbe, 0xe3, 0x5b, 0xcc, 0x3d,
  0x33, 0x80, 0xe1, 0x3e, 0x02, 0x4a, 0x93, 0xbe, 0xd2, 0x5c, 0xa7, 0xbe,
  0x7f, 0x33, 0x74, 0xbe, 0x1d, 0x86, 0x9b, 0x3e, 0xfc, 0x7a, 0x2e, 0x3e,
  0x2d, 0x4c, 0x8f, 0x3e, 0x30, 0x7b, 0x95, 0x3d, 0x11, 0x75, 0x55, 0xbd,
  0x5b, 0x86, 0x2f, 0xbe, 0x40, 0x74, 0x21, 0xbe, 0x87, 0x8b, 0x32, 0x3e,
  0xa9, 0x76, 0x61, 0xbe, 0x0a, 0xe3, 0x9e, 0x3d, 0x68, 0x0c, 0xbc, 0x3d,
  0x30, 0x65, 0x9d, 0xbc, 0x14, 0x6e, 0x2b, 0x3e, 0x71, 0xaa, 0x19, 0xbf,
  0x57, 0x17, 0x30, 0x3d, 0xcf, 0xa0, 0xdb, 0x3e, 0x5e, 0xb6, 0xa6, 0x3e,
  0xc1, 0xa5, 0x15, 0xbe, 0x9d, 0x7f, 0x87, 0xbe, 0x28, 0x28, 0xa6, 0x3d,
  0x4e, 0xa7, 0xc5, 0x3e, 0x0c, 0xde, 0xab, 0xbe, 0xed, 0x3e, 0x69, 0x3e,
  0x83, 0x9a, 0xd3, 0x3e, 0x64, 0x55, 0xae, 0x3e, 0x86, 0xe4, 0xb1, 0x3e,
  0x60, 0x95, 0xd6, 0x3d, 0x64, 0xa1, 0x6e, 0x3e, 0x70, 0xa9, 0x38, 0x3e,
  0xd0, 0x5c, 0x2a, 0x3e, 0x74, 0x86, 0xc5, 0x3d, 0xfa, 0x6a, 0x93, 0x3e,
  0x52, 0xc8, 0x1f, 0xbe, 0xce, 0xb3, 0x99, 0xbe, 0x64, 0x21, 0x92, 0xbe,
  0x7a, 0x5c, 0x9e, 0xbe, 0xe0, 0x28, 0x3a, 0xbd, 0xcc, 0xed, 0x3c, 0x3e,
  0xbc, 0xbc, 0xc8, 0xbd, 0x68, 0x2b, 0x01, 0x3e, 0x80, 0x06, 0xd4, 0xbd,
  0xa3, 0xcd, 0x28, 0xbe, 0xc4, 0x8d, 0x30, 0x3e, 0x38, 0x87, 0x94, 0xbe,
  0xce, 0x54, 0x69, 0xbe, 0x80, 0x71, 0x0e, 0x3d, 0x80, 0xe7, 0x50, 0xbb,
  0x52, 0xfc, 0x0b, 0xbe, 0x08, 0xd4, 0x9c, 0xbd, 0x3c, 0xc8, 0x75, 0x3e,
  0xc2, 0xce, 0xa4, 0x3d, 0x82, 0xde, 0x80, 0x3d, 0x10, 0x3a, 0xbb, 0x3d,
  0x28, 0xfd, 0x3f, 0xbd, 0x40, 0xd0, 0x87, 0x3e, 0x99, 0xdf, 0x81, 0xbe,
  0x78, 0x08, 0x86, 0x3c, 0x85, 0xd5, 0x5e, 0x3e, 0xc0, 0x82, 0x6e, 0x3d,
  0xc4, 0x3c, 0x2d, 0x3e, 0xc5, 0x31, 0x33, 0x3d, 0x1b, 0x58, 0xf8, 0x3c,
  0x04, 0x6c, 0xbd, 0xbe, 0xac, 0xc1, 0xde, 0xbd, 0x54, 0x6f, 0x86, 0xbe,
  0xbf, 0x59, 0x2a, 0xbe, 0x50, 0x6e, 0x59, 0xbe, 0xa1, 0xdf, 0xb5, 0xbe,
  0x3c, 0x39, 0xa7, 0xbe, 0xd0, 0x25, 0x8d, 0x3e, 0xaa, 0x39, 0xd7, 0xbe,
  0xf0, 0xb5, 0xda, 0xbe, 0x5d, 0x70, 0x21, 0xbe, 0x6c, 0x6f, 0x60, 0x3e,
  0x12, 0x7a, 0xaa, 0x3e, 0xde, 0xe9, 0xb0, 0x3e, 0x4b, 0xf7, 0xfa, 0xbd,
  0xc5, 0xa3, 0x5a, 0x3e, 0x21, 0xd0, 0xa5, 0xbe, 0x30, 0xb2, 0x94, 0x3e,
  0xd9, 0xe0, 0xe2, 0xbd, 0xff, 0x9a, 0xa2, 0xbe, 0x7b, 0x69, 0x01, 0x3e,
  0x60, 0x16, 0x9b, 0x3e, 0x35, 0xcc, 0x01, 0xbf, 0x81, 0x2f, 0xb2, 0xbe,
  0x3f, 0xa7, 0xc9, 0xbe, 0x1c, 0xb7, 0xb8, 0xbe, 0x27, 0xfc, 0x4e, 0xbe,
  0xcd, 0x9e, 0x72, 0xbe, 0x2f, 0xd9, 0xbd, 0xbd, 0x63, 0x69, 0x1d, 0x3e,
  0x40, 0xb4, 0xbb, 0xbe, 0x31, 0x1b, 0xba, 0xbe, 0x12, 0xbf, 0x87, 0xbe,
  0x59, 0xae, 0x74, 0x3c, 0x31, 0x34, 0x78, 0xbe, 0xc8, 0x21, 0xd6, 0xbd,
  0xd8, 0x09, 0x6a, 0xbe, 0xd8, 0x99, 0x93, 0x3d, 0x15, 0xc5, 0x9c, 0x3e,
  0xdc, 0x8d, 0xb1, 0xbe, 0x91, 0x6a, 0xaa, 0xbe, 0x1c, 0x81, 0xbb, 0x3e,
  0xaf, 0xba, 0x2e, 0xbc, 0xe0, 0xa3, 0xb8, 0xbe, 0x42, 0x28, 0x9b, 0x3e,
  0x42, 0xe6, 0xff, 0xff, 0x04, 0x00, 0x00, 0x00, 0x50, 0x00, 0x00, 0x00,
  0xe3, 0xf4, 0x10, 0x3b, 0x7c, 0xd4, 0x3f, 0xbd, 0x00, 0x00, 0x00, 0x00,
  0x5d, 0xda, 0x34, 0xbd, 0x00, 0x00, 0x00, 0x00, 0x3c, 0x48, 0xb9, 0x3b,
  0x07, 0x56, 0xed, 0xbc, 0xce, 0x1c, 0x88, 0xbd, 0x05, 0xaa, 0x06, 0xbc,
  0xc1, 0x00, 0x07, 0xbd, 0x00, 0x00, 0x00, 0x00, 0xc2, 0x4c, 0x2f, 0x3d,
  0xc4, 0x92, 0x1d, 0x3d, 0xcf, 0xda, 0x17, 0x3d, 0x98, 0x5f, 0x2c, 0xbd,
  0x00, 0x00, 0x00, 0x00, 0x00, 0x00, 0x00, 0x00, 0xb0, 0x5e, 0xc1, 0xbb,
  0x1b, 0x72, 0x5b, 0x3d, 0x4d, 0x4e, 0xd9, 0xba, 0x9e, 0xe6, 0xff, 0xff,
  0x04, 0x00, 0x00, 0x00, 0x40, 0x06, 0x00, 0x00, 0xc2, 0x31, 0xc1, 0xbe,
  0xaf, 0xee, 0x04, 0xbd, 0xf0, 0xa1, 0xa2, 0x3e, 0x3d, 0xb9, 0xc5, 0x3e,
  0x9c, 0xcb, 0x0e, 0x3e, 0x54, 0x4c, 0x07, 0x3d, 0x14, 0x27, 0xac, 0x3e,
  0x10, 0x4e, 0x96, 0x3e, 0x58, 0xb4, 0xbd, 0xbc, 0xa2, 0xdc, 0x38, 0xbf,
  0x4e, 0x9f, 0x73, 0xbe, 0x94, 0xd4, 0x31, 0x3d, 0x0b, 0xf0, 0x32, 0x3f,
  0x0d, 0xcb, 0x97, 0xbe, 0xfd, 0x37, 0x77, 0xbe, 0xf3, 0x62, 0xaf, 0x3d,
  0x40, 0xaa, 0xb4, 0xbd, 0x91, 0xa8, 0x56, 0xbe, 0x18, 0x45, 0x55, 0xbd,
  0xa6, 0xe9, 0x08, 0x3e, 0xba, 0xe5, 0x4c, 0xbe, 0xce, 0xe7, 0x85, 0x3d,
  0xbe, 0xba, 0x83, 0xbc, 0x2e, 0x0a, 0x8e, 0xbc, 0x08, 0xde, 0x87, 0xbe,
  0x30, 0x6d, 0x3b, 0x3e, 0x44, 0x9e, 0x8b, 0xbd, 0xbd, 0x9b, 0xcd, 0xbe,
  0x43, 0x42, 0x96, 0x3e, 0x22, 0xe3, 0x0b, 0xbe, 0xb8, 0xa0, 0x4b, 0x3d,
  0x9b, 0xed, 0x00, 0xbe, 0xe2, 0x53, 0x7c, 0xbe, 0xb4, 0x5e, 0x34, 0xbe,
  0xc1, 0xac, 0x31, 0xbe, 0xdf, 0xa4, 0x3e, 0xbe, 0x28, 0x32, 0x6c, 0xbe,
  0x49, 0x69, 0x04, 0xbe, 0x83, 0x65, 0x08, 0x3e, 0xa8, 0x9f, 0x23, 0x3d,
  0x38, 0x62, 0x47, 0x3e, 0xfd, 0x27, 0x16, 0xbe, 0x27, 0xef, 0x26, 0xbe,
  0xe3, 0x02, 0x80, 0xbe, 0x2e, 0x5d, 0xa3, 0x3e, 0x6e, 0x04, 0xc1, 0xbe,
  0x52, 0x76, 0xad, 0xbe, 0x87, 0xc9, 0x2f, 0xbe, 0x8c, 0xb3, 0x01, 0xbe,
  0xf8, 0x91, 0x70, 0xbd, 0x44, 0xf5, 0x99, 0x3d, 0x40, 0x60, 0x7f, 0xbe,
  0xa9, 0x7b, 0x4d, 0xbe, 0xbe, 0x6a, 0xbc, 0xbe, 0x7d, 0xa8, 0x0d, 0xbe,
  0xc3, 0x6a, 0x3b, 0xbe, 0xc8, 0x02, 0x85, 0x3d, 0x74, 0xbf, 0x6d, 0x3e,
  0xb6, 0x0b, 0xa9, 0xbe, 0xc4, 0x0e, 0xb5, 0x3e, 0x60, 0xcd, 0xa4, 0x3e,
  0x04, 0xd9, 0xbe, 0xbb, 0xfe, 0x53, 0x29, 0x3b, 0xa7, 0x2a, 0x1d, 0xbe,
  0x00, 0x89, 0x78, 0x3d, 0x1e, 0x39, 0x7e, 0xbe, 0x2c, 0xed, 0xf0, 0xbd,
  0xdf, 0xd5, 0x6b, 0x3e, 0x43, 0x10, 0x90, 0xbe, 0x3e, 0x2c, 0x71, 0x3e,
  0x88, 0xec, 0x52, 0xbe, 0xc9, 0xa5, 0xb3, 0xbe, 0xbe, 0xdc, 0x20, 0xbe,
  0xf8, 0x7f, 0xe8, 0xbd, 0xe3, 0xcd, 0x93, 0xbe, 0xa6, 0xee, 0xc4, 0xbd,
  0x90, 0xec, 0xd2, 0xbc, 0x7c, 0xd1, 0x1c, 0xbe, 0x68, 0xee, 0xab, 0xbe,
  0xe8, 0x38, 0x9c, 0x3c, 0x4a, 0xb7, 0x8a, 0xbe, 0x80, 0x61, 0x15, 0xbe,
  0xc0, 0x89, 0x84, 0xbb, 0xd0, 0x0b, 0xbe, 0x3e, 0x2a, 0x73, 0x53, 0xbe,
  0x04, 0x54, 0x37, 0xbe, 0xec, 0x23, 0xa1, 0xbe, 0x2d, 0xda, 0xab, 0xbe,
  0xce, 0x08, 0x80, 0xbe, 0x80, 0xd4, 0x26, 0x3c, 0x9c, 0xcd, 0x37, 0x3e,
  0xf8, 0x55, 0x85, 0x3e, 0x3c, 0xcf, 0x28, 0xbe, 0xf2, 0xcb, 0x92, 0xbe,
  0x5f, 0x64, 0xbb, 0xbe, 0x20, 0x69, 0x85, 0x3d, 0xdc, 0x9e, 0x10, 0x3e,
  0xb5, 0x45, 0x8e, 0xbe, 0x90, 0x9b, 0xc2, 0x3e, 0x8f, 0x80, 0x55, 0xbe,
  0x80, 0xe0, 0x0e, 0x3b, 0x1f, 0xb7, 0xcb, 0xbb, 0x22, 0x60, 0x4e, 0x3d,
  0x44, 0xc5, 0x11, 0xbe, 0x62, 0x95, 0x97, 0x3e, 0xfe, 0xf1, 0xee, 0xbe,
  0x00, 0x67, 0x85, 0x3c, 0x67, 0x8a, 0xb0, 0x3e, 0x59, 0xa6, 0xe7, 0xbe,
  0x2d, 0x84, 0x1b, 0xbd, 0xd8, 0xe4, 0x47, 0xbd, 0x27, 0x6d, 0x60, 0xbd,
  0xd6, 0x29, 0x16, 0xbf, 0xc8, 0x29, 0x01, 0x3e, 0x8b, 0xe1, 0x14, 0x3d,
  0x44, 0xb8, 0xec, 0xbd, 0x02, 0x78, 0x4e, 0xbe, 0x18, 0x02, 0xba, 0x3e,
  0xd4, 0xf1, 0x11, 0x3e, 0x09, 0x1d, 0xa3, 0xbe, 0x35, 0xa0, 0x5d, 0xbe,
  0x27, 0x7a, 0x8e, 0x3e, 0xbf, 0xed, 0xbc, 0xbe, 0x79, 0x25, 0x96, 0x3e,
  0x8a, 0x01, 0x36, 0xbe, 0xb2, 0x03, 0x5a, 0x3d, 0xe8, 0x98, 0x0e, 0xbd,
  0x2c, 0x7a, 0x06, 0x3e, 0x31, 0x1f, 0x81, 0xbd, 0xd4, 0x14, 0xa1, 0x3e,
  0xec, 0xbf, 0xa6, 0x3d, 0x9d, 0xad, 0x45, 0x3e, 0x65, 0xb2, 0x39, 0x3e,
  0xa1, 0xaa, 0x27, 0xbe, 0x10, 0xf2, 0x00, 0x3e, 0x23, 0x51, 0x01, 0xbe,
  0x2c, 0xb7, 0x91, 0xbe, 0x2e, 0x59, 0xbc, 0xbe, 0xab, 0x0a, 0xc8, 0xbe,
  0xe5, 0xda, 0xc8, 0x3d, 0x40, 0xd3, 0xb7, 0x3c, 0xa7, 0xea, 0x86, 0x3f,
  0xc0, 0x67, 0x55, 0x3e, 0xae, 0xec, 0xe9, 0xbe, 0xe8, 0xa8, 0x48, 0xbe,
  0xd1, 0x29, 0x2b, 0x3e, 0x49, 0x42, 0x51, 0xbe, 0x98, 0xae, 0x95, 0xbd,
  0xc6, 0xf7, 0xd6, 0x3d, 0xe3, 0x8e, 0x8f, 0xbe, 0x54, 0xf5, 0xb3, 0x3e,
  0xa3, 0x81, 0xda, 0x3e, 0xf9, 0x37, 0xea, 0xbd, 0xc9, 0x43, 0x03, 0x3d,
  0xc9, 0x62, 0xec, 0xbc, 0x3b, 0xa9, 0x14, 0x3e, 0xf3, 0xc9, 0x32, 0xbe,
  0x1c, 0xb3, 0xad, 0x3e, 0xa6, 0xf5, 0xd0, 0x3d, 0xbf, 0xe0, 0xe2, 0xbc,
  0x00, 0xc9, 0xbc, 0xbe, 0xa1, 0xe7, 0xb7, 0x3e, 0xd3, 0x8b, 0x4d, 0xbe,
  0x28, 0xef, 0x75, 0x3e, 0xe0, 0x34, 0xbf, 0xbc, 0x72, 0x73, 0x3f, 0xbd,
  0x78, 0x7e, 0x47, 0x3e, 0x6d, 0xcd, 0x23, 0xbe, 0x4c, 0xea, 0x0f, 0x3d,
  0x00, 0x61, 0xd5, 0x3d, 0xca, 0x9d, 0x9b, 0x3e, 0xba, 0x8b, 0x12, 0xbd,
  0x1b, 0x2d, 0xa2, 0x3e, 0x6f, 0xc0, 0x48, 0xbe, 0xa4, 0x72, 0x82, 0xbe,
  0x62, 0x1f, 0x51, 0xbe, 0x08, 0x8c, 0x3e, 0x3d, 0x8a, 0x2c, 0xac, 0xbe,
  0x02, 0xf8, 0x38, 0xbd, 0xff, 0x44, 0xa1, 0xbd, 0xb0, 0xc0, 0xa5, 0x3e,
  0x1f, 0x96, 0x04, 0x3e, 0xf5, 0x21, 0x45, 0xbe, 0xfd, 0xed, 0x9e, 0x3e,
  0x10, 0xa6, 0x69, 0xbd, 0x45, 0x09, 0x84, 0xbe, 0x58, 0xc4, 0x2f, 0x3e,
  0x62, 0xb9, 0x6d, 0x3e, 0x70, 0xe2, 0x07, 0xbe, 0xe8, 0x25, 0x81, 0xbe,
  0x00, 0x9a, 0x92, 0x3e, 0x7b, 0xce, 0x8e, 0xbd, 0x11, 0x67, 0xb4, 0x3e,
  0xb8, 0x1c, 0xf5, 0xbd, 0xf0, 0x01, 0x4f, 0xbe, 0xf9, 0xb9, 0x1d, 0xbe,
  0xc5, 0x7a, 0x71, 0xbe, 0xd5, 0x43, 0xc3, 0xbd, 0x5e, 0xfe, 0x87, 0xbe,
  0x53, 0x30, 0x7d, 0xbe, 0xc4, 0x5b, 0x21, 0x3e, 0xc6, 0xe8, 0xa9, 0xbe,
  0xa4, 0xbd, 0xba, 0xbe, 0x00, 0xa9, 0xda, 0xbb, 0x78, 0x65, 0xb6, 0x3d,
  0x00, 0xde, 0x10, 0x3e, 0xa0, 0xef, 0x64, 0x3e, 0x44, 0x35, 0xb8, 0xbe,
  0x4e, 0x09, 0x9b, 0x3e, 0xd0, 0x97, 0x7d, 0x3e, 0x88, 0x3b, 0x1c, 0x3d,
  0x40, 0xb3, 0x24, 0x3c, 0xec, 0x11, 0x81, 0x3d, 0x68, 0x7f, 0x5f, 0x3d,
  0x30, 0x21, 0x78, 0x3e, 0xf6, 0x82, 0x7f, 0xbe, 0x30, 0x0b, 0x61, 0x3e,
  0x00, 0xa5, 0x24, 0x3b, 0xef, 0xab, 0x71, 0xbe, 0x10, 0x4b, 0x6d, 0x3e,
  0xa0, 0x8e, 0xf7, 0x3c, 0x66, 0x11, 0xc9, 0x3e, 0x36, 0xcb, 0xc5, 0xbd,
  0x7c, 0xc7, 0x48, 0x3e, 0xf4, 0x7d, 0x75, 0x3e, 0xee, 0xaa, 0x1b, 0x3e,
  0x84, 0x89, 0x51, 0x3e, 0xd7, 0x4b, 0x2d, 0x3e, 0xe1, 0x5c, 0x73, 0x3e,
  0x08, 0xb9, 0x83, 0xbe, 0x54, 0x1e, 0x93, 0x3e, 0x13, 0xb0, 0xab, 0xbd,
  0xfa, 0x81, 0xa5, 0xbd, 0x81, 0x5f, 0x38, 0x3e, 0x6b, 0x72, 0x99, 0xbe,
  0x58, 0xc3, 0x8e, 0xbe, 0x40, 0x19, 0x47, 0x3c, 0xf4, 0x0d, 0xb8, 0xbc,
  0x79, 0x69, 0xc0, 0x3e, 0x21, 0x82, 0xe3, 0x3e, 0xcc, 0xf2, 0x41, 0x3e,
  0x15, 0x61, 0x35, 0xbe, 0xf4, 0x5a, 0x8f, 0x3e, 0x61, 0x7b, 0x35, 0xbc,
  0xd8, 0x67, 0xd9, 0xbd, 0xa0, 0xdc, 0xa8, 0x3e, 0x6c, 0x5c, 0xa0, 0xbd,
  0x0d, 0x63, 0xbb, 0xbc, 0x44, 0xee, 0x94, 0x3e, 0xbd, 0xec, 0x81, 0xbd,
  0x62, 0x28, 0xbd, 0x3e, 0x7d, 0x9b, 0x39, 0x3c, 0x9b, 0x52, 0x16, 0xbe,
  0x25, 0x17, 0x16, 0x3d, 0x07, 0xff, 0xbf, 0x3e, 0x43, 0xe6, 0xdf, 0xbc,
  0xc1, 0x5d, 0xa5, 0xbe, 0x26, 0xeb, 0x85, 0x3e, 0xd0, 0x79, 0xfa, 0x3d,
  0xc9, 0x93, 0xe8, 0x3e, 0x26, 0xda, 0x8b, 0xbe, 0xac, 0x41, 0xc7, 0x3e,
  0xa1, 0x46, 0xee, 0x3d, 0xbe, 0x11, 0x04, 0x3f, 0xee, 0xf7, 0xc3, 0x3e,
  0xf2, 0x5b, 0xd8, 0x3d, 0x78, 0x0c, 0x4b, 0x3e, 0xa8, 0x33, 0x31, 0xbe,
  0xa4, 0x09, 0x55, 0x3e, 0x58, 0xb5, 0x91, 0xbe, 0xb8, 0x44, 0x7e, 0x3e,
  0x73, 0x9c, 0xdc, 0xbc, 0xd3, 0x4a, 0x51, 0x3f, 0xde, 0xd7, 0xae, 0xbd,
  0xd8, 0x19, 0x53, 0x3e, 0x87, 0xbc, 0xf8, 0xbe, 0x90, 0xad, 0x8b, 0x3d,
  0xb6, 0x2f, 0x4e, 0x3e, 0x33, 0x49, 0xb5, 0x3d, 0x3d, 0x3b, 0xff, 0xbd,
  0x9c, 0x81, 0xb9, 0x3d, 0x0e, 0xd6, 0xb2, 0xbc, 0x6c, 0x7d, 0xaf, 0xbe,
  0xa1, 0x6d, 0x97, 0xbe, 0xc8, 0x97, 0x45, 0x3d, 0x6f, 0x73, 0xac, 0xbe,
  0xf6, 0x29, 0xc3, 0x3e, 0x1d, 0x01, 0x38, 0x3e, 0x1a, 0xc0, 0xa9, 0xbe,
  0xec, 0xca, 0xc8, 0xbd, 0xa8, 0xf7, 0xa9, 0xbd, 0x3e, 0xee, 0xa5, 0x3e,
  0x0c, 0x6a, 0x8e, 0x3e, 0xe0, 0x07, 0x15, 0x3d, 0x40, 0x0e, 0x25, 0xbe,
  0x14, 0x09, 0xbe, 0xbe, 0xf0, 0x6a, 0x49, 0x3e, 0x2d, 0x04, 0xb7, 0x3d,
  0x02, 0x0d, 0x5a, 0xbe, 0x2c, 0xa4, 0xc9, 0x3d, 0xfa, 0x1a, 0x8a, 0xbe,
  0x1c, 0xaa, 0x92, 0xbd, 0x9c, 0x6b, 0x9e, 0xbd, 0x80, 0x92, 0xd5, 0x3c,
  0xa5, 0xa6, 0xa6, 0xbe, 0xc9, 0xf7, 0x81, 0xbe, 0x2b, 0x8f, 0x58, 0xbe,
  0x90, 0x93, 0xb4, 0xbc, 0x42, 0x49, 0x6e, 0xbe, 0x0c, 0x6e, 0xa5, 0xbe,
  0xe8, 0x74, 0x53, 0xbe, 0xd4, 0xa1, 0xb8, 0x3e, 0xbb, 0x04, 0x46, 0xbe,
  0xd0, 0xa6, 0xbc, 0x3e, 0xf9, 0xe6, 0xb5, 0xbe, 0x00, 0x07, 0x1c, 0x3b,
  0x12, 0xa3, 0x09, 0xbe, 0x69, 0x61, 0xbf, 0xbe, 0x63, 0xc1, 0xc5, 0xbe,
  0xe0, 0x12, 0x89, 0x3e, 0xad, 0xc8, 0xa0, 0xbe, 0x0c, 0xf4, 0xd1, 0xbd,
  0xb8, 0x3f, 0x29, 0xbe, 0x90, 0x25, 0xe0, 0x3c, 0x18, 0xec, 0xf8, 0x3d,
  0x9c, 0xde, 0x7b, 0x3e, 0x78, 0x75, 0xa8, 0x3e, 0x98, 0x0c, 0x68, 0xbd,
  0x22, 0xf4, 0x19, 0xbe, 0xa5, 0xdb, 0x49, 0xbe, 0xe0, 0x20, 0xdc, 0x3d,
  0xc8, 0x1b, 0xe6, 0x3d, 0x98, 0xc2, 0x64, 0x3d, 0x0c, 0xce, 0x90, 0x3e,
  0xd0, 0xf4, 0x47, 0xbe, 0xb0, 0x47, 0xf9, 0xbd, 0x90, 0x8e, 0x93, 0x3e,
  0x78, 0xa0, 0xf8, 0x3d, 0x60, 0x85, 0x32, 0xbe, 0x00, 0x5c, 0x47, 0xba,
  0xec, 0xf0, 0xd3, 0xbd, 0x02, 0xf7, 0x8d, 0x3d, 0xec, 0xcd, 0xf2, 0xbd,
  0x4b, 0x7e, 0x5c, 0xbe, 0xc3, 0xe2, 0xa4, 0xbe, 0xb9, 0x24, 0xf4, 0x3d,
  0x64, 0x98, 0x99, 0x3e, 0x15, 0x27, 0x61, 0xbd, 0x11, 0x0d, 0xbb, 0x3d,
  0xe4, 0x16, 0x3d, 0x3e, 0xa0, 0x1d, 0x07, 0xbd, 0x62, 0x46, 0xc1, 0xbe,
  0xdf, 0x49, 0x85, 0x3e, 0x32, 0x9e, 0x98, 0x3e, 0x61, 0x8e, 0x84, 0xbe,
  0x3a, 0xc5, 0x85, 0x3e, 0x98, 0xaf, 0x2b, 0xbd, 0x16, 0x40, 0x1e, 0xbd,
  0x36, 0x8b, 0x76, 0x3e, 0xae, 0x15, 0x93, 0xbe, 0xe4, 0x32, 0xb7, 0x3e,
  0x83, 0x0e, 0xc6, 0xbe, 0x0c, 0xca, 0xe3, 0x3c, 0xa3, 0xf2, 0xbd, 0x3e,
  0xc4, 0x16, 0x4c, 0xbe, 0x15, 0xb2, 0x94, 0x3e, 0x8c, 0x1f, 0x6f, 0x3e,
  0x65, 0xdf, 0xce, 0x3e, 0x0c, 0x50, 0x80, 0xbd, 0xc8, 0xf9, 0x1c, 0xbf,
  0x08, 0x99, 0x0a, 0x3e, 0xb7, 0xdb, 0xa4, 0x3e, 0xa7, 0xfa, 0x96, 0x3e,
  0x65, 0x58, 0x81, 0xbe, 0x4a, 0xd9, 0x5c, 0xbe, 0x5c, 0x2f, 0x31, 0xbd,
  0xc4, 0xea, 0xb3, 0xbe, 0x36, 0x7a, 0xad, 0xbd, 0x09, 0xd4, 0x92, 0x3e,
  0x2f, 0x29, 0x8a, 0xbe, 0xa0, 0x1b, 0x1b, 0x3e, 0xa3, 0xbb, 0x11, 0x3e,
  0xc3, 0xd6, 0x55, 0xbe, 0x59, 0x7c, 0xb5, 0xbe, 0x50, 0x3c, 0x2b, 0x3e,
  0xc0, 0x0e, 0x88, 0x3e, 0xe0, 0x23, 0xb6, 0xbe, 0x91, 0x42, 0x67, 0x3e,
  0x4c, 0x21, 0xe0, 0xbd, 0xb0, 0x6f, 0x96, 0xbd, 0x98, 0xfd, 0xc0, 0xbe,
  0x4c, 0xa0, 0x5b, 0xbe, 0xf9, 0xeb, 0xe6, 0x3d, 0xf4, 0x7c, 0x96, 0xbd,
  0x14, 0x0f, 0xaf, 0xbe, 0xc0, 0x2c, 0x83, 0xbd, 0x69, 0x84, 0x61, 0xbe,
  0x04, 0xde, 0x56, 0xbe, 0x34, 0xb8, 0xc1, 0xbe, 0x5b, 0x37, 0x4a, 0xbb,
  0xea, 0xec, 0xff, 0xff, 0x04, 0x00, 0x00, 0x00, 0x50, 0x00, 0x00, 0x00,
  0x2b, 0xff, 0x28, 0xbd, 0x24, 0x5c, 0xa8, 0x3d, 0x00, 0x00, 0x00, 0x00,
  0x43, 0x1d, 0xa8, 0x3d, 0x00, 0x00, 0x00, 0x00, 0x00, 0x00, 0x00, 0x00,
  0xd9, 0xc7, 0x12, 0xbd, 0x00, 0x00, 0x00, 0x00, 0x53, 0xf7, 0x15, 0xbc,
  0x5f, 0xb5, 0x73, 0x3c, 0xd2, 0xa6, 0x1f, 0xbc, 0x00, 0x00, 0x00, 0x00,
  0xec, 0x21, 0xa2, 0x3c, 0x95, 0x74, 0x1a, 0xbd, 0x4e, 0x9b, 0x60, 0x3d,
  0xd8, 0x3a, 0x3d, 0x3d, 0x00, 0x00, 0x00, 0x00, 0x3c, 0x98, 0xc2, 0xbc,
  0x3e, 0x8e, 0x42, 0x3d, 0x72, 0x4b, 0x61, 0xbd, 0x46, 0xed, 0xff, 0xff,
  0x04, 0x00, 0x00, 0x00, 0x40, 0x06, 0x00, 0x00, 0xdc, 0xeb, 0xe4, 0x3d,
  0xdc, 0xd9, 0x90, 0x3e, 0xab, 0xf5, 0x38, 0xbe, 0x04, 0xa8, 0x9f, 0xbe,
  0xf5, 0x34, 0x0e, 0xbe, 0xc4, 0xa6, 0xe3, 0x3d, 0xe4, 0x61, 0x76, 0x3e,
  0xcf, 0xcf, 0x55, 0xbe, 0x30, 0x96, 0xfe, 0xbc, 0x40, 0x6d, 0xbf, 0xbd,
  0xcc, 0xc7, 0x95, 0x3d, 0xc9, 0xa9, 0x78, 0xbe, 0x64, 0x22, 0x6f, 0x3e,
  0xfe, 0x6d, 0x8d, 0xbe, 0xf6, 0xab, 0x99, 0xbe, 0xba, 0x2f, 0x2b, 0xbe,
  0x18, 0xae, 0x44, 0x3e, 0x99, 0x5f, 0x89, 0xbe, 0xe0, 0x41, 0x6e, 0x3d,
  0xd8, 0x71, 0xe0, 0x3d, 0x9a, 0x33, 0xa3, 0xbe, 0x32, 0x11, 0x84, 0xbe,
  0x0e, 0x3e, 0x4b, 0x3e, 0xda, 0x65, 0x8b, 0x3e, 0x6c, 0xbb, 0xa3, 0x3d,
  0x24, 0x0b, 0xa5, 0x3e, 0x75, 0xa8, 0x01, 0x3e, 0x87, 0x11, 0x52, 0xbe,
  0x4b, 0x14, 0x5b, 0x3d, 0x80, 0x9a, 0x25, 0x3e, 0x87, 0xeb, 0x9f, 0xbe,
  0xcf, 0x78, 0x17, 0xbe, 0x63, 0xc2, 0x94, 0x3e, 0x0c, 0x4f, 0xf2, 0xbe,
  0x46, 0xda, 0xf2, 0xbd, 0xa3, 0xd7, 0xb4, 0x3e, 0x3a, 0xb6, 0x1f, 0x3f,
  0xa0, 0x6b, 0x44, 0x3e, 0xa6, 0xae, 0x09, 0xbe, 0x51, 0x5e, 0x95, 0xbe,
  0xb0, 0x5e, 0xe7, 0x3c, 0x0f, 0x00, 0xb5, 0xbe, 0xa0, 0xa7, 0x27, 0x3e,
  0xa6, 0x5a, 0x14, 0x3b, 0x8c, 0x00, 0x87, 0x3e, 0x58, 0xb4, 0x19, 0x3e,
  0xac, 0xae, 0x07, 0x3e, 0x56, 0x21, 0x60, 0x3d, 0xe2, 0xc6, 0xbd, 0x3e,
  0x24, 0x25, 0xa8, 0x3e, 0xdd, 0xfc, 0xf4, 0x3d, 0x64, 0x02, 0x00, 0x3e,
  0x0f, 0xc5, 0x0b, 0x3e, 0x44, 0x23, 0xaa, 0x3e, 0x8a, 0x21, 0x14, 0x3f,
  0xf7, 0xf1, 0x12, 0x3f, 0xc3, 0x9b, 0x9d, 0xbc, 0xd5, 0x2e, 0x20, 0xbe,
  0xbf, 0x79, 0xb6, 0x3e, 0x22, 0x1d, 0xb7, 0xbe, 0xe0, 0xc3, 0x80, 0x3d,
  0x76, 0xc5, 0xb2, 0x3e, 0x82, 0x94, 0xf0, 0xbd, 0x89, 0xad, 0xa5, 0x3e,
  0xc8, 0x3f, 0xdc, 0x3e, 0x78, 0xb8, 0x6b, 0xbd, 0x62, 0xbd, 0xf8, 0xbe,
  0x60, 0x8c, 0x30, 0xbe, 0x6b, 0x05, 0xfd, 0x3d, 0xec, 0x2a, 0x50, 0xbe,
  0xa4, 0xc0, 0x9b, 0x3c, 0x34, 0x08, 0x50, 0x3e, 0x9b, 0x9d, 0xc6, 0xbd,
  0xf3, 0x33, 0x2b, 0x3d, 0x6f, 0xa1, 0xb6, 0xbd, 0x10, 0x69, 0x16, 0x3f,
  0x6c, 0x0d, 0xd7, 0xbe, 0x68, 0x16, 0xac, 0x3e, 0xea, 0x54, 0x28, 0xbe,
  0x54, 0x02, 0x38, 0xbe, 0xb2, 0xff, 0x28, 0xbe, 0x38, 0x82, 0x1b, 0xbd,
  0xfb, 0xc1, 0xc2, 0xbe, 0xa6, 0x49, 0x13, 0xbe, 0xbe, 0x63, 0x52, 0xbe,
  0xcc, 0xdb, 0x9a, 0x3e, 0x9c, 0x7f, 0x16, 0x3e, 0xbc, 0x17, 0x3c, 0x3e,
  0x1d, 0xe9, 0x57, 0xbe, 0x48, 0xe5, 0x36, 0x3d, 0x9e, 0x0a, 0x02, 0xbe,
  0x1c, 0xcc, 0x51, 0x3e, 0x22, 0x16, 0x80, 0x3e, 0x33, 0x67, 0x2f, 0xbe,
  0xcb, 0x5d, 0x65, 0xbe, 0x55, 0x30, 0x31, 0xbe, 0x24, 0xad, 0x3c, 0x3e,
  0x84, 0xa0, 0x3a, 0x3e, 0x00, 0x8b, 0x98, 0xbe, 0xc0, 0xa8, 0xf7, 0xbb,
  0xd4, 0xd0, 0xe0, 0xbd, 0xa6, 0x4e, 0x8d, 0x3e, 0x11, 0xec, 0x45, 0x3e,
  0xfb, 0x8a, 0x8d, 0xbd, 0x24, 0x80, 0x87, 0xbe, 0x2c, 0x81, 0x62, 0x3e,
  0xac, 0xd3, 0x75, 0xbe, 0xba, 0x5d, 0xc3, 0x3d, 0x23, 0xf1, 0xfd, 0x3e,
  0x30, 0x07, 0xc1, 0xbc, 0x52, 0xc5, 0xe3, 0xbd, 0x11, 0x42, 0x17, 0xbe,
  0x3f, 0x46, 0x21, 0xbe, 0x78, 0x7e, 0x9a, 0xbe, 0x6e, 0x21, 0xb7, 0x3e,
  0xb0, 0x52, 0xa0, 0x3d, 0xbb, 0x27, 0x4f, 0x3e, 0xb9, 0xef, 0x2b, 0x3d,
  0x5b, 0x53, 0xb1, 0x3e, 0x49, 0x2a, 0xb6, 0xbe, 0x70, 0x88, 0x82, 0xbe,
  0x5c, 0x45, 0x1d, 0xbe, 0x66, 0xc6, 0xc5, 0xbe, 0xea, 0xd1, 0x99, 0x3e,
  0x60, 0xdb, 0x6b, 0x3c, 0x9c, 0xaa, 0x8e, 0x3e, 0x6f, 0xb9, 0x4d, 0xbe,
  0xc0, 0xb4, 0x6d, 0xbe, 0xf8, 0xec, 0xd7, 0xbd, 0x40, 0x8c, 0xc9, 0xbc,
  0xf6, 0x86, 0x6f, 0xbe, 0xe4, 0x9b, 0x8a, 0x3d, 0x40, 0x7b, 0xbc, 0x3e,
  0xd0, 0xb6, 0x0b, 0xbd, 0xd8, 0xd9, 0xe6, 0x3d, 0x1f, 0x72, 0x90, 0xbe,
  0x50, 0x22, 0xaa, 0xbd, 0x60, 0xd8, 0xc6, 0xbc, 0x1c, 0xca, 0xd9, 0xbd,
  0xb2, 0x69, 0x8d, 0x3e, 0xa8, 0xb5, 0xd4, 0x3d, 0x17, 0x77, 0xbd, 0xbe,
  0x94, 0x4c, 0x81, 0x3e, 0x4d, 0xc9, 0x5a, 0x3e, 0x03, 0xa5, 0xba, 0x3e,
  0x44, 0xf4, 0xb0, 0xbe, 0x68, 0x51, 0xf7, 0xbe, 0x50, 0x82, 0x1d, 0xbe,
  0x3e, 0x87, 0x35, 0xbe, 0x08, 0x44, 0x7c, 0x3e, 0xbc, 0x0d, 0x16, 0x3e,
  0xa3, 0xfb, 0x18, 0x3e, 0x84, 0xaf, 0xfd, 0xbe, 0x8d, 0x30, 0x28, 0x3e,
  0xd2, 0x44, 0xc3, 0xbc, 0x8d, 0x43, 0xd2, 0x3e, 0x8a, 0x95, 0x71, 0x3e,
  0x2f, 0x16, 0x02, 0xbe, 0x11, 0xb1, 0xd8, 0x3e, 0x88, 0x5e, 0x85, 0x3d,
  0x34, 0x8b, 0x0a, 0x3e, 0x9e, 0x91, 0xbc, 0x3e, 0xe0, 0xb1, 0x4b, 0x3e,
  0x89, 0xb8, 0x31, 0xbe, 0x9e, 0xc4, 0xac, 0x3e, 0xae, 0x55, 0xa7, 0xbe,
  0xfa, 0xef, 0x53, 0x3e, 0x52, 0x82, 0x2f, 0xbe, 0xb9, 0xe7, 0xea, 0x3e,
  0xca, 0x71, 0xaf, 0x3e, 0x1c, 0xdc, 0x41, 0xbd, 0xe0, 0x74, 0xa7, 0xbc,
  0xa5, 0xe1, 0x4b, 0xbe, 0xd9, 0x69, 0xc4, 0xbd, 0x86, 0x86, 0xe1, 0x3d,
  0xc9, 0xdd, 0x4d, 0x3e, 0xc8, 0x78, 0x3d, 0x3e, 0xe0, 0x61, 0xf8, 0x3c,
  0x3a, 0x90, 0x75, 0xbe, 0x03, 0xae, 0x35, 0xbf, 0xe8, 0x58, 0xae, 0x3e,
  0x30, 0x3f, 0xc8, 0xbc, 0x37, 0x48, 0x9b, 0xbe, 0xd4, 0x4f, 0x24, 0xbf,
  0xf0, 0x1d, 0x90, 0x3e, 0x6c, 0xf5, 0x8f, 0x3d, 0x42, 0x4a, 0x88, 0xbd,
  0x9e, 0x0e, 0x1d, 0x3e, 0xa9, 0x41, 0x9a, 0x3d, 0xc0, 0x04, 0x9f, 0x3c,
  0xee, 0x27, 0xb9, 0xbd, 0xb2, 0x26, 0x41, 0xbe, 0x07, 0xaa, 0x7d, 0x3f,
  0x12, 0x82, 0x9b, 0x3e, 0x3c, 0x19, 0x83, 0x3d, 0x85, 0x6a, 0x08, 0xbf,
  0x72, 0xb6, 0x91, 0xbe, 0x8e, 0xdd, 0x92, 0xbe, 0xb3, 0x55, 0x61, 0xbe,
  0x1f, 0xcd, 0x81, 0x3f, 0x88, 0x83, 0x6b, 0x3e, 0xed, 0x4b, 0xb6, 0xbe,
  0xb6, 0xbd, 0x1d, 0xbe, 0xd0, 0x36, 0x81, 0xbd, 0xeb, 0x76, 0x14, 0xbe,
  0x80, 0xd6, 0x6d, 0xbb, 0xa8, 0x17, 0x73, 0xbe, 0x8c, 0x0a, 0xcf, 0xbd,
  0xce, 0x70, 0xb6, 0xbe, 0x3f, 0xf8, 0x0d, 0xbe, 0x9d, 0xfe, 0x13, 0xbe,
  0xf0, 0x15, 0xc2, 0x3c, 0x88, 0x74, 0x8b, 0x3d, 0xec, 0xe5, 0xaa, 0x3e,
  0x7a, 0x9c, 0xba, 0xbe, 0xaa, 0x8d, 0xaf, 0xbe, 0x98, 0x4d, 0xd7, 0x3d,
  0x94, 0x65, 0x0c, 0xbe, 0x7a, 0x35, 0x50, 0xbe, 0xa4, 0x40, 0xd2, 0xbd,
  0xd8, 0xa8, 0x91, 0x3d, 0x28, 0x58, 0xe7, 0x3d, 0x97, 0x04, 0x99, 0x3d,
  0xc4, 0x83, 0x1e, 0x3e, 0x07, 0x92, 0x7b, 0xbe, 0xa0, 0x9f, 0x99, 0xbd,
  0xb8, 0x7f, 0xb6, 0xbd, 0x34, 0x07, 0x2d, 0x3e, 0x9c, 0x7d, 0x78, 0xbd,
  0x46, 0xbb, 0x0e, 0xbe, 0x12, 0xbb, 0x81, 0x3e, 0x3f, 0x59, 0xa7, 0x3e,
  0x7d, 0x98, 0xcb, 0xbe, 0xc5, 0xe2, 0xa7, 0x3e, 0xae, 0x30, 0xd9, 0x3e,
  0x01, 0x4b, 0x64, 0x3e, 0xe1, 0xf5, 0x3f, 0x3e, 0x1c, 0xb2, 0xc7, 0x3c,
  0x36, 0xb7, 0x1e, 0xbd, 0x60, 0x43, 0x11, 0xbf, 0x0a, 0x6f, 0x28, 0xbe,
  0x50, 0xff, 0x7a, 0xbe, 0x5b, 0xa8, 0x73, 0xbe, 0xcc, 0xc4, 0xa1, 0x3e,
  0xb0, 0xbc, 0xa7, 0x3d, 0x90, 0xe9, 0xa5, 0xbd, 0x7c, 0xc4, 0xf2, 0x3e,
  0x18, 0x6c, 0x32, 0xbe, 0x27, 0xb4, 0x1c, 0x3e, 0x56, 0x60, 0x86, 0xbe,
  0x00, 0x7b, 0x7c, 0xbe, 0xf0, 0xca, 0x9f, 0xbd, 0x97, 0x3a, 0x94, 0x3e,
  0xc4, 0x57, 0x38, 0xbd, 0x98, 0xb5, 0xc2, 0x3d, 0x6b, 0x77, 0x0e, 0x3f,
  0x14, 0xb8, 0xe7, 0xbd, 0x5a, 0xd9, 0x04, 0xbe, 0xbe, 0x7c, 0x83, 0xbe,
  0xe9, 0x4c, 0xd9, 0xbe, 0x18, 0xf5, 0x14, 0xbd, 0xa0, 0x7b, 0x5c, 0xbe,
  0xea, 0x86, 0x6e, 0x3e, 0x85, 0xca, 0x01, 0x3d, 0x40, 0xb4, 0xb2, 0xbe,
  0x30, 0xed, 0xb1, 0x3e, 0xa8, 0x44, 0x5a, 0xbe, 0xa6, 0xa2, 0x60, 0xbc,
  0xb8, 0xaf, 0xca, 0xbe, 0x09, 0x18, 0xb5, 0xbe, 0xf5, 0x66, 0x4d, 0xbe,
  0xd8, 0x75, 0x29, 0x3e, 0xaa, 0x9e, 0x9d, 0x3e, 0x38, 0x34, 0x65, 0x3e,
  0x36, 0x8b, 0x44, 0xbe, 0x89, 0xc3, 0x4f, 0xbd, 0xd9, 0x4a, 0xd0, 0xbe,
  0x70, 0x26, 0xa9, 0x3e, 0xcc, 0x5f, 0x73, 0xbe, 0x24, 0x90, 0xef, 0x3d,
  0x36, 0x5b, 0xb6, 0x3e, 0x9c, 0xcb, 0x65, 0x3e, 0x56, 0x18, 0xa2, 0xbd,
  0x85, 0xfd, 0xb8, 0xbe, 0xdb, 0xce, 0xbf, 0x3d, 0xd0, 0x0f, 0x3b, 0x3e,
  0x11, 0x29, 0xde, 0x3c, 0x0c, 0xbc, 0x21, 0xbe, 0x49, 0x91, 0xc0, 0xbd,
  0x64, 0x42, 0xaf, 0x3d, 0x6b, 0x8c, 0x9c, 0x3d, 0x41, 0x11, 0x97, 0xbe,
  0x21, 0x3c, 0xd6, 0xbd, 0x90, 0xa2, 0x71, 0xbe, 0x5e, 0xcf, 0x61, 0x3e,
  0xa7, 0x0b, 0x06, 0xbd, 0x14, 0x6a, 0x57, 0x3e, 0xd0, 0xdd, 0xb3, 0x3e,
  0x11, 0x90, 0x29, 0x3e, 0x7c, 0x58, 0xef, 0xbd, 0x94, 0x36, 0x21, 0x3e,
  0x80, 0xba, 0x65, 0xbc, 0x7e, 0xac, 0x17, 0x3e, 0x0c, 0xef, 0x38, 0xbe,
  0xc7, 0x90, 0x3e, 0x3d, 0xc2, 0x17, 0x88, 0x3e, 0x9d, 0x60, 0x1f, 0x3e,
  0x6a, 0x2b, 0x2d, 0xbe, 0x34, 0x46, 0x8e, 0xbe, 0x80, 0x20, 0xc6, 0xbd,
  0xc6, 0x30, 0xca, 0x3d, 0xe5, 0xbc, 0xc7, 0xbd, 0x8a, 0x50, 0xfb, 0x3d,
  0xe4, 0x6c, 0x6e, 0x3d, 0x20, 0x4c, 0x8d, 0x3e, 0xe5, 0x1a, 0x9c, 0xbe,
  0xcf, 0xf7, 0x3d, 0x3e, 0xe3, 0xfd, 0x8a, 0x3e, 0x6a, 0x54, 0xc2, 0x3e,
  0xda, 0x27, 0xb1, 0x3e, 0x84, 0x36, 0xac, 0xbd, 0x14, 0x72, 0x89, 0x3e,
  0x08, 0xf6, 0x85, 0xbe, 0xd3, 0xed, 0xbb, 0xbe, 0xb8, 0x97, 0x95, 0x3d,
  0x60, 0x9d, 0x47, 0x3e, 0x00, 0x76, 0x61, 0xbd, 0xa6, 0x87, 0xc3, 0xbe,
  0x60, 0x0b, 0x74, 0xbd, 0x74, 0x3a, 0xeb, 0xbd, 0x34, 0x0e, 0x1f, 0x3e,
  0x49, 0xf2, 0x62, 0xbe, 0x73, 0xa2, 0xb0, 0xbe, 0x03, 0x1a, 0x64, 0xbe,
  0x48, 0x4e, 0x5b, 0x3e, 0xec, 0x9b, 0x87, 0xbe, 0x80, 0x6e, 0xa8, 0xbd,
  0xbc, 0xfb, 0xab, 0x3d, 0xe8, 0x58, 0x83, 0xbd, 0x47, 0xc1, 0x8e, 0xbe,
  0x6c, 0xa4, 0x2b, 0x3e, 0x72, 0x4b, 0x84, 0x3e, 0xba, 0xc6, 0x86, 0xbe,
  0xad, 0xea, 0x55, 0x3e, 0x28, 0x4f, 0xa1, 0x3e, 0xcc, 0x04, 0x9a, 0xbe,
  0x28, 0xc4, 0x65, 0x3d, 0xc6, 0x43, 0x74, 0xbd, 0x34, 0x1e, 0x0e, 0xbe,
  0x84, 0xfb, 0x06, 0x3e, 0xa6, 0x08, 0xcb, 0xbe, 0x4e, 0x29, 0xb9, 0x3e,
  0x24, 0x36, 0x69, 0xbe, 0x53, 0xd5, 0x92, 0x3e, 0x36, 0xd4, 0xae, 0x3d,
  0x64, 0x34, 0x0d, 0x3f, 0x83, 0x4d, 0xc8, 0x3e, 0x99, 0xf3, 0xab, 0x3e,
  0xf4, 0x1b, 0x34, 0x3e, 0x27, 0xe9, 0x78, 0xbe, 0xd9, 0xa5, 0x18, 0xbe,
  0x00, 0x17, 0x19, 0x3d, 0xd1, 0xf9, 0xb7, 0x3e, 0xeb, 0x2a, 0x19, 0x3e,
  0x16, 0xcc, 0x94, 0xbd, 0xa6, 0x62, 0x84, 0x3e, 0x3d, 0xd2, 0x13, 0xbf,
  0x35, 0xcf, 0x06, 0x3f, 0x78, 0x15, 0x38, 0xbe, 0x5d, 0xb8, 0xaf, 0xbe,
  0x21, 0xbc, 0xed, 0x3c, 0x49, 0x2d, 0xb5, 0x3e, 0x72, 0x7d, 0x15, 0xbf,
  0x8e, 0x9e, 0xc0, 0xbd, 0xcf, 0x23, 0x63, 0xbe, 0x34, 0xc0, 0x6b, 0x3e,
  0x1e, 0x7f, 0xd6, 0xbd, 0xdd, 0xfa, 0x8b, 0x3e, 0xe1, 0x54, 0x57, 0x3d,
  0xa0, 0xab, 0xe3, 0xbe, 0xa0, 0xbb, 0x1e, 0xbd, 0xa8, 0x16, 0x71, 0x3e,
  0x5d, 0x3c, 0x15, 0xbc, 0x1b, 0x79, 0x23, 0xbc, 0xb2, 0x30, 0x6b, 0x3e,
  0xd4, 0xb9, 0x72, 0x3e, 0x28, 0xe5, 0x3e, 0xbd, 0x79, 0x8b, 0xaa, 0x3e,
  0xdc, 0x35, 0x97, 0x3e, 0xcc, 0xbd, 0x92, 0xbe, 0xa3, 0x21, 0x14, 0xbe,
  0x3a, 0xbb, 0x8b, 0x3e, 0x14, 0xba, 0x55, 0xbe, 0x76, 0xc5, 0x9c, 0x3e,
  0x6b, 0xca, 0x85, 0x3d, 0xde, 0xd8, 0xc8, 0x3e, 0x39, 0x9e, 0xe2, 0xbe,
  0x95, 0x91, 0x99, 0xbe, 0x0c, 0xdb, 0x1d, 0x3e, 0xd9, 0x56, 0xe0, 0x3d,
  0x92, 0xf3, 0xff, 0xff, 0x04, 0x00, 0x00, 0x00, 0x40, 0x00, 0x00, 0x00,
  0x73, 0x7b, 0x6a, 0xbc, 0x00, 0x00, 0x00, 0x00, 0xcd, 0xe8, 0x0b, 0x3d,
  0xed, 0x6b, 0xa1, 0xbc, 0x38, 0x52, 0x98, 0x3d, 0x00, 0x00, 0x00, 0x00,
  0x6f, 0x34, 0x4a, 0xbd, 0xd7, 0x81, 0xa6, 0xbc, 0x11, 0x2c, 0x01, 0xbe,
  0x90, 0x66, 0xc3, 0xbd, 0x8a, 0xad, 0x78, 0xbe, 0x00, 0x00, 0x00, 0x00,
  0x9f, 0xf0, 0xd6, 0xbd, 0xfa, 0x96, 0x75, 0x3d, 0x93, 0xde, 0xfc, 0xbc,
  0x6b, 0x7e, 0x92, 0x3d, 0xcc, 0xe3, 0xff, 0xff, 0xe2, 0xf3, 0xff, 0xff,
  0x04, 0x00, 0x00, 0x00, 0x00, 0x04, 0x00, 0x00, 0xef, 0xc7, 0x1e, 0xbe,
  0x97, 0x91, 0xe2, 0xbe, 0xee, 0x37, 0xd1, 0xbe, 0xde, 0x03, 0xb4, 0xbe,
  0x54, 0xc5, 0xeb, 0xb8, 0x40, 0xdf, 0xe9, 0x3d, 0x9d, 0x8f, 0x53, 0x3e,
  0x37, 0x58, 0x44, 0xbe, 0x08, 0xea, 0x81, 0x3e, 0x22, 0xb4, 0xc9, 0x3e,
  0x61, 0x28, 0xc9, 0xbe, 0x9a, 0xc9, 0x91, 0x3e, 0x20, 0xbc, 0x9e, 0xbe,
  0x42, 0x79, 0x13, 0x3e, 0x0c, 0x31, 0x39, 0xbe, 0x8b, 0x0d, 0x8c, 0x3e,
  0xa2, 0xff, 0x62, 0x3e, 0x42, 0x40, 0x93, 0xbe, 0x21, 0x4a, 0xd2, 0xbe,
  0x7c, 0xf3, 0xe5, 0xbd, 0xea, 0x87, 0x02, 0xbe, 0x15, 0x3e, 0xcd, 0x3e,
  0x32, 0x5e, 0x72, 0x3e, 0x44, 0xfd, 0xc5, 0xbd, 0x7d, 0xb1, 0xc6, 0xbe,
  0xde, 0x03, 0x5a, 0x3e, 0x00, 0xe4, 0x48, 0x3a, 0x80, 0x69, 0x3e, 0x3c,
  0x09, 0xa2, 0xa2, 0xbe, 0x10, 0x92, 0x34, 0x3d, 0x37, 0x80, 0x7c, 0xbe,
  0x8a, 0xbd, 0xd7, 0xbe, 0x2f, 0x2b, 0x5d, 0xbe, 0xac, 0xfd, 0xc1, 0xbe,
  0xbb, 0x0d, 0xc7, 0xbe, 0x7c, 0x71, 0xbb, 0xbd, 0x3a, 0x41, 0xd9, 0x3e,
  0xe8, 0xaa, 0x51, 0x3e, 0x92, 0x1d, 0x03, 0x3e, 0x5c, 0x7e, 0x0f, 0xbe,
  0x2e, 0x0a, 0x2d, 0x3d, 0xbf, 0x62, 0x00, 0xbf, 0x97, 0x32, 0xda, 0xbe,
  0x0d, 0x2a, 0x61, 0x3e, 0xd5, 0x26, 0x9d, 0x3e, 0xc9, 0x3d, 0xc6, 0x3e,
  0x62, 0xc5, 0x9d, 0x3d, 0x2f, 0x16, 0x5e, 0x3e, 0xa3, 0x53, 0xb3, 0xbd,
  0x13, 0x34, 0xb2, 0xbd, 0xc5, 0x76, 0x11, 0x3f, 0xa1, 0x94, 0x96, 0xbe,
  0x21, 0x08, 0x9a, 0x3d, 0xb7, 0x1e, 0x2e, 0xbd, 0x78, 0x39, 0xd0, 0xbe,
  0x34, 0x39, 0x61, 0xbe, 0x8b, 0x42, 0x85, 0x3d, 0x85, 0xde, 0x0e, 0x3e,
  0x86, 0xcf, 0x99, 0xbe, 0x75, 0x16, 0x84, 0xbd, 0x84, 0x9a, 0x88, 0x3d,
  0xc3, 0x7d, 0x88, 0x3d, 0xe3, 0x3c, 0xec, 0x3e, 0x29, 0xc2, 0x90, 0x3d,
  0xee, 0x1f, 0x50, 0x3e, 0xdc, 0xbf, 0x8c, 0x3e, 0x1f, 0xce, 0xfb, 0x3e,
  0xe7, 0x19, 0xc8, 0xbe, 0xb2, 0xba, 0x19, 0x3d, 0x48, 0xc3, 0xac, 0xbd,
  0xb2, 0xf3, 0x30, 0xbe, 0x9c, 0xf3, 0xc6, 0xbd, 0xb0, 0x8e, 0xf0, 0xbd,
  0xc6, 0x24, 0x97, 0x3e, 0x53, 0x84, 0xc6, 0x3e, 0x3f, 0xae, 0x1d, 0xbd,
  0x50, 0xe2, 0x72, 0xbe, 0x92, 0x6a, 0xa9, 0xbe, 0x33, 0xe8, 0xe5, 0xbb,
  0x7a, 0x84, 0xa7, 0x3e, 0x6c, 0x58, 0xaf, 0xbe, 0x53, 0x5b, 0xc2, 0xbe,
  0x94, 0xb4, 0xd9, 0xbe, 0x08, 0x96, 0x7e, 0xbd, 0x58, 0x12, 0xb3, 0xbd,
  0xd1, 0xf2, 0x85, 0xbe, 0x86, 0x17, 0x0c, 0x3e, 0x51, 0xf2, 0xc6, 0x3e,
  0x94, 0xf8, 0xac, 0x3d, 0x49, 0xeb, 0x93, 0xbe, 0x6c, 0x90, 0xea, 0x3d,
  0x44, 0xee, 0xd5, 0x3d, 0xea, 0xff, 0xda, 0xbe, 0x86, 0x8a, 0x21, 0x3e,
  0x29, 0x25, 0xc5, 0x3e, 0x42, 0xea, 0x13, 0x3e, 0x4e, 0x38, 0x82, 0x3e,
  0x58, 0x75, 0x58, 0xbe, 0xae, 0xda, 0x80, 0xbe, 0x3c, 0xbc, 0x91, 0xbe,
  0x8c, 0xd1, 0x1c, 0x3e, 0xfe, 0x98, 0x95, 0x3e, 0x80, 0xd9, 0xc1, 0x3e,
  0x83, 0xbe, 0xb2, 0x3e, 0xe4, 0x49, 0x83, 0xbd, 0x30, 0x39, 0x83, 0xbe,
  0x32, 0x18, 0xa9, 0x3e, 0xf9, 0xbc, 0xe5, 0x3d, 0x43, 0xcb, 0x7d, 0x3e,
  0x19, 0x61, 0xbb, 0x3e, 0x55, 0x7a, 0x5a, 0xbc, 0x2b, 0x36, 0x62, 0xbe,
  0x22, 0x7e, 0x59, 0xbe, 0xf2, 0xeb, 0xc4, 0x3e, 0xc3, 0x4b, 0xfc, 0xbe,
  0x8f, 0xc3, 0xd1, 0x3e, 0x9d, 0xec, 0xce, 0x3e, 0x4d, 0xca, 0x6f, 0xbe,
  0x5a, 0x92, 0x37, 0xbe, 0x5f, 0x0b, 0x91, 0xbd, 0xb8, 0xc4, 0xe6, 0x3e,
  0xa7, 0x2d, 0xfe, 0x3c, 0x69, 0xfb, 0xfb, 0xbd, 0xcf, 0x3b, 0x3e, 0x3e,
  0x88, 0x55, 0x01, 0xbe, 0x77, 0xc1, 0x03, 0xbe, 0x24, 0x6e, 0x1b, 0x3e,
  0xaa, 0xae, 0x92, 0x3e, 0xdb, 0x40, 0x6f, 0xbe, 0x49, 0x83, 0x52, 0x3e,
  0xa7, 0xbf, 0x58, 0x3d, 0xe2, 0xff, 0xc4, 0x3c, 0xb6, 0x2c, 0xdb, 0xbd,
  0xbb, 0x5e, 0xcb, 0xbd, 0x25, 0x58, 0xad, 0xbe, 0xea, 0x6e, 0x0b, 0x3f,
  0x6e, 0xa3, 0x06, 0x3e, 0xdf, 0xa9, 0x83, 0xbd, 0x20, 0xcc, 0x5c, 0xbd,
  0xf5, 0xe8, 0x3d, 0xbc, 0x21, 0x6e, 0x39, 0x3d, 0x04, 0x57, 0x0f, 0x3f,
  0x86, 0x84, 0xdc, 0x3d, 0xfd, 0x06, 0x0c, 0xbe, 0xfa, 0x9d, 0xf3, 0x3d,
  0xcd, 0x89, 0x87, 0x3e, 0xbe, 0x88, 0x03, 0x3f, 0xac, 0x57, 0x6b, 0x3d,
  0xd8, 0x1f, 0xbf, 0x3d, 0xa5, 0x1c, 0x47, 0xbe, 0xe2, 0xb8, 0x7f, 0xbe,
  0x8e, 0x9a, 0xfa, 0x3d, 0x25, 0xb3, 0xe5, 0x3e, 0x19, 0x66, 0x0a, 0xbf,
  0xe3, 0x9f, 0x54, 0xbe, 0x34, 0x9e, 0x83, 0x3e, 0x6e, 0x2b, 0x8a, 0x3e,
  0xc6, 0xd0, 0x25, 0x3d, 0x56, 0x8e, 0xc9, 0x3e, 0x03, 0x93, 0xaf, 0xbe,
  0x75, 0x53, 0xe8, 0x3e, 0x6e, 0xa2, 0xbf, 0xbe, 0x02, 0xb4, 0xae, 0x3e,
  0xd7, 0x86, 0x3c, 0x3e, 0x8d, 0x36, 0x62, 0xbe, 0xc2, 0xc7, 0x71, 0x3c,
  0xbc, 0xb5, 0x9e, 0x3e, 0x70, 0xf2, 0x29, 0xbd, 0x3f, 0x4c, 0x1f, 0xbd,
  0x89, 0x6f, 0x00, 0xbf, 0xd1, 0x67, 0x0a, 0x3f, 0x50, 0x76, 0xa5, 0x3e,
  0x05, 0xbd, 0xa1, 0xbd, 0x21, 0xac, 0x3b, 0xbe, 0x64, 0xd8, 0x9d, 0xbd,
  0x3e, 0xdd, 0x04, 0x3e, 0xbb, 0xb5, 0xdc, 0x3e, 0xa3, 0x1c, 0xbe, 0xbe,
  0xd4, 0xab, 0xb9, 0xbe, 0x3c, 0xe8, 0xec, 0x3d, 0x00, 0x5c, 0x78, 0x3a,
  0xe4, 0x40, 0xfe, 0x3d, 0x82, 0xed, 0x7b, 0xbe, 0xf6, 0x8e, 0x27, 0x3e,
  0x1a, 0x04, 0x24, 0x3e, 0xd8, 0xaa, 0x03, 0xbe, 0x4a, 0x4d, 0x48, 0x3e,
  0x1a, 0x49, 0x67, 0xbe, 0xac, 0x2a, 0x3e, 0xbe, 0x22, 0x16, 0x02, 0x3e,
  0x2e, 0xfb, 0x90, 0xbe, 0x02, 0x6f, 0x1d, 0xbe, 0xd4, 0xe8, 0xaa, 0xbe,
  0xce, 0x16, 0xab, 0xbe, 0x4f, 0x8f, 0xd6, 0x3e, 0x1b, 0x89, 0x49, 0xbe,
  0x47, 0xd1, 0xb5, 0x3e, 0xc4, 0xcf, 0xaa, 0xbd, 0xf5, 0xe1, 0x70, 0x3e,
  0xf7, 0xe8, 0xa9, 0xbe, 0xf0, 0x58, 0x3e, 0xbe, 0x82, 0x43, 0x31, 0x3e,
  0xdc, 0xf8, 0xf1, 0x3d, 0x61, 0x6f, 0x5d, 0xbe, 0x9a, 0x9b, 0x0e, 0x3e,
  0x38, 0xe7, 0x02, 0x3f, 0xe5, 0xf0, 0x0a, 0x3e, 0x18, 0xbf, 0x49, 0x3e,
  0xfb, 0x88, 0xaf, 0xbd, 0x6d, 0x2d, 0xbb, 0x3e, 0x30, 0x3b, 0x1b, 0x3f,
  0xe2, 0xb9, 0x90, 0xbe, 0xe4, 0x21, 0xbb, 0x3e, 0xa6, 0xe5, 0x92, 0x3e,
  0x26, 0x6d, 0xfc, 0x3d, 0x63, 0x8d, 0x2c, 0x3e, 0x08, 0xa4, 0xb8, 0xbe,
  0xb9, 0x90, 0x07, 0xbd, 0x0f, 0xe1, 0xa3, 0xbc, 0x4e, 0x37, 0x90, 0x3a,
  0x29, 0xf5, 0x5d, 0xbe, 0x54, 0x59, 0x87, 0xbd, 0xf2, 0x71, 0x33, 0x3e,
  0xc3, 0x37, 0x04, 0x3e, 0x95, 0x9e, 0xab, 0x3d, 0xb2, 0x94, 0xe2, 0xbe,
  0xa1, 0x10, 0x72, 0xbe, 0xcf, 0x18, 0x92, 0x3e, 0xdc, 0xd4, 0xad, 0x3e,
  0x5c, 0x88, 0xbe, 0x3d, 0xb2, 0x83, 0xdf, 0xbe, 0xd2, 0x3a, 0x82, 0xbd,
  0xa0, 0x79, 0x67, 0xbd, 0x54, 0x5b, 0x7c, 0x3e, 0x79, 0x3b, 0xb4, 0xbe,
  0x1a, 0xb3, 0x00, 0xbe, 0x25, 0xdf, 0xcc, 0xbd, 0x24, 0x20, 0xa8, 0x3c,
  0x14, 0xbc, 0xaa, 0x3e, 0xa5, 0x6a, 0x81, 0xbd, 0xee, 0xf9, 0xc7, 0xbe,
  0xa4, 0xb9, 0x64, 0x3e, 0xf6, 0x23, 0xe0, 0x3e, 0x9d, 0x72, 0xec, 0x3e,
  0x9b, 0xc2, 0x87, 0x3e, 0xd1, 0xd7, 0x5a, 0xbd, 0x33, 0xa4, 0xec, 0xbd,
  0x9e, 0x55, 0xe7, 0xbc, 0x31, 0xa9, 0x13, 0x3e, 0x1f, 0x30, 0x86, 0xbe,
  0xb6, 0x8a, 0x27, 0x3e, 0x26, 0xe9, 0xc2, 0xbd, 0xc5, 0x0f, 0x7e, 0xbe,
  0x48, 0x19, 0x00, 0xbe, 0x0f, 0xc2, 0x22, 0xbe, 0x19, 0x05, 0x09, 0xbe,
  0xdc, 0xe7, 0xff, 0xff, 0xf2, 0xf7, 0xff, 0xff, 0x04, 0x00, 0x00, 0x00,
  0x28, 0x00, 0x00, 0x00, 0x00, 0x00, 0x00, 0x00, 0x15, 0x9d, 0x2e, 0xbd,
  0x9e, 0x8a, 0x17, 0x3e, 0x00, 0x00, 0x00, 0x00, 0xf0, 0x9f, 0x06, 0x3c,
  0xff, 0x60, 0xd2, 0xbc, 0x00, 0x00, 0x00, 0x00, 0x00, 0x00, 0x00, 0x00,
  0x83, 0xc7, 0x3a, 0xbd, 0x00, 0x00, 0x00, 0x00, 0x14, 0xe8, 0xff, 0xff,
  0x18, 0xe8, 0xff, 0xff, 0x1c, 0xe8, 0xff, 0xff, 0x20, 0xe8, 0xff, 0xff,
  0x24, 0xe8, 0xff, 0xff, 0x3a, 0xf8, 0xff, 0xff, 0x04, 0x00, 0x00, 0x00,
  0x50, 0x00, 0x00, 0x00, 0x00, 0x00, 0x00, 0x00, 0x79, 0x0a, 0x37, 0xbd,
  0x0c, 0x39, 0x09, 0xbd, 0xf8, 0x65, 0x57, 0x3d, 0x62, 0xe7, 0xe1, 0xbd,
  0x9d, 0x20, 0x86, 0x3d, 0x00, 0x00, 0x00, 0x00, 0xff, 0x0e, 0x9c, 0xbc,
  0x00, 0x00, 0x00, 0x00, 0x00, 0x00, 0x00, 0x00, 0x00, 0x00, 0x00, 0x00,
  0x57, 0x0c, 0xc1, 0xbb, 0xaa, 0x44, 0x52, 0x3c, 0x3a, 0x0c, 0x1c, 0xbd,
  0xdc, 0x40, 0x60, 0xbe, 0x26, 0x2b, 0xf4, 0xbc, 0x65, 0xdb, 0x52, 0x3d,
  0x1c, 0xb2, 0x0d, 0x3e, 0xdb, 0xba, 0x6b, 0x3d, 0x45, 0xc2, 0x3e, 0xbd,
  0x96, 0xf8, 0xff, 0xff, 0x04, 0x00, 0x00, 0x00, 0x50, 0x00, 0x00, 0x00,
  0x00, 0x00, 0x00, 0x00, 0x00, 0x00, 0x00, 0x00, 0xe7, 0xc2, 0x8f, 0xbc,
  0x8f, 0xec, 0xb5, 0x3d, 0x0b, 0x74, 0xbe, 0x3c, 0x00, 0x00, 0x00, 0x00,
  0x8a, 0xd0, 0x29, 0x3d, 0xf1, 0x68, 0x3a, 0xbe, 0xe2, 0xdb, 0xb1, 0x3d,
  0x00, 0x00, 0x00, 0x00, 0x55, 0xcd, 0xb6, 0xbd, 0x0a, 0xda, 0x7e, 0x3c,
  0xf6, 0xe1, 0xf7, 0x3d, 0xb9, 0x97, 0x28, 0xbe, 0xbf, 0xe0, 0x04, 0x3d,
  0xd0, 0x55, 0xa0, 0x3e, 0xd7, 0x93, 0xb0, 0x3d, 0x57, 0xa6, 0xa5, 0xbc,
  0xba, 0xb4, 0xbf, 0xbd, 0x85, 0x06, 0x0d, 0x3d, 0xf2, 0xf8, 0xff, 0xff,
  0x04, 0x00, 0x00, 0x00, 0x50, 0x00, 0x00, 0x00, 0xb6, 0xe0, 0xc2, 0x3b,
  0x00, 0x00, 0x00, 0x00, 0xaa, 0x64, 0x91, 0x3c, 0xab, 0x73, 0x0d, 0x3d,
  0xfa, 0x12, 0x11, 0xbe, 0x00, 0x00, 0x00, 0x00, 0x54, 0xfc, 0x90, 0xbd,
  0xfa, 0x80, 0xa2, 0xbc, 0x90, 0x31, 0x73, 0x3d, 0x21, 0x64, 0x23, 0x3d,
  0xaf, 0x5e, 0x90, 0xbc, 0x00, 0x00, 0x00, 0x00, 0x00, 0x00, 0x00, 0x00,
  0x77, 0x68, 0x11, 0x3d, 0xd4, 0xf6, 0x06, 0xbd, 0xae, 0xb5, 0x31, 0x3d,
  0xb0, 0x14, 0x2d, 0x3d, 0x07, 0xf8, 0xdf, 0x3d, 0x00, 0x00, 0x00, 0x00,
  0x25, 0x03, 0xee, 0xbd, 0x3c, 0xe9, 0xff, 0xff, 0x52, 0xf9, 0xff, 0xff,
  0x04, 0x00, 0x00, 0x00, 0x50, 0x00, 0x00, 0x00, 0x00, 0x00, 0x00, 0x00,
  0x36, 0x7a, 0x02, 0x3d, 0x65, 0x97, 0xdd, 0xbb, 0xee, 0xcf, 0xd7, 0x3d,
  0x00, 0x00, 0x00, 0x00, 0xea, 0xea, 0x37, 0x3d, 0x00, 0x00, 0x00, 0x00,
  0x06, 0x6b, 0xac, 0x3c, 0x0a, 0x8b, 0x7c, 0x3c, 0x80, 0xb0, 0x44, 0x3c,
  0x00, 0x00, 0x00, 0x00, 0xbe, 0x85, 0xac, 0xbc, 0x79, 0xd3, 0xcb, 0x3d,
  0xc4, 0x30, 0x88, 0xbd, 0x22, 0x74, 0xa6, 0xbb, 0x94, 0x14, 0x4b, 0xbd,
  0x00, 0x00, 0x00, 0x00, 0x95, 0x42, 0x28, 0x3c, 0x1e, 0xba, 0x7a, 0x3d,
  0xc1, 0xdd, 0x56, 0x3c, 0x9c, 0xe9, 0xff, 0xff, 0xb2, 0xf9, 0xff, 0xff,
  0x04, 0x00, 0x00, 0x00, 0x40, 0x06, 0x00, 0x00, 0x3f, 0x53, 0x70, 0xbe,
  0x5c, 0x6d, 0xd5, 0x3d, 0x47, 0x0a, 0x90, 0xbe, 0xa8, 0x08, 0x30, 0xbe,
  0xe1, 0x2a, 0xc6, 0xbe, 0x5a, 0x6f, 0x77, 0xbc, 0xee, 0x74, 0x41, 0xbe,
  0x66, 0xfe, 0xc7, 0xbe, 0x7c, 0x7a, 0xaf, 0x3e, 0x68, 0xb3, 0x93, 0xbe,
  0x94, 0x94, 0x96, 0xbe, 0xa5, 0x3d, 0x68, 0x3e, 0xff, 0x2d, 0x86, 0x3e,
  0x5c, 0xf6, 0xa8, 0x3e, 0x92, 0xdf, 0x5c, 0x3e, 0x14, 0xa7, 0x80, 0xbe,
  0x93, 0x6b, 0x10, 0xbe, 0x70, 0xbb, 0x02, 0x3e, 0xc0, 0x8b, 0x96, 0x3e,
  0x2a, 0x13, 0xe5, 0x3d, 0x59, 0xa6, 0x67, 0xbe, 0xc4, 0xcb, 0x97, 0x3d,
  0x13, 0x3a, 0xb9, 0xbe, 0x88, 0xe1, 0x2a, 0x3d, 0xa0, 0x57, 0xd0, 0x3d,
  0x70, 0x06, 0x04, 0xbe, 0xd0, 0x4c, 0x28, 0xbd, 0x9f, 0xab, 0x90, 0xbe,
  0xc8, 0x40, 0x69, 0xbd, 0xea, 0x85, 0x8e, 0xbe, 0x14, 0x78, 0xf5, 0xbd,
  0x7f, 0x73, 0xac, 0xbe, 0x06, 0x2b, 0x35, 0xbe, 0x70, 0x12, 0x8e, 0xbe,
  0x53, 0xff, 0x54, 0xbe, 0x49, 0x8f, 0x98, 0xbe, 0x70, 0xee, 0x0a, 0x3e,
  0xcc, 0x0f, 0xa4, 0xbd, 0xcc, 0xe6, 0x8d, 0x3d, 0x60, 0x59, 0xd2, 0x3c,
  0xc5, 0xb6, 0xc5, 0x3e, 0x34, 0x79, 0x7d, 0x3e, 0xb0, 0x34, 0xf1, 0x3c,
  0x43, 0x76, 0x9b, 0xbe, 0x46, 0x96, 0x98, 0x3e, 0x2d, 0x09, 0x0d, 0x3d,
  0x9e, 0x2b, 0x59, 0x3e, 0xb2, 0x53, 0x01, 0x3f, 0xdf, 0xfe, 0x91, 0xbe,
  0xb5, 0xf0, 0x09, 0x3e, 0x88, 0x9f, 0xea, 0xbd, 0xa3, 0xcb, 0x91, 0xbd,
  0x5f, 0x56, 0x4b, 0xbe, 0x91, 0xc8, 0xb4, 0x3e, 0x75, 0xaf, 0x83, 0x3e,
  0xf8, 0x19, 0xea, 0x3d, 0xf0, 0x8d, 0x91, 0x3e, 0xfe, 0x10, 0x6a, 0x3e,
  0xd7, 0x29, 0x04, 0x3e, 0xad, 0x74, 0x2d, 0xbc, 0x4b, 0x05, 0x59, 0xbd,
  0xed, 0x5c, 0xa6, 0x3e, 0x61, 0x53, 0xaa, 0xbe, 0xdc, 0x1d, 0x97, 0xbe,
  0x44, 0xd0, 0x89, 0xbd, 0x5f, 0x22, 0xd0, 0xbe, 0x3e, 0x38, 0x9e, 0x3e,
  0x76, 0xeb, 0xa4, 0xbe, 0xe0, 0xdb, 0x4b, 0xbe, 0xbe, 0x38, 0x06, 0xbe,
  0x58, 0x49, 0xa1, 0x3e, 0x31, 0x4e, 0x07, 0x3e, 0x6e, 0x3b, 0x89, 0x3e,
  0x57, 0x92, 0xaa, 0x3e, 0xd8, 0x2c, 0xb3, 0x3e, 0x4b, 0x96, 0x15, 0xbe,
  0x9e, 0x53, 0xc3, 0x3e, 0x70, 0x82, 0x89, 0xbe, 0x8d, 0x22, 0x9e, 0x3e,
  0x5f, 0xe5, 0xb3, 0x3e, 0xe7, 0xc2, 0xc8, 0xbc, 0xd6, 0xaf, 0x1e, 0x3d,
  0xb4, 0x1d, 0x0c, 0x3e, 0xa0, 0xea, 0xe5, 0x3d, 0xa4, 0x5e, 0x48, 0x3e,
  0x71, 0xb0, 0x20, 0x3f, 0x54, 0x71, 0xe6, 0x3c, 0x70, 0xb5, 0xc5, 0x3c,
  0x00, 0xe4, 0xa1, 0x3e, 0x44, 0x17, 0xc0, 0xbe, 0xde, 0x67, 0xbd, 0x3e,
  0x82, 0x42, 0xbc, 0x3e, 0x41, 0xb6, 0x81, 0x3e, 0xdc, 0x18, 0xcc, 0xbd,
  0xae, 0xf1, 0x81, 0x3e, 0x5c, 0xe2, 0x79, 0xbe, 0x5c, 0x7f, 0x7a, 0xbe,
  0xeb, 0x56, 0xa0, 0x3e, 0x50, 0xde, 0x8a, 0xbd, 0x44, 0xd0, 0x0d, 0xbe,
  0xd4, 0x0e, 0xa5, 0xbe, 0xfd, 0x90, 0xbc, 0xbe, 0x00, 0x7a, 0x3e, 0xbe,
  0xe7, 0x7c, 0x7d, 0xbe, 0xbe, 0x0f, 0x01, 0xbe, 0xc1, 0x14, 0x81, 0xbe,
  0x31, 0xff, 0x40, 0xbe, 0x14, 0xd5, 0x5e, 0x3e, 0xdc, 0xae, 0xb5, 0xbd,
  0x2c, 0x29, 0xc0, 0x3e, 0xfc, 0x39, 0x4d, 0x3e, 0x70, 0x7f, 0x25, 0xbe,
  0x60, 0xce, 0xae, 0xbc, 0x70, 0xac, 0xd3, 0xbc, 0xe0, 0x06, 0xad, 0x3d,
  0xb6, 0x17, 0x9c, 0xbe, 0xf1, 0x87, 0x77, 0xbe, 0x20, 0xae, 0xa3, 0xbe,
  0x62, 0x61, 0x0a, 0xbe, 0xac, 0xb8, 0xb3, 0x3d, 0xda, 0xfb, 0x99, 0x3e,
  0x52, 0x3b, 0x2c, 0x3e, 0x7c, 0xf3, 0x99, 0xbd, 0x5b, 0x65, 0x9b, 0x3e,
  0x6c, 0xde, 0x53, 0x3e, 0x4e, 0xd6, 0x5a, 0x3d, 0x96, 0x00, 0x9f, 0x3e,
  0x5f, 0x75, 0xb9, 0xbc, 0xb8, 0x23, 0xba, 0x3e, 0x80, 0xf4, 0x2a, 0x3e,
  0xe8, 0xad, 0x45, 0x3e, 0xce, 0x1d, 0x8c, 0xbe, 0xb6, 0x4c, 0x83, 0xbe,
  0x5f, 0x73, 0x2d, 0x3f, 0x4c, 0xcf, 0xbc, 0x3e, 0x1c, 0xf0, 0x3c, 0x3e,
  0x30, 0x84, 0xc4, 0x3e, 0x24, 0xa9, 0x30, 0x3e, 0xa5, 0x66, 0x97, 0xbe,
  0xa8, 0x7f, 0x98, 0xbb, 0x8f, 0x1c, 0xc2, 0xbe, 0xa0, 0x9a, 0xac, 0xbd,
  0x20, 0x79, 0x07, 0x3d, 0xcd, 0x08, 0x1f, 0xbe, 0x00, 0x98, 0x2a, 0xb9,
  0x9d, 0xac, 0x83, 0x3d, 0xb7, 0x52, 0x38, 0x3e, 0xb3, 0x28, 0x93, 0x3e,
  0x77, 0xf7, 0x69, 0xbe, 0x64, 0x52, 0xab, 0xbe, 0xec, 0x4e, 0xa4, 0x3d,
  0x36, 0x26, 0xad, 0x3e, 0xf9, 0x7d, 0x66, 0x3d, 0x14, 0x3f, 0x4c, 0xbe,
  0x5a, 0xec, 0x90, 0xbe, 0x86, 0xbd, 0x87, 0xbe, 0x26, 0xb2, 0x8a, 0x3e,
  0xf5, 0x38, 0x56, 0xbd, 0xd4, 0x6b, 0xc0, 0xbe, 0xcb, 0xe8, 0x30, 0xbe,
  0xfb, 0xe9, 0x00, 0x3e, 0xed, 0x13, 0xf2, 0x3c, 0xec, 0x79, 0x20, 0xbe,
  0x5b, 0xd9, 0x91, 0x3e, 0x86, 0x0c, 0xb7, 0x3e, 0x67, 0x46, 0x6b, 0xbf,
  0xe4, 0xcf, 0x04, 0x3c, 0xf1, 0xe2, 0x7d, 0xbe, 0x71, 0x4b, 0x8e, 0xbe,
  0xd1, 0xff, 0x30, 0xbe, 0x70, 0xaf, 0x8e, 0x3e, 0xbb, 0xea, 0x19, 0x3e,
  0x74, 0xa7, 0xc8, 0x3e, 0x78, 0x47, 0x46, 0xbe, 0x10, 0xd3, 0x38, 0x3e,
  0xf0, 0x16, 0x65, 0xbd, 0x8a, 0x8b, 0x58, 0xbe, 0xbb, 0x54, 0x16, 0x3e,
  0x50, 0xe6, 0x49, 0x3d, 0xc6, 0xa3, 0x9f, 0xbe, 0xd3, 0xa0, 0xdd, 0x3e,
  0xe8, 0x21, 0x27, 0x3e, 0x4d, 0xb8, 0xb7, 0xbe, 0x94, 0x85, 0xa3, 0x3e,
  0xd8, 0x9a, 0xe9, 0x3d, 0x64, 0x61, 0xc5, 0x3d, 0x67, 0x59, 0xe9, 0x3c,
  0x2e, 0xee, 0xfc, 0x3c, 0x98, 0xca, 0xc6, 0xbd, 0x4c, 0x93, 0xc7, 0x3d,
  0x10, 0x12, 0x5d, 0x3e, 0x1b, 0x47, 0xa3, 0x3e, 0x6e, 0x48, 0x2b, 0x3e,
  0x62, 0xfe, 0xcb, 0x3e, 0x15, 0x0b, 0x6f, 0x3e, 0x3c, 0x91, 0x88, 0x3d,
  0x10, 0xa5, 0x01, 0xbd, 0x3b, 0x89, 0x89, 0xbd, 0x3a, 0x83, 0x5b, 0xbe,
  0x25, 0x34, 0xce, 0xbd, 0xd3, 0x0b, 0xf2, 0xbc, 0x28, 0x66, 0x38, 0x3d,
  0x78, 0xf1, 0x01, 0x3e, 0x69, 0xa6, 0xc2, 0xbd, 0x30, 0xb4, 0x09, 0xbe,
  0xa5, 0x45, 0x5e, 0x3d, 0x24, 0xfc, 0xa6, 0x3e, 0x3e, 0x1b, 0xb4, 0x3e,
  0x1f, 0x41, 0xa6, 0xbe, 0xf1, 0x4a, 0x87, 0x3e, 0x74, 0x6e, 0x90, 0x3d,
  0x4d, 0x4b, 0xaf, 0xbe, 0xa4, 0x51, 0x43, 0xbe, 0xb4, 0xf3, 0x98, 0xbe,
  0x68, 0x3d, 0x56, 0xbd, 0xf2, 0xc1, 0xbd, 0x3e, 0x48, 0x3b, 0x38, 0xbe,
  0x86, 0x58, 0x59, 0x3e, 0xe3, 0xd3, 0x23, 0x3e, 0x34, 0xd5, 0x68, 0xbe,
  0x60, 0x9c, 0xd5, 0x3c, 0x0a, 0xa6, 0x80, 0x3e, 0x50, 0x13, 0x16, 0xbd,
  0xf0, 0xc4, 0x4e, 0xbd, 0x94, 0xed, 0xb9, 0x3e, 0x22, 0x0a, 0xbc, 0x3e,
  0x14, 0xd4, 0x47, 0x3e, 0x2b, 0x63, 0xc3, 0xbe, 0xb0, 0x61, 0xa2, 0x3e,
  0xe8, 0x6c, 0x1c, 0x3d, 0xe0, 0xa1, 0xb0, 0xbc, 0x80, 0xd2, 0xbf, 0xbe,
  0xe6, 0xd9, 0x08, 0xbe, 0x34, 0x02, 0x8e, 0x3e, 0x5e, 0x03, 0x0b, 0xbe,
  0x50, 0x1e, 0x4e, 0x3d, 0x9c, 0xea, 0xfd, 0xbd, 0x88, 0x4a, 0x64, 0xbd,
  0x48, 0xf1, 0xac, 0xbd, 0x28, 0x20, 0xff, 0xbd, 0x74, 0xc0, 0xd1, 0xbd,
  0xf4, 0xdd, 0xe1, 0x3d, 0x3b, 0x94, 0xa5, 0xbe, 0xd6, 0x04, 0x94, 0xbe,
  0x21, 0x1e, 0xb9, 0xbe, 0xf5, 0x49, 0x79, 0xbe, 0x2d, 0x26, 0x39, 0xbe,
  0x3b, 0x14, 0xa0, 0xbe, 0xb5, 0x2a, 0x12, 0xbe, 0xd7, 0x0f, 0x35, 0xbe,
  0xea, 0x37, 0x95, 0x3e, 0x02, 0x2c, 0xb6, 0xbe, 0xc0, 0xd6, 0x8e, 0xbe,
  0x54, 0xde, 0x83, 0x3e, 0x01, 0x19, 0x43, 0xbe, 0xec, 0xd5, 0x1a, 0x3e,
  0x00, 0xfb, 0xf1, 0x3c, 0xbc, 0x6d, 0xc1, 0xbd, 0x60, 0xcf, 0x1d, 0x3d,
  0xb4, 0x08, 0xe2, 0x3d, 0x9e, 0x25, 0x55, 0x3e, 0xfb, 0x37, 0x80, 0xbe,
  0xcc, 0xcd, 0x97, 0x3e, 0xc7, 0xbd, 0x02, 0xbd, 0xa8, 0xb5, 0x99, 0x3e,
  0xe2, 0x74, 0xb4, 0xbe, 0xc4, 0xa3, 0xbb, 0x3e, 0x10, 0x06, 0xa8, 0x3e,
  0xf6, 0x73, 0xa5, 0xbd, 0x84, 0xb1, 0x4d, 0xbc, 0x3b, 0xeb, 0x97, 0xbe,
  0x1f, 0x53, 0xf9, 0x3e, 0xf7, 0x96, 0x2a, 0xbd, 0x59, 0x80, 0xe9, 0x3e,
  0xfe, 0xee, 0xad, 0x3c, 0xf2, 0x6c, 0xc3, 0x3e, 0x3c, 0x35, 0x0d, 0x3e,
  0xf8, 0xef, 0xaf, 0x3e, 0x76, 0x77, 0x25, 0xbe, 0x73, 0x72, 0x8a, 0xbe,
  0x3a, 0xb0, 0xe6, 0xbd, 0xe2, 0xbf, 0xb0, 0xbe, 0x00, 0xce, 0x27, 0xbc,
  0xd8, 0x60, 0xa7, 0xbd, 0x84, 0x03, 0x41, 0x3e, 0x65, 0xcd, 0x83, 0xbe,
  0x25, 0x5d, 0x9d, 0x3e, 0xb5, 0x30, 0x9f, 0x3d, 0xd6, 0x4e, 0x90, 0x3e,
  0xe5, 0xaf, 0xe1, 0x3c, 0x68, 0x29, 0xb1, 0x3d, 0xae, 0x74, 0x66, 0x3e,
  0x1c, 0x31, 0xfd, 0xbd, 0xe0, 0x8c, 0x3d, 0xbe, 0x00, 0x1b, 0x9c, 0x3a,
  0x7e, 0x84, 0xa6, 0x3e, 0x40, 0xf4, 0xc5, 0xbc, 0x5b, 0x0d, 0xc1, 0xbd,
  0x2f, 0x93, 0x55, 0x3d, 0xf3, 0xcc, 0x9f, 0x3e, 0xed, 0xc5, 0x09, 0x3e,
  0x20, 0x60, 0x86, 0xbe, 0xc4, 0x75, 0x9b, 0x3d, 0x32, 0x7a, 0x6f, 0xbc,
  0x22, 0x8d, 0xaa, 0x3e, 0x99, 0x9f, 0xa6, 0x3e, 0xb8, 0x05, 0x8e, 0x3e,
  0x02, 0xcd, 0x01, 0x3e, 0xd3, 0xf4, 0x86, 0x3e, 0x9c, 0x2e, 0x4d, 0xbe,
  0xd0, 0xbd, 0x7f, 0x3e, 0xc4, 0xd0, 0xbb, 0xbe, 0x87, 0xb7, 0xa4, 0x3e,
  0xd9, 0xa1, 0xe3, 0x3c, 0xcd, 0xef, 0x87, 0x3e, 0x80, 0xec, 0x4f, 0xbb,
  0x00, 0xc5, 0x32, 0xbd, 0xf8, 0x24, 0xa0, 0xbd, 0xc8, 0xa6, 0x8c, 0x3d,
  0xcb, 0x43, 0x33, 0x3e, 0x36, 0x30, 0xb0, 0x3e, 0x61, 0x7d, 0x77, 0xbe,
  0x00, 0xa3, 0xc4, 0x3a, 0xbc, 0xfa, 0xda, 0xba, 0x70, 0x1b, 0xf9, 0x3d,
  0x73, 0x7e, 0x5c, 0xbe, 0x2d, 0x77, 0x73, 0xbe, 0x0f, 0xf3, 0x84, 0x3e,
  0x43, 0x53, 0x12, 0x3e, 0xd0, 0xdd, 0x9a, 0x3d, 0x10, 0xac, 0xa2, 0x3d,
  0xde, 0x5e, 0xd9, 0x3e, 0x60, 0x58, 0xd9, 0x3e, 0xea, 0x91, 0xe7, 0x3e,
  0xca, 0x8a, 0x0c, 0x3e, 0x73, 0xe7, 0x1f, 0xbe, 0x9a, 0x31, 0xaa, 0x3e,
  0xc1, 0x91, 0x93, 0xbe, 0x34, 0xac, 0x95, 0x3e, 0xb0, 0xa3, 0xf1, 0xbd,
  0x93, 0xbf, 0x54, 0x3e, 0xac, 0x15, 0xe9, 0x3d, 0x10, 0x77, 0xb9, 0x3e,
  0x23, 0x2f, 0xb7, 0x3e, 0x04, 0x4b, 0x9b, 0x3e, 0xa6, 0x8f, 0x20, 0xbf,
  0xef, 0xd0, 0x28, 0xbe, 0x72, 0xed, 0xe2, 0xbe, 0xbc, 0xa5, 0x19, 0x3e,
  0x18, 0x47, 0x7f, 0xbe, 0xc5, 0x7c, 0xa7, 0xbe, 0x6c, 0xf3, 0xc9, 0x3d,
  0x6c, 0xf8, 0x99, 0xbe, 0xe8, 0x7a, 0xf8, 0x3d, 0xb7, 0xc5, 0x9c, 0x3e,
  0x07, 0xcb, 0x7a, 0xbe, 0xb4, 0x15, 0xbc, 0x3d, 0xf2, 0x29, 0x98, 0x3e,
  0x07, 0x42, 0xf0, 0x3e, 0x67, 0xc6, 0x04, 0x3e, 0x06, 0x26, 0x76, 0xbe,
  0xa5, 0x30, 0xad, 0xbe, 0x30, 0x18, 0x49, 0x3d, 0x38, 0x87, 0x43, 0xbd,
  0x45, 0x56, 0x8d, 0xbe, 0x87, 0x39, 0x69, 0xbe, 0xe4, 0x58, 0xba, 0x3d,
  0x25, 0x70, 0x54, 0xbe, 0x90, 0x54, 0xb0, 0xbc, 0x6c, 0x5e, 0x82, 0x3d,
  0xfe, 0xf8, 0xc0, 0xbe, 0xbc, 0x00, 0x68, 0xbe, 0x15, 0x03, 0xc3, 0xbe,
  0x53, 0xa5, 0x43, 0xbe, 0xa2, 0xe3, 0x98, 0xbe, 0x64, 0x34, 0xa5, 0xbd,
  0x76, 0xe7, 0xb8, 0x3e, 0x80, 0x96, 0x3e, 0xbd, 0xf8, 0x98, 0xbf, 0xbd,
  0x18, 0x80, 0xce, 0x3d, 0xca, 0x11, 0x78, 0x3e, 0x58, 0x74, 0x2e, 0xbd,
  0xe0, 0x33, 0xe2, 0xbd, 0x1d, 0x0b, 0xe0, 0x3d, 0x58, 0x9e, 0x68, 0x3e,
  0xb3, 0xf0, 0xf2, 0xbc, 0x0c, 0x4b, 0xe8, 0xbd, 0x7e, 0x75, 0x04, 0x3e,
  0x73, 0xca, 0xbe, 0xbd, 0xb4, 0xe8, 0x99, 0x3d, 0x76, 0xe0, 0x9d, 0x3e,
  0xe8, 0x39, 0xfc, 0xbc, 0xed, 0x13, 0xc3, 0x3e, 0x8c, 0x9b, 0x18, 0x3e,
  0xcf, 0xc5, 0x53, 0xbd, 0xb4, 0x4e, 0x69, 0x3e, 0x24, 0x5b, 0xb1, 0x3e,
  0x02, 0x7d, 0xa1, 0x3e, 0xf3, 0x79, 0x17, 0x3e, 0xdf, 0xa7, 0x09, 0x3e,
  0x00, 0x00, 0x06, 0x00, 0x08, 0x00, 0x04, 0x00, 0x06, 0x00, 0x00, 0x00,
  0x04, 0x00, 0x00, 0x00, 0x00, 0x05, 0x00, 0x00, 0x3f, 0x4a, 0xa1, 0xbe,
  0x2c, 0x31, 0x48, 0xbe, 0xdb, 0x44, 0x96, 0xbe, 0x98, 0x37, 0x73, 0x3d,
  0x58, 0x24, 0xa5, 0xbe, 0x7c, 0xa0, 0x03, 0x3e, 0xa2, 0xb5, 0x9b, 0xbe,
  0x00, 0xc3, 0xc6, 0x3d, 0x98, 0xe2, 0x55, 0x3e, 0x20, 0xde, 0x74, 0xbd,
  0xa0, 0x11, 0x38, 0xbe, 0x90, 0x5e, 0x2b, 0xbd, 0xbc, 0x8d, 0x82, 0x3e,
  0xf0, 0x5f, 0x8b, 0xbd, 0x24, 0x2c, 0xe5, 0xbd, 0xc0, 0x84, 0x2a, 0xbc,
  0x75, 0x3e, 0xa6, 0xbe, 0xe0, 0x04, 0x1f, 0xbd, 0xdc, 0x03, 0xaa, 0x3d,
  0x9a, 0x78, 0x8c, 0xbe, 0x72, 0x44, 0x60, 0xbe, 0xc0, 0x98, 0xf3, 0xbd,
  0x86, 0x51, 0xa8, 0xbe, 0x20, 0x3b, 0xe2, 0x3c, 0x22, 0xc7, 0xa6, 0xbe,
  0x56, 0x02, 0x85, 0x3e, 0xc0, 0x48, 0x54, 0x3c, 0x2a, 0x3a, 0xc7, 0x3e,
  0xe0, 0x4a, 0x19, 0x3c, 0x8a, 0x5b, 0x68, 0xbe, 0x48, 0xb2, 0xa6, 0x3e,
  0x8e, 0xda, 0x9b, 0x3e, 0x29, 0xbd, 0x3c, 0xbe, 0x5c, 0xd2, 0x04, 0x3e,
  0x18, 0x9b, 0x85, 0xbe, 0x33, 0xcf, 0xe7, 0x3d, 0x6f, 0x35, 0x95, 0x3e,
  0xc0, 0xc4, 0xb9, 0x3d, 0x05, 0x6b, 0x0e, 0xbe, 0x4b, 0x19, 0x42, 0xbd,
  0x03, 0xe7, 0x80, 0xbc, 0xec, 0xdb, 0x22, 0x3d, 0xf3, 0x72, 0x0c, 0x3e,
  0x20, 0x07, 0xe9, 0x3d, 0xfd, 0xb4, 0x3d, 0x3f, 0xee, 0x20, 0x88, 0x3e,
  0xf1, 0x38, 0xf3, 0xbb, 0x2f, 0xbf, 0x03, 0x3d, 0xc9, 0x7e, 0xc1, 0xbe,
  0x1c, 0x0c, 0x0e, 0x3e, 0xd9, 0x20, 0x9f, 0x3e, 0x7d, 0x89, 0xd3, 0x3e,
  0xa8, 0xa9, 0x8d, 0x3e, 0x02, 0x2c, 0x94, 0x3e, 0xaa, 0x40, 0xc7, 0xbd,
  0xe7, 0xd4, 0xea, 0xbe, 0xa6, 0x14, 0xc1, 0xbe, 0x48, 0x64, 0x43, 0x3d,
  0xbf, 0x43, 0x25, 0xbf, 0xd6, 0x66, 0xb8, 0x3e, 0x0c, 0xc7, 0x2a, 0xbe,
  0xe0, 0x59, 0xc0, 0x3e, 0x82, 0x9c, 0xe3, 0xbc, 0xb6, 0x20, 0x99, 0x3e,
  0x77, 0x7f, 0x1c, 0xbe, 0x46, 0xea, 0x9a, 0x3e, 0x14, 0x61, 0x04, 0xbd,
  0x64, 0xfe, 0x8d, 0x3e, 0xdd, 0x36, 0x63, 0xbe, 0x76, 0xe2, 0x0d, 0xbe,
  0xce, 0x8d, 0x55, 0x3e, 0x6b, 0x53, 0xbf, 0xbe, 0x7c, 0xb3, 0x51, 0x3e,
  0x04, 0xb2, 0xd3, 0x3c, 0xa9, 0x73, 0x61, 0xbd, 0xd4, 0x58, 0x04, 0x3e,
  0x14, 0x3b, 0xc9, 0x3d, 0xa2, 0x43, 0x32, 0x3e, 0x2e, 0x7d, 0xcb, 0x3e,
  0x14, 0xf8, 0xe3, 0x3e, 0x44, 0xd3, 0xbc, 0xbe, 0x20, 0x68, 0x49, 0x3e,
  0xf8, 0x3b, 0xd8, 0x3d, 0xe4, 0x11, 0x2c, 0xbe, 0x41, 0x74, 0x62, 0xbe,
  0xdb, 0xcb, 0x45, 0xbe, 0xe4, 0x75, 0xab, 0xbd, 0x58, 0x9f, 0xa4, 0x3e,
  0x0c, 0x3f, 0xf8, 0xbd, 0x5d, 0x0d, 0x5e, 0xbe, 0x63, 0x24, 0xc3, 0xbe,
  0x4c, 0xa4, 0x23, 0x3e, 0xf4, 0xff, 0xaa, 0x3e, 0x2f, 0x4d, 0x64, 0xbe,
  0xa6, 0x31, 0xae, 0x3e, 0x11, 0x74, 0xcf, 0xbe, 0xee, 0xd2, 0xa8, 0x3e,
  0x80, 0x46, 0x91, 0x3b, 0x73, 0x19, 0x31, 0xbe, 0x5b, 0x83, 0x21, 0xbf,
  0x46, 0x59, 0xc2, 0x3e, 0x20, 0xf8, 0xb9, 0xbd, 0x1c, 0x76, 0x01, 0x3f,
  0x56, 0xcd, 0x30, 0xbe, 0x79, 0x17, 0xf7, 0xbe, 0x91, 0xbe, 0x9c, 0x3d,
  0x91, 0x4e, 0xa2, 0xbf, 0xa8, 0x76, 0x36, 0x3d, 0x28, 0xf6, 0xcc, 0xbe,
  0xb0, 0xc0, 0x0c, 0xbe, 0xa8, 0xd3, 0xab, 0x3e, 0x70, 0x75, 0xf6, 0x3e,
  0xeb, 0x52, 0x00, 0x3e, 0xd8, 0x37, 0x21, 0x3e, 0xbe, 0x34, 0xfc, 0x3e,
  0xb6, 0x52, 0x5e, 0x3e, 0x7e, 0x76, 0x4d, 0xbe, 0xe6, 0x4b, 0xcd, 0x3e,
  0xf8, 0xb2, 0x54, 0xbe, 0x16, 0x31, 0xeb, 0x3d, 0x19, 0x92, 0xbe, 0x3e,
  0xec, 0x21, 0xa5, 0x3e, 0xb9, 0x50, 0xb5, 0x3e, 0xce, 0x38, 0x94, 0xbe,
  0x7e, 0x62, 0x0b, 0x3f, 0xd1, 0xe2, 0x99, 0x3e, 0x9a, 0x9c, 0x6c, 0x3e,
  0x42, 0xcb, 0x42, 0xbe, 0xef, 0x37, 0x9b, 0x3e, 0x64, 0x29, 0x49, 0x3e,
  0xd6, 0x5c, 0x8b, 0xbe, 0x3c, 0xf4, 0xb0, 0x3e, 0x9a, 0x20, 0xcb, 0x3d,
  0x18, 0x74, 0xae, 0x3e, 0xc5, 0x2e, 0xc2, 0xbe, 0x9c, 0xe3, 0xc6, 0xbe,
  0xb5, 0x76, 0x97, 0xbd, 0x32, 0xab, 0xf1, 0x3e, 0x05, 0x59, 0x92, 0xbe,
  0x30, 0x13, 0x38, 0x3e, 0xd6, 0x51, 0xf9, 0xbc, 0x10, 0xb6, 0x90, 0x3e,
  0x37, 0xd5, 0x97, 0xbe, 0xb8, 0x35, 0xb3, 0x3e, 0xe8, 0x9e, 0x65, 0xbe,
  0x7c, 0xed, 0x7b, 0x3e, 0x08, 0x69, 0x42, 0x3d, 0x41, 0x46, 0x93, 0xbe,
  0xfc, 0x46, 0x34, 0x3e, 0xa1, 0xbf, 0x61, 0xbe, 0xc1, 0xaf, 0x48, 0xbe,
  0xc9, 0x43, 0x8c, 0xbe, 0x12, 0xa0, 0x8e, 0x3e, 0xf6, 0xbf, 0xaf, 0xbe,
  0xb8, 0xfb, 0x16, 0xbd, 0xd6, 0xea, 0xa7, 0x3e, 0x10, 0x4d, 0xc1, 0x3d,
  0x20, 0xaa, 0xf1, 0xbc, 0x30, 0x14, 0x98, 0x3d, 0xe0, 0x95, 0xec, 0xbd,
  0x25, 0x54, 0x99, 0x3e, 0xf0, 0x9a, 0x8f, 0xbe, 0x04, 0xa2, 0xc7, 0xbb,
  0xe4, 0x92, 0x80, 0xbe, 0xe8, 0x1d, 0x83, 0xbc, 0x4c, 0xe1, 0x9d, 0xbe,
  0x43, 0x13, 0x18, 0x3e, 0xbf, 0x6a, 0x4b, 0x3e, 0x8f, 0xea, 0x8e, 0x3e,
  0xc9, 0xcd, 0x08, 0xbe, 0x74, 0x6e, 0x0d, 0x3f, 0x58, 0x9d, 0xf3, 0xbd,
  0x88, 0x2b, 0x4e, 0x3e, 0xda, 0xba, 0x6d, 0x3c, 0x66, 0x0b, 0x81, 0x3e,
  0xb1, 0x9f, 0x11, 0x3d, 0xf0, 0x8a, 0x4d, 0xbe, 0xb9, 0x57, 0xc4, 0xbe,
  0x54, 0xf1, 0x6d, 0xbe, 0x98, 0x2e, 0xcf, 0x3e, 0xc1, 0xea, 0x9a, 0xbe,
  0xe4, 0xd9, 0x8c, 0x3e, 0x52, 0x97, 0xa5, 0xbe, 0xcc, 0xd5, 0xb7, 0xbe,
  0x76, 0x4d, 0xa6, 0xbe, 0x7e, 0x83, 0x93, 0xbe, 0xff, 0xff, 0xd5, 0xbd,
  0x98, 0xa6, 0x3f, 0xbe, 0x20, 0xce, 0x87, 0x3e, 0x33, 0xd2, 0x56, 0xbd,
  0x76, 0x3e, 0x16, 0x3d, 0x0e, 0x89, 0x02, 0xbb, 0x1c, 0xbd, 0xfc, 0xbd,
  0x68, 0x9d, 0xad, 0x3e, 0x4e, 0xa9, 0x17, 0x3e, 0x09, 0xff, 0x2e, 0x3f,
  0xdb, 0x4c, 0x00, 0xbe, 0x58, 0xe7, 0xc9, 0xbd, 0x49, 0x00, 0x1d, 0x3e,
  0xe7, 0x22, 0x23, 0xbe, 0xa0, 0x2d, 0x8d, 0x3d, 0x1f, 0x46, 0xe0, 0xbe,
  0xcb, 0xec, 0x61, 0xbf, 0x83, 0x44, 0xa8, 0xbe, 0x70, 0x4d, 0x69, 0xbf,
  0x1d, 0xaf, 0x72, 0x3e, 0xbf, 0x62, 0x8c, 0xbd, 0x68, 0x77, 0x02, 0xbe,
  0xc0, 0xcd, 0xad, 0x3e, 0xac, 0xd5, 0xd0, 0x3e, 0xd9, 0xa2, 0x20, 0x3f,
  0xd3, 0xa4, 0x34, 0x3b, 0x3e, 0x47, 0xd9, 0xbe, 0x18, 0x18, 0x48, 0x3e,
  0x8c, 0x68, 0xa7, 0x3e, 0xb6, 0xae, 0x72, 0x3e, 0x64, 0x90, 0x20, 0x3f,
  0x1e, 0x73, 0x89, 0xba, 0x94, 0xfd, 0x1d, 0xbe, 0xe4, 0x1b, 0xb1, 0x3e,
  0x5f, 0x2e, 0x23, 0xba, 0x8e, 0x40, 0x68, 0x3e, 0x8d, 0x45, 0x0f, 0xbe,
  0xa0, 0x95, 0x95, 0x3d, 0xe8, 0xe3, 0x1a, 0x3e, 0x10, 0x7c, 0xbd, 0x3c,
  0x01, 0xe8, 0x40, 0xbe, 0x35, 0x50, 0x18, 0xbf, 0x17, 0x17, 0xfe, 0x3e,
  0x20, 0x3c, 0x74, 0x3e, 0x91, 0x2d, 0x02, 0x3e, 0x87, 0x2e, 0x28, 0x3e,
  0x7e, 0xe2, 0x25, 0xbf, 0xfc, 0x65, 0xab, 0xbd, 0xf8, 0x30, 0x94, 0xbf,
  0xa4, 0x18, 0x20, 0x3e, 0x73, 0x65, 0xea, 0x3b, 0x91, 0x5d, 0xa8, 0xbe,
  0x06, 0xb4, 0xb3, 0x3e, 0xf7, 0x81, 0x92, 0x3e, 0x8b, 0xc7, 0x10, 0xbe,
  0xa8, 0xbf, 0xac, 0x3d, 0xf0, 0x50, 0x1c, 0x3f, 0x50, 0xd6, 0x73, 0x3e,
  0x34, 0xba, 0xab, 0xbd, 0xac, 0x86, 0x13, 0x3e, 0xfa, 0x50, 0xf1, 0xbe,
  0xde, 0xd7, 0x22, 0xbe, 0x5a, 0x44, 0x86, 0xbe, 0x06, 0x6f, 0x88, 0xbe,
  0xbb, 0x0a, 0x03, 0xbf, 0x10, 0xe8, 0x9a, 0x3d, 0xd3, 0x2f, 0x81, 0x3e,
  0x81, 0x36, 0xc2, 0x3e, 0x85, 0x69, 0x62, 0x3e, 0x83, 0xeb, 0xd8, 0x3e,
  0x24, 0x74, 0xc2, 0x3e, 0x16, 0x0d, 0xa6, 0x3e, 0xf8, 0xf5, 0x08, 0x3f,
  0x93, 0x87, 0x8f, 0x3e, 0x52, 0xad, 0x4f, 0x3e, 0x16, 0x3d, 0xbe, 0x3e,
  0xbe, 0xbc, 0x15, 0x3e, 0x99, 0x20, 0x8e, 0xbe, 0xda, 0x7f, 0x40, 0xbf,
  0xee, 0xea, 0xa5, 0x3d, 0xaa, 0x51, 0x7e, 0x3e, 0xae, 0xc2, 0x6e, 0xbe,
  0x53, 0x91, 0x32, 0xbe, 0x52, 0x42, 0x3e, 0x3e, 0x24, 0x42, 0x19, 0x3d,
  0xf0, 0x1d, 0xc4, 0xb8, 0x0f, 0x94, 0xbf, 0x3e, 0x88, 0x4d, 0x27, 0x3d,
  0x02, 0x8b, 0x55, 0xbe, 0x15, 0x3f, 0xf7, 0x3d, 0xb9, 0x10, 0x18, 0xbe,
  0x10, 0x7f, 0xbf, 0xbd, 0x3b, 0xec, 0x17, 0xbe, 0xce, 0x00, 0xd4, 0xbd,
  0x58, 0xa3, 0x4b, 0x3e, 0xa6, 0x9a, 0x9c, 0xbd, 0x66, 0xe3, 0x06, 0xbd,
  0x0f, 0x6b, 0x94, 0xbe, 0x9a, 0x34, 0xbd, 0x3e, 0x7d, 0x18, 0x7f, 0xbe,
  0x3b, 0xdc, 0x3b, 0xbc, 0xe3, 0x61, 0xb2, 0x3e, 0x45, 0x57, 0x16, 0xbe,
  0x78, 0x3e, 0x2b, 0xbe, 0xff, 0x5d, 0xfc, 0x3d, 0xfa, 0x39, 0xcd, 0x3e,
  0x11, 0x47, 0x7c, 0xbe, 0x60, 0x34, 0xc7, 0x3d, 0xa1, 0x07, 0xbc, 0x3e,
  0xea, 0x68, 0x1c, 0xbe, 0x0f, 0xe1, 0x39, 0xbe, 0x21, 0xa6, 0xb7, 0x3e,
  0x4b, 0xa1, 0x11, 0x3f, 0xf8, 0x10, 0xd0, 0xbd, 0x75, 0xf8, 0xf1, 0x3e,
  0xc2, 0x97, 0x96, 0x3e, 0x6b, 0x4d, 0xf3, 0xbd, 0x0e, 0x1e, 0x29, 0x3d,
  0xb8, 0xbb, 0xef, 0xbc, 0x04, 0x90, 0xe3, 0xbd, 0xa2, 0x4a, 0xd8, 0xbe,
  0x82, 0xba, 0x8a, 0xbe, 0x1e, 0xd4, 0x7d, 0x3e, 0x60, 0x93, 0xc3, 0x3d,
  0xc3, 0x9d, 0x54, 0xbd, 0xf2, 0x9b, 0x05, 0x3f, 0x21, 0x34, 0xaf, 0xbe,
  0x94, 0xef, 0xda, 0xbe, 0x5c, 0xc8, 0x0d, 0xbf, 0xe0, 0x2d, 0x04, 0x3d,
  0x94, 0x25, 0xd0, 0xbe, 0xa7, 0x09, 0x93, 0x3e, 0xb4, 0x50, 0x4d, 0xbd,
  0xbb, 0x28, 0x69, 0xbe, 0x00, 0xf5, 0xff, 0xff, 0x04, 0xf5, 0xff, 0xff,
  0x0f, 0x00, 0x00, 0x00, 0x54, 0x4f, 0x43, 0x4f, 0x20, 0x43, 0x6f, 0x6e,
  0x76, 0x65, 0x72, 0x74, 0x65, 0x64, 0x2e, 0x00, 0x01, 0x00, 0x00, 0x00,
  0x10, 0x00, 0x00, 0x00, 0x0c, 0x00, 0x14, 0x00, 0x04, 0x00, 0x08, 0x00,
  0x0c, 0x00, 0x10, 0x00, 0x0c, 0x00, 0x00, 0x00, 0x40, 0x02, 0x00, 0x00,
  0x34, 0x02, 0x00, 0x00, 0x28, 0x02, 0x00, 0x00, 0x04, 0x00, 0x00, 0x00,
  0x09, 0x00, 0x00, 0x00, 0xe0, 0x01, 0x00, 0x00, 0x98, 0x01, 0x00, 0x00,
  0x50, 0x01, 0x00, 0x00, 0x18, 0x01, 0x00, 0x00, 0xe0, 0x00, 0x00, 0x00,
  0xa8, 0x00, 0x00, 0x00, 0x70, 0x00, 0x00, 0x00, 0x38, 0x00, 0x00, 0x00,
  0x04, 0x00, 0x00, 0x00, 0x96, 0xfe, 0xff, 0xff, 0x00, 0x00, 0x00, 0x08,
  0x18, 0x00, 0x00, 0x00, 0x0c, 0x00, 0x00, 0x00, 0x04, 0x00, 0x00, 0x00,
  0x80, 0xf5, 0xff, 0xff, 0x01, 0x00, 0x00, 0x00, 0x00, 0x00, 0x00, 0x00,
  0x03, 0x00, 0x00, 0x00, 0x19, 0x00, 0x00, 0x00, 0x1a, 0x00, 0x00, 0x00,
  0x1b, 0x00, 0x00, 0x00, 0xc6, 0xfe, 0xff, 0xff, 0x00, 0x00, 0x00, 0x08,
  0x1c, 0x00, 0x00, 0x00, 0x10, 0x00, 0x00, 0x00, 0x04, 0x00, 0x00, 0x00,
  0x72, 0xfe, 0xff, 0xff, 0x00, 0x00, 0x00, 0x01, 0x01, 0x00, 0x00, 0x00,
  0x19, 0x00, 0x00, 0x00, 0x03, 0x00, 0x00, 0x00, 0x16, 0x00, 0x00, 0x00,
  0x17, 0x00, 0x00, 0x00, 0x18, 0x00, 0x00, 0x00, 0xfa, 0xfe, 0xff, 0xff,
  0x00, 0x00, 0x00, 0x08, 0x1c, 0x00, 0x00, 0x00, 0x10, 0x00, 0x00, 0x00,
  0x04, 0x00, 0x00, 0x00, 0xa6, 0xfe, 0xff, 0xff, 0x00, 0x00, 0x00, 0x01,
  0x01, 0x00, 0x00, 0x00, 0x16, 0x00, 0x00, 0x00, 0x03, 0x00, 0x00, 0x00,
  0x13, 0x00, 0x00, 0x00, 0x14, 0x00, 0x00, 0x00, 0x15, 0x00, 0x00, 0x00,
  0x2e, 0xff, 0xff, 0xff, 0x00, 0x00, 0x00, 0x08, 0x1c, 0x00, 0x00, 0x00,
  0x10, 0x00, 0x00, 0x00, 0x04, 0x00, 0x00, 0x00, 0xda, 0xfe, 0xff, 0xff,
  0x00, 0x00, 0x00, 0x01, 0x01, 0x00, 0x00, 0x00, 0x13, 0x00, 0x00, 0x00,
  0x03, 0x00, 0x00, 0x00, 0x10, 0x00, 0x00, 0x00, 0x11, 0x00, 0x00, 0x00,
  0x12, 0x00, 0x00, 0x00, 0x62, 0xff, 0xff, 0xff, 0x00, 0x00, 0x00, 0x08,
  0x1c, 0x00, 0x00, 0x00, 0x10, 0x00, 0x00, 0x00, 0x04, 0x00, 0x00, 0x00,
  0x0e, 0xff, 0xff, 0xff, 0x00, 0x00, 0x00, 0x01, 0x01, 0x00, 0x00, 0x00,
  0x10, 0x00, 0x00, 0x00, 0x03, 0x00, 0x00, 0x00, 0x0d, 0x00, 0x00, 0x00,
  0x0e, 0x00, 0x00, 0x00, 0x0f, 0x00, 0x00, 0x00, 0x96, 0xff, 0xff, 0xff,
  0x00, 0x00, 0x00, 0x08, 0x1c, 0x00, 0x00, 0x00, 0x10, 0x00, 0x00, 0x00,
  0x04, 0x00, 0x00, 0x00, 0x42, 0xff, 0xff, 0xff, 0x00, 0x00, 0x00, 0x01,
  0x01, 0x00, 0x00, 0x00, 0x0d, 0x00, 0x00, 0x00, 0x03, 0x00, 0x00, 0x00,
  0x0a, 0x00, 0x00, 0x00, 0x0b, 0x00, 0x00, 0x00, 0x0c, 0x00, 0x00, 0x00,
  0xca, 0xff, 0xff, 0xff, 0x00, 0x00, 0x00, 0x08, 0x1c, 0x00, 0x00, 0x00,
  0x10, 0x00, 0x00, 0x00, 0x04, 0x00, 0x00, 0x00, 0x76, 0xff, 0xff, 0xff,
  0x00, 0x00, 0x00, 0x01, 0x01, 0x00, 0x00, 0x00, 0x0a, 0x00, 0x00, 0x00,
  0x03, 0x00, 0x00, 0x00, 0x07, 0x00, 0x00, 0x00, 0x08, 0x00, 0x00, 0x00,
  0x09, 0x00, 0x00, 0x00, 0x00, 0x00, 0x0e, 0x00, 0x14, 0x00, 0x00, 0x00,
  0x08, 0x00, 0x0c, 0x00, 0x07, 0x00, 0x10, 0x00, 0x0e, 0x00, 0x00, 0x00,
  0x00, 0x00, 0x00, 0x08, 0x1c, 0x00, 0x00, 0x00, 0x10, 0x00, 0x00, 0x00,
  0x04, 0x00, 0x00, 0x00, 0xba, 0xff, 0xff, 0xff, 0x00, 0x00, 0x00, 0x01,
  0x01, 0x00, 0x00, 0x00, 0x07, 0x00, 0x00, 0x00, 0x03, 0x00, 0x00, 0x00,
  0x04, 0x00, 0x00, 0x00, 0x05, 0x00, 0x00, 0x00, 0x06, 0x00, 0x00, 0x00,
  0x00, 0x00, 0x0e, 0x00, 0x16, 0x00, 0x00, 0x00, 0x08, 0x00, 0x0c, 0x00,
  0x07, 0x00, 0x10, 0x00, 0x0e, 0x00, 0x00, 0x00, 0x00, 0x00, 0x00, 0x08,
  0x24, 0x00, 0x00, 0x00, 0x18, 0x00, 0x00, 0x00, 0x0c, 0x00, 0x00, 0x00,
  0x00, 0x00, 0x06, 0x00, 0x08, 0x00, 0x07, 0x00, 0x06, 0x00, 0x00, 0x00,
  0x00, 0x00, 0x00, 0x01, 0x01, 0x00, 0x00, 0x00, 0x04, 0x00, 0x00, 0x00,
  0x03, 0x00, 0x00, 0x00, 0x01, 0x00, 0x00, 0x00, 0x02, 0x00, 0x00, 0x00,
  0x03, 0x00, 0x00, 0x00, 0x01, 0x00, 0x00, 0x00, 0x00, 0x00, 0x00, 0x00,
  0x01, 0x00, 0x00, 0x00, 0x01, 0x00, 0x00, 0x00, 0x1c, 0x00, 0x00, 0x00,
  0x74, 0x08, 0x00, 0x00, 0x0c, 0x08, 0x00, 0x00, 0xac, 0x07, 0x00, 0x00,
  0x64, 0x07, 0x00, 0x00, 0x20, 0x07, 0x00, 0x00, 0xc0, 0x06, 0x00, 0x00,
  0x78, 0x06, 0x00, 0x00, 0x34, 0x06, 0x00, 0x00, 0xd4, 0x05, 0x00, 0x00,
  0x8c, 0x05, 0x00, 0x00, 0x48, 0x05, 0x00, 0x00, 0xe8, 0x04, 0x00, 0x00,
  0xa0, 0x04, 0x00, 0x00, 0x5c, 0x04, 0x00, 0x00, 0xfc, 0x03, 0x00, 0x00,
  0xb4, 0x03, 0x00, 0x00, 0x70, 0x03, 0x00, 0x00, 0x10, 0x03, 0x00, 0x00,
  0xc8, 0x02, 0x00, 0x00, 0x84, 0x02, 0x00, 0x00, 0x24, 0x02, 0x00, 0x00,
  0xdc, 0x01, 0x00, 0x00, 0x98, 0x01, 0x00, 0x00, 0x38, 0x01, 0x00, 0x00,
  0xf0, 0x00, 0x00, 0x00, 0xac, 0x00, 0x00, 0x00, 0x4c, 0x00, 0x00, 0x00,
  0x04, 0x00, 0x00, 0x00, 0x0a, 0xf8, 0xff, 0xff, 0x38, 0x00, 0x00, 0x00,
  0x1c, 0x00, 0x00, 0x00, 0x0c, 0x00, 0x00, 0x00, 0x04, 0x00, 0x00, 0x00,
  0xfc, 0xf7, 0xff, 0xff, 0x1e, 0x00, 0x00, 0x00, 0x73, 0x65, 0x71, 0x75,
  0x65, 0x6e, 0x74, 0x69, 0x61, 0x6c, 0x2f, 0x64, 0x65, 0x6e, 0x73, 0x65,
  0x5f, 0x38, 0x2f, 0x4d, 0x61, 0x74, 0x4d, 0x75, 0x6c, 0x5f, 0x62, 0x69,
  0x61, 0x73, 0x00, 0x00, 0x01, 0x00, 0x00, 0x00, 0x05, 0x00, 0x00, 0x00,
  0x4e, 0xf8, 0xff, 0xff, 0x4c, 0x00, 0x00, 0x00, 0x1b, 0x00, 0x00, 0x00,
  0x0c, 0x00, 0x00, 0x00, 0x04, 0x00, 0x00, 0x00, 0x40, 0xf8, 0xff, 0xff,
  0x32, 0x00, 0x00, 0x00, 0x73, 0x65, 0x71, 0x75, 0x65, 0x6e, 0x74, 0x69,
  0x61, 0x6c, 0x2f, 0x64, 0x65, 0x6e, 0x73, 0x65, 0x5f, 0x38, 0x2f, 0x4d,
  0x61, 0x74, 0x4d, 0x75, 0x6c, 0x2f, 0x52, 0x65, 0x61, 0x64, 0x56, 0x61,
  0x72, 0x69, 0x61, 0x62, 0x6c, 0x65, 0x4f, 0x70, 0x2f, 0x74, 0x72, 0x61,
  0x6e, 0x73, 0x70, 0x6f, 0x73, 0x65, 0x00, 0x00, 0x02, 0x00, 0x00, 0x00,
  0x05, 0x00, 0x00, 0x00, 0x0a, 0x00, 0x00, 0x00, 0xaa, 0xf8, 0xff, 0xff,
  0x30, 0x00, 0x00, 0x00, 0x0e, 0x00, 0x00, 0x00, 0x0c, 0x00, 0x00, 0x00,
  0x04, 0x00, 0x00, 0x00, 0x9c, 0xf8, 0xff, 0xff, 0x17, 0x00, 0x00, 0x00,
  0x73, 0x65, 0x71, 0x75, 0x65, 0x6e, 0x74, 0x69, 0x61, 0x6c, 0x2f, 0x64,
  0x65, 0x6e, 0x73, 0x65, 0x5f, 0x37, 0x2f, 0x52, 0x65, 0x6c, 0x75, 0x00,
  0x02, 0x00, 0x00, 0x00, 0x01, 0x00, 0x00, 0x00, 0x0a, 0x00, 0x00, 0x00,
  0xea, 0xf8, 0xff, 0xff, 0x38, 0x00, 0x00, 0x00, 0x0f, 0x00, 0x00, 0x00,
  0x0c, 0x00, 0x00, 0x00, 0x04, 0x00, 0x00, 0x00, 0xdc, 0xf8, 0xff, 0xff,
  0x1e, 0x00, 0x00, 0x00, 0x73, 0x65, 0x71, 0x75, 0x65, 0x6e, 0x74, 0x69,
  0x61, 0x6c, 0x2f, 0x64, 0x65, 0x6e, 0x73, 0x65, 0x5f, 0x37, 0x2f, 0x4d,
  0x61, 0x74, 0x4d, 0x75, 0x6c, 0x5f, 0x62, 0x69, 0x61, 0x73, 0x00, 0x00,
  0x01, 0x00, 0x00, 0x00, 0x0a, 0x00, 0x00, 0x00, 0x2e, 0xf9, 0xff, 0xff,
  0x4c, 0x00, 0x00, 0x00, 0x1a, 0x00, 0x00, 0x00, 0x0c, 0x00, 0x00, 0x00,
  0x04, 0x00, 0x00, 0x00, 0x20, 0xf9, 0xff, 0xff, 0x32, 0x00, 0x00, 0x00,
  0x73, 0x65, 0x71, 0x75, 0x65, 0x6e, 0x74, 0x69, 0x61, 0x6c, 0x2f, 0x64,
  0x65, 0x6e, 0x73, 0x65, 0x5f, 0x37, 0x2f, 0x4d, 0x61, 0x74, 0x4d, 0x75,
  0x6c, 0x2f, 0x52, 0x65, 0x61, 0x64, 0x56, 0x61, 0x72, 0x69, 0x61, 0x62,
  0x6c, 0x65, 0x4f, 0x70, 0x2f, 0x74, 0x72, 0x61, 0x6e, 0x73, 0x70, 0x6f,
  0x73, 0x65, 0x00, 0x00, 0x02, 0x00, 0x00, 0x00, 0x0a, 0x00, 0x00, 0x00,
  0x14, 0x00, 0x00, 0x00, 0x8a, 0xf9, 0xff, 0xff, 0x30, 0x00, 0x00, 0x00,
  0x12, 0x00, 0x00, 0x00, 0x0c, 0x00, 0x00, 0x00, 0x04, 0x00, 0x00, 0x00,
  0x7c, 0xf9, 0xff, 0xff, 0x17, 0x00, 0x00, 0x00, 0x73, 0x65, 0x71, 0x75,
  0x65, 0x6e, 0x74, 0x69, 0x61, 0x6c, 0x2f, 0x64, 0x65, 0x6e, 0x73, 0x65,
  0x5f, 0x36, 0x2f, 0x52, 0x65, 0x6c, 0x75, 0x00, 0x02, 0x00, 0x00, 0x00,
  0x01, 0x00, 0x00, 0x00, 0x14, 0x00, 0x00, 0x00, 0xca, 0xf9, 0xff, 0xff,
  0x38, 0x00, 0x00, 0x00, 0x09, 0x00, 0x00, 0x00, 0x0c, 0x00, 0x00, 0x00,
  0x04, 0x00, 0x00, 0x00, 0xbc, 0xf9, 0xff, 0xff, 0x1e, 0x00, 0x00, 0x00,
  0x73, 0x65, 0x71, 0x75, 0x65, 0x6e, 0x74, 0x69, 0x61, 0x6c, 0x2f, 0x64,
  0x65, 0x6e, 0x73, 0x65, 0x5f, 0x36, 0x2f, 0x4d, 0x61, 0x74, 0x4d, 0x75,
  0x6c, 0x5f, 0x62, 0x69, 0x61, 0x73, 0x00, 0x00, 0x01, 0x00, 0x00, 0x00,
  0x14, 0x00, 0x00, 0x00, 0x0e, 0xfa, 0xff, 0xff, 0x4c, 0x00, 0x00, 0x00,
  0x19, 0x00, 0x00, 0x00, 0x0c, 0x00, 0x00, 0x00, 0x04, 0x00, 0x00, 0x00,
  0x00, 0xfa, 0xff, 0xff, 0x32, 0x00, 0x00, 0x00, 0x73, 0x65, 0x71, 0x75,
  0x65, 0x6e, 0x74, 0x69, 0x61, 0x6c, 0x2f, 0x64, 0x65, 0x6e, 0x73, 0x65,
  0x5f, 0x36, 0x2f, 0x4d, 0x61, 0x74, 0x4d, 0x75, 0x6c, 0x2f, 0x52, 0x65,
  0x61, 0x64, 0x56, 0x61, 0x72, 0x69, 0x61, 0x62, 0x6c, 0x65, 0x4f, 0x70,
  0x2f, 0x74, 0x72, 0x61, 0x6e, 0x73, 0x70, 0x6f, 0x73, 0x65, 0x00, 0x00,
  0x02, 0x00, 0x00, 0x00, 0x14, 0x00, 0x00, 0x00, 0x14, 0x00, 0x00, 0x00,
  0x6a, 0xfa, 0xff, 0xff, 0x30, 0x00, 0x00, 0x00, 0x0d, 0x00, 0x00, 0x00,
  0x0c, 0x00, 0x00, 0x00, 0x04, 0x00, 0x00, 0x00, 0x5c, 0xfa, 0xff, 0xff,
  0x17, 0x00, 0x00, 0x00, 0x73, 0x65, 0x71, 0x75, 0x65, 0x6e, 0x74, 0x69,
  0x61, 0x6c, 0x2f, 0x64, 0x65, 0x6e, 0x73, 0x65, 0x5f, 0x35, 0x2f, 0x52,
  0x65, 0x6c, 0x75, 0x00, 0x02, 0x00, 0x00, 0x00, 0x01, 0x00, 0x00, 0x00,
  0x14, 0x00, 0x00, 0x00, 0xaa, 0xfa, 0xff, 0xff, 0x38, 0x00, 0x00, 0x00,
  0x15, 0x00, 0x00, 0x00, 0x0c, 0x00, 0x00, 0x00, 0x04, 0x00, 0x00, 0x00,
  0x9c, 0xfa, 0xff, 0xff, 0x1e, 0x00, 0x00, 0x00, 0x73, 0x65, 0x71, 0x75,
  0x65, 0x6e, 0x74, 0x69, 0x61, 0x6c, 0x2f, 0x64, 0x65, 0x6e, 0x73, 0x65,
  0x5f, 0x35, 0x2f, 0x4d, 0x61, 0x74, 0x4d, 0x75, 0x6c, 0x5f, 0x62, 0x69,
  0x61, 0x73, 0x00, 0x00, 0x01, 0x00, 0x00, 0x00, 0x14, 0x00, 0x00, 0x00,
  0xee, 0xfa, 0xff, 0xff, 0x4c, 0x00, 0x00, 0x00, 0x18, 0x00, 0x00, 0x00,
  0x0c, 0x00, 0x00, 0x00, 0x04, 0x00, 0x00, 0x00, 0xe0, 0xfa, 0xff, 0xff,
  0x32, 0x00, 0x00, 0x00, 0x73, 0x65, 0x71, 0x75, 0x65, 0x6e, 0x74, 0x69,
  0x61, 0x6c, 0x2f, 0x64, 0x65, 0x6e, 0x73, 0x65, 0x5f, 0x35, 0x2f, 0x4d,
  0x61, 0x74, 0x4d, 0x75, 0x6c, 0x2f, 0x52, 0x65, 0x61, 0x64, 0x56, 0x61,
  0x72, 0x69, 0x61, 0x62, 0x6c, 0x65, 0x4f, 0x70, 0x2f, 0x74, 0x72, 0x61,
  0x6e, 0x73, 0x70, 0x6f, 0x73, 0x65, 0x00, 0x00, 0x02, 0x00, 0x00, 0x00,
  0x14, 0x00, 0x00, 0x00, 0x14, 0x00, 0x00, 0x00, 0x4a, 0xfb, 0xff, 0xff,
  0x30, 0x00, 0x00, 0x00, 0x04, 0x00, 0x00, 0x00, 0x0c, 0x00, 0x00, 0x00,
  0x04, 0x00, 0x00, 0x00, 0x3c, 0xfb, 0xff, 0xff, 0x17, 0x00, 0x00, 0x00,
  0x73, 0x65, 0x71, 0x75, 0x65, 0x6e, 0x74, 0x69, 0x61, 0x6c, 0x2f, 0x64,
  0x65, 0x6e, 0x73, 0x65, 0x5f, 0x34, 0x2f, 0x52, 0x65, 0x6c, 0x75, 0x00,
  0x02, 0x00, 0x00, 0x00, 0x01, 0x00, 0x00, 0x00, 0x14, 0x00, 0x00, 0x00,
  0x8a, 0xfb, 0xff, 0xff, 0x38, 0x00, 0x00, 0x00, 0x07, 0x00, 0x00, 0x00,
  0x0c, 0x00, 0x00, 0x00, 0x04, 0x00, 0x00, 0x00, 0x7c, 0xfb, 0xff, 0xff,
  0x1e, 0x00, 0x00, 0x00, 0x73, 0x65, 0x71, 0x75, 0x65, 0x6e, 0x74, 0x69,
  0x61, 0x6c, 0x2f, 0x64, 0x65, 0x6e, 0x73, 0x65, 0x5f, 0x34, 0x2f, 0x4d,
  0x61, 0x74, 0x4d, 0x75, 0x6c, 0x5f, 0x62, 0x69, 0x61, 0x73, 0x00, 0x00,
  0x01, 0x00, 0x00, 0x00, 0x14, 0x00, 0x00, 0x00, 0xce, 0xfb, 0xff, 0xff,
  0x4c, 0x00, 0x00, 0x00, 0x03, 0x00, 0x00, 0x00, 0x0c, 0x00, 0x00, 0x00,
  0x04, 0x00, 0x00, 0x00, 0xc0, 0xfb, 0xff, 0xff, 0x32, 0x00, 0x00, 0x00,
  0x73, 0x65, 0x71, 0x75, 0x65, 0x6e, 0x74, 0x69, 0x61, 0x6c, 0x2f, 0x64,
  0x65, 0x6e, 0x73, 0x65, 0x5f, 0x34, 0x2f, 0x4d, 0x61, 0x74, 0x4d, 0x75,
  0x6c, 0x2f, 0x52, 0x65, 0x61, 0x64, 0x56, 0x61, 0x72, 0x69, 0x61, 0x62,
  0x6c, 0x65, 0x4f, 0x70, 0x2f, 0x74, 0x72, 0x61, 0x6e, 0x73, 0x70, 0x6f,
  0x73, 0x65, 0x00, 0x00, 0x02, 0x00, 0x00, 0x00, 0x14, 0x00, 0x00, 0x00,
  0x14, 0x00, 0x00, 0x00, 0x2a, 0xfc, 0xff, 0xff, 0x30, 0x00, 0x00, 0x00,
  0x10, 0x00, 0x00, 0x00, 0x0c, 0x00, 0x00, 0x00, 0x04, 0x00, 0x00, 0x00,
  0x1c, 0xfc, 0xff, 0xff, 0x17, 0x00, 0x00, 0x00, 0x73, 0x65, 0x71, 0x75,
  0x65, 0x6e, 0x74, 0x69, 0x61, 0x6c, 0x2f, 0x64, 0x65, 0x6e, 0x73, 0x65,
  0x5f, 0x33, 0x2f, 0x52, 0x65, 0x6c, 0x75, 0x00, 0x02, 0x00, 0x00, 0x00,
  0x01, 0x00, 0x00, 0x00, 0x14, 0x00, 0x00, 0x00, 0x6a, 0xfc, 0xff, 0xff,
  0x38, 0x00, 0x00, 0x00, 0x17, 0x00, 0x00, 0x00, 0x0c, 0x00, 0x00, 0x00,
  0x04, 0x00, 0x00, 0x00, 0x5c, 0xfc, 0xff, 0xff, 0x1e, 0x00, 0x00, 0x00,
  0x73, 0x65, 0x71, 0x75, 0x65, 0x6e, 0x74, 0x69, 0x61, 0x6c, 0x2f, 0x64,
  0x65, 0x6e, 0x73, 0x65, 0x5f, 0x33, 0x2f, 0x4d, 0x61, 0x74, 0x4d, 0x75,
  0x6c, 0x5f, 0x62, 0x69, 0x61, 0x73, 0x00, 0x00, 0x01, 0x00, 0x00, 0x00,
  0x14, 0x00, 0x00, 0x00, 0xae, 0xfc, 0xff, 0xff, 0x4c, 0x00, 0x00, 0x00,
  0x16, 0x00, 0x00, 0x00, 0x0c, 0x00, 0x00, 0x00, 0x04, 0x00, 0x00, 0x00,
  0xa0, 0xfc, 0xff, 0xff, 0x32, 0x00, 0x00, 0x00, 0x73, 0x65, 0x71, 0x75,
  0x65, 0x6e, 0x74, 0x69, 0x61, 0x6c, 0x2f, 0x64, 0x65, 0x6e, 0x73, 0x65,
  0x5f, 0x33, 0x2f, 0x4d, 0x61, 0x74, 0x4d, 0x75, 0x6c, 0x2f, 0x52, 0x65,
  0x61, 0x64, 0x56, 0x61, 0x72, 0x69, 0x61, 0x62, 0x6c, 0x65, 0x4f, 0x70,
  0x2f, 0x74, 0x72, 0x61, 0x6e, 0x73, 0x70, 0x6f, 0x73, 0x65, 0x00, 0x00,
  0x02, 0x00, 0x00, 0x00, 0x14, 0x00, 0x00, 0x00, 0x14, 0x00, 0x00, 0x00,
  0x0a, 0xfd, 0xff, 0xff, 0x30, 0x00, 0x00, 0x00, 0x0c, 0x00, 0x00, 0x00,
  0x0c, 0x00, 0x00, 0x00, 0x04, 0x00, 0x00, 0x00, 0xfc, 0xfc, 0xff, 0xff,
  0x17, 0x00, 0x00, 0x00, 0x73, 0x65, 0x71, 0x75, 0x65, 0x6e, 0x74, 0x69,
  0x61, 0x6c, 0x2f, 0x64, 0x65, 0x6e, 0x73, 0x65, 0x5f, 0x32, 0x2f, 0x52,
  0x65, 0x6c, 0x75, 0x00, 0x02, 0x00, 0x00, 0x00, 0x01, 0x00, 0x00, 0x00,
  0x14, 0x00, 0x00, 0x00, 0x4a, 0xfd, 0xff, 0xff, 0x38, 0x00, 0x00, 0x00,
  0x05, 0x00, 0x00, 0x00, 0x0c, 0x00, 0x00, 0x00, 0x04, 0x00, 0x00, 0x00,
  0x3c, 0xfd, 0xff, 0xff, 0x1e, 0x00, 0x00, 0x00, 0x73, 0x65, 0x71, 0x75,
  0x65, 0x6e, 0x74, 0x69, 0x61, 0x6c, 0x2f, 0x64, 0x65, 0x6e, 0x73, 0x65,
  0x5f, 0x32, 0x2f, 0x4d, 0x61, 0x74, 0x4d, 0x75, 0x6c, 0x5f, 0x62, 0x69,
  0x61, 0x73, 0x00, 0x00, 0x01, 0x00, 0x00, 0x00, 0x14, 0x00, 0x00, 0x00,
  0x8e, 0xfd, 0xff, 0xff, 0x4c, 0x00, 0x00, 0x00, 0x14, 0x00, 0x00, 0x00,
  0x0c, 0x00, 0x00, 0x00, 0x04, 0x00, 0x00, 0x00, 0x80, 0xfd, 0xff, 0xff,
  0x32, 0x00, 0x00, 0x00, 0x73, 0x65, 0x71, 0x75, 0x65, 0x6e, 0x74, 0x69,
  0x61, 0x6c, 0x2f, 0x64, 0x65, 0x6e, 0x73, 0x65, 0x5f, 0x32, 0x2f, 0x4d,
  0x61, 0x74, 0x4d, 0x75, 0x6c, 0x2f, 0x52, 0x65, 0x61, 0x64, 0x56, 0x61,
  0x72, 0x69, 0x61, 0x62, 0x6c, 0x65, 0x4f, 0x70, 0x2f, 0x74, 0x72, 0x61,
  0x6e, 0x73, 0x70, 0x6f, 0x73, 0x65, 0x00, 0x00, 0x02, 0x00, 0x00, 0x00,
  0x14, 0x00, 0x00, 0x00, 0x14, 0x00, 0x00, 0x00, 0xea, 0xfd, 0xff, 0xff,
  0x30, 0x00, 0x00, 0x00, 0x0b, 0x00, 0x00, 0x00, 0x0c, 0x00, 0x00, 0x00,
  0x04, 0x00, 0x00, 0x00, 0xdc, 0xfd, 0xff, 0xff, 0x17, 0x00, 0x00, 0x00,
  0x73, 0x65, 0x71, 0x75, 0x65, 0x6e, 0x74, 0x69, 0x61, 0x6c, 0x2f, 0x64,
  0x65, 0x6e, 0x73, 0x65, 0x5f, 0x31, 0x2f, 0x52, 0x65, 0x6c, 0x75, 0x00,
  0x02, 0x00, 0x00, 0x00, 0x01, 0x00, 0x00, 0x00, 0x14, 0x00, 0x00, 0x00,
  0x2a, 0xfe, 0xff, 0xff, 0x38, 0x00, 0x00, 0x00, 0x08, 0x00, 0x00, 0x00,
  0x0c, 0x00, 0x00, 0x00, 0x04, 0x00, 0x00, 0x00, 0x1c, 0xfe, 0xff, 0xff,
  0x1e, 0x00, 0x00, 0x00, 0x73, 0x65, 0x71, 0x75, 0x65, 0x6e, 0x74, 0x69,
  0x61, 0x6c, 0x2f, 0x64, 0x65, 0x6e, 0x73, 0x65, 0x5f, 0x31, 0x2f, 0x4d,
  0x61, 0x74, 0x4d, 0x75, 0x6c, 0x5f, 0x62, 0x69, 0x61, 0x73, 0x00, 0x00,
  0x01, 0x00, 0x00, 0x00, 0x14, 0x00, 0x00, 0x00, 0x6e, 0xfe, 0xff, 0xff,
  0x4c, 0x00, 0x00, 0x00, 0x02, 0x00, 0x00, 0x00, 0x0c, 0x00, 0x00, 0x00,
  0x04, 0x00, 0x00, 0x00, 0x60, 0xfe, 0xff, 0xff, 0x32, 0x00, 0x00, 0x00,
  0x73, 0x65, 0x71, 0x75, 0x65, 0x6e, 0x74, 0x69, 0x61, 0x6c, 0x2f, 0x64,
  0x65, 0x6e, 0x73, 0x65, 0x5f, 0x31, 0x2f, 0x4d, 0x61, 0x74, 0x4d, 0x75,
  0x6c, 0x2f, 0x52, 0x65, 0x61, 0x64, 0x56, 0x61, 0x72, 0x69, 0x61, 0x62,
  0x6c, 0x65, 0x4f, 0x70, 0x2f, 0x74, 0x72, 0x61, 0x6e, 0x73, 0x70, 0x6f,
  0x73, 0x65, 0x00, 0x00, 0x02, 0x00, 0x00, 0x00, 0x14, 0x00, 0x00, 0x00,
  0x10, 0x00, 0x00, 0x00, 0xca, 0xfe, 0xff, 0xff, 0x30, 0x00, 0x00, 0x00,
  0x0a, 0x00, 0x00, 0x00, 0x0c, 0x00, 0x00, 0x00, 0x04, 0x00, 0x00, 0x00,
  0xbc, 0xfe, 0xff, 0xff, 0x15, 0x00, 0x00, 0x00, 0x73, 0x65, 0x71, 0x75,
  0x65, 0x6e, 0x74, 0x69, 0x61, 0x6c, 0x2f, 0x64, 0x65, 0x6e, 0x73, 0x65,
  0x2f, 0x52, 0x65, 0x6c, 0x75, 0x00, 0x00, 0x00, 0x02, 0x00, 0x00, 0x00,
  0x01, 0x00, 0x00, 0x00, 0x10, 0x00, 0x00, 0x00, 0x0a, 0xff, 0xff, 0xff,
  0x38, 0x00, 0x00, 0x00, 0x13, 0x00, 0x00, 0x00, 0x0c, 0x00, 0x00, 0x00,
  0x04, 0x00, 0x00, 0x00, 0xfc, 0xfe, 0xff, 0xff, 0x1c, 0x00, 0x00, 0x00,
  0x73, 0x65, 0x71, 0x75, 0x65, 0x6e, 0x74, 0x69, 0x61, 0x6c, 0x2f, 0x64,
  0x65, 0x6e, 0x73, 0x65, 0x2f, 0x4d, 0x61, 0x74, 0x4d, 0x75, 0x6c, 0x5f,
  0x62, 0x69, 0x61, 0x73, 0x00, 0x00, 0x00, 0x00, 0x01, 0x00, 0x00, 0x00,
  0x10, 0x00, 0x00, 0x00, 0x4e, 0xff, 0xff, 0xff, 0x4c, 0x00, 0x00, 0x00,
  0x11, 0x00, 0x00, 0x00, 0x0c, 0x00, 0x00, 0x00, 0x04, 0x00, 0x00, 0x00,
  0x40, 0xff, 0xff, 0xff, 0x30, 0x00, 0x00, 0x00, 0x73, 0x65, 0x71, 0x75,
  0x65, 0x6e, 0x74, 0x69, 0x61, 0x6c, 0x2f, 0x64, 0x65, 0x6e, 0x73, 0x65,
  0x2f, 0x4d, 0x61, 0x74, 0x4d, 0x75, 0x6c, 0x2f, 0x52, 0x65, 0x61, 0x64,
  0x56, 0x61, 0x72, 0x69, 0x61, 0x62, 0x6c, 0x65, 0x4f, 0x70, 0x2f, 0x74,
  0x72, 0x61, 0x6e, 0x73, 0x70, 0x6f, 0x73, 0x65, 0x00, 0x00, 0x00, 0x00,
  0x02, 0x00, 0x00, 0x00, 0x10, 0x00, 0x00, 0x00, 0x10, 0x00, 0x00, 0x00,
  0xaa, 0xff, 0xff, 0xff, 0x44, 0x00, 0x00, 0x00, 0x01, 0x00, 0x00, 0x00,
  0x2c, 0x00, 0x00, 0x00, 0x0c, 0x00, 0x00, 0x00, 0x08, 0x00, 0x0c, 0x00,
  0x04, 0x00, 0x08, 0x00, 0x08, 0x00, 0x00, 0x00, 0x10, 0x00, 0x00, 0x00,
  0x04, 0x00, 0x00, 0x00, 0x01, 0x00, 0x00, 0x00, 0x00, 0x00, 0x7f, 0x43,
  0x01, 0x00, 0x00, 0x00, 0x00, 0x00, 0x00, 0x00, 0x0b, 0x00, 0x00, 0x00,
  0x64, 0x65, 0x6e, 0x73, 0x65, 0x5f, 0x69, 0x6e, 0x70, 0x75, 0x74, 0x00,
  0x02, 0x00, 0x00, 0x00, 0x01, 0x00, 0x00, 0x00, 0x10, 0x00, 0x00, 0x00,
  0x00, 0x00, 0x0e, 0x00, 0x14, 0x00, 0x04, 0x00, 0x00, 0x00, 0x08, 0x00,
  0x0c, 0x00, 0x10, 0x00, 0x0e, 0x00, 0x00, 0x00, 0x28, 0x00, 0x00, 0x00,
  0x06, 0x00, 0x00, 0x00, 0x10, 0x00, 0x00, 0x00, 0x08, 0x00, 0x00, 0x00,
  0x04, 0x00, 0x04, 0x00, 0x04, 0x00, 0x00, 0x00, 0x08, 0x00, 0x00, 0x00,
  0x49, 0x64, 0x65, 0x6e, 0x74, 0x69, 0x74, 0x79, 0x00, 0x00, 0x00, 0x00,
  0x02, 0x00, 0x00, 0x00, 0x01, 0x00, 0x00, 0x00, 0x05, 0x00, 0x00, 0x00,
  0x01, 0x00, 0x00, 0x00, 0x10, 0x00, 0x00, 0x00, 0x00, 0x00, 0x0a, 0x00,
  0x0c, 0x00, 0x07, 0x00, 0x00, 0x00, 0x08, 0x00, 0x0a, 0x00, 0x00, 0x00,
  0x00, 0x00, 0x00, 0x09, 0x03, 0x00, 0x00, 0x00
};

