
#define TENSORFLOW_LITE_EXPERIMENTAL_MICRO_EXAMPLES_HELLO_WORLD_SINE_MODEL_DATA_H_
#ifdef __has_attribute
#define HAVE_ATTRIBUTE(x) __has_attribute(x)
#else
#define HAVE_ATTRIBUTE(x) 0
#endif
#if HAVE_ATTRIBUTE(aligned) || (defined(__GNUC__) && !defined(__clang__))
#define DATA_ALIGN_ATTRIBUTE __attribute__((aligned(4)))
#else
#define DATA_ALIGN_ATTRIBUTE
#endif

const int flight_model_len = 5152;
const unsigned char flight_model[] DATA_ALIGN_ATTRIBUTE = {
 0x20, 0x00, 0x00, 0x00, 0x54, 0x46, 0x4c, 0x33, 0x00, 0x00, 0x00, 0x00,
  0x00, 0x00, 0x12, 0x00, 0x1c, 0x00, 0x04, 0x00, 0x08, 0x00, 0x0c, 0x00,
  0x10, 0x00, 0x14, 0x00, 0x00, 0x00, 0x18, 0x00, 0x12, 0x00, 0x00, 0x00,
  0x03, 0x00, 0x00, 0x00, 0xd8, 0x13, 0x00, 0x00, 0x8c, 0x10, 0x00, 0x00,
  0x74, 0x10, 0x00, 0x00, 0x34, 0x00, 0x00, 0x00, 0x04, 0x00, 0x00, 0x00,
  0x01, 0x00, 0x00, 0x00, 0x04, 0x00, 0x00, 0x00, 0xcc, 0xec, 0xff, 0xff,
  0x08, 0x00, 0x00, 0x00, 0x08, 0x00, 0x00, 0x00, 0x13, 0x00, 0x00, 0x00,
  0x6d, 0x69, 0x6e, 0x5f, 0x72, 0x75, 0x6e, 0x74, 0x69, 0x6d, 0x65, 0x5f,
  0x76, 0x65, 0x72, 0x73, 0x69, 0x6f, 0x6e, 0x00, 0x09, 0x00, 0x00, 0x00,
  0x34, 0x10, 0x00, 0x00, 0x2c, 0x10, 0x00, 0x00, 0x4c, 0x08, 0x00, 0x00,
  0x3c, 0x08, 0x00, 0x00, 0x30, 0x08, 0x00, 0x00, 0xe0, 0x01, 0x00, 0x00,
  0x40, 0x00, 0x00, 0x00, 0x1c, 0x00, 0x00, 0x00, 0x04, 0x00, 0x00, 0x00,
  0xd6, 0xf7, 0xff, 0xff, 0x04, 0x00, 0x00, 0x00, 0x05, 0x00, 0x00, 0x00,
  0x31, 0x2e, 0x35, 0x2e, 0x30, 0x00, 0x00, 0x00, 0xea, 0xf7, 0xff, 0xff,
  0x04, 0x00, 0x00, 0x00, 0x14, 0x00, 0x00, 0x00, 0xa5, 0xc5, 0xfb, 0x3d,
  0x6a, 0x1a, 0xe4, 0x3d, 0x86, 0x26, 0xe9, 0x3d, 0xfe, 0x00, 0xa0, 0x3d,
  0xd4, 0x4f, 0xd1, 0x3d, 0x0a, 0xf8, 0xff, 0xff, 0x04, 0x00, 0x00, 0x00,
  0x90, 0x01, 0x00, 0x00, 0x89, 0xa8, 0xc7, 0xbd, 0x00, 0x00, 0x00, 0x00,
  0x90, 0x9d, 0x93, 0xbc, 0x73, 0x8f, 0x86, 0xbc, 0x04, 0x57, 0xf7, 0x3d,
  0x00, 0x00, 0x00, 0x00, 0x6f, 0xe3, 0x4a, 0x3e, 0xb7, 0x90, 0xc3, 0x3d,
  0x65, 0xe6, 0xff, 0xbb, 0x28, 0x92, 0xc0, 0xbd, 0x00, 0x00, 0x00, 0x00,
  0x00, 0x00, 0x00, 0x00, 0x00, 0x00, 0x00, 0x00, 0x00, 0x00, 0x00, 0x00,
  0x00, 0x00, 0x00, 0x00, 0x00, 0x00, 0x00, 0x00, 0x12, 0x06, 0xf8, 0xbc,
  0xf4, 0x88, 0xcb, 0x3b, 0xbb, 0xc9, 0xc9, 0x3d, 0xd6, 0x8f, 0x12, 0x3e,
  0x06, 0x01, 0xc7, 0xbd, 0x00, 0x00, 0x00, 0x00, 0x27, 0x5b, 0x24, 0xbc,
  0x4b, 0xbb, 0x0a, 0xbe, 0x00, 0x00, 0x00, 0x00, 0xa5, 0xc5, 0x02, 0x3e,
  0xf0, 0x22, 0x2d, 0x3e, 0x00, 0x00, 0x00, 0x00, 0x00, 0x00, 0x00, 0x00,
  0xc1, 0xaf, 0x80, 0xbc, 0x00, 0x00, 0x00, 0x00, 0x92, 0x9a, 0x16, 0xbd,
  0x8c, 0xa7, 0x92, 0x3d, 0x4c, 0x58, 0x17, 0xbd, 0x0b, 0x1f, 0xab, 0xbc,
  0x00, 0x00, 0x00, 0x00, 0x61, 0x5c, 0xf7, 0xbb, 0x15, 0x29, 0x2b, 0x3e,
  0x3e, 0x29, 0x52, 0x3d, 0x1b, 0xb0, 0xe0, 0x3d, 0xf1, 0xfb, 0x7d, 0xbd,
  0x5b, 0xe1, 0x06, 0xbd, 0xcd, 0x1a, 0x37, 0xbc, 0xeb, 0x9f, 0x54, 0x3d,
  0x00, 0x00, 0x00, 0x00, 0x00, 0x00, 0x00, 0x00, 0x35, 0x82, 0xce, 0xbd,
  0x00, 0x00, 0x00, 0x00, 0x04, 0x9a, 0xab, 0xbc, 0x00, 0x00, 0x00, 0x00,
  0x00, 0x00, 0x00, 0x00, 0x00, 0x00, 0x00, 0x00, 0x00, 0x00, 0x00, 0x00,
  0x00, 0x00, 0x00, 0x00, 0x00, 0x00, 0x00, 0x00, 0x60, 0x36, 0xc0, 0x3c,
  0x00, 0x00, 0x00, 0x00, 0xd1, 0xdc, 0xac, 0xbc, 0x67, 0x45, 0x10, 0xbd,
  0xee, 0x09, 0xc0, 0xbd, 0xaa, 0xbb, 0xc7, 0x3d, 0x00, 0x00, 0x00, 0x00,
  0x68, 0x18, 0xd2, 0xbd, 0xea, 0xbe, 0xcb, 0x3e, 0x38, 0x82, 0x93, 0x3d,
  0x0b, 0xc6, 0xb9, 0x3d, 0x00, 0x00, 0x00, 0x00, 0xe9, 0x80, 0x81, 0x3d,
  0x92, 0x34, 0x6f, 0x3d, 0x0a, 0x36, 0x10, 0x3e, 0x12, 0xf3, 0x02, 0x3e,
  0xf5, 0x1a, 0x07, 0x3e, 0xf4, 0xf1, 0x37, 0x3e, 0x20, 0x9b, 0xf2, 0xbb,
  0x0a, 0xcf, 0x2d, 0xbd, 0x00, 0x00, 0x00, 0x00, 0xe3, 0x96, 0xbd, 0x3d,
  0x00, 0x00, 0x00, 0x00, 0xb7, 0xd5, 0x1c, 0xbc, 0x2d, 0xe8, 0x8e, 0x3d,
  0x00, 0x00, 0x00, 0x00, 0x9a, 0x18, 0x35, 0xbd, 0x0d, 0x74, 0x9d, 0x3d,
  0x02, 0x8e, 0xc7, 0x3d, 0x00, 0x00, 0x00, 0x00, 0x00, 0x00, 0x00, 0x00,
  0x00, 0x00, 0x00, 0x00, 0x00, 0x00, 0x00, 0x00, 0x00, 0x00, 0x00, 0x00,
  0x00, 0x00, 0x00, 0x00, 0xe0, 0x93, 0x0c, 0x3e, 0x11, 0xc0, 0xb1, 0x3d,
  0x1f, 0x8d, 0x09, 0x3e, 0xb1, 0x7e, 0x0a, 0x3e, 0x63, 0x80, 0xe4, 0x3d,
  0x00, 0x00, 0x00, 0x00, 0xac, 0x78, 0x9d, 0x3c, 0x3d, 0x56, 0x09, 0xbd,
  0x00, 0x00, 0x00, 0x00, 0x67, 0xe9, 0x6c, 0xbc, 0xa6, 0xf9, 0xff, 0xff,
  0x04, 0x00, 0x00, 0x00, 0x40, 0x06, 0x00, 0x00, 0x1f, 0x22, 0xb8, 0x16,
  0x22, 0xee, 0x15, 0xef, 0x38, 0x0f, 0x35, 0xed, 0xe9, 0xfd, 0x0e, 0xda,
  0xef, 0xed, 0x0a, 0x02, 0xe5, 0x0a, 0x10, 0x24, 0x1d, 0x28, 0xd5, 0xdc,
  0xd7, 0xce, 0xea, 0x2f, 0xdc, 0x11, 0xfd, 0x0a, 0x0a, 0xe0, 0x1d, 0xd5,
  0xeb, 0xe3, 0x14, 0xcb, 0x2a, 0x1a, 0x2b, 0xdc, 0xe0, 0x02, 0xf2, 0xce,
  0xe7, 0x2e, 0x17, 0x1e, 0xde, 0xf7, 0xe6, 0x17, 0xf6, 0x1a, 0xce, 0x2d,
  0x09, 0xf8, 0x3d, 0x1b, 0x21, 0xfb, 0x0f, 0xde, 0xd5, 0x02, 0x2b, 0x17,
  0xd2, 0x05, 0xe5, 0xd2, 0xd7, 0xdc, 0xea, 0x17, 0x04, 0xed, 0xeb, 0xd6,
  0xfc, 0xfb, 0xe5, 0x0d, 0xce, 0x1e, 0x15, 0xda, 0x1c, 0x12, 0x1d, 0xe5,
  0xd2, 0xec, 0x37, 0xf7, 0x28, 0xe1, 0x2e, 0x00, 0xe9, 0xff, 0xec, 0xd6,
  0x0a, 0x20, 0x17, 0x1a, 0x37, 0xea, 0xdb, 0x03, 0xea, 0xe5, 0xcd, 0xd1,
  0x1f, 0xf4, 0x0a, 0x0d, 0x2d, 0xd4, 0x10, 0x28, 0xf8, 0x28, 0xf9, 0x19,
  0xd0, 0xd8, 0xd0, 0xeb, 0xda, 0x19, 0x07, 0xdc, 0x30, 0x0f, 0xde, 0x01,
  0x1e, 0x11, 0x25, 0xdf, 0x14, 0xf6, 0xe3, 0xf6, 0x1a, 0x11, 0x03, 0xfc,
  0xd7, 0xd0, 0x2f, 0x2a, 0xd1, 0xf9, 0xce, 0xf6, 0xdb, 0x20, 0xd7, 0x0e,
  0xdc, 0x00, 0xde, 0x1b, 0x04, 0xff, 0xdd, 0x28, 0x25, 0xd7, 0xee, 0xdb,
  0xfa, 0xf3, 0xf0, 0x2b, 0xdc, 0x22, 0xd1, 0xe8, 0xf9, 0xff, 0xd7, 0x20,
  0xdb, 0xde, 0x0e, 0xe3, 0x30, 0xe0, 0xe6, 0x2a, 0xe1, 0xf9, 0xd8, 0x08,
  0xd9, 0x16, 0xea, 0xea, 0xd5, 0x11, 0xd5, 0xe8, 0x24, 0xe8, 0xfb, 0xd0,
  0xd1, 0xda, 0x24, 0x28, 0xee, 0x10, 0x14, 0x02, 0xd0, 0xe6, 0xcf, 0x07,
  0xe0, 0x11, 0xf0, 0xfb, 0xea, 0xf1, 0x20, 0x1a, 0x2a, 0xf2, 0x0c, 0xd3,
  0xe9, 0xf3, 0xf8, 0x0c, 0xd4, 0xcf, 0xf0, 0xde, 0xe1, 0x08, 0x18, 0x13,
  0x0c, 0x21, 0xe6, 0x2a, 0x13, 0xd9, 0xcd, 0x07, 0xe8, 0x0f, 0xf6, 0xd7,
  0x12, 0xe7, 0x22, 0xe8, 0x37, 0x07, 0x03, 0x22, 0xd1, 0x2d, 0x1b, 0x2e,
  0x12, 0x2f, 0x43, 0xe2, 0x24, 0xef, 0xe7, 0xf7, 0xdf, 0x16, 0x4b, 0x00,
  0xeb, 0x07, 0xc3, 0xfd, 0xda, 0x28, 0xe8, 0xf1, 0x2e, 0x39, 0x14, 0xed,
  0xf9, 0xf2, 0xfa, 0xe4, 0xec, 0x1f, 0x46, 0x37, 0x08, 0x28, 0xf3, 0xe4,
  0xf8, 0xff, 0x03, 0x2b, 0x34, 0x26, 0xbd, 0xef, 0x06, 0xf6, 0x0f, 0x14,
  0xe2, 0x20, 0x34, 0xd4, 0x18, 0x06, 0x08, 0x1a, 0xe5, 0xf1, 0xe7, 0xf2,
  0x30, 0xe4, 0x02, 0xf6, 0x15, 0x19, 0x1c, 0x02, 0xd1, 0xf0, 0xdd, 0x0a,
  0x18, 0xf1, 0x02, 0x09, 0x1c, 0xd2, 0x21, 0xf9, 0xd3, 0x2f, 0xe5, 0xe9,
  0xde, 0xd9, 0x15, 0x03, 0xf7, 0x2a, 0x0a, 0x23, 0x17, 0x13, 0x01, 0x1f,
  0xf1, 0xe1, 0x14, 0x2f, 0xce, 0x13, 0x1f, 0x00, 0xed, 0xfb, 0xdd, 0x09,
  0x22, 0xee, 0xec, 0xe6, 0xf8, 0x2e, 0x02, 0x07, 0xe6, 0xe2, 0xe5, 0xe9,
  0xf9, 0xd3, 0x06, 0x05, 0x20, 0x17, 0x20, 0x0d, 0x08, 0x2f, 0xf2, 0xdc,
  0x0b, 0xdb, 0xed, 0x04, 0xeb, 0x07, 0xe0, 0xfc, 0xcd, 0xee, 0x40, 0x0e,
  0x25, 0x02, 0xd6, 0x31, 0xe7, 0x25, 0xf6, 0x06, 0xd4, 0xf5, 0x30, 0xe5,
  0xdf, 0x18, 0x0f, 0xd0, 0xf7, 0xd9, 0x02, 0xf5, 0x1e, 0x10, 0xf1, 0xde,
  0x06, 0x2b, 0xe1, 0x24, 0xf3, 0xd9, 0xd1, 0x2c, 0xd7, 0x03, 0xe1, 0x24,
  0xfd, 0xd4, 0xdc, 0x0e, 0x2e, 0x16, 0xfb, 0xd1, 0xf7, 0x12, 0xea, 0x1b,
  0xd2, 0xee, 0xdd, 0xf8, 0x1b, 0x13, 0xf2, 0xdc, 0x02, 0xdb, 0xf3, 0xce,
  0x04, 0xe0, 0x31, 0xdc, 0x31, 0xd5, 0xd4, 0xd0, 0xeb, 0x07, 0x10, 0xf7,
  0x1f, 0xcb, 0x27, 0xcb, 0xe0, 0x23, 0xf9, 0xd8, 0x14, 0xff, 0xc9, 0x14,
  0xeb, 0x09, 0x01, 0x26, 0x14, 0xeb, 0x7f, 0xd0, 0xb2, 0xe5, 0xb5, 0xf4,
  0x19, 0x16, 0xf9, 0xfd, 0x14, 0x10, 0xff, 0x40, 0x27, 0xea, 0xfc, 0xd9,
  0xe6, 0xb2, 0xc2, 0x29, 0x02, 0xe2, 0x1a, 0x12, 0x15, 0x4f, 0x0e, 0xe7,
  0xff, 0x1d, 0x07, 0xf0, 0xd8, 0x2b, 0x1d, 0xe2, 0xff, 0xfb, 0xf9, 0xd9,
  0xe1, 0x19, 0xde, 0x0e, 0x1e, 0xec, 0x22, 0x29, 0x28, 0xec, 0xe1, 0xdf,
  0xfa, 0x12, 0xd3, 0xe6, 0xf8, 0xd2, 0xff, 0x03, 0xea, 0xdc, 0x2f, 0xe8,
  0xe6, 0x06, 0xd8, 0x0f, 0x27, 0x18, 0xe0, 0xf2, 0x04, 0x13, 0xde, 0x10,
  0xe9, 0xe1, 0x49, 0xf1, 0xf4, 0x14, 0xee, 0xd5, 0xd9, 0x3a, 0xef, 0xf1,
  0x11, 0x15, 0x2c, 0xe0, 0x30, 0x04, 0xd0, 0xfa, 0x05, 0x14, 0x08, 0xe9,
  0xf3, 0x05, 0x1e, 0x09, 0xf1, 0xf8, 0x1d, 0x47, 0xfc, 0x1b, 0x0f, 0x1f,
  0x32, 0xf9, 0x04, 0x15, 0xeb, 0x38, 0xac, 0x07, 0xe1, 0xfb, 0xef, 0xdb,
  0x0b, 0x25, 0x41, 0xe2, 0x2c, 0xf8, 0xe0, 0xb6, 0xd8, 0x20, 0xf7, 0x10,
  0x09, 0x1c, 0x21, 0x1e, 0x2b, 0xf5, 0xcb, 0xe6, 0xfd, 0xea, 0x1b, 0xfb,
  0x24, 0x04, 0x28, 0x03, 0xfd, 0xe4, 0xea, 0x12, 0xd1, 0x24, 0x04, 0x03,
  0x02, 0xed, 0xdd, 0xce, 0x29, 0x2e, 0x01, 0xed, 0x00, 0xf7, 0xde, 0xde,
  0xec, 0x23, 0xdc, 0xe1, 0x29, 0x24, 0x2d, 0xf8, 0xde, 0xcf, 0x02, 0x16,
  0x0d, 0xf4, 0x0c, 0x2e, 0xec, 0xd3, 0xe7, 0x03, 0x2c, 0x03, 0x05, 0xe8,
  0x1e, 0xcf, 0xe3, 0xdc, 0x20, 0x1c, 0xe8, 0x22, 0x18, 0x2e, 0xfd, 0x18,
  0xf9, 0x12, 0xfc, 0x03, 0xf0, 0xf6, 0xe2, 0xd8, 0xde, 0xce, 0xeb, 0x1c,
  0x1d, 0xec, 0xd5, 0x12, 0x08, 0xe7, 0xe6, 0x23, 0x2d, 0x11, 0x2d, 0x0b,
  0x21, 0xe7, 0xd1, 0x2b, 0xe4, 0x10, 0x1c, 0xed, 0xe6, 0xeb, 0x0e, 0x0b,
  0xdd, 0xe1, 0xeb, 0xd3, 0xfc, 0x1f, 0xef, 0x33, 0xfc, 0x25, 0xd0, 0xfb,
  0xdd, 0x27, 0xec, 0xd4, 0xe4, 0x27, 0xf6, 0xf4, 0x23, 0x22, 0xf2, 0xce,
  0x20, 0x08, 0x24, 0x27, 0x07, 0x05, 0xdc, 0xee, 0x16, 0xd0, 0xda, 0xe7,
  0xda, 0xec, 0xfe, 0xd3, 0xec, 0xe0, 0xe9, 0x0b, 0xec, 0x04, 0x27, 0x00,
  0x26, 0xee, 0xd2, 0xdb, 0x1a, 0xd0, 0x1c, 0x01, 0x0b, 0x20, 0xdc, 0xef,
  0x2a, 0xfd, 0xd6, 0xe9, 0xfd, 0xde, 0xed, 0xd7, 0xd5, 0xe3, 0xdd, 0x0d,
  0x11, 0x1f, 0x2d, 0xf7, 0xd8, 0xf2, 0xda, 0xf8, 0xfc, 0xec, 0xe8, 0xd5,
  0xf5, 0xfc, 0xcd, 0x0e, 0x06, 0xdd, 0xd9, 0xe1, 0x25, 0xd0, 0xe3, 0xe1,
  0x19, 0xdc, 0x31, 0xdb, 0xe2, 0x0e, 0xd9, 0x09, 0xd6, 0xfd, 0xd7, 0xf9,
  0x13, 0xda, 0x12, 0xfc, 0xe6, 0xd4, 0x0f, 0xe4, 0x17, 0xfc, 0x15, 0x06,
  0x01, 0x06, 0x03, 0xdc, 0x2a, 0xcb, 0x0a, 0x2b, 0x05, 0x35, 0x17, 0x13,
  0xe7, 0x20, 0x34, 0xd8, 0xdd, 0x05, 0xeb, 0x1f, 0x1f, 0xeb, 0x01, 0x0c,
  0xe7, 0x09, 0xd9, 0xe0, 0xde, 0xd3, 0x19, 0xf6, 0xd8, 0xcc, 0xd9, 0x03,
  0xe5, 0x18, 0xcc, 0x10, 0xf5, 0xeb, 0x21, 0x03, 0x2a, 0x0a, 0xff, 0x23,
  0x0e, 0x2b, 0xb5, 0x1d, 0x18, 0x1c, 0x0a, 0xe3, 0x11, 0xe9, 0x0b, 0x1d,
  0x14, 0xd2, 0x12, 0xed, 0x2a, 0x22, 0xc9, 0xe3, 0xe9, 0x0f, 0x07, 0xfa,
  0x21, 0xfc, 0x03, 0xdd, 0x25, 0x21, 0x12, 0x13, 0x0d, 0xe4, 0xf0, 0xf3,
  0x33, 0x26, 0x16, 0xe6, 0x15, 0x17, 0x10, 0xfe, 0xf9, 0x35, 0xf3, 0xf7,
  0xfa, 0xd6, 0x0b, 0x21, 0xd4, 0x07, 0xee, 0xf5, 0xd5, 0xd7, 0x23, 0xea,
  0xf4, 0xce, 0xd4, 0xdf, 0x41, 0x3b, 0xbd, 0xf9, 0xf5, 0xed, 0xcc, 0x1f,
  0xec, 0xfd, 0x23, 0x11, 0x27, 0x0e, 0x0b, 0x0d, 0xea, 0x14, 0x14, 0x49,
  0x0a, 0xea, 0xd2, 0xbc, 0x15, 0x0f, 0xdb, 0xb8, 0x1b, 0xde, 0xe7, 0x31,
  0x0f, 0xf8, 0x04, 0x31, 0x2f, 0xdf, 0xfc, 0xf4, 0x14, 0xf8, 0xbc, 0xe4,
  0x01, 0x2b, 0x37, 0xf2, 0x1f, 0xef, 0x0d, 0x1f, 0xe3, 0x19, 0xe7, 0x2e,
  0x1c, 0x1d, 0x02, 0x17, 0x20, 0x0a, 0xd6, 0xd5, 0xf2, 0x0f, 0x12, 0xf5,
  0xe0, 0x24, 0xd8, 0xd5, 0xdd, 0xe6, 0x1e, 0xda, 0xeb, 0x11, 0xe5, 0x01,
  0xf8, 0x07, 0x54, 0xef, 0x2f, 0xee, 0x0a, 0x4a, 0xdc, 0x02, 0xbf, 0x07,
  0xda, 0xe6, 0xfe, 0xed, 0x16, 0x1e, 0x26, 0xf1, 0xe2, 0xfd, 0x1c, 0x24,
  0xf7, 0xdf, 0x43, 0x3d, 0xf3, 0xc9, 0xd1, 0xbe, 0xfe, 0x16, 0x4c, 0x19,
  0xfe, 0x25, 0x1a, 0xdb, 0xe7, 0xf9, 0xc3, 0xd4, 0x27, 0x2e, 0xd8, 0xee,
  0x35, 0x47, 0xf0, 0xfd, 0xbf, 0x1a, 0xef, 0xf7, 0x0c, 0x22, 0x20, 0xd1,
  0xca, 0xce, 0xe0, 0xec, 0x17, 0xcb, 0x15, 0xfa, 0x37, 0x2e, 0x18, 0x2a,
  0xda, 0x1b, 0x15, 0xeb, 0x06, 0x15, 0xe9, 0xce, 0xc8, 0xd5, 0xe3, 0xef,
  0x00, 0x2c, 0x1a, 0x28, 0xf7, 0x2d, 0xe8, 0x2f, 0xfa, 0xce, 0xfd, 0x10,
  0xe9, 0x11, 0xfa, 0xe7, 0x1f, 0xdc, 0xf6, 0x1f, 0x0e, 0xdf, 0xce, 0xfa,
  0x24, 0xfc, 0xf9, 0x21, 0xd6, 0x2d, 0xf8, 0x30, 0xf8, 0x46, 0xc6, 0xf7,
  0x04, 0x2a, 0xd0, 0xde, 0xdb, 0x32, 0xfa, 0xc4, 0xfa, 0x04, 0xe8, 0x26,
  0xe8, 0xe9, 0xcf, 0xd1, 0xd4, 0x00, 0xfa, 0x20, 0xee, 0xdb, 0xe0, 0x14,
  0xd4, 0x0b, 0x45, 0x2b, 0xe9, 0xf0, 0xd6, 0xea, 0x01, 0xfa, 0x12, 0x08,
  0x02, 0x16, 0xec, 0xf3, 0xe5, 0xfa, 0xce, 0xec, 0x11, 0xce, 0x31, 0xfd,
  0x14, 0xe1, 0xd6, 0x24, 0xfc, 0xeb, 0x0d, 0xfa, 0xff, 0x2d, 0x13, 0xe2,
  0xe0, 0x2b, 0xeb, 0xf3, 0xd6, 0xd6, 0xe8, 0xfa, 0xd2, 0x11, 0x05, 0x2a,
  0x31, 0xe9, 0xbe, 0xf1, 0x06, 0x0f, 0xf2, 0x37, 0xe8, 0x33, 0xed, 0xd7,
  0x18, 0x18, 0x0e, 0xe4, 0xec, 0xee, 0x19, 0xee, 0xd8, 0x1d, 0xff, 0x30,
  0x13, 0xe7, 0xd0, 0x19, 0xd9, 0xe1, 0xd6, 0x06, 0x0a, 0xf9, 0x0d, 0x10,
  0xe9, 0x2a, 0xe6, 0x33, 0xdd, 0xd7, 0xcf, 0xc9, 0xfc, 0x1f, 0xf0, 0x0f,
  0xd9, 0xe2, 0x01, 0x25, 0x1d, 0x1d, 0xd6, 0x24, 0xd8, 0xe8, 0x08, 0x2c,
  0x06, 0xfe, 0x2a, 0xed, 0xc0, 0xef, 0x3b, 0x1d, 0x19, 0x15, 0x48, 0xee,
  0xd9, 0xd3, 0xc2, 0xef, 0x26, 0x30, 0xe3, 0x07, 0xd2, 0x18, 0x25, 0x2d,
  0x2d, 0xdf, 0x0a, 0xd5, 0xdc, 0xdc, 0x00, 0xdc, 0x2e, 0xdf, 0x12, 0xd5,
  0xd5, 0xfe, 0x06, 0x1b, 0x26, 0xeb, 0xd3, 0x31, 0xd2, 0xf6, 0x03, 0x1e,
  0xed, 0xf8, 0xd7, 0xdd, 0xe5, 0xec, 0xdd, 0x11, 0x2c, 0x08, 0xd9, 0x16,
  0xe3, 0xce, 0xf7, 0xf3, 0xf7, 0xff, 0xf1, 0x16, 0xf0, 0xda, 0xcf, 0x03,
  0xe8, 0xeb, 0x1d, 0x1c, 0x26, 0x04, 0xde, 0xf2, 0xd1, 0x1e, 0xf5, 0xdb,
  0x2b, 0xf2, 0x03, 0xdb, 0x0b, 0x24, 0x12, 0xd4, 0xd8, 0xf8, 0xe7, 0xf5,
  0x15, 0xf7, 0xe2, 0x1a, 0xd3, 0xcf, 0xcf, 0xff, 0xd2, 0xf8, 0x00, 0xff,
  0x06, 0x02, 0x12, 0x00, 0xf5, 0xea, 0x30, 0xf2, 0x00, 0xfb, 0xe2, 0xdc,
  0x12, 0x22, 0x01, 0x24, 0xc8, 0xf0, 0x2e, 0xe8, 0xfd, 0xf5, 0x1a, 0x07,
  0xfc, 0x24, 0xec, 0xe7, 0x1f, 0x08, 0x02, 0x2c, 0xe6, 0x02, 0x20, 0x39,
  0xdd, 0xd2, 0x14, 0xc7, 0xfa, 0xee, 0xf2, 0xea, 0x0d, 0x18, 0x30, 0xce,
  0x15, 0x13, 0x18, 0x36, 0xf3, 0x21, 0x09, 0xfe, 0xda, 0x2d, 0x13, 0xde,
  0x1f, 0xdb, 0x1b, 0xdd, 0x12, 0xd8, 0x26, 0x2e, 0xef, 0xfe, 0x21, 0xdd,
  0x11, 0xf9, 0x05, 0x08, 0x2e, 0xca, 0x21, 0xc0, 0xe7, 0x04, 0x11, 0x24,
  0xe8, 0x14, 0x06, 0x16, 0xd5, 0x01, 0xd3, 0x00, 0xd6, 0x18, 0x0e, 0xe7,
  0xe8, 0x07, 0x00, 0x1f, 0xd9, 0xee, 0x28, 0x0e, 0xd0, 0xe3, 0xa7, 0xf1,
  0x07, 0x25, 0x16, 0xc0, 0x0f, 0xc2, 0x17, 0x2e, 0x03, 0x2f, 0x39, 0x13,
  0xec, 0x20, 0x2e, 0x33, 0x37, 0xf8, 0xc1, 0xd2, 0x09, 0xe2, 0xf3, 0x0a,
  0xf0, 0x0d, 0x2a, 0x0d, 0xdb, 0xdd, 0xdf, 0xfe, 0xfc, 0x1a, 0xf7, 0xe8,
  0xf7, 0xe2, 0xf6, 0x18, 0xe5, 0x1d, 0xda, 0xf5, 0xd4, 0xf6, 0xfc, 0xde,
  0xfb, 0x2c, 0xe1, 0x05, 0x03, 0x29, 0xdc, 0xd0, 0x08, 0xe2, 0x05, 0x1d,
  0xd0, 0xf4, 0xff, 0xff, 0x04, 0x00, 0x06, 0x00, 0x04, 0x00, 0x00, 0x00,
  0x00, 0x00, 0x06, 0x00, 0x08, 0x00, 0x04, 0x00, 0x06, 0x00, 0x00, 0x00,
  0x04, 0x00, 0x00, 0x00, 0xd0, 0x07, 0x00, 0x00, 0x7d, 0x4f, 0x4a, 0xbe,
  0xda, 0x46, 0xcd, 0x3d, 0x0d, 0x65, 0x43, 0xbe, 0x7d, 0xca, 0xdf, 0xbd,
  0xcf, 0xc8, 0x22, 0x3e, 0x3a, 0x82, 0x3e, 0xbe, 0x4c, 0x5d, 0xe8, 0x3e,
  0x4a, 0xae, 0xe1, 0xbd, 0xbe, 0xa0, 0xf1, 0xbd, 0x7c, 0xe6, 0xfd, 0xbd,
  0x08, 0x36, 0xe8, 0x3c, 0x4a, 0xdd, 0xc2, 0x3d, 0xd9, 0x3a, 0x70, 0x3e,
  0xd4, 0x42, 0x3b, 0xbe, 0xca, 0xb9, 0x92, 0x3d, 0x62, 0x69, 0xbd, 0xbd,
  0xb4, 0xa3, 0x54, 0xbe, 0x8c, 0x80, 0xd9, 0x3d, 0xeb, 0xaa, 0x2c, 0x3e,
  0xba, 0x09, 0x95, 0x3e, 0x80, 0xe9, 0xae, 0xbd, 0xef, 0x89, 0x15, 0x3e,
  0x91, 0x7d, 0x5e, 0xbd, 0x54, 0x18, 0x49, 0xbe, 0x78, 0x6e, 0x32, 0xbe,
  0x6d, 0x9c, 0x5a, 0x3e, 0xb0, 0xed, 0xd0, 0x3e, 0xa8, 0x0b, 0x87, 0x3c,
  0x89, 0x5a, 0x58, 0xbe, 0x61, 0x43, 0x85, 0x39, 0xd6, 0x60, 0xec, 0x3d,
  0x05, 0x7e, 0x66, 0x3d, 0xb4, 0x48, 0x15, 0xbe, 0x60, 0x1e, 0xcd, 0x3d,
  0xcb, 0xe3, 0x10, 0xbe, 0x40, 0xea, 0xb8, 0x3b, 0x43, 0x8d, 0x8c, 0x3d,
  0x92, 0x7b, 0x85, 0x3e, 0x16, 0xb6, 0x09, 0x3d, 0xda, 0x66, 0xb1, 0xbd,
  0x96, 0x9a, 0x28, 0xbe, 0x34, 0xc3, 0xb9, 0xbd, 0x5b, 0x64, 0x37, 0xbe,
  0x19, 0xf2, 0x2e, 0x3d, 0x74, 0x73, 0x15, 0xbd, 0x01, 0x4f, 0x41, 0x3e,
  0x41, 0xe0, 0x3c, 0xbc, 0x16, 0xd3, 0xb6, 0x3d, 0xd7, 0x10, 0x08, 0xbe,
  0x24, 0x44, 0x3f, 0x3d, 0x30, 0x40, 0x85, 0xbc, 0xf6, 0x9f, 0xc6, 0x3d,
  0xc6, 0xb5, 0xf5, 0x3d, 0x78, 0x39, 0xbe, 0x3c, 0x44, 0xdb, 0x16, 0xbd,
  0xf8, 0x10, 0x6b, 0x3d, 0x8a, 0xfa, 0x5b, 0xbe, 0x5b, 0x12, 0x91, 0x3c,
  0x24, 0xd9, 0x18, 0x3e, 0x7c, 0x2f, 0x17, 0x3e, 0x45, 0x65, 0x2d, 0x3c,
  0x71, 0xe6, 0x5e, 0x3e, 0xf4, 0x18, 0xc0, 0xbc, 0xa1, 0x73, 0x3d, 0x3e,
  0x3e, 0x82, 0xf0, 0xbd, 0x2c, 0x9b, 0x1b, 0x3d, 0x5e, 0x47, 0xd2, 0x3d,
  0x97, 0x58, 0x04, 0xbf, 0x98, 0x72, 0xba, 0x3c, 0x15, 0x45, 0x55, 0xbd,
  0xe3, 0xad, 0xf9, 0x3e, 0x3c, 0xf6, 0xc9, 0x3c, 0x62, 0x90, 0x95, 0x3e,
  0x3f, 0x40, 0x27, 0xbe, 0x15, 0x71, 0x04, 0xbf, 0xd6, 0x63, 0xc3, 0xbd,
  0x04, 0xb4, 0x4c, 0xbc, 0x74, 0xe0, 0x50, 0xbe, 0xb7, 0x20, 0xa5, 0xbd,
  0x0b, 0xc1, 0x53, 0x3e, 0x96, 0x82, 0x57, 0xbe, 0x16, 0x0c, 0xca, 0x3d,
  0xec, 0x20, 0xb7, 0x3d, 0x62, 0x26, 0x1f, 0xbd, 0x64, 0xe8, 0x16, 0xbe,
  0xd8, 0x7e, 0x5a, 0xbd, 0x9e, 0x64, 0xac, 0x3d, 0xac, 0x72, 0x64, 0xbe,
  0x64, 0x23, 0x34, 0xbd, 0x41, 0x81, 0x25, 0x3e, 0x34, 0x45, 0x55, 0x3e,
  0x4f, 0x61, 0x21, 0x3e, 0x64, 0xba, 0x80, 0x3e, 0x26, 0x17, 0x0a, 0x3e,
  0x76, 0x95, 0x91, 0x3d, 0xd3, 0x2b, 0x42, 0xbe, 0x1f, 0xc1, 0x15, 0xbf,
  0xd2, 0x69, 0x89, 0xbe, 0x18, 0xad, 0xf7, 0xbc, 0x74, 0xbd, 0xfb, 0xbd,
  0xc9, 0xaf, 0x92, 0xbe, 0x88, 0xc1, 0xf4, 0xbd, 0x9a, 0x67, 0x15, 0xb7,
  0xcb, 0x24, 0x79, 0x3d, 0xf0, 0x2b, 0x74, 0x3d, 0xda, 0x2a, 0xa8, 0x3d,
  0x3a, 0xce, 0xcf, 0xbd, 0x8f, 0xf4, 0x4a, 0x3e, 0x02, 0x51, 0x46, 0xbe,
  0xd3, 0x66, 0x2e, 0xbe, 0x23, 0x9b, 0x6b, 0xbe, 0x18, 0xe8, 0xb8, 0x3c,
  0xb8, 0x2e, 0x36, 0xbe, 0x30, 0xbf, 0x30, 0xbe, 0x53, 0xa4, 0x61, 0xbe,
  0x07, 0x0f, 0x08, 0x3e, 0xce, 0xfe, 0x02, 0x3d, 0x67, 0xb2, 0xdd, 0xbd,
  0xb7, 0x44, 0x57, 0x3e, 0xbe, 0xe5, 0x8b, 0x3c, 0x55, 0x4f, 0x5d, 0xbe,
  0xa9, 0x88, 0x58, 0x3e, 0xa7, 0x9b, 0x83, 0xba, 0x04, 0x10, 0xef, 0xbc,
  0x9e, 0x9d, 0x85, 0xbd, 0x80, 0xb0, 0x19, 0x3e, 0x33, 0x39, 0x5d, 0x3d,
  0x38, 0xb7, 0xad, 0xbc, 0xe4, 0x34, 0x0f, 0x3d, 0xc3, 0xa2, 0xbb, 0x3c,
  0x1f, 0x7c, 0x2b, 0x3e, 0x4b, 0xd4, 0xf9, 0x3d, 0x24, 0x85, 0xf4, 0x3e,
  0x8c, 0x3e, 0xf2, 0xba, 0x50, 0x89, 0x2c, 0x3e, 0x35, 0xee, 0x6d, 0x3e,
  0x01, 0xd2, 0xa8, 0x3c, 0x07, 0x6b, 0x81, 0x3e, 0x3e, 0x9a, 0x68, 0xbd,
  0xdc, 0xd1, 0x6c, 0x3e, 0x1d, 0x32, 0x2c, 0x3d, 0x3f, 0x9f, 0x57, 0x3d,
  0x90, 0x3d, 0xcd, 0x3b, 0x62, 0xee, 0x3f, 0xbe, 0x40, 0xcd, 0xc3, 0xbc,
  0xec, 0x26, 0x67, 0x3d, 0x4d, 0xd8, 0x8f, 0xbe, 0x4c, 0xb3, 0x77, 0xbd,
  0x1c, 0x6b, 0xdf, 0x3d, 0xfc, 0xc8, 0x16, 0xbd, 0x65, 0x53, 0x0e, 0xbe,
  0xab, 0xa5, 0x2b, 0xbe, 0x90, 0xab, 0x6b, 0xbd, 0x1a, 0x8f, 0x23, 0xbe,
  0x30, 0xa6, 0x34, 0xbe, 0xe8, 0xb6, 0x55, 0x3e, 0x24, 0xa2, 0x58, 0x3d,
  0x1e, 0xba, 0xb1, 0x3d, 0x56, 0x70, 0x4b, 0xbe, 0x0a, 0xea, 0x7d, 0xbe,
  0x58, 0x60, 0xb0, 0x3d, 0x28, 0xa9, 0x49, 0xbd, 0xe4, 0x48, 0xbe, 0xbe,
  0x1c, 0xa8, 0xcb, 0x3e, 0x26, 0xf7, 0xb5, 0xbd, 0x17, 0xfd, 0xed, 0x3d,
  0x8a, 0x04, 0x17, 0xbe, 0xf5, 0xf9, 0xa8, 0x3e, 0x01, 0x84, 0x56, 0xbe,
  0xbf, 0x54, 0x9e, 0x3e, 0xc9, 0x14, 0xfd, 0xbe, 0x21, 0x53, 0x8c, 0x3d,
  0x94, 0xe3, 0xda, 0x3c, 0x41, 0x3b, 0xa1, 0x3d, 0x7d, 0xff, 0x88, 0x3d,
  0x48, 0x75, 0xfe, 0xbc, 0x8c, 0x43, 0xc7, 0x3e, 0x10, 0x89, 0xfb, 0xbc,
  0xcf, 0xb1, 0x13, 0x3e, 0xbd, 0x1f, 0x22, 0xbe, 0xae, 0x9a, 0xf2, 0x3d,
  0x6a, 0xa0, 0x24, 0xbd, 0x94, 0xd1, 0x4a, 0x3e, 0xce, 0x55, 0xee, 0x3e,
  0xb2, 0xae, 0xf2, 0x3d, 0x82, 0x32, 0xd7, 0x3d, 0x7c, 0x34, 0x4a, 0xbe,
  0xc6, 0xe7, 0xc7, 0x3d, 0xca, 0x50, 0x42, 0xbe, 0x28, 0xde, 0xe6, 0x3c,
  0xaf, 0xaa, 0x1c, 0xbd, 0x75, 0x44, 0xf7, 0xbd, 0x4e, 0x04, 0x90, 0x3d,
  0x9a, 0x15, 0x53, 0x3d, 0xac, 0x8e, 0x6f, 0x3e, 0x64, 0x14, 0x98, 0xbd,
  0x4d, 0xc9, 0x5b, 0x3e, 0x4c, 0x55, 0x08, 0x3e, 0x09, 0x56, 0x18, 0x3e,
  0x63, 0xa3, 0x50, 0x3d, 0x9a, 0x4b, 0xb2, 0xbe, 0x46, 0x00, 0xa5, 0x3d,
  0xb5, 0xf7, 0x07, 0xbe, 0x2b, 0x42, 0x5f, 0xbe, 0x8b, 0x5b, 0xf7, 0x3d,
  0x2a, 0x28, 0xa8, 0xbd, 0x7d, 0x99, 0x04, 0x3e, 0x56, 0x99, 0x00, 0x3e,
  0x19, 0xe6, 0x37, 0x3e, 0xbb, 0xd8, 0x94, 0xbd, 0x38, 0xf4, 0x1b, 0xbd,
  0x87, 0xc2, 0x60, 0x3e, 0x26, 0x14, 0x43, 0xbe, 0x46, 0x81, 0xe8, 0x3d,
  0xd4, 0x1c, 0x78, 0x3d, 0x7f, 0xfd, 0x72, 0xbe, 0xed, 0x69, 0xbc, 0xbd,
  0x62, 0x22, 0x40, 0xbe, 0x13, 0xbe, 0x1d, 0x3e, 0x86, 0x42, 0xbb, 0xbc,
  0x8f, 0x5f, 0x72, 0xbe, 0xc4, 0x6c, 0xe7, 0xbd, 0xb6, 0x4c, 0x57, 0xbe,
  0x21, 0xe2, 0x28, 0xbe, 0x25, 0x7b, 0x60, 0xbe, 0xb8, 0x10, 0x69, 0xbd,
  0xcf, 0x64, 0x52, 0x3d, 0x7b, 0x11, 0x68, 0x3e, 0x84, 0x83, 0x4d, 0xbe,
  0xfa, 0x90, 0x16, 0xbe, 0x8a, 0x46, 0x95, 0xbd, 0x49, 0x53, 0x4c, 0xbe,
  0xf9, 0xd3, 0xef, 0x3e, 0x84, 0x13, 0x28, 0x3d, 0xf4, 0x63, 0x2d, 0xbe,
  0x40, 0x2c, 0x6b, 0xbb, 0x25, 0x3c, 0x82, 0xbd, 0x9f, 0xf4, 0x8e, 0x3e,
  0xae, 0x09, 0x03, 0xbe, 0x6d, 0xc0, 0x2d, 0x3e, 0xea, 0x70, 0x27, 0x3e,
  0x1c, 0x67, 0x03, 0xbd, 0x51, 0x32, 0xe1, 0xbd, 0x24, 0xa5, 0xa9, 0x3d,
  0x3b, 0x66, 0x2a, 0x3e, 0x14, 0x0e, 0x2e, 0x3d, 0xba, 0xb3, 0x6c, 0xbe,
  0x88, 0xce, 0x91, 0x3c, 0x03, 0x63, 0x1e, 0xbe, 0x11, 0x69, 0x60, 0x3e,
  0x0b, 0xc6, 0x3d, 0x3e, 0x69, 0x2a, 0x4e, 0x3e, 0x09, 0x5b, 0xfc, 0xbd,
  0x25, 0x3c, 0x6b, 0x3e, 0xc6, 0xf6, 0x3c, 0xbe, 0x4a, 0xbf, 0x1e, 0xbe,
  0xcc, 0x44, 0x71, 0xbe, 0x0b, 0x81, 0x03, 0x3d, 0xb2, 0x8f, 0x70, 0xbe,
  0x6c, 0x55, 0xaf, 0xbe, 0x97, 0xf2, 0x05, 0x3e, 0x5c, 0x54, 0x46, 0x3d,
  0x02, 0x70, 0xe3, 0x3c, 0xad, 0xe8, 0xe6, 0x3e, 0x31, 0x4c, 0x8c, 0x3e,
  0x44, 0x8b, 0x73, 0x3d, 0xa0, 0xd8, 0xd7, 0xbc, 0x70, 0xb6, 0xaa, 0x3e,
  0x7b, 0xbb, 0x28, 0xbe, 0xbf, 0x5e, 0x6d, 0x3e, 0x41, 0x4d, 0x0d, 0xbf,
  0xc6, 0xc8, 0x4d, 0x3e, 0xe6, 0x48, 0x88, 0x3d, 0x0d, 0x3f, 0xfb, 0x3c,
  0x52, 0x4a, 0x12, 0x3e, 0x00, 0x96, 0x9f, 0xbc, 0x1d, 0xd8, 0xd4, 0x3d,
  0x1a, 0x2f, 0x18, 0xbe, 0xa2, 0xdc, 0x6c, 0x3d, 0x2f, 0xd0, 0x30, 0xbd,
  0x5a, 0xec, 0xef, 0x3d, 0xbc, 0xd0, 0x40, 0xbe, 0x97, 0x4f, 0xcf, 0xbd,
  0x79, 0xbd, 0x90, 0x3e, 0x1c, 0x55, 0xe6, 0xbd, 0x8d, 0x50, 0x6e, 0x3e,
  0x8c, 0x59, 0x17, 0x3d, 0x87, 0x4a, 0x1f, 0x3e, 0x36, 0x8b, 0x99, 0x3d,
  0x14, 0xc4, 0x45, 0x3d, 0x58, 0xc8, 0xab, 0x3d, 0xb1, 0x81, 0x5d, 0x3d,
  0x8b, 0x2d, 0xda, 0x3b, 0xd8, 0xb4, 0x18, 0x3e, 0xce, 0xb2, 0xb5, 0x3d,
  0xf0, 0x83, 0x57, 0xbd, 0xf7, 0xb2, 0x46, 0x3e, 0x9e, 0x31, 0x02, 0x3e,
  0x1a, 0xfc, 0x14, 0xbe, 0x12, 0x42, 0x12, 0xbe, 0xb3, 0xfe, 0x8f, 0xbd,
  0x0e, 0xce, 0xef, 0x3d, 0x21, 0x79, 0x72, 0x3e, 0xde, 0xc9, 0x2b, 0x3e,
  0xc5, 0xa6, 0x99, 0x3c, 0x1c, 0xde, 0x4c, 0xbe, 0xc4, 0x76, 0x02, 0x3d,
  0xb5, 0x61, 0x37, 0xbd, 0x51, 0x80, 0x23, 0xbd, 0x65, 0x43, 0xc4, 0xbd,
  0xc5, 0xf3, 0x15, 0x3e, 0xa7, 0xf3, 0x3d, 0xbe, 0xf7, 0x05, 0x50, 0xbe,
  0x30, 0x7c, 0x6b, 0x3c, 0xac, 0x36, 0x58, 0xbd, 0x4b, 0x47, 0x2d, 0x3e,
  0x61, 0xd8, 0x9d, 0x3d, 0xd2, 0x04, 0x83, 0x3e, 0x1e, 0x83, 0x4f, 0xbe,
  0x89, 0xc6, 0xbb, 0xbd, 0xfa, 0x0c, 0x12, 0xbc, 0xe7, 0xf4, 0xfb, 0xbd,
  0x41, 0x22, 0xeb, 0x3d, 0xd0, 0x80, 0xdb, 0xbd, 0xa3, 0x0e, 0x0d, 0x3e,
  0x57, 0xa0, 0x37, 0xbe, 0x10, 0xc6, 0x7e, 0x3e, 0x00, 0xed, 0x4b, 0xbe,
  0x88, 0xba, 0xa9, 0xbd, 0x0e, 0x52, 0xa2, 0xbd, 0xc2, 0xee, 0x8b, 0x3d,
  0x0e, 0xef, 0x05, 0x3e, 0x5e, 0xcf, 0x84, 0xbc, 0x58, 0x6b, 0x18, 0x3d,
  0xd4, 0x9e, 0xc5, 0x3c, 0x31, 0xc5, 0x56, 0x3e, 0x52, 0x18, 0x47, 0xbe,
  0x5e, 0x2f, 0xba, 0xbd, 0x15, 0x7c, 0x06, 0x3e, 0x0f, 0x8f, 0x8c, 0x3d,
  0xc3, 0xc0, 0xf2, 0x3c, 0x3d, 0xde, 0x95, 0xbd, 0x5f, 0x90, 0x2f, 0xbe,
  0x36, 0x11, 0x17, 0x3e, 0xa7, 0x53, 0x69, 0x3e, 0x93, 0xc0, 0x04, 0x3e,
  0xbd, 0x51, 0x2b, 0xbe, 0x24, 0x78, 0x5c, 0x3d, 0xab, 0xbf, 0x57, 0x3e,
  0xea, 0x53, 0x9d, 0x3d, 0xa6, 0x0a, 0x8e, 0xbd, 0xc5, 0x20, 0x55, 0x3e,
  0xa4, 0xb4, 0x79, 0x3d, 0x60, 0xe0, 0x9b, 0xbb, 0x23, 0xa7, 0x28, 0x3e,
  0x30, 0x4e, 0x62, 0x3e, 0x96, 0x68, 0xf5, 0x3d, 0x99, 0x69, 0xe4, 0xbd,
  0xdb, 0x1a, 0xe7, 0xbd, 0x8a, 0x21, 0x1b, 0xbe, 0xb3, 0x85, 0x38, 0x3e,
  0x13, 0x40, 0x08, 0x3e, 0xdf, 0x7d, 0x13, 0xbd, 0x20, 0x06, 0x05, 0x3f,
  0xe1, 0x0b, 0x8f, 0x3b, 0xa6, 0xe9, 0x61, 0x3e, 0x66, 0x19, 0xd0, 0x3d,
  0x05, 0x24, 0xab, 0x3d, 0x85, 0x19, 0x88, 0xbd, 0x67, 0xe6, 0x7f, 0xbd,
  0xdf, 0x2b, 0xf5, 0xbd, 0xe2, 0xf2, 0x09, 0x3d, 0x2c, 0x36, 0xbf, 0x3d,
  0xaa, 0xe8, 0x43, 0x3d, 0x79, 0x79, 0x34, 0xbd, 0xa6, 0x37, 0x2b, 0xbe,
  0x3b, 0x58, 0x92, 0x3d, 0x16, 0x87, 0xce, 0x3d, 0x9f, 0x44, 0x26, 0xbe,
  0x2b, 0x42, 0x2e, 0x3e, 0x52, 0x8a, 0xa1, 0x3d, 0x07, 0xb9, 0x80, 0x3d,
  0x4e, 0xe3, 0x50, 0x3e, 0xc0, 0x96, 0x6c, 0xbd, 0xd0, 0xa2, 0x49, 0xbd,
  0xfc, 0xe2, 0x60, 0x3d, 0xf0, 0xf8, 0x68, 0xbe, 0x7f, 0xad, 0x25, 0x3e,
  0x18, 0xba, 0xbb, 0x3c, 0xf0, 0xc6, 0x65, 0x3c, 0x7b, 0xf6, 0x20, 0x3d,
  0x30, 0x82, 0xc1, 0xbd, 0x13, 0x1b, 0x57, 0xbd, 0x5f, 0xee, 0x1e, 0x3e,
  0xa2, 0x3e, 0x7f, 0xbd, 0xee, 0xe1, 0x9b, 0x3d, 0x24, 0xe9, 0x41, 0xbe,
  0x5d, 0xd5, 0xb5, 0x3d, 0x84, 0x2d, 0xd7, 0xbd, 0x8d, 0x5f, 0x53, 0x3d,
  0x10, 0x55, 0x95, 0xbd, 0xd6, 0x2d, 0x4e, 0xbe, 0x62, 0x3d, 0x82, 0xbd,
  0xf8, 0x0d, 0x9d, 0xbc, 0x69, 0x95, 0x6d, 0xbd, 0xcc, 0xdf, 0x29, 0xbd,
  0xb2, 0x8a, 0xc7, 0x3e, 0xd9, 0x7e, 0x47, 0x3d, 0xd0, 0xff, 0x4c, 0xbe,
  0x68, 0xf4, 0x4b, 0x3e, 0x61, 0x42, 0x49, 0x3e, 0x46, 0x48, 0xfb, 0x3d,
  0xd0, 0x38, 0x52, 0xbc, 0xe7, 0xb7, 0x0b, 0x3e, 0xba, 0x8f, 0x8f, 0xbd,
  0x0f, 0x35, 0x6f, 0x3e, 0x0d, 0xc4, 0x36, 0x3d, 0xf7, 0x37, 0xc5, 0xbc,
  0x96, 0x12, 0x91, 0xbe, 0x81, 0x4f, 0x3a, 0x3e, 0x51, 0x70, 0xe3, 0x3d,
  0x7c, 0x91, 0x66, 0x3d, 0xa7, 0xe4, 0x1f, 0xbe, 0x20, 0xd3, 0x6e, 0x3d,
  0x7e, 0x62, 0x10, 0xbe, 0x88, 0x10, 0x6d, 0x3d, 0xbe, 0x52, 0xfa, 0x3d,
  0x44, 0x80, 0x63, 0xbd, 0x58, 0x5a, 0xca, 0xbd, 0xb9, 0xe1, 0x3a, 0x3e,
  0x79, 0x79, 0x30, 0x3e, 0x9b, 0xe5, 0x8e, 0xbd, 0xac, 0x8c, 0x9d, 0x3e,
  0x87, 0xc9, 0x82, 0x3f, 0x5e, 0x1a, 0x3b, 0x3b, 0x00, 0x91, 0xd7, 0x3a,
  0xd6, 0x41, 0x65, 0xbc, 0x16, 0x9c, 0xb6, 0x39, 0xed, 0x0c, 0x4f, 0x3e,
  0x53, 0xf9, 0x1a, 0xbd, 0x48, 0xd5, 0x3d, 0xbe, 0x48, 0xe2, 0xe6, 0x3d,
  0x0e, 0x9a, 0x79, 0x3d, 0x27, 0xb3, 0x6d, 0x3e, 0x09, 0xb3, 0x55, 0x3e,
  0xf7, 0x62, 0xfb, 0xbd, 0x65, 0x44, 0x6a, 0x3d, 0x1f, 0x47, 0x72, 0x3e,
  0x30, 0x03, 0x59, 0xbe, 0x20, 0x3f, 0xb8, 0xbb, 0x36, 0xfc, 0x01, 0xbe,
  0x20, 0xe4, 0xb1, 0xbd, 0x5d, 0x16, 0x45, 0x3e, 0x36, 0x2a, 0xd8, 0x3d,
  0xf7, 0x69, 0x1c, 0x3e, 0xdb, 0x19, 0x6a, 0xbe, 0x3a, 0x8a, 0x3f, 0xbe,
  0x3a, 0x4e, 0x32, 0xbd, 0xe1, 0x54, 0xe9, 0x3d, 0xd3, 0x25, 0x3d, 0xbe,
  0xcf, 0x4a, 0x54, 0x3c, 0xb8, 0x0f, 0xe6, 0xbc, 0x7f, 0x15, 0xa5, 0xbd,
  0x67, 0xa6, 0xfd, 0x3c, 0x88, 0x1a, 0x2e, 0x3d, 0xd3, 0x06, 0x6b, 0xbd,
  0xd3, 0x0c, 0x38, 0x3e, 0xe1, 0xcd, 0xfb, 0xbd, 0x97, 0x20, 0xf7, 0x3e,
  0x46, 0x48, 0xa1, 0x3d, 0x99, 0xa8, 0xc1, 0x3f, 0x37, 0x04, 0x7b, 0x3e,
  0x45, 0x0d, 0xc8, 0x3d, 0x1b, 0x52, 0xad, 0xbd, 0x40, 0x6e, 0x08, 0xbf,
  0x8e, 0xc3, 0xb8, 0x3d, 0xa0, 0x9a, 0x15, 0xbe, 0xed, 0x63, 0x47, 0xbe,
  0xcc, 0x0f, 0xb1, 0x3c, 0xa6, 0xd5, 0x1a, 0xbe, 0x80, 0xef, 0x42, 0xbe,
  0xb6, 0x37, 0x6c, 0x3e, 0x75, 0xdf, 0x7a, 0xba, 0xb2, 0x50, 0xa0, 0x3e,
  0x65, 0x64, 0x49, 0xbe, 0xeb, 0x35, 0x3b, 0xbe, 0xc6, 0x26, 0xcc, 0x3d,
  0x72, 0x3c, 0xfb, 0x3d, 0x8e, 0xd2, 0x05, 0xbe, 0xd1, 0x95, 0x3a, 0x3e,
  0xd4, 0xf6, 0x30, 0x3e, 0x1c, 0x93, 0xa9, 0x3d, 0x68, 0xbb, 0x3d, 0x3d,
  0x16, 0x2b, 0x6f, 0x3e, 0x7d, 0xd8, 0x91, 0xbd, 0x40, 0x16, 0xa1, 0x3b,
  0x18, 0x44, 0xde, 0x3c, 0xd1, 0x67, 0x6b, 0x3c, 0x36, 0xbc, 0x6a, 0xbe,
  0x9f, 0xb4, 0x58, 0x3e, 0xc0, 0xfc, 0xff, 0xff, 0xc4, 0xfc, 0xff, 0xff,
  0x0f, 0x00, 0x00, 0x00, 0x54, 0x4f, 0x43, 0x4f, 0x20, 0x43, 0x6f, 0x6e,
  0x76, 0x65, 0x72, 0x74, 0x65, 0x64, 0x2e, 0x00, 0x01, 0x00, 0x00, 0x00,
  0x10, 0x00, 0x00, 0x00, 0x0c, 0x00, 0x14, 0x00, 0x04, 0x00, 0x08, 0x00,
  0x0c, 0x00, 0x10, 0x00, 0x0c, 0x00, 0x00, 0x00, 0xb8, 0x00, 0x00, 0x00,
  0xac, 0x00, 0x00, 0x00, 0xa0, 0x00, 0x00, 0x00, 0x04, 0x00, 0x00, 0x00,
  0x02, 0x00, 0x00, 0x00, 0x58, 0x00, 0x00, 0x00, 0x14, 0x00, 0x00, 0x00,
  0x00, 0x00, 0x0e, 0x00, 0x14, 0x00, 0x00, 0x00, 0x08, 0x00, 0x0c, 0x00,
  0x07, 0x00, 0x10, 0x00, 0x0e, 0x00, 0x00, 0x00, 0x00, 0x00, 0x00, 0x08,
  0x18, 0x00, 0x00, 0x00, 0x0c, 0x00, 0x00, 0x00, 0x04, 0x00, 0x00, 0x00,
  0x34, 0xfd, 0xff, 0xff, 0x01, 0x00, 0x00, 0x00, 0x00, 0x00, 0x00, 0x00,
  0x03, 0x00, 0x00, 0x00, 0x04, 0x00, 0x00, 0x00, 0x05, 0x00, 0x00, 0x00,
  0x06, 0x00, 0x00, 0x00, 0x00, 0x00, 0x0e, 0x00, 0x16, 0x00, 0x00, 0x00,
  0x08, 0x00, 0x0c, 0x00, 0x07, 0x00, 0x10, 0x00, 0x0e, 0x00, 0x00, 0x00,
  0x00, 0x00, 0x00, 0x08, 0x24, 0x00, 0x00, 0x00, 0x18, 0x00, 0x00, 0x00,
  0x0c, 0x00, 0x00, 0x00, 0x00, 0x00, 0x06, 0x00, 0x08, 0x00, 0x07, 0x00,
  0x06, 0x00, 0x00, 0x00, 0x00, 0x00, 0x00, 0x01, 0x01, 0x00, 0x00, 0x00,
  0x04, 0x00, 0x00, 0x00, 0x03, 0x00, 0x00, 0x00, 0x01, 0x00, 0x00, 0x00,
  0x02, 0x00, 0x00, 0x00, 0x03, 0x00, 0x00, 0x00, 0x01, 0x00, 0x00, 0x00,
  0x00, 0x00, 0x00, 0x00, 0x01, 0x00, 0x00, 0x00, 0x01, 0x00, 0x00, 0x00,
  0x07, 0x00, 0x00, 0x00, 0x3c, 0x02, 0x00, 0x00, 0xd4, 0x01, 0x00, 0x00,
  0x48, 0x01, 0x00, 0x00, 0xf0, 0x00, 0x00, 0x00, 0xac, 0x00, 0x00, 0x00,
  0x4c, 0x00, 0x00, 0x00, 0x04, 0x00, 0x00, 0x00, 0xee, 0xfd, 0xff, 0xff,
  0x38, 0x00, 0x00, 0x00, 0x07, 0x00, 0x00, 0x00, 0x0c, 0x00, 0x00, 0x00,
  0x04, 0x00, 0x00, 0x00, 0xe0, 0xfd, 0xff, 0xff, 0x1e, 0x00, 0x00, 0x00,
  0x73, 0x65, 0x71, 0x75, 0x65, 0x6e, 0x74, 0x69, 0x61, 0x6c, 0x2f, 0x64,
  0x65, 0x6e, 0x73, 0x65, 0x5f, 0x31, 0x2f, 0x4d, 0x61, 0x74, 0x4d, 0x75,
  0x6c, 0x5f, 0x62, 0x69, 0x61, 0x73, 0x00, 0x00, 0x01, 0x00, 0x00, 0x00,
  0x05, 0x00, 0x00, 0x00, 0x32, 0xfe, 0xff, 0xff, 0x4c, 0x00, 0x00, 0x00,
  0x02, 0x00, 0x00, 0x00, 0x0c, 0x00, 0x00, 0x00, 0x04, 0x00, 0x00, 0x00,
  0x24, 0xfe, 0xff, 0xff, 0x32, 0x00, 0x00, 0x00, 0x73, 0x65, 0x71, 0x75,
  0x65, 0x6e, 0x74, 0x69, 0x61, 0x6c, 0x2f, 0x64, 0x65, 0x6e, 0x73, 0x65,
  0x5f, 0x31, 0x2f, 0x4d, 0x61, 0x74, 0x4d, 0x75, 0x6c, 0x2f, 0x52, 0x65,
  0x61, 0x64, 0x56, 0x61, 0x72, 0x69, 0x61, 0x62, 0x6c, 0x65, 0x4f, 0x70,
  0x2f, 0x74, 0x72, 0x61, 0x6e, 0x73, 0x70, 0x6f, 0x73, 0x65, 0x00, 0x00,
  0x02, 0x00, 0x00, 0x00, 0x05, 0x00, 0x00, 0x00, 0x64, 0x00, 0x00, 0x00,
  0x8e, 0xfe, 0xff, 0xff, 0x30, 0x00, 0x00, 0x00, 0x03, 0x00, 0x00, 0x00,
  0x0c, 0x00, 0x00, 0x00, 0x04, 0x00, 0x00, 0x00, 0x80, 0xfe, 0xff, 0xff,
  0x15, 0x00, 0x00, 0x00, 0x73, 0x65, 0x71, 0x75, 0x65, 0x6e, 0x74, 0x69,
  0x61, 0x6c, 0x2f, 0x64, 0x65, 0x6e, 0x73, 0x65, 0x2f, 0x52, 0x65, 0x6c,
  0x75, 0x00, 0x00, 0x00, 0x02, 0x00, 0x00, 0x00, 0x01, 0x00, 0x00, 0x00,
  0x64, 0x00, 0x00, 0x00, 0xce, 0xfe, 0xff, 0xff, 0x38, 0x00, 0x00, 0x00,
  0x06, 0x00, 0x00, 0x00, 0x0c, 0x00, 0x00, 0x00, 0x04, 0x00, 0x00, 0x00,
  0xc0, 0xfe, 0xff, 0xff, 0x1c, 0x00, 0x00, 0x00, 0x73, 0x65, 0x71, 0x75,
  0x65, 0x6e, 0x74, 0x69, 0x61, 0x6c, 0x2f, 0x64, 0x65, 0x6e, 0x73, 0x65,
  0x2f, 0x4d, 0x61, 0x74, 0x4d, 0x75, 0x6c, 0x5f, 0x62, 0x69, 0x61, 0x73,
  0x00, 0x00, 0x00, 0x00, 0x01, 0x00, 0x00, 0x00, 0x64, 0x00, 0x00, 0x00,
  0x00, 0x00, 0x0e, 0x00, 0x18, 0x00, 0x08, 0x00, 0x07, 0x00, 0x0c, 0x00,
  0x10, 0x00, 0x14, 0x00, 0x0e, 0x00, 0x00, 0x00, 0x00, 0x00, 0x00, 0x09,
  0x74, 0x00, 0x00, 0x00, 0x05, 0x00, 0x00, 0x00, 0x34, 0x00, 0x00, 0x00,
  0x10, 0x00, 0x00, 0x00, 0x0c, 0x00, 0x0c, 0x00, 0x00, 0x00, 0x00, 0x00,
  0x04, 0x00, 0x08, 0x00, 0x0c, 0x00, 0x00, 0x00, 0x14, 0x00, 0x00, 0x00,
  0x04, 0x00, 0x00, 0x00, 0x01, 0x00, 0x00, 0x00, 0x00, 0x00, 0x00, 0x00,
  0x00, 0x00, 0x00, 0x00, 0x01, 0x00, 0x00, 0x00, 0x34, 0x52, 0x93, 0x3b,
  0x30, 0x00, 0x00, 0x00, 0x73, 0x65, 0x71, 0x75, 0x65, 0x6e, 0x74, 0x69,
  0x61, 0x6c, 0x2f, 0x64, 0x65, 0x6e, 0x73, 0x65, 0x2f, 0x4d, 0x61, 0x74,
  0x4d, 0x75, 0x6c, 0x2f, 0x52, 0x65, 0x61, 0x64, 0x56, 0x61, 0x72, 0x69,
  0x61, 0x62, 0x6c, 0x65, 0x4f, 0x70, 0x2f, 0x74, 0x72, 0x61, 0x6e, 0x73,
  0x70, 0x6f, 0x73, 0x65, 0x00, 0x00, 0x00, 0x00, 0x02, 0x00, 0x00, 0x00,
  0x64, 0x00, 0x00, 0x00, 0x10, 0x00, 0x00, 0x00, 0xaa, 0xff, 0xff, 0xff,
  0x44, 0x00, 0x00, 0x00, 0x01, 0x00, 0x00, 0x00, 0x2c, 0x00, 0x00, 0x00,
  0x0c, 0x00, 0x00, 0x00, 0x08, 0x00, 0x0c, 0x00, 0x04, 0x00, 0x08, 0x00,
  0x08, 0x00, 0x00, 0x00, 0x10, 0x00, 0x00, 0x00, 0x04, 0x00, 0x00, 0x00,
  0x01, 0x00, 0x00, 0x00, 0x00, 0x00, 0x7f, 0x43, 0x01, 0x00, 0x00, 0x00,
  0x00, 0x00, 0x00, 0x00, 0x0b, 0x00, 0x00, 0x00, 0x64, 0x65, 0x6e, 0x73,
  0x65, 0x5f, 0x69, 0x6e, 0x70, 0x75, 0x74, 0x00, 0x02, 0x00, 0x00, 0x00,
  0x01, 0x00, 0x00, 0x00, 0x10, 0x00, 0x00, 0x00, 0x00, 0x00, 0x0e, 0x00,
  0x14, 0x00, 0x04, 0x00, 0x00, 0x00, 0x08, 0x00, 0x0c, 0x00, 0x10, 0x00,
  0x0e, 0x00, 0x00, 0x00, 0x28, 0x00, 0x00, 0x00, 0x04, 0x00, 0x00, 0x00,
  0x10, 0x00, 0x00, 0x00, 0x08, 0x00, 0x00, 0x00, 0x04, 0x00, 0x04, 0x00,
  0x04, 0x00, 0x00, 0x00, 0x08, 0x00, 0x00, 0x00, 0x49, 0x64, 0x65, 0x6e,
  0x74, 0x69, 0x74, 0x79, 0x00, 0x00, 0x00, 0x00, 0x02, 0x00, 0x00, 0x00,
  0x01, 0x00, 0x00, 0x00, 0x05, 0x00, 0x00, 0x00, 0x01, 0x00, 0x00, 0x00,
  0x10, 0x00, 0x00, 0x00, 0x00, 0x00, 0x0a, 0x00, 0x0c, 0x00, 0x07, 0x00,
  0x00, 0x00, 0x08, 0x00, 0x0a, 0x00, 0x00, 0x00, 0x00, 0x00, 0x00, 0x09,
  0x03, 0x00, 0x00, 0x00
};

