
#define TENSORFLOW_LITE_EXPERIMENTAL_MICRO_EXAMPLES_HELLO_WORLD_SINE_MODEL_DATA_H_
#ifdef __has_attribute
#define HAVE_ATTRIBUTE(x) __has_attribute(x)
#else
#define HAVE_ATTRIBUTE(x) 0
#endif
#if HAVE_ATTRIBUTE(aligned) || (defined(__GNUC__) && !defined(__clang__))
#define DATA_ALIGN_ATTRIBUTE __attribute__((aligned(4)))
#else
#define DATA_ALIGN_ATTRIBUTE
#endif

const int flight_model_len = 3728;
const unsigned char flight_model[] DATA_ALIGN_ATTRIBUTE = {
 0x1c, 0x00, 0x00, 0x00, 0x54, 0x46, 0x4c, 0x33, 0x00, 0x00, 0x12, 0x00,
  0x1c, 0x00, 0x04, 0x00, 0x08, 0x00, 0x0c, 0x00, 0x10, 0x00, 0x14, 0x00,
  0x00, 0x00, 0x18, 0x00, 0x12, 0x00, 0x00, 0x00, 0x03, 0x00, 0x00, 0x00,
  0x4c, 0x0e, 0x00, 0x00, 0x3c, 0x0b, 0x00, 0x00, 0x24, 0x0b, 0x00, 0x00,
  0x34, 0x00, 0x00, 0x00, 0x04, 0x00, 0x00, 0x00, 0x01, 0x00, 0x00, 0x00,
  0x04, 0x00, 0x00, 0x00, 0x58, 0xf2, 0xff, 0xff, 0x08, 0x00, 0x00, 0x00,
  0x08, 0x00, 0x00, 0x00, 0x13, 0x00, 0x00, 0x00, 0x6d, 0x69, 0x6e, 0x5f,
  0x72, 0x75, 0x6e, 0x74, 0x69, 0x6d, 0x65, 0x5f, 0x76, 0x65, 0x72, 0x73,
  0x69, 0x6f, 0x6e, 0x00, 0x09, 0x00, 0x00, 0x00, 0xe4, 0x0a, 0x00, 0x00,
  0xdc, 0x0a, 0x00, 0x00, 0x74, 0x08, 0x00, 0x00, 0x64, 0x08, 0x00, 0x00,
  0x58, 0x08, 0x00, 0x00, 0xc8, 0x00, 0x00, 0x00, 0x40, 0x00, 0x00, 0x00,
  0x1c, 0x00, 0x00, 0x00, 0x04, 0x00, 0x00, 0x00, 0xae, 0xf7, 0xff, 0xff,
  0x04, 0x00, 0x00, 0x00, 0x05, 0x00, 0x00, 0x00, 0x31, 0x2e, 0x35, 0x2e,
  0x30, 0x00, 0x00, 0x00, 0xc2, 0xf7, 0xff, 0xff, 0x04, 0x00, 0x00, 0x00,
  0x14, 0x00, 0x00, 0x00, 0x7c, 0x82, 0x03, 0x3e, 0xce, 0x05, 0x57, 0x3e,
  0xf4, 0xb8, 0x86, 0x3d, 0x73, 0xd7, 0xfc, 0x3d, 0x69, 0x75, 0xa5, 0x3d,
  0xe2, 0xf7, 0xff, 0xff, 0x04, 0x00, 0x00, 0x00, 0x78, 0x00, 0x00, 0x00,
  0x13, 0x02, 0xca, 0xbd, 0x7d, 0x3a, 0x65, 0x3e, 0x3e, 0x80, 0x3e, 0xbd,
  0x14, 0x53, 0xf1, 0x3d, 0x4d, 0xda, 0xc3, 0xbb, 0x8c, 0x2d, 0x0e, 0x3e,
  0x6c, 0x8e, 0x91, 0xbd, 0x40, 0x48, 0xd3, 0xbd, 0xf7, 0x15, 0x67, 0xbc,
  0x05, 0x0d, 0xac, 0xbd, 0x00, 0x00, 0x00, 0x00, 0x00, 0x00, 0x00, 0x00,
  0x00, 0x00, 0x00, 0x00, 0x00, 0x00, 0x00, 0x00, 0x00, 0x00, 0x00, 0x00,
  0x6c, 0x3d, 0x80, 0x3d, 0xe1, 0x38, 0xcc, 0xbd, 0x72, 0x1b, 0x20, 0xbd,
  0x00, 0x00, 0x00, 0x00, 0xc4, 0x85, 0x07, 0x3e, 0x00, 0x00, 0x00, 0x00,
  0x63, 0x01, 0x98, 0xbd, 0x42, 0x05, 0x35, 0xbd, 0x00, 0x00, 0x00, 0x00,
  0x00, 0x00, 0x00, 0x00, 0xf2, 0x68, 0x25, 0x3e, 0xac, 0xb8, 0xa4, 0x3d,
  0xe0, 0xf3, 0xe6, 0xbc, 0xb3, 0xc8, 0x02, 0x3e, 0xb7, 0x29, 0x0a, 0xbd,
  0x66, 0xf8, 0xff, 0xff, 0x04, 0x00, 0x00, 0x00, 0x80, 0x07, 0x00, 0x00,
  0x34, 0xe6, 0x5d, 0x3e, 0x73, 0x8d, 0x4a, 0x3e, 0x6e, 0xd8, 0x2c, 0x3e,
  0x55, 0xd7, 0x1b, 0x3e, 0x92, 0x00, 0x86, 0x3e, 0x15, 0x15, 0x46, 0xbe,
  0xd9, 0x2d, 0x1a, 0x3e, 0xea, 0x8b, 0x99, 0xbd, 0xb5, 0x13, 0x12, 0xbd,
  0x67, 0xf1, 0xa4, 0xbd, 0x1b, 0x10, 0xe9, 0x3d, 0xfa, 0x97, 0x87, 0x3e,
  0x59, 0xa5, 0x67, 0xbe, 0x27, 0xba, 0x64, 0x3e, 0xc0, 0x88, 0x5e, 0x3e,
  0xb7, 0x8e, 0x8d, 0xbe, 0x71, 0xa0, 0xf8, 0xbd, 0xad, 0x07, 0x5e, 0x3b,
  0xba, 0xa7, 0xde, 0x3e, 0x5f, 0x56, 0x7b, 0x3e, 0x53, 0x25, 0x07, 0x3e,
  0x46, 0x79, 0x9d, 0xbe, 0x86, 0x0e, 0xc6, 0xbc, 0x9d, 0x41, 0x3e, 0xbe,
  0xf5, 0xd6, 0xd5, 0xbd, 0xab, 0x27, 0x78, 0x3e, 0xd3, 0x1d, 0x77, 0xbe,
  0xd3, 0x25, 0x82, 0x3e, 0xab, 0xe1, 0xcd, 0xbd, 0xe7, 0x9f, 0xb3, 0x3c,
  0x20, 0xc3, 0x1c, 0xbe, 0x6d, 0x93, 0x33, 0xbe, 0x80, 0x0f, 0x81, 0xbd,
  0x75, 0x42, 0x92, 0x3e, 0xaf, 0xa9, 0xf9, 0x3d, 0x67, 0x39, 0x84, 0xbe,
  0xce, 0x28, 0x4a, 0x3d, 0xf4, 0x7f, 0xcf, 0xbc, 0xee, 0x83, 0xca, 0x3d,
  0x36, 0xb1, 0x5f, 0xbe, 0x98, 0x6b, 0xce, 0xbd, 0xb7, 0x8b, 0xcf, 0xbe,
  0x73, 0xa4, 0x82, 0x3e, 0x92, 0x05, 0x12, 0x3e, 0xbf, 0xc7, 0x02, 0xbe,
  0xbe, 0xe6, 0xf3, 0x3d, 0xfe, 0x99, 0xed, 0x3d, 0x7b, 0xf5, 0xc1, 0xbe,
  0x70, 0x58, 0x87, 0xbe, 0xf4, 0x6d, 0x55, 0x3e, 0xe8, 0x63, 0x73, 0x3d,
  0xec, 0xf8, 0x9e, 0xbe, 0x4c, 0xa8, 0x00, 0x3f, 0xf8, 0xf6, 0x2d, 0xbd,
  0x3d, 0x29, 0xa6, 0x3d, 0x0d, 0xef, 0x15, 0x3e, 0x90, 0x46, 0x2c, 0xbd,
  0xef, 0x25, 0x09, 0x3e, 0xfb, 0x7d, 0x24, 0xbe, 0x01, 0x8c, 0x53, 0xbe,
  0xf4, 0x0a, 0xeb, 0xbd, 0xac, 0x2a, 0x67, 0xbe, 0x5e, 0xaf, 0x98, 0x3e,
  0x80, 0x17, 0x0b, 0xbe, 0x71, 0x4f, 0x78, 0x3e, 0x1f, 0x19, 0x01, 0x3e,
  0x17, 0xd8, 0x62, 0xbe, 0xc7, 0xe0, 0x20, 0x3e, 0x3d, 0x5b, 0x12, 0x3e,
  0x43, 0x51, 0xeb, 0xbd, 0x5d, 0xb0, 0x76, 0xbe, 0xda, 0x29, 0xac, 0xbe,
  0x44, 0x88, 0x39, 0x3d, 0x83, 0xc3, 0x37, 0xbe, 0x4b, 0x9b, 0x50, 0xbe,
  0xee, 0x1a, 0xa1, 0xbe, 0x7e, 0x5c, 0x26, 0xbd, 0x00, 0xc1, 0x1c, 0x3e,
  0x10, 0x77, 0xdd, 0xbd, 0x02, 0x50, 0xb4, 0x3e, 0xf6, 0x29, 0xbc, 0x3e,
  0xf5, 0x8c, 0xa8, 0x3e, 0x91, 0x8a, 0x8e, 0xbe, 0x3d, 0x74, 0x8f, 0xbe,
  0xe6, 0x3c, 0xc6, 0xbc, 0x0c, 0x34, 0xd6, 0xbd, 0xec, 0x8f, 0xe8, 0x3d,
  0x3a, 0x04, 0x0f, 0xbd, 0x83, 0x6d, 0x2a, 0x3e, 0x47, 0x8c, 0x18, 0x3e,
  0x92, 0x34, 0xaf, 0x3d, 0xc8, 0x02, 0xb4, 0x3c, 0x51, 0x99, 0x6d, 0xbe,
  0x48, 0x50, 0xa1, 0x3d, 0x88, 0xf2, 0xfa, 0x3d, 0x9a, 0x78, 0xc5, 0x3d,
  0x8a, 0xfe, 0xce, 0x3e, 0xba, 0x35, 0x85, 0x3e, 0xaf, 0xc2, 0xad, 0x3e,
  0xc2, 0x11, 0xdf, 0xbd, 0xf6, 0xd8, 0x8c, 0x3e, 0xca, 0x74, 0xd1, 0xbd,
  0x4b, 0x3c, 0x92, 0xbe, 0x92, 0x40, 0x3c, 0x3e, 0x99, 0x58, 0x03, 0xbd,
  0x63, 0xb0, 0x66, 0xbe, 0xee, 0x7f, 0xc2, 0xbe, 0xc1, 0x95, 0x4d, 0xbe,
  0x06, 0xa3, 0x0f, 0xbd, 0x6f, 0x9f, 0x01, 0x3e, 0xce, 0x57, 0x12, 0xbe,
  0xa8, 0x60, 0x05, 0xbc, 0xa9, 0x13, 0x88, 0x3e, 0x99, 0x08, 0x82, 0x3e,
  0x5e, 0x1e, 0xf6, 0xbd, 0xed, 0x2c, 0x1c, 0xbe, 0x08, 0x93, 0x8d, 0x3e,
  0xca, 0x00, 0x2c, 0xbe, 0xf1, 0x17, 0xa1, 0xbe, 0xfc, 0x7d, 0x22, 0x3d,
  0xf9, 0xa9, 0x3a, 0x3d, 0xad, 0xc2, 0x6e, 0xbe, 0xb5, 0x4e, 0xa7, 0xbe,
  0xb1, 0x0f, 0x8f, 0x3e, 0x46, 0x65, 0x42, 0x3e, 0x81, 0x56, 0x1d, 0x3e,
  0x4a, 0x82, 0x03, 0x3d, 0x67, 0xc0, 0x82, 0x3e, 0x64, 0xba, 0xfd, 0xbd,
  0x6f, 0x8d, 0x2b, 0x3e, 0x1d, 0x88, 0x36, 0x3e, 0x1a, 0x5c, 0x8b, 0x3e,
  0x44, 0xf9, 0x60, 0xbe, 0x3a, 0x8e, 0x5b, 0xbe, 0xea, 0xd9, 0x9b, 0xbe,
  0x0a, 0xed, 0x1d, 0xbe, 0x1e, 0x5c, 0xa0, 0xbe, 0x5c, 0x26, 0x2c, 0x3e,
  0x14, 0xa7, 0x28, 0x3e, 0x8d, 0x5b, 0x33, 0x3d, 0x8a, 0x86, 0xbf, 0xbc,
  0x2f, 0xfe, 0xa1, 0xbd, 0xc3, 0x6d, 0x9f, 0x3d, 0xe7, 0x80, 0x5d, 0xbd,
  0xbc, 0x86, 0xb0, 0x3e, 0xb3, 0x16, 0x4e, 0x3e, 0x91, 0x20, 0x40, 0x3d,
  0xdc, 0x78, 0x83, 0xbd, 0xf4, 0x43, 0x7d, 0x3e, 0xe1, 0xf0, 0xec, 0xbd,
  0x8e, 0xa9, 0x88, 0x3d, 0x2a, 0x21, 0xee, 0x3d, 0xb2, 0xf4, 0x78, 0x3e,
  0x1d, 0x13, 0x68, 0xbe, 0xc8, 0x87, 0xa5, 0x3d, 0x74, 0x5f, 0xb4, 0xbd,
  0x70, 0x11, 0x38, 0xbe, 0x9b, 0x7f, 0xc9, 0xbe, 0x96, 0x28, 0x86, 0xbc,
  0xe1, 0x15, 0x72, 0x3e, 0x50, 0xdd, 0xff, 0xbc, 0xdb, 0xfc, 0xab, 0x3e,
  0xf0, 0x7a, 0x05, 0x3d, 0xe0, 0x54, 0xb4, 0x3d, 0xfc, 0x4f, 0xc4, 0xbd,
  0x60, 0xed, 0x0b, 0xbc, 0x31, 0xd9, 0x99, 0xbe, 0x38, 0xb6, 0x64, 0xbd,
  0x8b, 0xb4, 0x16, 0xbe, 0xe4, 0x42, 0xbc, 0xbd, 0x35, 0xa6, 0x5a, 0xbe,
  0x40, 0x5a, 0xbc, 0x3b, 0x00, 0x8f, 0xe7, 0xbb, 0x06, 0x4a, 0x23, 0x3e,
  0xd1, 0xbe, 0x09, 0xbe, 0x83, 0x9d, 0xa4, 0xbe, 0x24, 0xbf, 0xe8, 0x3d,
  0x40, 0x73, 0xa5, 0xbd, 0x3e, 0x4d, 0x9e, 0xbe, 0xc8, 0x34, 0x63, 0xbd,
  0x89, 0x6a, 0x02, 0xbe, 0x00, 0xe4, 0x08, 0xbe, 0x00, 0x88, 0xa7, 0xbd,
  0xd8, 0x67, 0x7a, 0xbe, 0xf8, 0x64, 0x04, 0x3e, 0x20, 0xd2, 0x58, 0x3d,
  0x32, 0xb4, 0x27, 0x3e, 0xee, 0xaf, 0x6f, 0x3e, 0x44, 0x0d, 0x9a, 0xbe,
  0xe0, 0x6f, 0x78, 0x3c, 0xf0, 0x04, 0x1a, 0xbd, 0xdc, 0x75, 0x88, 0xbe,
  0x88, 0xde, 0xa9, 0xbd, 0xe1, 0x05, 0x26, 0xbe, 0x3d, 0x89, 0x96, 0xbe,
  0x10, 0xd0, 0x1e, 0xbd, 0xb0, 0x1d, 0x62, 0xbd, 0x0a, 0x7a, 0x7a, 0x3e,
  0x1c, 0x59, 0xf3, 0xbd, 0xa7, 0xe4, 0x5c, 0xbe, 0xdc, 0xdb, 0x1d, 0xbe,
  0x8d, 0xa5, 0x2a, 0xbe, 0xae, 0x6b, 0x40, 0x3e, 0xaa, 0x50, 0x76, 0x3e,
  0xdb, 0x70, 0x59, 0xbe, 0x3d, 0x30, 0x68, 0xbe, 0x20, 0xb5, 0x5f, 0x3d,
  0xd9, 0x52, 0xa0, 0x3e, 0x12, 0x77, 0x1e, 0xbe, 0xbb, 0x0e, 0x66, 0xbe,
  0x00, 0xb4, 0x8f, 0xbd, 0xec, 0xb9, 0xe6, 0xbd, 0xec, 0x9d, 0xd4, 0xbd,
  0x88, 0xad, 0x82, 0xbd, 0xfa, 0x76, 0x3b, 0x3e, 0x84, 0x0d, 0xaa, 0xbe,
  0x8d, 0x76, 0xa4, 0x3e, 0x00, 0xbb, 0x00, 0xbb, 0x16, 0x98, 0x02, 0xbe,
  0x18, 0xa9, 0x26, 0xbd, 0x2a, 0x41, 0x5b, 0x3e, 0x90, 0xc9, 0xad, 0xbd,
  0xc0, 0xd3, 0xcc, 0xbd, 0x10, 0x12, 0x00, 0x3e, 0x22, 0x2a, 0xfa, 0xbd,
  0xb0, 0x7b, 0x1f, 0xbd, 0x98, 0xef, 0x9d, 0x3d, 0x8a, 0x78, 0x41, 0xbe,
  0xe4, 0x31, 0x80, 0xbe, 0x71, 0x7d, 0x85, 0xbe, 0x7a, 0x81, 0x34, 0x3e,
  0x88, 0x05, 0xa1, 0x3d, 0xff, 0x2b, 0xa9, 0xbe, 0x80, 0x27, 0x16, 0x3c,
  0x54, 0xb6, 0x93, 0xbd, 0x96, 0xf7, 0x33, 0x3e, 0xa4, 0x47, 0xdf, 0xbd,
  0xb8, 0x46, 0x67, 0xbd, 0xba, 0xb3, 0x11, 0x3e, 0x87, 0x3a, 0xad, 0x3e,
  0x17, 0x87, 0x87, 0x3e, 0x8b, 0x9b, 0xad, 0xbe, 0xd5, 0x69, 0xc2, 0x3e,
  0xe0, 0x16, 0x58, 0x3e, 0xca, 0xf4, 0x3e, 0x3e, 0x9c, 0x86, 0xd0, 0x3d,
  0xa4, 0x98, 0xf2, 0xbd, 0x75, 0xa9, 0xbb, 0xbe, 0x2d, 0xf2, 0x80, 0xbe,
  0x45, 0xda, 0x3e, 0xbe, 0xdc, 0x79, 0xa5, 0xbe, 0x81, 0xa9, 0x71, 0x3e,
  0x0e, 0xe6, 0x07, 0xbe, 0x60, 0xd4, 0xc5, 0x3e, 0x08, 0x38, 0xb0, 0xbd,
  0x49, 0x80, 0xa0, 0x3e, 0xe2, 0xa1, 0xc1, 0xbd, 0x34, 0xbb, 0x84, 0x3e,
  0x58, 0x3a, 0x02, 0x3e, 0x54, 0xfd, 0x93, 0xbd, 0x3b, 0xd9, 0xb3, 0xbd,
  0xaa, 0x76, 0x81, 0x3e, 0xdd, 0x34, 0x70, 0xbe, 0x56, 0x22, 0x36, 0x3e,
  0x97, 0xe1, 0xba, 0x3d, 0x8d, 0xee, 0x94, 0xbc, 0x16, 0x1f, 0x9f, 0x3d,
  0x0a, 0x66, 0x9e, 0x3c, 0x5f, 0x72, 0x44, 0x3c, 0x3d, 0x72, 0x90, 0xbd,
  0x7a, 0x8b, 0xa7, 0x3e, 0xd7, 0x42, 0xbb, 0xbe, 0xdb, 0x41, 0xaf, 0x3d,
  0x76, 0xe3, 0x98, 0xbe, 0x81, 0xad, 0x8c, 0xbd, 0xc0, 0x41, 0xbc, 0xbe,
  0xe8, 0x1f, 0xfa, 0x3c, 0x26, 0xe6, 0x8c, 0x3e, 0xe7, 0x75, 0x30, 0xbe,
  0xee, 0xfa, 0xa5, 0x3b, 0x08, 0x94, 0x8a, 0xbe, 0x93, 0xc6, 0x90, 0xbd,
  0xb9, 0x70, 0x25, 0x3e, 0x6c, 0xd7, 0x54, 0xbd, 0x36, 0xf9, 0xbf, 0xbc,
  0xd7, 0x5a, 0x88, 0x3d, 0x54, 0x62, 0x32, 0x3e, 0xf2, 0x08, 0x44, 0x3e,
  0x00, 0x06, 0xcb, 0x3d, 0x22, 0x3d, 0x85, 0xbe, 0x5a, 0x3e, 0x98, 0xbe,
  0x97, 0x12, 0x99, 0x3e, 0x60, 0xf4, 0x3b, 0xbd, 0x58, 0x96, 0xd2, 0xbd,
  0xc4, 0x48, 0xa2, 0xbe, 0x56, 0x72, 0x71, 0xbe, 0xfe, 0xae, 0x1c, 0x3e,
  0x18, 0x14, 0xab, 0x3d, 0x3e, 0x55, 0x2a, 0x3e, 0xb9, 0x25, 0x8c, 0x3e,
  0xdc, 0x4a, 0xee, 0x3d, 0x83, 0x4a, 0x91, 0xbe, 0x40, 0x7e, 0x0a, 0xbe,
  0xb1, 0x09, 0x23, 0xbe, 0xdf, 0xe8, 0xb2, 0x3e, 0xc8, 0xe3, 0xa2, 0xbd,
  0x86, 0x88, 0x8d, 0x3e, 0xf7, 0x79, 0x2d, 0x3e, 0x9c, 0x40, 0x12, 0x3d,
  0x98, 0x4b, 0x5e, 0x3e, 0x06, 0xbf, 0xdc, 0x3c, 0x0e, 0xde, 0x9e, 0x3e,
  0x4e, 0xf9, 0x3e, 0x3d, 0x11, 0x6e, 0x37, 0x3e, 0x75, 0xa1, 0x33, 0xbe,
  0xf7, 0x4c, 0xbc, 0xbc, 0x2b, 0xdd, 0xc4, 0x3d, 0x3d, 0x5e, 0x7b, 0x3e,
  0xcf, 0x8a, 0x43, 0x3e, 0x92, 0xbd, 0xee, 0x3d, 0x09, 0xcf, 0x3b, 0xbe,
  0xf2, 0xe2, 0x61, 0x3e, 0x8c, 0x6d, 0x9a, 0xbe, 0x2c, 0x0c, 0xa1, 0xbd,
  0xe0, 0x87, 0xda, 0xbc, 0xb7, 0xdc, 0x8d, 0x3e, 0xdb, 0xa5, 0x85, 0xbe,
  0x8f, 0xc0, 0x90, 0x3e, 0x18, 0x27, 0x37, 0xbd, 0x59, 0x58, 0xa5, 0x3e,
  0xf4, 0x18, 0xde, 0xbd, 0x73, 0xee, 0x85, 0xbe, 0x06, 0xd1, 0x8c, 0xbe,
  0xac, 0xe9, 0x94, 0xbd, 0xde, 0xc6, 0x97, 0xbe, 0x22, 0x56, 0x8d, 0xbe,
  0x01, 0xb6, 0x20, 0xbe, 0x18, 0x89, 0x89, 0x3e, 0xfa, 0x10, 0x5c, 0x3e,
  0xca, 0xda, 0x1c, 0xbe, 0x00, 0xac, 0x67, 0xbe, 0x4e, 0x77, 0x6b, 0x3e,
  0x1c, 0xaa, 0xc6, 0x3e, 0xe1, 0xd0, 0x9c, 0x3e, 0x50, 0x3d, 0x09, 0x3e,
  0x4a, 0x90, 0x0a, 0xbe, 0x32, 0xdb, 0x09, 0x3e, 0x82, 0xed, 0xc0, 0x3e,
  0x77, 0xe9, 0x22, 0x3c, 0xf6, 0x6c, 0x07, 0xbe, 0xf2, 0x79, 0x06, 0xbe,
  0x8a, 0xe7, 0x47, 0xbd, 0x7a, 0xfc, 0x9c, 0xbb, 0xf5, 0xc2, 0x35, 0x3e,
  0x19, 0x15, 0x2d, 0xbc, 0xd1, 0xab, 0x07, 0xbc, 0x5e, 0x5a, 0x88, 0x3e,
  0x08, 0xe6, 0x96, 0xbe, 0x6d, 0x7f, 0xfd, 0x3d, 0x54, 0xca, 0x4a, 0xbe,
  0xf8, 0x94, 0x39, 0x3e, 0x0f, 0x45, 0x54, 0x3e, 0x1d, 0xcb, 0x80, 0x3e,
  0xd0, 0x65, 0x85, 0xbe, 0x26, 0x0c, 0x5d, 0xbd, 0x41, 0x4c, 0xbe, 0xbe,
  0x6f, 0xe2, 0xae, 0xbe, 0xf2, 0xa5, 0x33, 0x3e, 0x71, 0x4c, 0xa4, 0x3e,
  0x67, 0xd3, 0x46, 0xbe, 0xc7, 0x6b, 0x88, 0xbe, 0x45, 0x76, 0x29, 0xbe,
  0xc0, 0xdf, 0xde, 0x3b, 0x88, 0x2b, 0x33, 0xbe, 0x90, 0x8b, 0xb5, 0x3c,
  0xa0, 0xd5, 0x42, 0xbc, 0x98, 0xf4, 0xbf, 0xbd, 0x59, 0xa6, 0x9c, 0xbe,
  0x43, 0xd6, 0x51, 0xbe, 0xf6, 0xc9, 0x5b, 0x3e, 0x7f, 0xc9, 0x3c, 0xbe,
  0xea, 0x38, 0x5a, 0x3e, 0x5f, 0xa4, 0x2b, 0xbe, 0x15, 0xd2, 0x96, 0x3e,
  0x94, 0x2f, 0x94, 0xbd, 0x50, 0x39, 0xd7, 0x3c, 0xee, 0x2a, 0x95, 0xbe,
  0xc8, 0x3a, 0x2b, 0xbd, 0x58, 0xed, 0x84, 0x3d, 0x1f, 0xb1, 0x35, 0xbe,
  0x38, 0xe7, 0x84, 0xbe, 0x82, 0x7b, 0x0e, 0x3e, 0x1c, 0xdf, 0xd4, 0xbd,
  0x33, 0xff, 0x93, 0xbe, 0xfa, 0x7c, 0x5a, 0x3e, 0x67, 0x9b, 0x99, 0x3e,
  0xdc, 0x74, 0x8a, 0x3d, 0xf6, 0x39, 0x32, 0xbe, 0x24, 0x1b, 0x0d, 0x3e,
  0x48, 0xf7, 0x9b, 0x3d, 0x3a, 0x9d, 0x1b, 0xbd, 0x07, 0x27, 0xbb, 0x3d,
  0xc1, 0xd4, 0x34, 0x3e, 0x44, 0x76, 0xb8, 0x3e, 0xc0, 0x10, 0xa6, 0xbd,
  0xb3, 0x27, 0x13, 0xbe, 0x6a, 0x11, 0xe3, 0xbe, 0x06, 0x12, 0x49, 0xbe,
  0xa5, 0x02, 0x89, 0x3c, 0x57, 0x5d, 0xee, 0xbd, 0xa7, 0xef, 0x1b, 0x3e,
  0x8f, 0x8a, 0x00, 0xbe, 0xf2, 0x8a, 0x2f, 0x3e, 0xf0, 0x53, 0x1c, 0xbe,
  0x4b, 0xd0, 0xb1, 0x3e, 0x80, 0xae, 0x24, 0xbe, 0x4c, 0xf1, 0x55, 0x3e,
  0x2d, 0xdf, 0x61, 0x3e, 0x27, 0x23, 0xc4, 0x3e, 0xf7, 0xd1, 0x8f, 0x3e,
  0x4b, 0x47, 0x88, 0x3e, 0xaf, 0xbe, 0x04, 0xbe, 0xae, 0x46, 0x4c, 0x3d,
  0xa0, 0xc0, 0xcf, 0x3c, 0x38, 0x36, 0x88, 0x3e, 0xeb, 0xb4, 0x72, 0x3e,
  0x6f, 0x11, 0xaa, 0x3d, 0xcd, 0xb8, 0xb0, 0x3e, 0x85, 0xfd, 0xa2, 0x3e,
  0xc1, 0x18, 0xa9, 0xbe, 0xdc, 0xc4, 0x6e, 0xbe, 0xf8, 0xa6, 0x12, 0xbe,
  0x7d, 0x40, 0x9e, 0x3c, 0x1f, 0xdf, 0xbd, 0xbe, 0xf5, 0xa3, 0xa6, 0xbe,
  0x17, 0xfa, 0x81, 0x3e, 0xca, 0xc8, 0x29, 0xbe, 0x85, 0xab, 0x0f, 0xbd,
  0xdf, 0xad, 0xdc, 0xbd, 0x83, 0xdb, 0x54, 0x3e, 0xe5, 0x20, 0xf8, 0x3c,
  0xb6, 0x51, 0x74, 0xbe, 0xd4, 0xce, 0xd5, 0x3d, 0xa5, 0x62, 0xc9, 0xbd,
  0xaa, 0x54, 0xa3, 0x3e, 0x38, 0xd0, 0x0c, 0x3e, 0x64, 0x0e, 0x84, 0x3d,
  0xc4, 0x01, 0x2d, 0xbe, 0x64, 0xb5, 0xa9, 0xbe, 0xc0, 0x59, 0xf5, 0x3b,
  0xba, 0xde, 0xe3, 0x3e, 0x0b, 0xd0, 0x41, 0x3e, 0x1c, 0xa4, 0xe4, 0xbd,
  0xe6, 0x5a, 0x3f, 0x3e, 0xd1, 0x91, 0x46, 0x3d, 0x8f, 0xf5, 0x3b, 0xbe,
  0x2d, 0x37, 0xcc, 0x3c, 0x14, 0x8f, 0xc8, 0x3d, 0x94, 0x60, 0xee, 0xbb,
  0xe6, 0x1b, 0xa7, 0xbb, 0x2a, 0x5c, 0x42, 0x3e, 0xba, 0x76, 0x1e, 0xbe,
  0xf5, 0x58, 0x9b, 0xbe, 0xee, 0x78, 0xf3, 0x3d, 0x1f, 0x3f, 0xca, 0x3d,
  0x62, 0x25, 0x2c, 0x3e, 0x94, 0x6d, 0x16, 0xbe, 0xf1, 0x8a, 0xc2, 0xbe,
  0xfe, 0x90, 0x84, 0xbd, 0x08, 0x4d, 0x1d, 0x3c, 0x76, 0xef, 0xa1, 0x3e,
  0xa0, 0x59, 0x28, 0x3d, 0x51, 0xa6, 0xa6, 0xbe, 0x4d, 0x52, 0x26, 0x3e,
  0x44, 0xa7, 0xb6, 0xbe, 0x4a, 0xcd, 0xc0, 0xbe, 0xab, 0xf3, 0x87, 0x3e,
  0x11, 0x01, 0x9c, 0x3e, 0xbf, 0x06, 0x30, 0x3e, 0x1c, 0x97, 0xdc, 0xbd,
  0x84, 0xfa, 0xff, 0xff, 0x04, 0x00, 0x06, 0x00, 0x04, 0x00, 0x00, 0x00,
  0x00, 0x00, 0x06, 0x00, 0x08, 0x00, 0x04, 0x00, 0x06, 0x00, 0x00, 0x00,
  0x04, 0x00, 0x00, 0x00, 0x58, 0x02, 0x00, 0x00, 0xd6, 0x84, 0xc9, 0xbd,
  0x8f, 0xba, 0xa1, 0x3e, 0xc8, 0x82, 0xa3, 0xbe, 0x37, 0x6b, 0x51, 0xbe,
  0xc1, 0x4c, 0x39, 0xbe, 0x6e, 0x62, 0xd8, 0x3d, 0x79, 0xac, 0x44, 0xbf,
  0xf4, 0x5e, 0xb2, 0xbe, 0xb9, 0xfc, 0x5f, 0x3b, 0x54, 0xc1, 0x50, 0xbd,
  0x46, 0x5c, 0x80, 0xbe, 0x07, 0x86, 0xa5, 0xbe, 0x45, 0x80, 0xac, 0x3e,
  0xd2, 0x67, 0x44, 0x3e, 0x16, 0xc2, 0x3b, 0xbe, 0xe3, 0xbc, 0xa7, 0xbe,
  0xba, 0x69, 0xaf, 0xbc, 0x53, 0x62, 0xba, 0x3b, 0x2c, 0x41, 0x86, 0xbe,
  0x63, 0xba, 0xe0, 0x3e, 0x8e, 0x27, 0x38, 0x3e, 0x01, 0xc4, 0x0a, 0x3d,
  0xb9, 0x36, 0xc1, 0x3e, 0xa8, 0x2b, 0x9d, 0xbe, 0x60, 0x84, 0xa8, 0xbe,
  0xac, 0x58, 0x7e, 0xbe, 0x79, 0xa5, 0xfd, 0x3d, 0xe9, 0xce, 0xb6, 0x3d,
  0x07, 0x29, 0xbd, 0x3d, 0x04, 0xb8, 0xba, 0xbe, 0x87, 0xe0, 0xa9, 0xbd,
  0x7a, 0xed, 0x16, 0x3f, 0xe2, 0xab, 0x82, 0x3e, 0x60, 0x23, 0xc3, 0x3e,
  0x4a, 0xd0, 0x6b, 0xbe, 0x37, 0x6e, 0xc1, 0x3c, 0x33, 0x50, 0xc0, 0x3e,
  0x30, 0xc0, 0x17, 0xbe, 0x42, 0xd3, 0x7c, 0x3e, 0x75, 0x40, 0x98, 0xbe,
  0xbe, 0x7d, 0x2e, 0x3e, 0x45, 0xbb, 0xc2, 0x3e, 0x4e, 0x6a, 0x5b, 0x3e,
  0x00, 0x83, 0xa6, 0x3d, 0x0b, 0x59, 0xbe, 0x3e, 0x41, 0xb8, 0xd8, 0x3e,
  0xad, 0xf6, 0x86, 0xbd, 0x3e, 0x92, 0x4b, 0xbe, 0xf2, 0x73, 0x66, 0x3e,
  0x60, 0xc4, 0x6a, 0x3e, 0x00, 0x1f, 0xa8, 0xbc, 0x04, 0x51, 0x78, 0xbe,
  0x62, 0x34, 0xc3, 0x3e, 0x32, 0x41, 0xae, 0xbe, 0xcc, 0x3d, 0xdf, 0x3d,
  0x1d, 0x7f, 0x5b, 0x3e, 0x10, 0x2d, 0x0f, 0xbe, 0xaa, 0xb3, 0x9d, 0x3e,
  0xb9, 0xa4, 0xef, 0x3e, 0x13, 0xb5, 0x94, 0xbe, 0xac, 0x15, 0x99, 0xbe,
  0x8a, 0x40, 0x1d, 0x3f, 0x4b, 0x71, 0xaa, 0xbe, 0x9f, 0xfc, 0x02, 0x3f,
  0xce, 0x80, 0xaa, 0xbb, 0x36, 0xe9, 0x93, 0xbe, 0xae, 0x26, 0x3f, 0x3e,
  0xb9, 0x08, 0x28, 0xbe, 0x8b, 0x34, 0xa5, 0xbe, 0x9f, 0x7a, 0xcc, 0xbe,
  0x96, 0x1c, 0xa4, 0xbe, 0xe8, 0xf5, 0x9e, 0x3d, 0x18, 0x3a, 0x1a, 0xbe,
  0x97, 0x25, 0x66, 0xbe, 0xe1, 0x7f, 0x99, 0x3e, 0x53, 0x27, 0xfd, 0x3e,
  0x35, 0xbf, 0x60, 0xbe, 0xff, 0xb8, 0x8f, 0xbe, 0xfb, 0xb1, 0x50, 0xbe,
  0x42, 0xe9, 0x96, 0x3e, 0xb2, 0xd8, 0x42, 0x3e, 0x4b, 0x01, 0x96, 0xbe,
  0x43, 0x51, 0x5a, 0x3c, 0x11, 0xce, 0xad, 0xbe, 0xb2, 0xc5, 0x57, 0x3e,
  0x4b, 0x0f, 0x9d, 0x3e, 0x55, 0xd9, 0xde, 0x3d, 0x66, 0x45, 0x63, 0xbe,
  0x31, 0x39, 0xb1, 0x3e, 0x68, 0xa2, 0x89, 0xbd, 0xce, 0x08, 0x7d, 0xbe,
  0xea, 0x7c, 0x08, 0x3e, 0xba, 0x9e, 0x05, 0x3e, 0xf4, 0x26, 0x8e, 0x3e,
  0x06, 0x87, 0xae, 0x3c, 0xff, 0x24, 0x6e, 0x3e, 0xe0, 0x09, 0x1c, 0xbe,
  0x3b, 0xc5, 0x05, 0xbe, 0x3c, 0x86, 0xb2, 0xbe, 0xb8, 0x2e, 0x6d, 0xbd,
  0x48, 0x93, 0x7c, 0x3d, 0x01, 0x09, 0xa3, 0x3e, 0x5f, 0x28, 0xab, 0x3e,
  0x76, 0xc1, 0x6d, 0x3e, 0x48, 0xbe, 0x96, 0xbd, 0xd4, 0xbf, 0x0d, 0xbd,
  0x92, 0xb6, 0x68, 0xbe, 0xeb, 0xd0, 0x1b, 0x3e, 0xb0, 0xc1, 0x82, 0x3d,
  0x83, 0x8c, 0x95, 0x3e, 0x8c, 0xe3, 0xa0, 0xbe, 0x17, 0x99, 0x16, 0x3d,
  0xee, 0xc7, 0x82, 0xbe, 0x4d, 0xa1, 0xcb, 0xbe, 0x60, 0x56, 0x79, 0xbe,
  0xcc, 0x30, 0xb2, 0x3e, 0x51, 0xb4, 0x34, 0x3d, 0x4e, 0x78, 0x85, 0xbe,
  0x36, 0x96, 0x21, 0xbd, 0xf7, 0x6c, 0xa3, 0xbd, 0x98, 0xd3, 0x00, 0xbe,
  0x60, 0xfa, 0x79, 0xbe, 0xad, 0xa2, 0xc2, 0xbd, 0xaa, 0x3e, 0xaa, 0x3d,
  0x54, 0x12, 0x84, 0xbd, 0x68, 0x43, 0x6b, 0x3e, 0x68, 0x9a, 0x4c, 0xbd,
  0x57, 0xe8, 0x1c, 0xbf, 0xac, 0xa7, 0x47, 0xbe, 0x40, 0xb2, 0x45, 0x3e,
  0xae, 0xec, 0x8d, 0xbe, 0x50, 0x8f, 0x8d, 0xbe, 0xb9, 0x72, 0x29, 0xbe,
  0xe1, 0xd4, 0xc8, 0x3e, 0x2a, 0x34, 0x7e, 0x3e, 0xd2, 0x0a, 0x4e, 0x3e,
  0x17, 0x8b, 0x9a, 0xbd, 0x71, 0x26, 0xae, 0xbe, 0xd8, 0x6d, 0x96, 0x3d,
  0x5d, 0x16, 0x9b, 0xbc, 0xbc, 0x58, 0x87, 0xbd, 0xcf, 0x0b, 0x83, 0x3e,
  0x73, 0xb0, 0xfb, 0xbd, 0x96, 0x05, 0x07, 0x3e, 0xc8, 0x4e, 0xc0, 0xbd,
  0x4d, 0x6d, 0x73, 0xbe, 0x1b, 0xac, 0xb8, 0x3e, 0x17, 0x06, 0x3d, 0x3e,
  0x46, 0x80, 0x82, 0xbd, 0xde, 0x30, 0x88, 0xbe, 0xfc, 0xfc, 0xff, 0xff,
  0x00, 0xfd, 0xff, 0xff, 0x0f, 0x00, 0x00, 0x00, 0x54, 0x4f, 0x43, 0x4f,
  0x20, 0x43, 0x6f, 0x6e, 0x76, 0x65, 0x72, 0x74, 0x65, 0x64, 0x2e, 0x00,
  0x01, 0x00, 0x00, 0x00, 0x10, 0x00, 0x00, 0x00, 0x0c, 0x00, 0x14, 0x00,
  0x04, 0x00, 0x08, 0x00, 0x0c, 0x00, 0x10, 0x00, 0x0c, 0x00, 0x00, 0x00,
  0xb8, 0x00, 0x00, 0x00, 0xac, 0x00, 0x00, 0x00, 0xa0, 0x00, 0x00, 0x00,
  0x04, 0x00, 0x00, 0x00, 0x02, 0x00, 0x00, 0x00, 0x58, 0x00, 0x00, 0x00,
  0x14, 0x00, 0x00, 0x00, 0x00, 0x00, 0x0e, 0x00, 0x14, 0x00, 0x00, 0x00,
  0x08, 0x00, 0x0c, 0x00, 0x07, 0x00, 0x10, 0x00, 0x0e, 0x00, 0x00, 0x00,
  0x00, 0x00, 0x00, 0x08, 0x18, 0x00, 0x00, 0x00, 0x0c, 0x00, 0x00, 0x00,
  0x04, 0x00, 0x00, 0x00, 0x70, 0xfd, 0xff, 0xff, 0x01, 0x00, 0x00, 0x00,
  0x00, 0x00, 0x00, 0x00, 0x03, 0x00, 0x00, 0x00, 0x04, 0x00, 0x00, 0x00,
  0x05, 0x00, 0x00, 0x00, 0x06, 0x00, 0x00, 0x00, 0x00, 0x00, 0x0e, 0x00,
  0x16, 0x00, 0x00, 0x00, 0x08, 0x00, 0x0c, 0x00, 0x07, 0x00, 0x10, 0x00,
  0x0e, 0x00, 0x00, 0x00, 0x00, 0x00, 0x00, 0x08, 0x24, 0x00, 0x00, 0x00,
  0x18, 0x00, 0x00, 0x00, 0x0c, 0x00, 0x00, 0x00, 0x00, 0x00, 0x06, 0x00,
  0x08, 0x00, 0x07, 0x00, 0x06, 0x00, 0x00, 0x00, 0x00, 0x00, 0x00, 0x01,
  0x01, 0x00, 0x00, 0x00, 0x04, 0x00, 0x00, 0x00, 0x03, 0x00, 0x00, 0x00,
  0x01, 0x00, 0x00, 0x00, 0x02, 0x00, 0x00, 0x00, 0x03, 0x00, 0x00, 0x00,
  0x01, 0x00, 0x00, 0x00, 0x00, 0x00, 0x00, 0x00, 0x01, 0x00, 0x00, 0x00,
  0x01, 0x00, 0x00, 0x00, 0x07, 0x00, 0x00, 0x00, 0x00, 0x02, 0x00, 0x00,
  0x98, 0x01, 0x00, 0x00, 0x38, 0x01, 0x00, 0x00, 0xf0, 0x00, 0x00, 0x00,
  0xac, 0x00, 0x00, 0x00, 0x4c, 0x00, 0x00, 0x00, 0x04, 0x00, 0x00, 0x00,
  0x2a, 0xfe, 0xff, 0xff, 0x38, 0x00, 0x00, 0x00, 0x07, 0x00, 0x00, 0x00,
  0x0c, 0x00, 0x00, 0x00, 0x04, 0x00, 0x00, 0x00, 0x1c, 0xfe, 0xff, 0xff,
  0x1e, 0x00, 0x00, 0x00, 0x73, 0x65, 0x71, 0x75, 0x65, 0x6e, 0x74, 0x69,
  0x61, 0x6c, 0x2f, 0x64, 0x65, 0x6e, 0x73, 0x65, 0x5f, 0x31, 0x2f, 0x4d,
  0x61, 0x74, 0x4d, 0x75, 0x6c, 0x5f, 0x62, 0x69, 0x61, 0x73, 0x00, 0x00,
  0x01, 0x00, 0x00, 0x00, 0x05, 0x00, 0x00, 0x00, 0x6e, 0xfe, 0xff, 0xff,
  0x4c, 0x00, 0x00, 0x00, 0x02, 0x00, 0x00, 0x00, 0x0c, 0x00, 0x00, 0x00,
  0x04, 0x00, 0x00, 0x00, 0x60, 0xfe, 0xff, 0xff, 0x32, 0x00, 0x00, 0x00,
  0x73, 0x65, 0x71, 0x75, 0x65, 0x6e, 0x74, 0x69, 0x61, 0x6c, 0x2f, 0x64,
  0x65, 0x6e, 0x73, 0x65, 0x5f, 0x31, 0x2f, 0x4d, 0x61, 0x74, 0x4d, 0x75,
  0x6c, 0x2f, 0x52, 0x65, 0x61, 0x64, 0x56, 0x61, 0x72, 0x69, 0x61, 0x62,
  0x6c, 0x65, 0x4f, 0x70, 0x2f, 0x74, 0x72, 0x61, 0x6e, 0x73, 0x70, 0x6f,
  0x73, 0x65, 0x00, 0x00, 0x02, 0x00, 0x00, 0x00, 0x05, 0x00, 0x00, 0x00,
  0x1e, 0x00, 0x00, 0x00, 0xca, 0xfe, 0xff, 0xff, 0x30, 0x00, 0x00, 0x00,
  0x03, 0x00, 0x00, 0x00, 0x0c, 0x00, 0x00, 0x00, 0x04, 0x00, 0x00, 0x00,
  0xbc, 0xfe, 0xff, 0xff, 0x15, 0x00, 0x00, 0x00, 0x73, 0x65, 0x71, 0x75,
  0x65, 0x6e, 0x74, 0x69, 0x61, 0x6c, 0x2f, 0x64, 0x65, 0x6e, 0x73, 0x65,
  0x2f, 0x52, 0x65, 0x6c, 0x75, 0x00, 0x00, 0x00, 0x02, 0x00, 0x00, 0x00,
  0x01, 0x00, 0x00, 0x00, 0x1e, 0x00, 0x00, 0x00, 0x0a, 0xff, 0xff, 0xff,
  0x38, 0x00, 0x00, 0x00, 0x06, 0x00, 0x00, 0x00, 0x0c, 0x00, 0x00, 0x00,
  0x04, 0x00, 0x00, 0x00, 0xfc, 0xfe, 0xff, 0xff, 0x1c, 0x00, 0x00, 0x00,
  0x73, 0x65, 0x71, 0x75, 0x65, 0x6e, 0x74, 0x69, 0x61, 0x6c, 0x2f, 0x64,
  0x65, 0x6e, 0x73, 0x65, 0x2f, 0x4d, 0x61, 0x74, 0x4d, 0x75, 0x6c, 0x5f,
  0x62, 0x69, 0x61, 0x73, 0x00, 0x00, 0x00, 0x00, 0x01, 0x00, 0x00, 0x00,
  0x1e, 0x00, 0x00, 0x00, 0x4e, 0xff, 0xff, 0xff, 0x4c, 0x00, 0x00, 0x00,
  0x05, 0x00, 0x00, 0x00, 0x0c, 0x00, 0x00, 0x00, 0x04, 0x00, 0x00, 0x00,
  0x40, 0xff, 0xff, 0xff, 0x30, 0x00, 0x00, 0x00, 0x73, 0x65, 0x71, 0x75,
  0x65, 0x6e, 0x74, 0x69, 0x61, 0x6c, 0x2f, 0x64, 0x65, 0x6e, 0x73, 0x65,
  0x2f, 0x4d, 0x61, 0x74, 0x4d, 0x75, 0x6c, 0x2f, 0x52, 0x65, 0x61, 0x64,
  0x56, 0x61, 0x72, 0x69, 0x61, 0x62, 0x6c, 0x65, 0x4f, 0x70, 0x2f, 0x74,
  0x72, 0x61, 0x6e, 0x73, 0x70, 0x6f, 0x73, 0x65, 0x00, 0x00, 0x00, 0x00,
  0x02, 0x00, 0x00, 0x00, 0x1e, 0x00, 0x00, 0x00, 0x10, 0x00, 0x00, 0x00,
  0xaa, 0xff, 0xff, 0xff, 0x44, 0x00, 0x00, 0x00, 0x01, 0x00, 0x00, 0x00,
  0x2c, 0x00, 0x00, 0x00, 0x0c, 0x00, 0x00, 0x00, 0x08, 0x00, 0x0c, 0x00,
  0x04, 0x00, 0x08, 0x00, 0x08, 0x00, 0x00, 0x00, 0x10, 0x00, 0x00, 0x00,
  0x04, 0x00, 0x00, 0x00, 0x01, 0x00, 0x00, 0x00, 0x00, 0x00, 0x7f, 0x43,
  0x01, 0x00, 0x00, 0x00, 0x00, 0x00, 0x00, 0x00, 0x0b, 0x00, 0x00, 0x00,
  0x64, 0x65, 0x6e, 0x73, 0x65, 0x5f, 0x69, 0x6e, 0x70, 0x75, 0x74, 0x00,
  0x02, 0x00, 0x00, 0x00, 0x01, 0x00, 0x00, 0x00, 0x10, 0x00, 0x00, 0x00,
  0x00, 0x00, 0x0e, 0x00, 0x14, 0x00, 0x04, 0x00, 0x00, 0x00, 0x08, 0x00,
  0x0c, 0x00, 0x10, 0x00, 0x0e, 0x00, 0x00, 0x00, 0x28, 0x00, 0x00, 0x00,
  0x04, 0x00, 0x00, 0x00, 0x10, 0x00, 0x00, 0x00, 0x08, 0x00, 0x00, 0x00,
  0x04, 0x00, 0x04, 0x00, 0x04, 0x00, 0x00, 0x00, 0x08, 0x00, 0x00, 0x00,
  0x49, 0x64, 0x65, 0x6e, 0x74, 0x69, 0x74, 0x79, 0x00, 0x00, 0x00, 0x00,
  0x02, 0x00, 0x00, 0x00, 0x01, 0x00, 0x00, 0x00, 0x05, 0x00, 0x00, 0x00,
  0x01, 0x00, 0x00, 0x00, 0x10, 0x00, 0x00, 0x00, 0x00, 0x00, 0x0a, 0x00,
  0x0c, 0x00, 0x07, 0x00, 0x00, 0x00, 0x08, 0x00, 0x0a, 0x00, 0x00, 0x00,
  0x00, 0x00, 0x00, 0x09, 0x03, 0x00, 0x00, 0x00
};

