#define TENSORFLOW_LITE_EXPERIMENTAL_MICRO_EXAMPLES_HELLO_WORLD_SINE_MODEL_DATA_H_

#ifdef __has_attribute
#define HAVE_ATTRIBUTE(x) __has_attribute(x)
#else
#define HAVE_ATTRIBUTE(x) 0
#endif
#if HAVE_ATTRIBUTE(aligned) || (defined(__GNUC__) && !defined(__clang__))
#define DATA_ALIGN_ATTRIBUTE __attribute__((aligned(4)))
#else
#define DATA_ALIGN_ATTRIBUTE
#endif

const int g_sine_model_data_len = 6532;
const unsigned char g_sine_model_data[] DATA_ALIGN_ATTRIBUTE = {
  0x1c, 0x00, 0x00, 0x00, 0x54, 0x46, 0x4c, 0x33, 0x00, 0x00, 0x12, 0x00,
  0x1c, 0x00, 0x04, 0x00, 0x08, 0x00, 0x0c, 0x00, 0x10, 0x00, 0x14, 0x00,
  0x00, 0x00, 0x18, 0x00, 0x12, 0x00, 0x00, 0x00, 0x03, 0x00, 0x00, 0x00,
  0x30, 0x19, 0x00, 0x00, 0xa0, 0x12, 0x00, 0x00, 0x88, 0x12, 0x00, 0x00,
  0x34, 0x00, 0x00, 0x00, 0x04, 0x00, 0x00, 0x00, 0x01, 0x00, 0x00, 0x00,
  0x04, 0x00, 0x00, 0x00, 0x74, 0xe7, 0xff, 0xff, 0x08, 0x00, 0x00, 0x00,
  0x11, 0x00, 0x00, 0x00, 0x13, 0x00, 0x00, 0x00, 0x6d, 0x69, 0x6e, 0x5f,
  0x72, 0x75, 0x6e, 0x74, 0x69, 0x6d, 0x65, 0x5f, 0x76, 0x65, 0x72, 0x73,
  0x69, 0x6f, 0x6e, 0x00, 0x12, 0x00, 0x00, 0x00, 0x48, 0x12, 0x00, 0x00,
  0x40, 0x12, 0x00, 0x00, 0x44, 0x0d, 0x00, 0x00, 0x34, 0x0d, 0x00, 0x00,
  0x28, 0x0d, 0x00, 0x00, 0x20, 0x0d, 0x00, 0x00, 0x18, 0x0d, 0x00, 0x00,
  0x10, 0x0d, 0x00, 0x00, 0x08, 0x0d, 0x00, 0x00, 0x00, 0x0d, 0x00, 0x00,
  0x0c, 0x06, 0x00, 0x00, 0xa8, 0x05, 0x00, 0x00, 0x5c, 0x05, 0x00, 0x00,
  0xc8, 0x01, 0x00, 0x00, 0x7c, 0x01, 0x00, 0x00, 0x40, 0x00, 0x00, 0x00,
  0x1c, 0x00, 0x00, 0x00, 0x04, 0x00, 0x00, 0x00, 0x02, 0xf3, 0xff, 0xff,
  0x04, 0x00, 0x00, 0x00, 0x06, 0x00, 0x00, 0x00, 0x31, 0x2e, 0x31, 0x34,
  0x2e, 0x30, 0x00, 0x00, 0x16, 0xf3, 0xff, 0xff, 0x04, 0x00, 0x00, 0x00,
  0x14, 0x00, 0x00, 0x00, 0x89, 0xb4, 0x53, 0xbd, 0x38, 0xd3, 0x63, 0x3d,
  0x97, 0xfc, 0x88, 0x3a, 0xf8, 0xbe, 0x6e, 0x3c, 0x63, 0x14, 0xc1, 0x3d,
  0x36, 0xf3, 0xff, 0xff, 0x04, 0x00, 0x00, 0x00, 0x2c, 0x01, 0x00, 0x00,
  0x0a, 0x87, 0x52, 0xbc, 0x8f, 0x2f, 0x8f, 0xbe, 0x16, 0x2d, 0x7b, 0x3e,
  0xcb, 0x10, 0xd3, 0xbe, 0x7a, 0xed, 0x3d, 0x3e, 0x3c, 0xbc, 0xce, 0x3d,
  0xb0, 0xaf, 0x20, 0xbd, 0xfd, 0x59, 0x9f, 0x3d, 0x11, 0x58, 0xb6, 0x3e,
  0xb2, 0xb8, 0xb7, 0x3e, 0x59, 0x91, 0x48, 0x3e, 0x98, 0xea, 0x69, 0x3e,
  0xa2, 0x65, 0x84, 0x3e, 0xc6, 0xf6, 0xc6, 0x3e, 0xec, 0xd8, 0x85, 0x3e,
  0x7c, 0x3a, 0xda, 0xbe, 0x07, 0x34, 0x6e, 0x3e, 0x24, 0x92, 0xfb, 0xbd,
  0x55, 0x5a, 0xf7, 0xbe, 0x3d, 0x7d, 0x9c, 0x3e, 0x0a, 0xfa, 0x17, 0x3f,
  0x37, 0xe6, 0x34, 0x3e, 0x2a, 0x0b, 0xc4, 0xbe, 0x31, 0xc9, 0x0a, 0xbf,
  0x84, 0xad, 0x13, 0x3f, 0xe0, 0x0c, 0xc8, 0x3e, 0x7e, 0x27, 0xcf, 0xbe,
  0xdc, 0xa6, 0xba, 0x3e, 0x4a, 0x59, 0x05, 0x3e, 0x26, 0x0f, 0xa4, 0xbd,
  0xdd, 0x7f, 0x05, 0x3f, 0xe2, 0x87, 0xc5, 0xbe, 0x36, 0xf5, 0xc9, 0x3e,
  0x39, 0xb9, 0x36, 0xbd, 0x48, 0x36, 0xf4, 0xbe, 0x72, 0x0e, 0xe1, 0x3e,
  0xd0, 0xb3, 0x49, 0x3e, 0xc8, 0x27, 0x94, 0xbe, 0xca, 0xd1, 0x3b, 0xbc,
  0x48, 0x14, 0xd3, 0x3d, 0x0b, 0x5b, 0x62, 0x3d, 0xd4, 0x91, 0x8c, 0x3e,
  0x66, 0x2c, 0xe3, 0x3e, 0xe9, 0x9b, 0x32, 0x3e, 0x1d, 0xbf, 0xb2, 0xbe,
  0x03, 0x18, 0xa4, 0xbe, 0xbc, 0x29, 0xf0, 0xbe, 0x9e, 0xfd, 0x3c, 0x3e,
  0x67, 0x30, 0x00, 0xbf, 0xdf, 0x9c, 0xa4, 0x3d, 0xa9, 0xc5, 0x0d, 0x3f,
  0x1e, 0x1a, 0x51, 0xbc, 0x5c, 0x71, 0x03, 0x3f, 0xb4, 0x97, 0xc4, 0x3e,
  0x27, 0x54, 0x03, 0x3f, 0x8f, 0xb7, 0x6a, 0x3e, 0xd4, 0x1e, 0xf8, 0xbe,
  0x1c, 0x99, 0xe7, 0x3e, 0xd6, 0x70, 0xe4, 0x3e, 0x73, 0x0c, 0x6d, 0xbe,
  0xc0, 0x9f, 0xa7, 0x3e, 0xc0, 0xaa, 0x8b, 0xbe, 0xa4, 0x85, 0x46, 0x3d,
  0xf8, 0x05, 0xcd, 0x3d, 0x27, 0xc7, 0x93, 0x3e, 0xb9, 0x37, 0x28, 0xbe,
  0x55, 0x95, 0x91, 0x3d, 0x9c, 0x91, 0xb9, 0x3e, 0x9b, 0x28, 0x0f, 0xbe,
  0xbc, 0x55, 0xfa, 0x3e, 0xbb, 0x79, 0xb2, 0x3c, 0xcb, 0xe2, 0x7d, 0xbe,
  0xa7, 0x57, 0xbc, 0x3e, 0x96, 0xc0, 0x91, 0xbe, 0x5a, 0xde, 0xbf, 0xbe,
  0x6e, 0xf4, 0xff, 0xff, 0x04, 0x00, 0x00, 0x00, 0x3c, 0x00, 0x00, 0x00,
  0x69, 0x9e, 0x80, 0xbc, 0x0e, 0xf5, 0xcc, 0xbc, 0x4e, 0xfe, 0x54, 0xbd,
  0x3a, 0x4d, 0x97, 0xbc, 0xb6, 0x6c, 0x8b, 0x3d, 0xd6, 0x4a, 0x54, 0x3c,
  0x78, 0x6e, 0x89, 0xbd, 0x65, 0x39, 0xd4, 0x3c, 0x15, 0x74, 0x78, 0xbd,
  0x82, 0xad, 0x6e, 0x3d, 0x3d, 0x3d, 0xd0, 0x3c, 0x52, 0x00, 0x67, 0xbd,
  0x59, 0x98, 0x42, 0x3d, 0x96, 0x7b, 0x7c, 0xbd, 0x97, 0x78, 0x8d, 0xbd,
  0xb6, 0xf4, 0xff, 0xff, 0x04, 0x00, 0x00, 0x00, 0x84, 0x03, 0x00, 0x00,
  0x90, 0xc6, 0x8e, 0x3e, 0xbd, 0x30, 0x8d, 0xbe, 0xa8, 0xa3, 0xd9, 0x3d,
  0x4d, 0x76, 0xd0, 0x3e, 0x03, 0x1d, 0xad, 0xbe, 0x4c, 0xdd, 0x99, 0xbb,
  0xe1, 0xe5, 0xe2, 0xbe, 0x75, 0xfa, 0xc5, 0xbe, 0xef, 0x74, 0xa0, 0x3e,
  0xfa, 0xe2, 0x81, 0xbe, 0x56, 0xe7, 0x36, 0xbe, 0xb8, 0x3f, 0x54, 0xbc,
  0xef, 0x48, 0x93, 0x3e, 0x7f, 0x6e, 0x29, 0xbe, 0x16, 0x21, 0x08, 0xbe,
  0xaf, 0x9a, 0x44, 0x3d, 0x54, 0x17, 0xc3, 0x3e, 0x28, 0x67, 0x79, 0x3e,
  0x34, 0xa3, 0x63, 0xbd, 0xef, 0xe5, 0xbc, 0x3e, 0x2b, 0x16, 0x7f, 0x3e,
  0x3c, 0x83, 0xb4, 0x3e, 0x51, 0x0c, 0xf9, 0xbd, 0xcf, 0x40, 0x28, 0xbe,
  0x67, 0x73, 0xc2, 0x3e, 0x02, 0x57, 0x35, 0xbe, 0xcd, 0x89, 0xe3, 0xbe,
  0xb3, 0x2a, 0xa4, 0x3e, 0x8e, 0x90, 0x7f, 0xbe, 0x99, 0x49, 0x9b, 0xbe,
  0x58, 0x97, 0x65, 0xbe, 0x3c, 0x63, 0x01, 0x3e, 0xa8, 0x58, 0xe2, 0xbd,
  0xe2, 0x7c, 0x3d, 0x3e, 0x12, 0xbe, 0xd4, 0xbe, 0xf0, 0xfe, 0xa4, 0x3e,
  0x92, 0x50, 0xb5, 0xbe, 0xd5, 0x66, 0x89, 0x3e, 0xbd, 0x97, 0xda, 0xbe,
  0x1a, 0x80, 0xaa, 0xbe, 0x1a, 0xad, 0xfa, 0xbe, 0x25, 0x5f, 0x00, 0xbe,
  0xa9, 0x30, 0xa0, 0xbe, 0x0b, 0x86, 0xa5, 0xbe, 0x82, 0x88, 0xe7, 0x3d,
  0x73, 0x0c, 0x5b, 0xbe, 0xae, 0x53, 0x57, 0x3d, 0x44, 0x1f, 0x3d, 0xbe,
  0x36, 0x88, 0x36, 0x3e, 0xef, 0xb2, 0x79, 0x3c, 0x34, 0xa2, 0x51, 0x3e,
  0x01, 0x98, 0xce, 0xbd, 0xc3, 0xf4, 0xc9, 0xbe, 0x00, 0x94, 0x8e, 0xbe,
  0xa8, 0xb6, 0x98, 0x3e, 0x0b, 0xed, 0xbf, 0x3e, 0x6b, 0x54, 0x02, 0x3d,
  0x46, 0xb5, 0xda, 0x3e, 0xef, 0x82, 0xa7, 0xbe, 0x4e, 0x06, 0xaf, 0x3d,
  0x7a, 0x38, 0xda, 0x3e, 0x1b, 0x39, 0x89, 0xbe, 0x59, 0x4a, 0x71, 0xbe,
  0x32, 0xff, 0xab, 0xbe, 0xe7, 0xd8, 0xfd, 0x3e, 0x2d, 0x5c, 0xb2, 0xbe,
  0xdf, 0xca, 0x02, 0x3f, 0x36, 0x9c, 0x4f, 0xbc, 0x02, 0xc2, 0x4b, 0xbe,
  0x87, 0xcc, 0x51, 0x3e, 0x91, 0xc4, 0x97, 0xbc, 0xb4, 0xbf, 0x38, 0xbe,
  0xc5, 0x49, 0x8c, 0x3d, 0x4a, 0x4c, 0xf4, 0xbc, 0xb2, 0xe1, 0xc6, 0xbd,
  0x15, 0xf1, 0xc7, 0xbe, 0x7a, 0xb0, 0x10, 0x3e, 0x0f, 0x30, 0xc2, 0x3e,
  0xd6, 0x82, 0xf0, 0x3e, 0xab, 0x0e, 0xd3, 0x3c, 0x76, 0xad, 0x93, 0x3e,
  0x9e, 0x1e, 0xa8, 0xbe, 0xd1, 0xfe, 0x09, 0x3e, 0x2d, 0x86, 0xf0, 0x3e,
  0x0b, 0x61, 0xa5, 0xbe, 0xb2, 0x82, 0x0d, 0x3e, 0x80, 0xa9, 0x5d, 0xbe,
  0x50, 0x1b, 0x84, 0x3e, 0xa3, 0x43, 0x98, 0x3e, 0x04, 0x69, 0xb3, 0x3e,
  0x92, 0x3f, 0x21, 0xbf, 0xac, 0xdb, 0x86, 0x3e, 0x9f, 0x58, 0xb0, 0x3d,
  0x9f, 0xe0, 0x1c, 0x3f, 0xbd, 0x61, 0x31, 0x3d, 0x47, 0xb5, 0x05, 0x3e,
  0xbc, 0xd9, 0x92, 0x3c, 0x99, 0xd3, 0x8f, 0xbe, 0xad, 0xb5, 0x39, 0x3f,
  0xcd, 0xbb, 0xd1, 0xbe, 0xb8, 0x36, 0x84, 0x3e, 0x7b, 0x54, 0x15, 0xbf,
  0xfd, 0x1b, 0x13, 0x3e, 0xc7, 0xd0, 0x24, 0xbe, 0x2f, 0x14, 0x18, 0xbf,
  0xb5, 0xcd, 0x8a, 0x3e, 0x09, 0x5a, 0xcb, 0xbd, 0x89, 0x27, 0xd3, 0x3e,
  0xba, 0xef, 0xd9, 0xbe, 0x06, 0x22, 0x2d, 0x3c, 0x27, 0x39, 0x6f, 0xbe,
  0xba, 0x98, 0x65, 0x3d, 0x32, 0xc3, 0x72, 0xbe, 0x3d, 0x29, 0xb3, 0xbe,
  0x50, 0xaf, 0x12, 0x3b, 0xc4, 0xf9, 0xba, 0x3e, 0xb2, 0x28, 0xdf, 0xbd,
  0xc2, 0x7f, 0xc0, 0xbe, 0x85, 0xce, 0xed, 0x3e, 0x1e, 0x64, 0xcd, 0xbd,
  0x93, 0x8a, 0x20, 0x3d, 0xf0, 0x00, 0x00, 0xbf, 0x88, 0xa7, 0x9c, 0x3e,
  0x8a, 0x4c, 0x04, 0xbf, 0x76, 0x4c, 0x3d, 0xbe, 0x0b, 0xbf, 0xf2, 0x3c,
  0xd6, 0x0f, 0x73, 0xbe, 0xfc, 0xea, 0xd9, 0xbd, 0x71, 0x36, 0xbc, 0xbd,
  0xcf, 0x64, 0x47, 0xbe, 0xef, 0xd9, 0xd7, 0x3d, 0x0b, 0x36, 0x61, 0xbe,
  0x72, 0x26, 0xdd, 0xbe, 0xf4, 0xda, 0x61, 0xbe, 0x8a, 0xa7, 0xb8, 0x3b,
  0x17, 0x3d, 0x8c, 0xbe, 0xb0, 0xea, 0x79, 0xbc, 0xdf, 0x9e, 0x6d, 0x3e,
  0xcf, 0xd4, 0x02, 0x3e, 0x86, 0x51, 0x71, 0x3e, 0x39, 0x45, 0x82, 0xbe,
  0x8a, 0x8e, 0x9d, 0x3d, 0x64, 0x32, 0x07, 0xbe, 0x51, 0x21, 0x68, 0xbe,
  0x2e, 0x94, 0x51, 0xbe, 0x3a, 0xb3, 0xb0, 0xbe, 0xe4, 0x36, 0x47, 0xbe,
  0xfc, 0x11, 0x5b, 0x3e, 0x89, 0xdb, 0xb3, 0xbe, 0xe2, 0xf9, 0xe1, 0x3c,
  0x56, 0x11, 0x7d, 0xbe, 0x53, 0x3c, 0xe9, 0x3e, 0x75, 0x5b, 0xa0, 0xbe,
  0xff, 0x36, 0xad, 0x3c, 0x48, 0xad, 0x9b, 0xbe, 0x28, 0x0e, 0x28, 0x3e,
  0xeb, 0x09, 0x55, 0xbd, 0x94, 0xbe, 0x72, 0xbd, 0x25, 0x65, 0x2b, 0x3e,
  0x79, 0xb1, 0xb1, 0xbe, 0x6b, 0xfc, 0x9e, 0x3d, 0xf7, 0xab, 0x97, 0xbd,
  0x4a, 0x4c, 0x51, 0x3e, 0x99, 0x3d, 0x44, 0x3e, 0x2e, 0x6e, 0xab, 0x3a,
  0x3c, 0xd4, 0xc9, 0x3d, 0x78, 0xa2, 0x33, 0x3e, 0x08, 0x67, 0xc7, 0xbe,
  0x6e, 0x9c, 0xaf, 0x3e, 0xca, 0xa1, 0xb7, 0x3e, 0x58, 0x4c, 0x8c, 0xbe,
  0x25, 0x5e, 0x6e, 0x3e, 0xf6, 0x07, 0x5c, 0xbe, 0x61, 0x1f, 0xa7, 0xbd,
  0x6b, 0xef, 0x85, 0x3e, 0xa1, 0x16, 0x5d, 0x3e, 0x8b, 0xb4, 0x7c, 0x3d,
  0x93, 0x6e, 0x24, 0xbd, 0xf1, 0x18, 0x24, 0xbd, 0xd2, 0x44, 0x2e, 0xbe,
  0x0d, 0x73, 0x11, 0xbd, 0x3e, 0x0c, 0xbd, 0x3e, 0x16, 0x3d, 0x9c, 0xbe,
  0xa2, 0xea, 0xaf, 0x3e, 0x60, 0x91, 0xb9, 0x3d, 0xe2, 0x2b, 0x1f, 0xbd,
  0xfc, 0xd3, 0x77, 0x3e, 0xd3, 0x40, 0xbe, 0x3e, 0xa1, 0xf2, 0xb6, 0x3e,
  0xc1, 0x5b, 0x0b, 0x3d, 0x1c, 0xb0, 0xc2, 0xbe, 0x5b, 0xae, 0xb8, 0x3c,
  0x25, 0xda, 0x82, 0x3e, 0x84, 0x44, 0x94, 0x3c, 0x4f, 0xfc, 0xca, 0xbe,
  0xbf, 0x65, 0xca, 0xbe, 0x69, 0x5d, 0xfc, 0xbe, 0x19, 0xdf, 0xbb, 0xbe,
  0x89, 0xa5, 0x3d, 0xbd, 0x8d, 0x25, 0x8c, 0xbe, 0xa9, 0xb7, 0x9a, 0x3e,
  0xf5, 0x5d, 0xe1, 0xbd, 0xeb, 0x15, 0x33, 0x3d, 0xf8, 0xf5, 0xf1, 0xbe,
  0x5c, 0x62, 0xb9, 0xbe, 0xd3, 0x3e, 0x8a, 0xbe, 0xa6, 0xda, 0xac, 0x3e,
  0xf7, 0x0b, 0x2a, 0xbe, 0x8e, 0xad, 0x5d, 0x3e, 0x82, 0xc3, 0xf9, 0x3b,
  0x77, 0x70, 0xa0, 0x3e, 0x15, 0x26, 0x80, 0x3e, 0xf3, 0xc8, 0xad, 0xbe,
  0x52, 0x0e, 0xea, 0x3d, 0xc1, 0xbf, 0x6b, 0x3e, 0xb8, 0x81, 0xa4, 0xbe,
  0xbd, 0x44, 0xf4, 0xbe, 0x21, 0x53, 0x9b, 0x3e, 0x63, 0x39, 0x21, 0xbe,
  0xab, 0xac, 0x57, 0xbe, 0xc2, 0x2a, 0x8f, 0x3d, 0x43, 0x98, 0x83, 0x3e,
  0x82, 0xa0, 0x8e, 0xbd, 0xa9, 0x96, 0xbe, 0x3e, 0x7c, 0x0f, 0x59, 0x3e,
  0x46, 0xf8, 0xff, 0xff, 0x04, 0x00, 0x00, 0x00, 0x3c, 0x00, 0x00, 0x00,
  0x98, 0x2a, 0x5f, 0xbc, 0xab, 0xee, 0x99, 0xbc, 0x26, 0xf0, 0x42, 0x3d,
  0xae, 0x5e, 0x13, 0xbd, 0x4d, 0x24, 0x80, 0xbc, 0x8d, 0x99, 0x45, 0xbd,
  0x5d, 0x06, 0x0a, 0x3d, 0x80, 0xbf, 0x3a, 0xb9, 0xec, 0xb0, 0x80, 0xbd,
  0x62, 0x02, 0x46, 0xbc, 0x26, 0x4d, 0x63, 0xbd, 0xa0, 0xba, 0x6f, 0xbd,
  0x7e, 0xee, 0x2d, 0x3d, 0x8b, 0xd9, 0x8d, 0xbc, 0x15, 0x23, 0x72, 0xbd,
  0x8e, 0xf8, 0xff, 0xff, 0x04, 0x00, 0x00, 0x00, 0x54, 0x00, 0x00, 0x00,
  0xdb, 0xab, 0x47, 0x3d, 0x3c, 0x62, 0x9d, 0x3d, 0x26, 0x18, 0xdc, 0x3c,
  0x21, 0x32, 0x46, 0xbd, 0x21, 0x03, 0x61, 0x3d, 0x81, 0x85, 0x72, 0xbd,
  0x77, 0x68, 0xcb, 0xbd, 0x62, 0xcc, 0x49, 0xbc, 0xbd, 0x1f, 0x3c, 0xbd,
  0x54, 0xe6, 0x81, 0xbd, 0x80, 0xf2, 0x5d, 0xbc, 0x6e, 0xc6, 0x9e, 0x3a,
  0xd0, 0xd4, 0xf9, 0xbc, 0x93, 0x8b, 0x94, 0x3d, 0x1b, 0xd1, 0xc6, 0xbd,
  0xc8, 0x96, 0xb1, 0xbc, 0xe9, 0x6b, 0x75, 0xbd, 0xad, 0x9f, 0x78, 0x3c,
  0x5d, 0xb2, 0x72, 0x3c, 0x44, 0x8a, 0x72, 0x3c, 0x25, 0xa4, 0xae, 0xbb,
  0xee, 0xf8, 0xff, 0xff, 0x04, 0x00, 0x00, 0x00, 0xe4, 0x06, 0x00, 0x00,
  0xbc, 0x04, 0xf9, 0xba, 0xd0, 0xed, 0x32, 0xbe, 0x44, 0x84, 0x1d, 0x3d,
  0x53, 0x1b, 0x25, 0xbd, 0x47, 0x9d, 0xa7, 0x3e, 0x76, 0x65, 0x95, 0x3d,
  0xcb, 0x88, 0xc6, 0x3d, 0x21, 0xc1, 0x60, 0x3e, 0x87, 0xd1, 0xcd, 0xbd,
  0x92, 0x49, 0xf1, 0x3c, 0x8b, 0x47, 0xfd, 0xbd, 0x70, 0xee, 0xa7, 0xbb,
  0x46, 0x65, 0x62, 0xbe, 0x3c, 0x78, 0x14, 0x3e, 0x28, 0xb3, 0xfc, 0xbd,
  0x51, 0x04, 0x6e, 0xbe, 0xe7, 0x6a, 0x27, 0x3e, 0xe5, 0x43, 0x09, 0xbe,
  0xf9, 0x12, 0x15, 0x3e, 0x1c, 0x6d, 0x53, 0xbe, 0x53, 0x29, 0x92, 0x3e,
  0x8f, 0xeb, 0xbc, 0x3d, 0xb5, 0x46, 0x3e, 0xbe, 0xcd, 0x9b, 0x05, 0xbe,
  0x75, 0xb7, 0x83, 0x3d, 0xb4, 0xea, 0x8c, 0xbe, 0x30, 0x5a, 0x41, 0x3e,
  0x50, 0xfe, 0x1d, 0xbe, 0x2a, 0x20, 0xe2, 0x3e, 0x01, 0x45, 0xf3, 0x3d,
  0x78, 0xe2, 0x39, 0xbe, 0x60, 0xe3, 0xaa, 0x3c, 0x33, 0x3a, 0x1a, 0x3e,
  0x14, 0xfd, 0xf2, 0x3e, 0x82, 0xe1, 0x5e, 0xbe, 0x42, 0x6e, 0x37, 0xbe,
  0xe7, 0x42, 0x35, 0x3d, 0x52, 0x70, 0xe2, 0x3e, 0x7b, 0xe7, 0x1c, 0xbf,
  0xe3, 0xb4, 0x53, 0xbf, 0x07, 0xe1, 0x7f, 0xbe, 0xc7, 0x30, 0x78, 0x3e,
  0x7e, 0x95, 0x31, 0xbe, 0xfd, 0x87, 0x52, 0xbd, 0xd1, 0x68, 0x5e, 0x3e,
  0xa1, 0xd5, 0x94, 0x3e, 0x4a, 0x6e, 0x8c, 0x3e, 0x1c, 0xbb, 0x53, 0x3d,
  0xc3, 0x43, 0x3e, 0x3d, 0x7d, 0x47, 0x42, 0x3e, 0xbb, 0x00, 0xc4, 0xbc,
  0xbe, 0xf5, 0x74, 0x3e, 0x30, 0x01, 0x56, 0xbe, 0xe7, 0x85, 0x65, 0xbe,
  0x9b, 0x6d, 0x6e, 0x3e, 0xee, 0x22, 0x84, 0xbe, 0xee, 0x7a, 0x8e, 0x3c,
  0x7c, 0x80, 0x9a, 0x3e, 0x6a, 0x8c, 0x20, 0xbe, 0x26, 0xf2, 0xbd, 0x3e,
  0x90, 0x91, 0x09, 0x3c, 0x60, 0x96, 0x76, 0x3e, 0x77, 0x88, 0x4f, 0x3e,
  0x42, 0xe2, 0x81, 0x3e, 0x95, 0xe5, 0x3b, 0xbd, 0x60, 0x4e, 0xe6, 0xbe,
  0x81, 0x38, 0xce, 0xbe, 0x48, 0x00, 0x48, 0xbe, 0xa9, 0x03, 0xa6, 0x3e,
  0xba, 0xd9, 0xe8, 0xbd, 0x06, 0xd7, 0x65, 0x3f, 0x7c, 0x10, 0x43, 0xbf,
  0x2d, 0x50, 0xf4, 0x3c, 0xf5, 0x65, 0x0f, 0x3c, 0xfd, 0xc6, 0x90, 0x3c,
  0x95, 0xb4, 0xc3, 0x3e, 0xb8, 0xc3, 0xe3, 0x3e, 0xc1, 0xf9, 0x0c, 0x3e,
  0xcd, 0x33, 0xf4, 0x3e, 0x49, 0x99, 0xac, 0x3e, 0xe2, 0x06, 0x31, 0xbf,
  0x1c, 0x83, 0x88, 0xbf, 0xc3, 0xc2, 0x1e, 0x3c, 0x09, 0xfe, 0xd4, 0xbc,
  0x27, 0xb9, 0x7b, 0xbe, 0x31, 0xd3, 0xf0, 0x3d, 0xa8, 0xa5, 0xdc, 0x3d,
  0x84, 0xd8, 0xfa, 0xbd, 0x5a, 0xc7, 0x74, 0x3e, 0xaa, 0x47, 0xfa, 0xbe,
  0xa5, 0xce, 0x02, 0xbf, 0xff, 0xaf, 0x43, 0xbe, 0x3e, 0x87, 0x82, 0x3e,
  0xc0, 0x81, 0x6d, 0xbe, 0xd4, 0xf3, 0xf8, 0x3d, 0xbe, 0x06, 0x8c, 0x3d,
  0x0e, 0x60, 0x51, 0xbe, 0x23, 0x11, 0x17, 0x3e, 0x36, 0x45, 0x54, 0xbe,
  0x4a, 0x93, 0xa1, 0xbc, 0xdd, 0x8d, 0x02, 0xbf, 0x16, 0x27, 0xca, 0x3e,
  0x5b, 0xcf, 0x24, 0x3f, 0x55, 0x90, 0x92, 0x3e, 0x65, 0xaa, 0x92, 0xbe,
  0xb9, 0x01, 0x1a, 0x3d, 0x4c, 0x0a, 0xb2, 0xbd, 0xb7, 0x79, 0xd0, 0x3d,
  0x95, 0x17, 0x8b, 0xbe, 0xaa, 0x19, 0xd0, 0xba, 0xc2, 0x7f, 0x77, 0x3d,
  0xd9, 0xf0, 0xb6, 0xbd, 0xa4, 0x46, 0x9f, 0xbe, 0x89, 0x04, 0xd0, 0xbe,
  0x3d, 0xa9, 0x08, 0x3d, 0x53, 0x14, 0x85, 0x3e, 0x62, 0xbc, 0x68, 0x3d,
  0xa3, 0x47, 0xbb, 0x3c, 0x53, 0xe2, 0xb9, 0xbe, 0x95, 0x0d, 0xd6, 0xbd,
  0xbc, 0x09, 0x63, 0xbe, 0xd7, 0x8e, 0xe2, 0xbe, 0x7c, 0x0b, 0xbe, 0x3e,
  0xef, 0x2e, 0x43, 0xbe, 0x68, 0x91, 0x63, 0x3e, 0x61, 0xcc, 0x07, 0xbf,
  0x46, 0x79, 0xc8, 0x3d, 0x09, 0xfe, 0x36, 0xbe, 0x53, 0x29, 0x87, 0x3e,
  0x14, 0x40, 0xde, 0x3c, 0x50, 0xb4, 0x7f, 0xbc, 0x31, 0x32, 0xf3, 0xbd,
  0xce, 0x36, 0x7b, 0xbd, 0x55, 0x64, 0x4c, 0xbe, 0x9c, 0xd1, 0xb5, 0x3e,
  0xa9, 0x6c, 0x06, 0x3c, 0x61, 0xff, 0x4f, 0xbd, 0x0c, 0xeb, 0x33, 0xbe,
  0xcd, 0xa9, 0x0a, 0x3e, 0xcb, 0x5a, 0x1d, 0x3e, 0x4c, 0x85, 0x11, 0xbf,
  0x8f, 0xac, 0x0b, 0x3e, 0x07, 0x53, 0x30, 0xbf, 0x49, 0x36, 0x71, 0x3f,
  0x68, 0xc1, 0x06, 0x3f, 0x88, 0x91, 0xe6, 0xbd, 0xd5, 0x6a, 0x21, 0xbe,
  0x2b, 0xc4, 0x4b, 0x3d, 0x50, 0x8b, 0x93, 0x3e, 0x99, 0xa2, 0xe2, 0xbd,
  0xb5, 0x2b, 0x11, 0x3e, 0x0b, 0x9a, 0x93, 0xbd, 0x30, 0x2c, 0x4f, 0x3e,
  0x66, 0x9e, 0x6d, 0xbe, 0x90, 0xe6, 0xa4, 0x3d, 0x10, 0x04, 0xd2, 0x3d,
  0xce, 0x0c, 0xc3, 0x3e, 0xa4, 0x42, 0x78, 0x3e, 0x42, 0xbf, 0x69, 0xbe,
  0x32, 0x9f, 0x0f, 0x3e, 0xdc, 0xd8, 0xd8, 0xbe, 0x57, 0x44, 0xbf, 0xbe,
  0x79, 0xd4, 0x51, 0x3c, 0x6c, 0x00, 0xe5, 0x3c, 0x2a, 0x47, 0x8a, 0x3e,
  0xfb, 0xbb, 0x43, 0x3f, 0x7d, 0xf2, 0x96, 0xbe, 0x7c, 0x9a, 0xc1, 0x3e,
  0xf8, 0xfc, 0x73, 0x3e, 0x9c, 0x2b, 0xcc, 0x3d, 0x5c, 0x4f, 0x9b, 0x3e,
  0xe5, 0x3c, 0x51, 0x3e, 0xd5, 0xa0, 0x57, 0x3e, 0x4b, 0xcb, 0x58, 0xbe,
  0x25, 0xbb, 0x63, 0xbe, 0x23, 0x93, 0xec, 0xbe, 0x9c, 0x2c, 0x3d, 0x3e,
  0x7c, 0x05, 0x9a, 0xbe, 0x03, 0x8c, 0x39, 0xbc, 0x7b, 0x11, 0x85, 0x3d,
  0x1f, 0x4d, 0x03, 0xbf, 0x29, 0x90, 0x07, 0x3d, 0x42, 0x78, 0xc3, 0xbe,
  0x08, 0x0c, 0x1f, 0xbf, 0x7b, 0x57, 0x38, 0x3e, 0x02, 0x06, 0x91, 0x3e,
  0x4b, 0xf2, 0x31, 0x3e, 0x3f, 0x84, 0x92, 0x3e, 0x88, 0x7b, 0x27, 0x3b,
  0x09, 0xd7, 0xb0, 0x3d, 0xd4, 0xdc, 0xcf, 0xbe, 0x1f, 0xf6, 0x8a, 0xbd,
  0x20, 0x9c, 0x0c, 0xbd, 0xc3, 0xf2, 0x22, 0x3d, 0xcd, 0xba, 0x87, 0xbe,
  0xea, 0x96, 0xdf, 0xbe, 0x2d, 0xee, 0x9b, 0xbe, 0x27, 0xf0, 0xb3, 0x3d,
  0x0d, 0x3d, 0x37, 0xbe, 0x6d, 0x23, 0x45, 0xbe, 0x86, 0xd4, 0x2c, 0xbe,
  0x37, 0xd4, 0x7a, 0x3e, 0x17, 0xd9, 0x8a, 0xbe, 0x2d, 0x88, 0x8b, 0x3e,
  0x12, 0x43, 0x1e, 0xbf, 0x90, 0xee, 0x19, 0x3e, 0x8c, 0x4d, 0x8e, 0x3c,
  0x24, 0xf8, 0xc6, 0x3e, 0x72, 0xde, 0x05, 0x3d, 0xfa, 0x5c, 0x9a, 0xbe,
  0xf1, 0xd5, 0xe2, 0x3d, 0xc0, 0x83, 0x8e, 0x3e, 0x74, 0x6b, 0x96, 0x3e,
  0xf1, 0xec, 0x12, 0xbe, 0x15, 0xb3, 0x22, 0xbe, 0x0b, 0x01, 0xd2, 0x3e,
  0xa8, 0x42, 0x9c, 0x3e, 0x93, 0x2f, 0x6f, 0x3c, 0x0f, 0xa0, 0xb5, 0x3e,
  0xd2, 0x58, 0xa0, 0xbe, 0x9c, 0x8e, 0xb1, 0xbe, 0x87, 0x09, 0x29, 0xbe,
  0x95, 0x6b, 0xe4, 0xbd, 0xd6, 0xe5, 0x5d, 0xbe, 0xf2, 0x42, 0x07, 0xbe,
  0xec, 0x17, 0x7e, 0x3e, 0x36, 0xad, 0x42, 0xbd, 0xde, 0x92, 0xd5, 0x3e,
  0xc9, 0x82, 0xa5, 0x3e, 0x57, 0xa0, 0x6b, 0xbd, 0x91, 0x27, 0xec, 0x3e,
  0x56, 0x28, 0xbd, 0x3e, 0x73, 0x86, 0x1a, 0xbd, 0xa3, 0x01, 0xc1, 0x3e,
  0x3a, 0x03, 0x1b, 0xbe, 0xb5, 0xb8, 0x34, 0xbd, 0x21, 0xae, 0x7d, 0xbe,
  0x80, 0x53, 0x15, 0xbe, 0xae, 0x28, 0x2a, 0x3e, 0x1b, 0x40, 0x86, 0xbe,
  0xc9, 0x77, 0x9e, 0x3e, 0x6f, 0x61, 0x28, 0x3e, 0xce, 0xbc, 0x7c, 0xbe,
  0xcf, 0xfd, 0x9f, 0xbe, 0xe5, 0xa8, 0xb9, 0x3e, 0x1c, 0xd5, 0xc4, 0xbc,
  0x73, 0xb0, 0x06, 0xbe, 0xd7, 0x76, 0xe7, 0x3d, 0x1b, 0xae, 0x60, 0x3e,
  0x24, 0xce, 0x9d, 0x3e, 0x92, 0xc8, 0x12, 0xbe, 0x3d, 0x74, 0x1e, 0x3e,
  0x78, 0x35, 0xa0, 0x3d, 0x3a, 0xd2, 0xbb, 0xbe, 0x8c, 0xe3, 0x91, 0xbd,
  0x01, 0x9f, 0x57, 0x3e, 0x10, 0x21, 0x22, 0x3d, 0x8f, 0x0d, 0x13, 0x3e,
  0x47, 0xd5, 0x12, 0xbe, 0x8c, 0x37, 0xb6, 0xbe, 0x1c, 0x25, 0x40, 0x3e,
  0xec, 0xfb, 0x34, 0xbd, 0x52, 0x06, 0x1b, 0x3e, 0xd8, 0xc2, 0x12, 0xbe,
  0xeb, 0x6b, 0x93, 0xbd, 0xbd, 0xb1, 0x3d, 0x3e, 0x8a, 0x4e, 0x52, 0x3d,
  0xee, 0x94, 0x80, 0x3e, 0x17, 0x4b, 0x9f, 0x3e, 0x91, 0x68, 0x05, 0xbe,
  0x98, 0xed, 0xee, 0x3c, 0xc5, 0xb5, 0xed, 0x3a, 0xb8, 0xb3, 0x30, 0x3e,
  0xb1, 0x24, 0xcf, 0xbe, 0xc2, 0x00, 0x01, 0xbe, 0x3f, 0xa4, 0xca, 0x3d,
  0x19, 0x87, 0xae, 0x3d, 0xbf, 0x5e, 0xa8, 0x3e, 0x00, 0x92, 0x32, 0x3d,
  0xc2, 0x83, 0xb7, 0xbd, 0x54, 0x39, 0x19, 0x3f, 0x23, 0x54, 0x2e, 0xbe,
  0x9a, 0x9b, 0xac, 0xbd, 0x41, 0x06, 0x95, 0x3e, 0x46, 0x53, 0x54, 0xbd,
  0x0f, 0x4a, 0x8d, 0xbc, 0x02, 0x05, 0x6a, 0x3e, 0xdc, 0xde, 0xab, 0xbd,
  0x36, 0xb1, 0x07, 0x3c, 0x04, 0x7a, 0xdc, 0x3d, 0x7b, 0x3b, 0x48, 0xbf,
  0xcf, 0xac, 0x11, 0xbf, 0x5e, 0x9f, 0xb0, 0x3e, 0x61, 0x55, 0xfa, 0xbd,
  0x96, 0xd1, 0x4d, 0x3e, 0x76, 0x06, 0x19, 0xbd, 0x82, 0x04, 0x15, 0x3e,
  0x24, 0x25, 0x19, 0xbd, 0xf2, 0x8e, 0x62, 0xbe, 0xee, 0xbc, 0xc4, 0xbd,
  0x42, 0x4f, 0xac, 0xbe, 0x1c, 0xc9, 0xc1, 0xbe, 0x44, 0x05, 0x09, 0x3f,
  0x87, 0x69, 0xb0, 0x3e, 0x3b, 0xb9, 0x9c, 0x3d, 0xe1, 0x06, 0xaa, 0x3a,
  0x63, 0x10, 0xef, 0xbe, 0x1a, 0x2b, 0x0d, 0xbd, 0x62, 0x34, 0x15, 0xbf,
  0xb2, 0x4e, 0x5e, 0x3f, 0x4e, 0x54, 0x60, 0xbf, 0x93, 0xfe, 0x58, 0x3f,
  0x73, 0x11, 0x0c, 0x3f, 0xfd, 0xdc, 0x7c, 0x3e, 0x2c, 0x1a, 0xf3, 0xbd,
  0xf9, 0xb0, 0x00, 0x3d, 0x2b, 0x9c, 0x3b, 0xbe, 0xba, 0x75, 0xa2, 0x3e,
  0x28, 0x1e, 0x96, 0xbd, 0xae, 0xc0, 0x83, 0x3e, 0x5b, 0x69, 0xcb, 0x3e,
  0x10, 0x0f, 0x0c, 0xbd, 0xd3, 0x37, 0x22, 0xbf, 0x73, 0x70, 0x01, 0x3e,
  0x5a, 0x8a, 0xbe, 0xbe, 0xa3, 0xf1, 0xbc, 0xbe, 0x55, 0x72, 0xf0, 0x3d,
  0x18, 0xc4, 0xa9, 0xbe, 0x9f, 0x31, 0x8f, 0xbe, 0x34, 0xbe, 0x03, 0x3e,
  0x84, 0xe1, 0x1e, 0x3f, 0xe4, 0xa1, 0x86, 0x3e, 0xfa, 0x00, 0xc1, 0x3e,
  0x34, 0xaa, 0x88, 0x3d, 0xa4, 0x82, 0xa0, 0xbd, 0x02, 0x39, 0xa4, 0x3e,
  0x5e, 0x77, 0x37, 0x3e, 0x5c, 0xc6, 0x94, 0x3e, 0x1c, 0xe4, 0x2c, 0xbe,
  0x8e, 0xb5, 0xb6, 0xbd, 0xb6, 0x43, 0xfb, 0x3b, 0x87, 0xea, 0x2d, 0x3d,
  0x4d, 0x48, 0xac, 0x3e, 0xbe, 0x59, 0x6e, 0x3f, 0x58, 0x28, 0xcc, 0xbe,
  0x97, 0xf5, 0xdf, 0xbe, 0x32, 0x85, 0x24, 0xbb, 0xa4, 0x01, 0x3d, 0x3e,
  0xd8, 0x2c, 0x62, 0xbd, 0xf8, 0xd6, 0x01, 0x3f, 0x24, 0xb6, 0xa9, 0xbd,
  0x37, 0x5f, 0x4f, 0x3e, 0x0d, 0x0c, 0x63, 0x3e, 0x39, 0xa3, 0x0d, 0xbf,
  0x4e, 0x43, 0x2d, 0xbf, 0x8b, 0x41, 0x02, 0xbe, 0x25, 0x5b, 0x5a, 0xbe,
  0x91, 0x72, 0x7c, 0xbe, 0xb6, 0xb4, 0x61, 0xbe, 0xe5, 0x3c, 0x9b, 0xbd,
  0x23, 0x99, 0x3c, 0xbd, 0x15, 0xc4, 0x2e, 0xbd, 0x80, 0x9f, 0x3a, 0xbd,
  0xa8, 0x03, 0x94, 0x3c, 0xcf, 0x3f, 0xa7, 0xbe, 0x82, 0x0a, 0x47, 0x3e,
  0x5c, 0x92, 0x92, 0x3e, 0xe5, 0x2c, 0x5d, 0x3e, 0x52, 0xd1, 0x92, 0xbc,
  0x5f, 0xbd, 0x6e, 0x3d, 0x70, 0x3d, 0x89, 0x3e, 0xab, 0x3b, 0x77, 0xbe,
  0xcc, 0x77, 0xf0, 0xbe, 0xcb, 0xe1, 0x33, 0x3e, 0x4c, 0xd5, 0xc4, 0xbc,
  0x9c, 0x3b, 0x08, 0x3e, 0x16, 0xef, 0x19, 0x3e, 0xef, 0x82, 0x88, 0x3d,
  0xbb, 0xec, 0x89, 0xbd, 0xe3, 0x25, 0x55, 0xbc, 0xf3, 0x67, 0xc5, 0x3d,
  0x5b, 0x6e, 0x28, 0xbe, 0x2e, 0xdc, 0x3c, 0xbc, 0x26, 0x8a, 0x3c, 0xbe,
  0xf0, 0x94, 0x9c, 0xbd, 0x04, 0x98, 0x93, 0x3d, 0x2b, 0x7a, 0x95, 0x3e,
  0x51, 0x7c, 0xc5, 0xbd, 0x6f, 0xae, 0x9e, 0xbd, 0xf8, 0xec, 0x9f, 0xbe,
  0x12, 0xf8, 0x7c, 0xbe, 0x73, 0xf6, 0xad, 0xbe, 0xfd, 0xa5, 0xaf, 0xbd,
  0xad, 0xf3, 0x3e, 0xbe, 0x8e, 0x11, 0x7f, 0x3e, 0x9b, 0x27, 0x8a, 0xbd,
  0xd7, 0x4b, 0xd7, 0xbd, 0x1e, 0x87, 0xab, 0xbe, 0xa7, 0x15, 0xf3, 0x3e,
  0x84, 0xe5, 0x34, 0x3e, 0x2f, 0x12, 0x6c, 0x3e, 0x6e, 0x73, 0xa6, 0x3e,
  0x90, 0x48, 0x6c, 0x3e, 0x08, 0x8f, 0x7b, 0x3e, 0x84, 0x74, 0xf6, 0xbd,
  0x78, 0xc5, 0xaf, 0xbe, 0x47, 0x6a, 0xc5, 0x3c, 0x5d, 0xf6, 0xef, 0xbd,
  0x34, 0x5b, 0xa1, 0xbe, 0x2f, 0x55, 0x1e, 0xbc, 0x4f, 0xf7, 0x90, 0xbe,
  0x68, 0x5a, 0x89, 0xbe, 0x63, 0xe2, 0x23, 0x3c, 0xf9, 0xcc, 0x56, 0xbe,
  0x90, 0x82, 0x7a, 0xbe, 0x22, 0xf1, 0x7f, 0xbb, 0xcb, 0xa1, 0xdd, 0x3d,
  0x4e, 0x06, 0xa8, 0x3e, 0x0c, 0x59, 0x34, 0xbd, 0xeb, 0x8a, 0x8e, 0xbe,
  0x75, 0x47, 0x67, 0xbe, 0x0d, 0x0f, 0xa3, 0xbe, 0xd7, 0x3b, 0x8a, 0xbc,
  0x87, 0x23, 0x02, 0xbe, 0xb8, 0x1f, 0xbc, 0xbe, 0x2f, 0xe2, 0x7c, 0x3e,
  0x7a, 0x26, 0x5e, 0xbc, 0x63, 0x97, 0x2b, 0xbe, 0xaf, 0x2d, 0x0b, 0x3e,
  0xb7, 0x60, 0x3c, 0xbe, 0xf8, 0x92, 0x3c, 0xbd, 0xd0, 0x28, 0x8e, 0xbc,
  0x7d, 0x03, 0xa5, 0x3c, 0xaa, 0xd2, 0x0a, 0xbe, 0x47, 0x80, 0x83, 0xbe,
  0x82, 0x66, 0x94, 0x3e, 0x35, 0x59, 0x02, 0xbe, 0xc3, 0x43, 0x5a, 0xbe,
  0xfb, 0xea, 0xad, 0xbe, 0x61, 0xfc, 0x38, 0xbd, 0x07, 0x68, 0xef, 0xbb,
  0x5c, 0xf4, 0xff, 0xff, 0x60, 0xf4, 0xff, 0xff, 0x64, 0xf4, 0xff, 0xff,
  0x68, 0xf4, 0xff, 0xff, 0x6c, 0xf4, 0xff, 0xff, 0x70, 0xf4, 0xff, 0xff,
  0x04, 0x00, 0x06, 0x00, 0x04, 0x00, 0x00, 0x00, 0x00, 0x00, 0x06, 0x00,
  0x08, 0x00, 0x04, 0x00, 0x06, 0x00, 0x00, 0x00, 0x04, 0x00, 0x00, 0x00,
  0xec, 0x04, 0x00, 0x00, 0xc7, 0x6e, 0x50, 0xbe, 0xf9, 0x63, 0xc9, 0x3e,
  0xd0, 0x4b, 0xb7, 0xbe, 0x97, 0xb1, 0x6b, 0x3e, 0xac, 0xaf, 0xd9, 0xbe,
  0x9b, 0xa1, 0x26, 0xbe, 0x49, 0xe9, 0x8e, 0xbe, 0xd2, 0x2e, 0x35, 0xbe,
  0xf7, 0x42, 0x08, 0x3e, 0x52, 0x16, 0x9d, 0xbe, 0x09, 0x8e, 0x4b, 0x3d,
  0xf1, 0x85, 0xc6, 0xbd, 0xcc, 0x84, 0x5d, 0xbc, 0xb0, 0x29, 0xd5, 0x3e,
  0xcc, 0x37, 0x4c, 0xbe, 0xf8, 0x20, 0x59, 0x3e, 0x7f, 0x34, 0x00, 0x3e,
  0xdd, 0xa2, 0x9e, 0xbe, 0xf7, 0xd2, 0x00, 0xbe, 0xec, 0x2d, 0xd4, 0xbe,
  0x10, 0xa4, 0xb0, 0xbe, 0xf5, 0x1f, 0x37, 0x3e, 0x58, 0x02, 0xc9, 0xbe,
  0xb4, 0x30, 0xc1, 0xbe, 0x66, 0x27, 0x8b, 0xbe, 0x4f, 0x33, 0x72, 0x3e,
  0x21, 0xe7, 0xca, 0x3d, 0xd0, 0xa5, 0x64, 0xbe, 0x0f, 0x35, 0xbd, 0x3e,
  0xe2, 0xc5, 0xac, 0x3d, 0x4f, 0xe3, 0x41, 0x3e, 0x9b, 0x2a, 0x16, 0xbe,
  0x9e, 0x98, 0xe1, 0xbd, 0x31, 0xdd, 0x85, 0x3e, 0x42, 0x51, 0xba, 0x3c,
  0x80, 0x58, 0x76, 0x3e, 0x6a, 0x78, 0xa5, 0x3d, 0x75, 0xfb, 0x78, 0xbe,
  0xea, 0xfb, 0x68, 0x3e, 0x30, 0xfc, 0xd3, 0xbe, 0x27, 0x23, 0x0f, 0x3c,
  0x35, 0xba, 0x11, 0x3d, 0x5d, 0xca, 0x32, 0x3d, 0x76, 0x97, 0x42, 0xbe,
  0xae, 0x61, 0xbf, 0x3e, 0x85, 0x50, 0x69, 0x3e, 0xe0, 0x57, 0x8a, 0xbe,
  0x53, 0xf5, 0xa7, 0xbe, 0x7b, 0x9d, 0xc4, 0x3e, 0xb6, 0xad, 0xa4, 0x3d,
  0x9e, 0xe8, 0x92, 0xbe, 0x30, 0xf2, 0x3d, 0x3d, 0x2a, 0x29, 0xa8, 0xbe,
  0xf6, 0x88, 0xde, 0x3e, 0x01, 0x63, 0x89, 0xbe, 0xd9, 0xbe, 0xf0, 0xbd,
  0x23, 0x2c, 0xb2, 0x3e, 0x3e, 0x26, 0x94, 0x3e, 0x10, 0x3c, 0x3d, 0xbc,
  0xca, 0xe2, 0x19, 0x3c, 0xc4, 0xe5, 0x92, 0x3e, 0xbc, 0x2b, 0xca, 0x3e,
  0x38, 0x58, 0xe5, 0x3e, 0x0a, 0x1d, 0x66, 0xbe, 0x57, 0x07, 0x59, 0xbe,
  0x29, 0x3e, 0xbc, 0x3d, 0xcf, 0xca, 0x0e, 0xbf, 0xbe, 0xf2, 0x96, 0x3d,
  0xf9, 0xfb, 0xde, 0xbb, 0x70, 0xf7, 0x81, 0x3e, 0x8d, 0xed, 0xb9, 0xbe,
  0x07, 0xd1, 0xc6, 0x3e, 0xa3, 0xe9, 0xbe, 0x3e, 0x20, 0xaf, 0x79, 0x3e,
  0x91, 0x30, 0x84, 0xbe, 0xab, 0x0c, 0xb9, 0x3e, 0xfc, 0xea, 0xf2, 0xbe,
  0xf7, 0x73, 0x16, 0x3e, 0x1c, 0x32, 0xc4, 0xbe, 0x42, 0xe3, 0x9e, 0xbe,
  0x3e, 0x4a, 0x39, 0x3e, 0xf2, 0xf3, 0x9b, 0x3e, 0x41, 0x9e, 0x18, 0x3e,
  0x15, 0x74, 0xa2, 0x3e, 0xf6, 0x3b, 0x5b, 0xbe, 0x55, 0x82, 0x50, 0xbd,
  0xe9, 0x1b, 0x8b, 0xbe, 0xe3, 0xbb, 0x00, 0xbe, 0x90, 0xad, 0x99, 0x3e,
  0x9a, 0x2c, 0xc5, 0xbe, 0x91, 0xb0, 0xb4, 0xbb, 0x3e, 0xef, 0xbb, 0xbe,
  0xbc, 0xba, 0x71, 0xba, 0xe1, 0x42, 0x04, 0x3d, 0xc5, 0x14, 0x99, 0x3d,
  0x7e, 0x3c, 0x94, 0x3e, 0x46, 0x66, 0x24, 0x3d, 0xae, 0xdd, 0x7c, 0xbe,
  0xc1, 0x36, 0xc5, 0xbe, 0x1c, 0xc5, 0xd2, 0xbe, 0x89, 0x44, 0x9e, 0xbe,
  0x90, 0x8d, 0xa3, 0x3e, 0xa3, 0xeb, 0x95, 0xbe, 0x47, 0xe2, 0x96, 0xbe,
  0x99, 0x3e, 0x41, 0x3e, 0x50, 0xad, 0xa4, 0x3c, 0xc2, 0xbb, 0xc1, 0xbe,
  0x05, 0xd7, 0x92, 0x3e, 0x1b, 0x72, 0xc8, 0xbe, 0xf5, 0x2a, 0x0e, 0x3f,
  0x97, 0xf9, 0xd4, 0x3e, 0xa6, 0x16, 0x04, 0x3f, 0x80, 0x1d, 0xbb, 0x3e,
  0xaa, 0x44, 0xe1, 0xbe, 0x55, 0x40, 0xb6, 0x3c, 0x7b, 0x38, 0xab, 0xbe,
  0xb8, 0x57, 0x33, 0x3e, 0x8a, 0x04, 0xc0, 0xbe, 0x2e, 0x5c, 0xfb, 0xbd,
  0xcf, 0x6d, 0xe3, 0x3e, 0xa5, 0x2c, 0x33, 0xbe, 0xd6, 0x59, 0x49, 0x3c,
  0x5a, 0xd6, 0xee, 0xbe, 0x18, 0x1b, 0xec, 0xbe, 0xd8, 0xe3, 0x63, 0xbd,
  0xe8, 0xa1, 0xc6, 0xbe, 0x17, 0x23, 0xa6, 0x3e, 0x87, 0x49, 0x88, 0x3e,
  0xff, 0xf2, 0xc3, 0x3e, 0x57, 0x28, 0xb0, 0xbe, 0xb0, 0x66, 0xc9, 0xbd,
  0xaf, 0xb9, 0xbe, 0x3d, 0xb1, 0x57, 0x9b, 0x3e, 0x10, 0x5c, 0x85, 0xbc,
  0xd4, 0xa5, 0xbc, 0x3c, 0x66, 0x96, 0x9f, 0xbe, 0x4a, 0x6a, 0xeb, 0x3e,
  0xb6, 0xdf, 0x1e, 0xbe, 0x7d, 0xc8, 0x9a, 0xbc, 0xcc, 0x81, 0xfd, 0x3d,
  0x3b, 0x40, 0xe9, 0xbd, 0x4b, 0x7c, 0x95, 0xbe, 0xfd, 0x2d, 0x64, 0x3e,
  0xf9, 0x2b, 0x81, 0xbd, 0x32, 0x2d, 0x9a, 0xbd, 0x72, 0x5c, 0x4a, 0xbe,
  0x70, 0xc0, 0x83, 0x3e, 0xab, 0x99, 0xcc, 0xbe, 0x35, 0x5b, 0x27, 0xbe,
  0xce, 0xf4, 0xea, 0x3d, 0x1f, 0xb8, 0x95, 0xbe, 0x43, 0x19, 0x30, 0x3e,
  0x7c, 0xdb, 0x8d, 0x3e, 0xe6, 0x13, 0x63, 0x3e, 0x6c, 0xc7, 0x84, 0xbe,
  0x5c, 0x9e, 0x9e, 0x3e, 0x21, 0xdd, 0xa4, 0xbe, 0x43, 0xb6, 0xa4, 0xbe,
  0x20, 0x9b, 0xbc, 0x3e, 0xb1, 0x0a, 0xc4, 0xbe, 0x40, 0xb2, 0xbf, 0x3e,
  0x41, 0xc0, 0x1d, 0xbe, 0xdf, 0xed, 0x71, 0xbd, 0x52, 0x5a, 0x3d, 0xbc,
  0x88, 0x15, 0xcc, 0x3e, 0x83, 0x51, 0x8d, 0x3e, 0x4e, 0x6a, 0xb4, 0x3e,
  0x35, 0x94, 0x32, 0x3e, 0xec, 0xc0, 0x67, 0xbc, 0x64, 0xda, 0x45, 0xbf,
  0x42, 0x44, 0xbc, 0xbc, 0xc3, 0x4b, 0xfa, 0xbe, 0x4c, 0x91, 0x01, 0x3f,
  0xbc, 0x11, 0x30, 0x3e, 0x1c, 0xa6, 0x2f, 0x3f, 0x28, 0xc8, 0x0d, 0x3e,
  0x55, 0x70, 0xf2, 0x3d, 0xfc, 0xbc, 0xa3, 0xbe, 0xc6, 0x56, 0xe7, 0x3e,
  0xb5, 0x6b, 0xea, 0x3e, 0x8c, 0xbd, 0x22, 0xbe, 0x7a, 0x79, 0xd6, 0xbe,
  0x75, 0x47, 0x1c, 0x3e, 0x80, 0x3d, 0x61, 0x3e, 0x49, 0x2e, 0xbe, 0xbe,
  0x5a, 0x8b, 0x44, 0xbd, 0x71, 0x88, 0x89, 0xbe, 0xe6, 0xf3, 0xeb, 0xbc,
  0xcb, 0xbb, 0x01, 0xbf, 0x15, 0x69, 0xe2, 0xbd, 0x0c, 0x18, 0x78, 0xbe,
  0x47, 0x0a, 0xba, 0x3e, 0x6e, 0x09, 0x7c, 0x3e, 0x5e, 0x9c, 0x9e, 0x3d,
  0x50, 0xfd, 0x14, 0xbe, 0x3a, 0x51, 0x9d, 0x3e, 0xc1, 0xb6, 0x84, 0x3e,
  0x17, 0x9c, 0x8c, 0xbd, 0xfd, 0x4e, 0xc0, 0x3d, 0x1b, 0xed, 0xb8, 0xbe,
  0xb4, 0x65, 0xb9, 0xbe, 0xa3, 0x63, 0x09, 0xbe, 0x57, 0x47, 0x36, 0xbe,
  0x0c, 0x3d, 0x44, 0x3e, 0x42, 0x37, 0xe7, 0x3d, 0x22, 0xc0, 0x58, 0x3e,
  0xb3, 0x5a, 0x89, 0xbe, 0x86, 0x9c, 0xfa, 0x3c, 0x4c, 0xe2, 0x42, 0x3d,
  0x14, 0xa6, 0xb4, 0x3e, 0x27, 0xf2, 0xdb, 0xbe, 0x57, 0x67, 0xb0, 0x3e,
  0x39, 0x9f, 0xf3, 0xbd, 0x65, 0xb4, 0x98, 0x3d, 0x11, 0xb7, 0xd4, 0x3c,
  0x79, 0xc0, 0xee, 0x3d, 0xee, 0xd3, 0x20, 0x3e, 0xe0, 0x10, 0xcc, 0xbe,
  0xaf, 0xb8, 0x91, 0xbe, 0xea, 0xff, 0x3b, 0xbe, 0xa3, 0x71, 0xfd, 0x3d,
  0x66, 0x21, 0xa0, 0x3e, 0x3a, 0x39, 0x90, 0x3e, 0x22, 0x60, 0xa9, 0x3e,
  0x93, 0x10, 0xa4, 0xbd, 0x60, 0x45, 0x85, 0xbe, 0x84, 0x56, 0x05, 0x3e,
  0x60, 0xca, 0xe2, 0xbc, 0x79, 0xdb, 0xde, 0xbd, 0x8a, 0xf3, 0xd3, 0xbb,
  0xd1, 0xff, 0x7d, 0x3e, 0x3c, 0x01, 0xea, 0x3c, 0xb8, 0x58, 0xd9, 0xbc,
  0xaf, 0x37, 0x14, 0xbe, 0x77, 0x4b, 0xae, 0xbd, 0xa1, 0xf6, 0x33, 0x3d,
  0xeb, 0x50, 0xa8, 0x3e, 0x96, 0x77, 0xdd, 0x3d, 0x87, 0x03, 0x55, 0xbe,
  0xe6, 0xaf, 0xb9, 0x3c, 0x5c, 0xc2, 0x70, 0xbe, 0xf2, 0x7a, 0xdc, 0xbe,
  0x55, 0x80, 0xb0, 0xbe, 0xef, 0x57, 0x5e, 0x3e, 0x29, 0x72, 0xaa, 0xbd,
  0x9a, 0xbc, 0xf0, 0xbe, 0xb4, 0x5e, 0xfd, 0xbe, 0x92, 0xa1, 0x32, 0xbe,
  0xaf, 0x9f, 0x5c, 0x3e, 0x10, 0xc5, 0x24, 0xbe, 0xdc, 0x82, 0x90, 0xbe,
  0x16, 0xa2, 0xc4, 0xbe, 0xc9, 0x99, 0x0e, 0xbe, 0xd4, 0xd9, 0x81, 0x3e,
  0xb0, 0x7a, 0x4d, 0xbd, 0xf4, 0xd5, 0x82, 0x3e, 0x86, 0xbd, 0x91, 0xbe,
  0x5d, 0x76, 0x64, 0xbe, 0x59, 0x8d, 0xa6, 0x3d, 0x48, 0xd1, 0xae, 0x3e,
  0xf3, 0xf4, 0x55, 0xbe, 0x54, 0x28, 0x84, 0xbe, 0x22, 0x93, 0x0c, 0x3e,
  0x7d, 0x73, 0x93, 0xbe, 0x7d, 0xa7, 0x28, 0x3d, 0x53, 0xa5, 0x0f, 0xbe,
  0xe2, 0xa2, 0x65, 0x3d, 0xd2, 0xfe, 0xe0, 0x3e, 0xb9, 0xfb, 0x8a, 0xbe,
  0x8d, 0x0c, 0xf9, 0x3d, 0x12, 0x20, 0x20, 0xbd, 0x7c, 0x81, 0xd6, 0x3d,
  0xb0, 0x7f, 0xe5, 0x3c, 0x64, 0x8c, 0x78, 0x3c, 0x5e, 0xc8, 0x50, 0x3e,
  0x66, 0x37, 0x37, 0xbe, 0x91, 0x24, 0xb8, 0x3e, 0x4d, 0x35, 0xa1, 0xbe,
  0xe2, 0xdd, 0xbf, 0xbd, 0xfb, 0xb3, 0x04, 0x3d, 0xc7, 0xf3, 0x44, 0x3d,
  0x24, 0x6f, 0x9d, 0xbd, 0xab, 0xe9, 0x3b, 0x3e, 0x57, 0xfb, 0xb4, 0xbe,
  0xc0, 0xa9, 0x4c, 0x3e, 0x9d, 0xfa, 0x65, 0xbe, 0xf0, 0xd1, 0xac, 0xbe,
  0xc8, 0x3d, 0x87, 0x3d, 0x9e, 0xc4, 0x7a, 0xbd, 0x1c, 0x2d, 0x4a, 0xbe,
  0xbd, 0x3c, 0x3a, 0xbd, 0x57, 0xe1, 0x26, 0xbe, 0x3f, 0x97, 0x4a, 0x3e,
  0xb4, 0x55, 0x2b, 0x3e, 0x3f, 0x5e, 0x30, 0x3e, 0x4b, 0x10, 0x67, 0xbe,
  0xb0, 0x14, 0x62, 0x3e, 0xec, 0x77, 0x1c, 0x3e, 0x24, 0xb4, 0x9d, 0x3d,
  0x90, 0x5d, 0xad, 0x3d, 0x8c, 0x85, 0xf3, 0xbe, 0x40, 0xa7, 0x82, 0xbd,
  0x83, 0x67, 0xe9, 0xbd, 0x5b, 0x5b, 0x33, 0xbd, 0xf5, 0x20, 0xd1, 0xbe,
  0xe3, 0x8a, 0x69, 0xbe, 0x30, 0x5e, 0xaa, 0xbe, 0x05, 0x63, 0xc4, 0xbe,
  0x70, 0xd0, 0xe4, 0xbe, 0x78, 0xe0, 0xcc, 0xbe, 0xc5, 0x62, 0x16, 0x3d,
  0xe0, 0xd1, 0xef, 0xbe, 0x63, 0xe8, 0x0f, 0xbe, 0xd0, 0x47, 0x84, 0xbe,
  0x6e, 0x45, 0x3b, 0x3e, 0x7c, 0xf9, 0xff, 0xff, 0x80, 0xf9, 0xff, 0xff,
  0x0f, 0x00, 0x00, 0x00, 0x54, 0x4f, 0x43, 0x4f, 0x20, 0x43, 0x6f, 0x6e,
  0x76, 0x65, 0x72, 0x74, 0x65, 0x64, 0x2e, 0x00, 0x01, 0x00, 0x00, 0x00,
  0x10, 0x00, 0x00, 0x00, 0x0c, 0x00, 0x14, 0x00, 0x04, 0x00, 0x08, 0x00,
  0x0c, 0x00, 0x10, 0x00, 0x0c, 0x00, 0x00, 0x00, 0x7c, 0x01, 0x00, 0x00,
  0x70, 0x01, 0x00, 0x00, 0x64, 0x01, 0x00, 0x00, 0x04, 0x00, 0x00, 0x00,
  0x07, 0x00, 0x00, 0x00, 0x28, 0x01, 0x00, 0x00, 0xf4, 0x00, 0x00, 0x00,
  0xb4, 0x00, 0x00, 0x00, 0x90, 0x00, 0x00, 0x00, 0x5c, 0x00, 0x00, 0x00,
  0x38, 0x00, 0x00, 0x00, 0x04, 0x00, 0x00, 0x00, 0x02, 0xff, 0xff, 0xff,
  0x00, 0x00, 0x00, 0x08, 0x18, 0x00, 0x00, 0x00, 0x0c, 0x00, 0x00, 0x00,
  0x04, 0x00, 0x00, 0x00, 0xf4, 0xf9, 0xff, 0xff, 0x01, 0x00, 0x00, 0x00,
  0x00, 0x00, 0x00, 0x00, 0x03, 0x00, 0x00, 0x00, 0x0d, 0x00, 0x00, 0x00,
  0x0e, 0x00, 0x00, 0x00, 0x0f, 0x00, 0x00, 0x00, 0x5e, 0xff, 0xff, 0xff,
  0x01, 0x00, 0x00, 0x00, 0x10, 0x00, 0x00, 0x00, 0x04, 0x00, 0x00, 0x00,
  0x01, 0x00, 0x00, 0x00, 0x0d, 0x00, 0x00, 0x00, 0x01, 0x00, 0x00, 0x00,
  0x0a, 0x00, 0x00, 0x00, 0x52, 0xff, 0xff, 0xff, 0x00, 0x00, 0x00, 0x08,
  0x18, 0x00, 0x00, 0x00, 0x0c, 0x00, 0x00, 0x00, 0x04, 0x00, 0x00, 0x00,
  0x44, 0xfa, 0xff, 0xff, 0x01, 0x00, 0x00, 0x00, 0x0a, 0x00, 0x00, 0x00,
  0x03, 0x00, 0x00, 0x00, 0x09, 0x00, 0x00, 0x00, 0x0b, 0x00, 0x00, 0x00,
  0x0c, 0x00, 0x00, 0x00, 0xae, 0xff, 0xff, 0xff, 0x01, 0x00, 0x00, 0x00,
  0x10, 0x00, 0x00, 0x00, 0x04, 0x00, 0x00, 0x00, 0x01, 0x00, 0x00, 0x00,
  0x09, 0x00, 0x00, 0x00, 0x01, 0x00, 0x00, 0x00, 0x06, 0x00, 0x00, 0x00,
  0xa2, 0xff, 0xff, 0xff, 0x00, 0x00, 0x00, 0x08, 0x18, 0x00, 0x00, 0x00,
  0x0c, 0x00, 0x00, 0x00, 0x04, 0x00, 0x00, 0x00, 0x94, 0xfa, 0xff, 0xff,
  0x01, 0x00, 0x00, 0x00, 0x06, 0x00, 0x00, 0x00, 0x03, 0x00, 0x00, 0x00,
  0x05, 0x00, 0x00, 0x00, 0x07, 0x00, 0x00, 0x00, 0x08, 0x00, 0x00, 0x00,
  0x00, 0x00, 0x0a, 0x00, 0x10, 0x00, 0x04, 0x00, 0x08, 0x00, 0x0c, 0x00,
  0x0a, 0x00, 0x00, 0x00, 0x01, 0x00, 0x00, 0x00, 0x10, 0x00, 0x00, 0x00,
  0x04, 0x00, 0x00, 0x00, 0x01, 0x00, 0x00, 0x00, 0x05, 0x00, 0x00, 0x00,
  0x01, 0x00, 0x00, 0x00, 0x02, 0x00, 0x00, 0x00, 0x00, 0x00, 0x0e, 0x00,
  0x14, 0x00, 0x00, 0x00, 0x08, 0x00, 0x0c, 0x00, 0x07, 0x00, 0x10, 0x00,
  0x0e, 0x00, 0x00, 0x00, 0x00, 0x00, 0x00, 0x08, 0x18, 0x00, 0x00, 0x00,
  0x0c, 0x00, 0x00, 0x00, 0x04, 0x00, 0x00, 0x00, 0x00, 0xfb, 0xff, 0xff,
  0x01, 0x00, 0x00, 0x00, 0x02, 0x00, 0x00, 0x00, 0x03, 0x00, 0x00, 0x00,
  0x01, 0x00, 0x00, 0x00, 0x03, 0x00, 0x00, 0x00, 0x04, 0x00, 0x00, 0x00,
  0x01, 0x00, 0x00, 0x00, 0x00, 0x00, 0x00, 0x00, 0x01, 0x00, 0x00, 0x00,
  0x01, 0x00, 0x00, 0x00, 0x10, 0x00, 0x00, 0x00, 0xbc, 0x04, 0x00, 0x00,
  0x54, 0x04, 0x00, 0x00, 0x0c, 0x04, 0x00, 0x00, 0xac, 0x03, 0x00, 0x00,
  0x64, 0x03, 0x00, 0x00, 0x1c, 0x03, 0x00, 0x00, 0xd4, 0x02, 0x00, 0x00,
  0x74, 0x02, 0x00, 0x00, 0x2c, 0x02, 0x00, 0x00, 0xe4, 0x01, 0x00, 0x00,
  0x9c, 0x01, 0x00, 0x00, 0x3c, 0x01, 0x00, 0x00, 0xf4, 0x00, 0x00, 0x00,
  0xac, 0x00, 0x00, 0x00, 0x4c, 0x00, 0x00, 0x00, 0x04, 0x00, 0x00, 0x00,
  0x92, 0xfb, 0xff, 0xff, 0x38, 0x00, 0x00, 0x00, 0x10, 0x00, 0x00, 0x00,
  0x0c, 0x00, 0x00, 0x00, 0x04, 0x00, 0x00, 0x00, 0x84, 0xfb, 0xff, 0xff,
  0x1e, 0x00, 0x00, 0x00, 0x73, 0x65, 0x71, 0x75, 0x65, 0x6e, 0x74, 0x69,
  0x61, 0x6c, 0x2f, 0x64, 0x65, 0x6e, 0x73, 0x65, 0x5f, 0x33, 0x2f, 0x4d,
  0x61, 0x74, 0x4d, 0x75, 0x6c, 0x5f, 0x62, 0x69, 0x61, 0x73, 0x00, 0x00,
  0x01, 0x00, 0x00, 0x00, 0x05, 0x00, 0x00, 0x00, 0xd6, 0xfb, 0xff, 0xff,
  0x4c, 0x00, 0x00, 0x00, 0x0f, 0x00, 0x00, 0x00, 0x0c, 0x00, 0x00, 0x00,
  0x04, 0x00, 0x00, 0x00, 0xc8, 0xfb, 0xff, 0xff, 0x32, 0x00, 0x00, 0x00,
  0x73, 0x65, 0x71, 0x75, 0x65, 0x6e, 0x74, 0x69, 0x61, 0x6c, 0x2f, 0x64,
  0x65, 0x6e, 0x73, 0x65, 0x5f, 0x33, 0x2f, 0x4d, 0x61, 0x74, 0x4d, 0x75,
  0x6c, 0x2f, 0x52, 0x65, 0x61, 0x64, 0x56, 0x61, 0x72, 0x69, 0x61, 0x62,
  0x6c, 0x65, 0x4f, 0x70, 0x2f, 0x74, 0x72, 0x61, 0x6e, 0x73, 0x70, 0x6f,
  0x73, 0x65, 0x00, 0x00, 0x02, 0x00, 0x00, 0x00, 0x05, 0x00, 0x00, 0x00,
  0x0f, 0x00, 0x00, 0x00, 0x32, 0xfc, 0xff, 0xff, 0x34, 0x00, 0x00, 0x00,
  0x08, 0x00, 0x00, 0x00, 0x0c, 0x00, 0x00, 0x00, 0x04, 0x00, 0x00, 0x00,
  0x24, 0xfc, 0xff, 0xff, 0x1a, 0x00, 0x00, 0x00, 0x73, 0x65, 0x71, 0x75,
  0x65, 0x6e, 0x74, 0x69, 0x61, 0x6c, 0x2f, 0x64, 0x65, 0x6e, 0x73, 0x65,
  0x5f, 0x32, 0x2f, 0x53, 0x69, 0x67, 0x6d, 0x6f, 0x69, 0x64, 0x00, 0x00,
  0x02, 0x00, 0x00, 0x00, 0x01, 0x00, 0x00, 0x00, 0x0f, 0x00, 0x00, 0x00,
  0x76, 0xfc, 0xff, 0xff, 0x38, 0x00, 0x00, 0x00, 0x0e, 0x00, 0x00, 0x00,
  0x0c, 0x00, 0x00, 0x00, 0x04, 0x00, 0x00, 0x00, 0x68, 0xfc, 0xff, 0xff,
  0x1e, 0x00, 0x00, 0x00, 0x73, 0x65, 0x71, 0x75, 0x65, 0x6e, 0x74, 0x69,
  0x61, 0x6c, 0x2f, 0x64, 0x65, 0x6e, 0x73, 0x65, 0x5f, 0x32, 0x2f, 0x4d,
  0x61, 0x74, 0x4d, 0x75, 0x6c, 0x5f, 0x62, 0x69, 0x61, 0x73, 0x00, 0x00,
  0x01, 0x00, 0x00, 0x00, 0x0f, 0x00, 0x00, 0x00, 0xba, 0xfc, 0xff, 0xff,
  0x4c, 0x00, 0x00, 0x00, 0x0d, 0x00, 0x00, 0x00, 0x0c, 0x00, 0x00, 0x00,
  0x04, 0x00, 0x00, 0x00, 0xac, 0xfc, 0xff, 0xff, 0x32, 0x00, 0x00, 0x00,
  0x73, 0x65, 0x71, 0x75, 0x65, 0x6e, 0x74, 0x69, 0x61, 0x6c, 0x2f, 0x64,
  0x65, 0x6e, 0x73, 0x65, 0x5f, 0x32, 0x2f, 0x4d, 0x61, 0x74, 0x4d, 0x75,
  0x6c, 0x2f, 0x52, 0x65, 0x61, 0x64, 0x56, 0x61, 0x72, 0x69, 0x61, 0x62,
  0x6c, 0x65, 0x4f, 0x70, 0x2f, 0x74, 0x72, 0x61, 0x6e, 0x73, 0x70, 0x6f,
  0x73, 0x65, 0x00, 0x00, 0x02, 0x00, 0x00, 0x00, 0x0f, 0x00, 0x00, 0x00,
  0x0f, 0x00, 0x00, 0x00, 0x16, 0xfd, 0xff, 0xff, 0x34, 0x00, 0x00, 0x00,
  0x07, 0x00, 0x00, 0x00, 0x0c, 0x00, 0x00, 0x00, 0x04, 0x00, 0x00, 0x00,
  0x08, 0xfd, 0xff, 0xff, 0x1a, 0x00, 0x00, 0x00, 0x73, 0x65, 0x71, 0x75,
  0x65, 0x6e, 0x74, 0x69, 0x61, 0x6c, 0x2f, 0x64, 0x65, 0x6e, 0x73, 0x65,
  0x5f, 0x32, 0x2f, 0x42, 0x69, 0x61, 0x73, 0x41, 0x64, 0x64, 0x00, 0x00,
  0x02, 0x00, 0x00, 0x00, 0x01, 0x00, 0x00, 0x00, 0x0f, 0x00, 0x00, 0x00,
  0x5a, 0xfd, 0xff, 0xff, 0x34, 0x00, 0x00, 0x00, 0x06, 0x00, 0x00, 0x00,
  0x0c, 0x00, 0x00, 0x00, 0x04, 0x00, 0x00, 0x00, 0x4c, 0xfd, 0xff, 0xff,
  0x1a, 0x00, 0x00, 0x00, 0x73, 0x65, 0x71, 0x75, 0x65, 0x6e, 0x74, 0x69,
  0x61, 0x6c, 0x2f, 0x64, 0x65, 0x6e, 0x73, 0x65, 0x5f, 0x31, 0x2f, 0x53,
  0x69, 0x67, 0x6d, 0x6f, 0x69, 0x64, 0x00, 0x00, 0x02, 0x00, 0x00, 0x00,
  0x01, 0x00, 0x00, 0x00, 0x0f, 0x00, 0x00, 0x00, 0x9e, 0xfd, 0xff, 0xff,
  0x38, 0x00, 0x00, 0x00, 0x0c, 0x00, 0x00, 0x00, 0x0c, 0x00, 0x00, 0x00,
  0x04, 0x00, 0x00, 0x00, 0x90, 0xfd, 0xff, 0xff, 0x1e, 0x00, 0x00, 0x00,
  0x73, 0x65, 0x71, 0x75, 0x65, 0x6e, 0x74, 0x69, 0x61, 0x6c, 0x2f, 0x64,
  0x65, 0x6e, 0x73, 0x65, 0x5f, 0x31, 0x2f, 0x4d, 0x61, 0x74, 0x4d, 0x75,
  0x6c, 0x5f, 0x62, 0x69, 0x61, 0x73, 0x00, 0x00, 0x01, 0x00, 0x00, 0x00,
  0x0f, 0x00, 0x00, 0x00, 0xe2, 0xfd, 0xff, 0xff, 0x4c, 0x00, 0x00, 0x00,
  0x02, 0x00, 0x00, 0x00, 0x0c, 0x00, 0x00, 0x00, 0x04, 0x00, 0x00, 0x00,
  0xd4, 0xfd, 0xff, 0xff, 0x32, 0x00, 0x00, 0x00, 0x73, 0x65, 0x71, 0x75,
  0x65, 0x6e, 0x74, 0x69, 0x61, 0x6c, 0x2f, 0x64, 0x65, 0x6e, 0x73, 0x65,
  0x5f, 0x31, 0x2f, 0x4d, 0x61, 0x74, 0x4d, 0x75, 0x6c, 0x2f, 0x52, 0x65,
  0x61, 0x64, 0x56, 0x61, 0x72, 0x69, 0x61, 0x62, 0x6c, 0x65, 0x4f, 0x70,
  0x2f, 0x74, 0x72, 0x61, 0x6e, 0x73, 0x70, 0x6f, 0x73, 0x65, 0x00, 0x00,
  0x02, 0x00, 0x00, 0x00, 0x0f, 0x00, 0x00, 0x00, 0x15, 0x00, 0x00, 0x00,
  0x3e, 0xfe, 0xff, 0xff, 0x34, 0x00, 0x00, 0x00, 0x04, 0x00, 0x00, 0x00,
  0x0c, 0x00, 0x00, 0x00, 0x04, 0x00, 0x00, 0x00, 0x30, 0xfe, 0xff, 0xff,
  0x1a, 0x00, 0x00, 0x00, 0x73, 0x65, 0x71, 0x75, 0x65, 0x6e, 0x74, 0x69,
  0x61, 0x6c, 0x2f, 0x64, 0x65, 0x6e, 0x73, 0x65, 0x5f, 0x31, 0x2f, 0x42,
  0x69, 0x61, 0x73, 0x41, 0x64, 0x64, 0x00, 0x00, 0x02, 0x00, 0x00, 0x00,
  0x01, 0x00, 0x00, 0x00, 0x0f, 0x00, 0x00, 0x00, 0x82, 0xfe, 0xff, 0xff,
  0x34, 0x00, 0x00, 0x00, 0x05, 0x00, 0x00, 0x00, 0x0c, 0x00, 0x00, 0x00,
  0x04, 0x00, 0x00, 0x00, 0x74, 0xfe, 0xff, 0xff, 0x18, 0x00, 0x00, 0x00,
  0x73, 0x65, 0x71, 0x75, 0x65, 0x6e, 0x74, 0x69, 0x61, 0x6c, 0x2f, 0x64,
  0x65, 0x6e, 0x73, 0x65, 0x2f, 0x53, 0x69, 0x67, 0x6d, 0x6f, 0x69, 0x64,
  0x00, 0x00, 0x00, 0x00, 0x02, 0x00, 0x00, 0x00, 0x01, 0x00, 0x00, 0x00,
  0x15, 0x00, 0x00, 0x00, 0xc6, 0xfe, 0xff, 0xff, 0x38, 0x00, 0x00, 0x00,
  0x0b, 0x00, 0x00, 0x00, 0x0c, 0x00, 0x00, 0x00, 0x04, 0x00, 0x00, 0x00,
  0xb8, 0xfe, 0xff, 0xff, 0x1c, 0x00, 0x00, 0x00, 0x73, 0x65, 0x71, 0x75,
  0x65, 0x6e, 0x74, 0x69, 0x61, 0x6c, 0x2f, 0x64, 0x65, 0x6e, 0x73, 0x65,
  0x2f, 0x4d, 0x61, 0x74, 0x4d, 0x75, 0x6c, 0x5f, 0x62, 0x69, 0x61, 0x73,
  0x00, 0x00, 0x00, 0x00, 0x01, 0x00, 0x00, 0x00, 0x15, 0x00, 0x00, 0x00,
  0x0a, 0xff, 0xff, 0xff, 0x4c, 0x00, 0x00, 0x00, 0x0a, 0x00, 0x00, 0x00,
  0x0c, 0x00, 0x00, 0x00, 0x04, 0x00, 0x00, 0x00, 0xfc, 0xfe, 0xff, 0xff,
  0x30, 0x00, 0x00, 0x00, 0x73, 0x65, 0x71, 0x75, 0x65, 0x6e, 0x74, 0x69,
  0x61, 0x6c, 0x2f, 0x64, 0x65, 0x6e, 0x73, 0x65, 0x2f, 0x4d, 0x61, 0x74,
  0x4d, 0x75, 0x6c, 0x2f, 0x52, 0x65, 0x61, 0x64, 0x56, 0x61, 0x72, 0x69,
  0x61, 0x62, 0x6c, 0x65, 0x4f, 0x70, 0x2f, 0x74, 0x72, 0x61, 0x6e, 0x73,
  0x70, 0x6f, 0x73, 0x65, 0x00, 0x00, 0x00, 0x00, 0x02, 0x00, 0x00, 0x00,
  0x15, 0x00, 0x00, 0x00, 0x15, 0x00, 0x00, 0x00, 0x66, 0xff, 0xff, 0xff,
  0x34, 0x00, 0x00, 0x00, 0x03, 0x00, 0x00, 0x00, 0x0c, 0x00, 0x00, 0x00,
  0x04, 0x00, 0x00, 0x00, 0x58, 0xff, 0xff, 0xff, 0x18, 0x00, 0x00, 0x00,
  0x73, 0x65, 0x71, 0x75, 0x65, 0x6e, 0x74, 0x69, 0x61, 0x6c, 0x2f, 0x64,
  0x65, 0x6e, 0x73, 0x65, 0x2f, 0x42, 0x69, 0x61, 0x73, 0x41, 0x64, 0x64,
  0x00, 0x00, 0x00, 0x00, 0x02, 0x00, 0x00, 0x00, 0x01, 0x00, 0x00, 0x00,
  0x15, 0x00, 0x00, 0x00, 0xaa, 0xff, 0xff, 0xff, 0x44, 0x00, 0x00, 0x00,
  0x01, 0x00, 0x00, 0x00, 0x2c, 0x00, 0x00, 0x00, 0x0c, 0x00, 0x00, 0x00,
  0x08, 0x00, 0x0c, 0x00, 0x04, 0x00, 0x08, 0x00, 0x08, 0x00, 0x00, 0x00,
  0x10, 0x00, 0x00, 0x00, 0x04, 0x00, 0x00, 0x00, 0x01, 0x00, 0x00, 0x00,
  0x00, 0x00, 0x7f, 0x43, 0x01, 0x00, 0x00, 0x00, 0x00, 0x00, 0x00, 0x00,
  0x0b, 0x00, 0x00, 0x00, 0x64, 0x65, 0x6e, 0x73, 0x65, 0x5f, 0x69, 0x6e,
  0x70, 0x75, 0x74, 0x00, 0x02, 0x00, 0x00, 0x00, 0x01, 0x00, 0x00, 0x00,
  0x15, 0x00, 0x00, 0x00, 0x00, 0x00, 0x0e, 0x00, 0x14, 0x00, 0x04, 0x00,
  0x00, 0x00, 0x08, 0x00, 0x0c, 0x00, 0x10, 0x00, 0x0e, 0x00, 0x00, 0x00,
  0x28, 0x00, 0x00, 0x00, 0x09, 0x00, 0x00, 0x00, 0x10, 0x00, 0x00, 0x00,
  0x08, 0x00, 0x00, 0x00, 0x04, 0x00, 0x04, 0x00, 0x04, 0x00, 0x00, 0x00,
  0x08, 0x00, 0x00, 0x00, 0x49, 0x64, 0x65, 0x6e, 0x74, 0x69, 0x74, 0x79,
  0x00, 0x00, 0x00, 0x00, 0x02, 0x00, 0x00, 0x00, 0x01, 0x00, 0x00, 0x00,
  0x05, 0x00, 0x00, 0x00, 0x02, 0x00, 0x00, 0x00, 0x20, 0x00, 0x00, 0x00,
  0x0c, 0x00, 0x00, 0x00, 0x00, 0x00, 0x06, 0x00, 0x06, 0x00, 0x05, 0x00,
  0x06, 0x00, 0x00, 0x00, 0x00, 0x0e, 0x0a, 0x00, 0x0c, 0x00, 0x07, 0x00,
  0x00, 0x00, 0x08, 0x00, 0x0a, 0x00, 0x00, 0x00, 0x00, 0x00, 0x00, 0x09,
  0x03, 0x00, 0x00, 0x00
};
